/**
  ******************************************************************************
  * @file    camvid_int8_data_params.c
  * @author  AST Embedded Analytics Research Platform
  * @date    2026-04-11T13:50:16+0200
  * @brief   AI Tool Automatic Code Generator for Embedded NN computing
  ******************************************************************************
  * Copyright (c) 2026 STMicroelectronics.
  * All rights reserved.
  *
  * This software is licensed under terms that can be found in the LICENSE file
  * in the root directory of this software component.
  * If no LICENSE file comes with this software, it is provided AS-IS.
  ******************************************************************************
  */

#include "camvid_int8_data_params.h"


/**  Activations Section  ****************************************************/
ai_handle g_camvid_int8_activations_table[1 + 2] = {
  AI_HANDLE_PTR(AI_MAGIC_MARKER),
  AI_HANDLE_PTR(NULL),
  AI_HANDLE_PTR(AI_MAGIC_MARKER),
};




/**  Weights Section  ********************************************************/
AI_ALIGNED(32)
const ai_u64 s_camvid_int8_weights_array_u64[7368] = {
  0xc96108f8b5b60e48U, 0xf0391059d8f8c835U, 0x2d194cd24c681a7fU, 0xc40df34412e34e23U,
  0x18263ff4fdb556e4U, 0x1fc051e7bdebaa1dU, 0x1f2e81c7e2e1cfedU, 0x1fb4312374128ac5U,
  0x2d09155181f17821U, 0x9c8d442d9246cae2U, 0xe349edd97fd4d33fU, 0xecd22d76ba1632e6U,
  0xdbee0efecfd6c7d6U, 0x15da2026efaec6ebU, 0xbb2014f8cb0bdb7fU, 0xc629821901c6e7ddU,
  0x36f0eaf4f0fabeaU, 0x14143a0453f702f1U, 0xfbd4e03822111d5eU, 0x1e2b62cce7f24baU,
  0xd2a73aa05bc2a510U, 0xc9e43dd447c526d8U, 0xe87f703da356161cU, 0x5d0903e1ada43cd1U,
  0xe33b6a300a1c3681U, 0x84a663b64c5dad94U, 0x5bee56bcefe0c3a6U, 0x28c04311fb0333bfU,
  0x1ff61e8d060fce34U, 0xadcb81a3b3d61a06U, 0x6b9ce410443628d7U, 0xad0d3e5b1c812906U,
  0xf70aef8948ae1006U, 0xef5ba7a8bb117f7dU, 0xe8b96d02ba02ffdbU, 0xc04638a17fe09917U,
  0xff03c658d125f4f8U, 0x26151a424f0759ccU, 0xcf814befce46a61aU, 0x1855fecfc4cbd62aU,
  0xd533e470d9c49ff2U, 0xf81d761c0e19ec4U, 0xf9f65da11339bea5U, 0xc4dfecf443306a47U,
  0x4f54810c11205147U, 0xd61542cb8af9cefaU, 0x4748edfa3638100dU, 0xa5dd7f8795be15d6U,
  0x3a653ef1ffc92d16U, 0x17f448fa62d2c391U, 0x15c719ccfe4cd661U, 0xc8df262d08680cb7U,
  0x415dcee4f32d3d26U, 0x3f81c42a3442bc33U, 0x78f4ffff07d5U, 0x753cffffd5e8U,
  0xffffa55300003582U, 0x15e800001e31U, 0x1ca00009453U, 0x2ba100002a14U,
  0xffff98db000021d6U, 0xffff8ebe00001b27U, 0xeddd3c042216d71cU, 0xc4d524189cb8de46U,
  0xc0973e190dcb1907U, 0x189c78e279ea6f8U, 0x10e410c800bf05f6U, 0x43dd01e0daf7e738U,
  0xf7bb14db12b7bd46U, 0xe0b423fc181a0144U, 0x4f9c0eaefdab1d4U, 0xac81c307e4bb871bU,
  0xb9d4f11606d512d7U, 0xa7f0ebe30cf7f608U, 0x2fd517fb1eea3343U, 0xd7ae11d34e16d413U,
  0x6a5374db60220e9U, 0xd8c73f0c2cd7950eU, 0xcbe9e260f31e5804U, 0x122abe1a1e08ec1bU,
  0x48f92bf530d4e833U, 0x372333081607ee21U, 0xede8d834301fc1d0U, 0x120d4cd7f6b394b2U,
  0xce13f2caf52d1638U, 0xe345ed12a8e4fdf4U, 0xc1c0cd2308e3fcefU, 0xcdeeca4329ffb6d6U,
  0xe0e0becd419bd8cbU, 0x11b7cebbe744eec9U, 0x4ad73116c6befe04U, 0xa181eb9b5f0bf2bcU,
  0xbe34eaff33ee2a36U, 0xd3db38bbc8ddb62aU, 0x126f80ae72341b3U, 0xf2e5cc051e28da4cU,
  0xfbeba23e4c9c2c12U, 0xd61be038f036ed45U, 0x1d32f333ff54ca10U, 0x24b7fd041128f603U,
  0x52f3f93c2257bfe0U, 0x15e4d41fe30ed9d2U, 0x24f8eacecc41f4beU, 0xc9b50917da0bf10fU,
  0x54f6f9023103d1faU, 0x39812250bfe524eeU, 0x2a21fdf6da3d25ecU, 0x35fd51f3fbe42e13U,
  0x3616071ce0ea3043U, 0x30ab55c8d406fa0bU, 0xfa31e7190548fc1dU, 0x47cccf2ad5050926U,
  0xef0e0621c6f249c6U, 0xdbf80fc51428ebbaU, 0x4e3fe2ed1d833c4U, 0xe31243ba2e0104ebU,
  0x3bd838fc2c2f1eb6U, 0x45a4140530d6f0eaU, 0x68c8e6eaff179d09U, 0x178321c0fe1df53eU,
  0xe828e4e21a50dc2dU, 0x3baf18c154503b9U, 0xdff8cd4a1816d135U, 0xcb0030e71d8cd9e6U,
  0xf7e4f42100f9ebc1U, 0x16171ac281e61137U, 0x23e425faeab1dac3U, 0xc8f5040bdbd39fddU,
  0x2b0be5effe0e46c5U, 0x352f20ca3adcaf37U, 0xcd113916fed7c4e7U, 0x24d729e3bfe4e0eaU,
  0x568602bee74ae92dU, 0x3ff6da1dae178a07U, 0x19ee133a4742cf18U, 0x51fe0932ca2fa850U,
  0xc2b6f2fcf726c220U, 0x3b27e7fafe4cc101U, 0x1f110330d4f7d819U, 0xe7f4ce3cff2f0123U,
  0xc8072cceefea2438U, 0x26f822fa120b1e15U, 0xb8116152817ff44U, 0x2742071e170c3bedU,
  0xcf1248343deee3ccU, 0x122ac333cff04cbfU, 0x19bbd73010fab5e8U, 0xe8eec9d1b13a0446U,
  0x4dec97af3c0f19U, 0xcb5c05e8f13e01cbU, 0xec53d03d662bae3U, 0x26b945c3d90cf80fU,
  0x681b51a0c2feaecU, 0xf81ab80bffe59d1dU, 0xe93dcf1dd515ec16U, 0xb5c8d3093bf7340fU,
  0x5ffd61bc4d9c30cU, 0xcc5a02b9ec0f1f1bU, 0xfb09a80efb1f120fU, 0xee17e642bb082443U,
  0x5cce07dce019c5e1U, 0x1ccf3be91ba606ecU, 0xed3ebfd217d0ee0dU, 0x10e0cf9d30f04f9U,
  0x300ad70bfaeb1c0eU, 0x124b082a4ccd43fbU, 0x15c604c91dcc16d9U, 0x32f10105ea09b5faU,
  0xa619b7ef31f51cb3U, 0xcdd52222a7c86a17U, 0xd8aa2a0f341e16c5U, 0xe3813d2ab9cf0fd8U,
  0xfe45b2cd382aea11U, 0xae327e1f5dcf003U, 0x11c2c513fb35e0c8U, 0xde3607f6c5cfff55U,
  0x1b1c29fc4128c002U, 0x2ab9b2d5bb223dd8U, 0xf56af34f3cb6f605U, 0xd0bb0dce23c32debU,
  0x19ec2bfd2d29f6baU, 0x3248aebda339db25U, 0x334c181d3d01d4deU, 0xf320f2b7512e01cfU,
  0xa2e6a6fd5c0f46f0U, 0xcb15120a48111553U, 0x75dad73f171dffecU, 0xdafd280c034f6351U,
  0xde1170cfa2a24d8U, 0xf618ffc01c27e52dU, 0xf7ca1edbd1320e20U, 0x29d1e4e527fdef05U,
  0xf311fef8072ef0cbU, 0xdee61ccbc90407fbU, 0xf1f3071ccbe4cfdeU, 0xd1e82411d00df90dU,
  0x142ae128dff025f0U, 0x87ff0f2ebd81626U, 0x17d5cd1dd8da2500U, 0xebcf2223233f613U,
  0xf0ee22d90310d118U, 0x8162318d701dce8U, 0x242801201ddcfcc9U, 0xfae3cb180e150632U,
  0xf0051ff0e8dc25f8U, 0xf7f9dc1edd0d0debU, 0x13ea481be50f192eU, 0xe042d5f3080f400bU,
  0x81500de0ae172216U, 0x1974e00bc6264f13U, 0xaa5ae2d4e32ac227U, 0x131811ccf350cbe6U,
  0xddf36ca0d333035U, 0x3021472f5de0eadfU, 0x40fb3535d53310e3U, 0x1fc0e21d641afed5U,
  0xe2c2e84afe38f8eeU, 0xe0a3c8c825d2dbd9U, 0xe840de15fcf0cefeU, 0xf8d9d813bbdd2e18U,
  0x2fdb354740d82f23U, 0x11162c30fac1f3ebU, 0xfbfccb0de8dde505U, 0xd3c5153531b1bf26U,
  0xf8343910bfe3e9ecU, 0xd9ccfcdf0ba826c8U, 0xb1cc3be2c7e5f63dU, 0x492236424ecae045U,
  0x471f1950ebe0510bU, 0x4bd6fde4cf33c93aU, 0x4f20c7c9ee3349dcU, 0x302d7f717500fe0U,
  0x38dd0bfbf9ed18c4U, 0x31eed2ed0914f2e4U, 0x1cbb3b1600d216f1U, 0xe9efd7c3a4e10f1aU,
  0xb60ec243d826f727U, 0xb27fc0f29957bb2aU, 0xc50db309f223d6c8U, 0xb83be8e0ad42e5d7U,
  0xc039275bcdab56a9U, 0xf8e4d8be441f0bedU, 0xc2fbc3e9eecde6d1U, 0xf5410319fbdbd6f9U,
  0x32bd51734c24133U, 0x80016055ef214d7U, 0x300509e128ee0be1U, 0xcee606c92608d437U,
  0x14eff1c2ebec2210U, 0x22e0ef1e619c0641U, 0x31dfca34142319f7U, 0xc796443b7630d313U,
  0xe6351910ff120d1fU, 0xbb3b1043f40221d2U, 0x1b0ffe514f2a16d2U, 0x3f0c46fd66262354U,
  0x4e421d2c7fe38ebU, 0x417f1927b1daaad3U, 0x2fe0eefa2d40bd1fU, 0x2b3dc60a1f03ed18U,
  0x518dc27cc1d08efU, 0xcef3060c32083318U, 0x306e434f917e5d8U, 0x3a35222bb3411244U,
  0xd8f718c621d00c0aU, 0x2001d1da3c20eeddU, 0x90210bd7de12d408U, 0xeedf61907351efeU,
  0x52be47f233bc37e0U, 0xe223da34f4f5e2f5U, 0x2ea25e02ac8d1ebU, 0xdd1acfef1ddef1cdU,
  0x81253b320dc938deU, 0x4a9c31f08d329ccU, 0x9d92df2fd052e35U, 0x183ccd13fc1931d8U,
  0xe1fc8fa05f714fcU, 0xe121ac831fdc2c6U, 0xc3a046f9fdfed712U, 0xeddf1a8d2c0401cdU,
  0x9df3af40dea331aU, 0xd6f0ca1aee12350cU, 0x2fa4234e01dbf74aU, 0x2cd10cc4363db615U,
  0xdda403fd253407f2U, 0x25223dc9e8f5cbcfU, 0x28014b642ff4d2f2U, 0xe009efc8e01c345fU,
  0x28f8fd081a09da38U, 0x29f8610a07d90dcdU, 0xc8815344065b0e19U, 0x60f439b9421be0e7U,
  0xef10300608e93030U, 0xf40b4fed10441549U, 0x29f8d9e708c42532U, 0x3ac9e0061844e721U,
  0xf7c42cdc3407f9c9U, 0xda0fc92d0c22db1cU, 0xd6c4fbfcffd516e7U, 0x37babffddfef0dc9U,
  0x30aef2c11e351534U, 0xfd0a0ef1419bdabdU, 0x823dbf1b82723e9U, 0xd4bdffe320ede520U,
  0x23e7d2dbb9ee1deaU, 0xda2c330e500e1101U, 0xf0de0bdb2ce348cbU, 0xdf65aba5d25U,
  0xe72719e507e2f6e5U, 0xca250211f1fce9f6U, 0xfd39423d45ed5422U, 0xcb102bda7f0b0ed4U,
  0xad4f0818e9dc3422U, 0x3244dbff1d61e6f8U, 0xdee7ef2a3ea924fbU, 0x233ffb32ead44236U,
  0x929bf5fc7863c3cU, 0xdf2a1454f3e7b5d2U, 0x26febcd22919c2ddU, 0x1d072f1c410781dfU,
  0xb114f9c21bbfc82eU, 0x44e8e8fbc7e481bdU, 0xd73d10c52e5a3ef6U, 0xc13e4ec3d3e9281dU,
  0xc0cf18f123c63fd1U, 0xb14e281e3bc519fdU, 0x8e4bd351d3a27b1U, 0xb3d72f469cba1b1cU,
  0xacbdb8c63bd5b116U, 0xdce0353deccbfa2fU, 0xf1d4f8b850fcf0e8U, 0xb6942c0213c8d629U,
  0x41f7d222fff3eaf2U, 0x3d16130699beaf23U, 0x3ed4c91cb61dad11U, 0xe6b30197d88a10cbU,
  0x4820b1f8c325b42bU, 0xeee3f0cfe6e4bf34U, 0x29452d0d46d6d7daU, 0x54151ed80ec2e104U,
  0xf0d712cb4bfacfc1U, 0xf39d61cad1d52eccU, 0xd30b2f22bc3fcce9U, 0xd529d4143cc202e2U,
  0xcfe357a735144349U, 0x313344d70b3c7fe1U, 0x33c943e0c52c71bdU, 0xcaea34444bfe1df3U,
  0xef313334243e3520U, 0x17e0e702375e4200U, 0x246a0000381bU, 0x2288fffff5d8U,
  0x1b75ffffe90fU, 0x650fffff46dU, 0x11e9ffffefa3U, 0x492ffffd749U,
  0xfffffad9ffffd527U, 0xfffffba300001ef1U, 0x2056aec302f7e924U, 0xfbece10112d41796U,
  0xd330e3babde91c16U, 0x2fdcb943ef10901bU, 0xed0ace4729b6bb27U, 0x11c2171cd8b6b512U,
  0x2652b1a2dfd6f532U, 0xec0b073b08efe1f0U, 0x241a37aaddd66a24U, 0x35b8983df4c93117U,
  0xc54f2d08d91f504cU, 0x3fc8fae34b37f907U, 0xbe9030d4e375cb3U, 0x26ed4726d6ce17c3U,
  0x5a602981c7d40ec9U, 0xd2ba422c15c117c5U, 0x6a1deae33f05ff02U, 0xee0868fa3af4deaeU,
  0xd8feea0ed204fbeaU, 0x37c031eb1bbf04bfU, 0xf55804b3dc301aa3U, 0x100fe22d21ee12b7U,
  0xb6d7c5fb0f163914U, 0x2ec9a6c8df04e8c7U, 0x22c4bd1f0a0b21d4U, 0x10b063b26de1c16U,
  0xf4dcc2babfd3ecb7U, 0xd40d35371023570fU, 0xb9f3120baa3a1ac6U, 0x1507f7c53403141fU,
  0xd8a83602c1190b46U, 0xbbfaab0bc6f1811bU, 0x1dca3a1cec132850U, 0xf325b401c6fd94e7U,
  0x32a8fa19e5b21cd4U, 0xc838dddc1aca021dU, 0x35212ba4f3e620f9U, 0xff7fbba1df2be3ecU,
  0x2ae6effb540d2606U, 0xd35e0933bc02d09U, 0xe40270b523cf0a00U, 0x3642e686be1d3717U,
  0x2fcbf211d8d047d3U, 0x197b3c2ded05b6c0U, 0x4321cb30bf1a6566U, 0xccd32633ee20b92cU,
  0x2dd2097e40a6de6U, 0x5951da0729a63afbU, 0x6083df0f534373efU, 0x2fe55f4f25c620ffU,
  0x27fa8ccea1ea7fc4U, 0xf05f21e632b5d837U, 0x74098dc1c80ff1efU, 0x51c25455f5d7d2f4U,
  0x326910fedd35b9edU, 0xcbdc153c1abd5e2cU, 0x98f9e08e25c0c4e2U, 0xcba027e3b93b13eeU,
  0x974fdac2aadfcf20U, 0xb2fd3d26ec03d5b5U, 0x296e333b2734e733U, 0x3db14c121503f207U,
  0xfaddfeeb23ffe9e3U, 0xb1d2f92921f9313cU, 0xd62ee1201fc126f3U, 0xa5443bcf2d3aa6e9U,
  0xf6edffc6b1f10033U, 0xec98f14e2b23b329U, 0xf5d4c92cc6c381f9U, 0x3ea114ef40c814bfU,
  0xd148b1c139eeaa35U, 0xd13c58ed6104cc15U, 0x292fa222e1e02e20U, 0xe74833d8bde83ab6U,
  0x5223fdfa00c81b03U, 0xa7fff75ef2d6760dU, 0xc26cf371bc8f4beU, 0xdbafdffa1d0cfcd5U,
  0x92ed1603ffcc0924U, 0xae63880eb01f0b9fU, 0x1e05cc500bcd1ae3U, 0xc7269f3755315207U,
  0x45530850a2b1f609U, 0xaa07e54d4d0e61d5U, 0xf7c3bb08e0eadc73U, 0xe04b14d90cd4bb15U,
  0x6c6010c5142a900U, 0x20dc6edc1d4cf3e8U, 0x5b2d421634e5cb1fU, 0xeb81f53d11cbcdffU,
  0x3c31e2a7bf38f9d7U, 0x18fedf0ebd3ef826U, 0x35c735e22b043edfU, 0x5303440beeeafd6U,
  0x88c2bfd83e52dbdeU, 0xc5ff9ce310059dd6U, 0xe8080c283cd2050fU, 0xf1310e2e3053152eU,
  0x2fba3151f6f3db3cU, 0xa31345cc2b384eb7U, 0x9529cf51dde31c0bU, 0x33ebe3e9df2144f3U,
  0x576b3aed2d30d1beU, 0x2cd7c15b7f18ef26U, 0xc5fbf15bc6413afcU, 0xc40400dc39de272bU,
  0x5bf454b3f25fa0aU, 0x5dca5227332bb0f3U, 0xaffa2ee2cfbd0dd2U, 0xc2fb1647a91a352bU,
  0xec9ef2e7f40ef433U, 0x1218e5da41d8c125U, 0x631306f9d4c04e42U, 0x286e18fd35c244f5U,
  0xbfac0dd44f180ccdU, 0xf949dd2c1b0ae162U, 0xeba80f5335cc0cc4U, 0x4a1e4024f954e93fU,
  0xffb62ccfe43c3b0dU, 0xf651fdcf02b7e144U, 0x9c13c4e3138d8d9U, 0xef567f122d366374U,
  0xd5f3d7dbd80bd7baU, 0x700ec1230d05359U, 0x2f35f3f556e67350U, 0xd2edcce9dce345b4U,
  0x3250ae60ed601d0U, 0x813fc181403fb1aU, 0x1a1cf5df42eb2618U, 0x3fdde9f6002ed23cU,
  0xf32a2047dbcd38d9U, 0xe3c62e0c9ef10e1aU, 0x17282a4dd1290b38U, 0xf9082f04e1de1f26U,
  0x20bf3df0f429ca47U, 0x1e3ce1eccbef453eU, 0x72fd60d0828fb1eU, 0x362f071a8cd0f2dfU,
  0xc3ca13c2d3c9f6daU, 0xc8d9260dc2f412c5U, 0xe50ed8d8f0c7290cU, 0xb6ff24d412ea47c0U,
  0xe0f7c8a91bf41d47U, 0xe6fbf1098136f6a4U, 0x5ec61ac4dc1ec229U, 0x890a27c79c250eaaU,
  0xff2005ddcd2e45U, 0xffa9100a29afd6d3U, 0x45f5832a3d07d3baU, 0xea87d96807ca506dU,
  0xea2837e54dc40306U, 0xeb73b60e105d41c3U, 0x62bbec05cd21be50U, 0x51554b0b12543343U,
  0x8e1c1a14e2392811U, 0x2d49e1cdcce5272cU, 0x161e32fe0a47b0fdU, 0xbee2bf03ba02cec4U,
  0x7f6f61f0d605b8d8U, 0x30a51d3e2361134U, 0xb76b05e4024500ebU, 0xfb2a33f7140bce40U,
  0xb9050617d903dcf3U, 0xdc19110cb7eafae5U, 0xec000bde284af3d3U, 0xe6f2e541f6d8c5edU,
  0x26221e3c1e7ffd03U, 0x53e401f805280041U, 0x1018c4e40f372426U, 0xd9ed180b2604e6fbU,
  0xec2715f01ccad32bU, 0x82dc3cf050d0dffU, 0xd5c0d2de0531fbadU, 0x12edcae923fa05ddU,
  0xcf63ffcc50911a0U, 0x22072137e341570dU, 0xe3f5eff6fe5523ceU, 0x30341426ea08ebf1U,
  0x27c2e41eea46e5ddU, 0xd23ed101012c1df6U, 0xa03ee5424f76809U, 0xde243b06ea478d18U,
  0xc824b206150f1b5dU, 0x176ae727c862f1f1U, 0x7ff5d9c7324115c8U, 0x269f18fc224d1c43U,
  0xc5d417cbecece9c7U, 0xe8facdeaf4092e03U, 0xa803dd3be60d4200U, 0xa715cecf96b5be09U,
  0x66af184ccc251f0cU, 0xae31fb39aa00a9f2U, 0xa3ea0e3bb23124daU, 0xd8f3d0d7fcda4b52U,
  0xdcdf0849f5994fccU, 0xcb01570b0c1922eaU, 0x4605e0aaaeb640c9U, 0x2dd8f0af48d2ef28U,
  0x3ce8fc1405e9583eU, 0xe13ce203cbf1c6efU, 0x14deca2f1e1bea49U, 0xbc5b4b00e83abc1eU,
  0xf8041c08f12f69d9U, 0xfc4c4ef529da2a60U, 0xdd23d92d17c32b0dU, 0x3f7e309d9aca760U,
  0x50ae519cfcb21e6U, 0x2743183ed3aad2d2U, 0xd4ff291718c2b9d7U, 0xfa12e7dfdecbec6aU,
  0x4df82f19f1143201U, 0x3c0ef2eda3137f2U, 0x12fd42dd5ec8c127U, 0x43aa03f819a5125U,
  0x42e9ee1805edc924U, 0x29f2a4f212c3262aU, 0xd8f28b482f172916U, 0x3543cb77bbf9a22aU,
  0xaaeaa002be91c0dU, 0x3be2260914f7d502U, 0xeca9dad0a81028c9U, 0x167fe52a0455303fU,
  0xdadc0945ec28d97fU, 0xce041d181ed22f77U, 0x4ce72ebdf6390f28U, 0xcc46e2e93c0028f2U,
  0x17fdba12a414d192U, 0x1f3426f2122a42dcU, 0x549f4d4f5e1fec5U, 0xc8d3d82029ebc114U,
  0xecdddd11d02025fbU, 0xdefe2fd4febdc00eU, 0x47e3d8fbca344e22U, 0xcce3401c4cc8343dU,
  0x5adc1932c1ff03f2U, 0xc2dad0e064e2d1c0U, 0xb0c43c43b2a7dd2cU, 0x42ae281e53fcd0U,
  0xd8d9fd6ffb05bc4cU, 0xd4cbe6eed9c8c1efU, 0x3e4e27343042d115U, 0xe30cd2bdf9051f2bU,
  0xa51e22dc73c3f337U, 0x3d3c0a16a0d12d22U, 0xfcf61c61f634c80fU, 0x123b3cd9ce2cbb01U,
  0x17a307651806a12cU, 0x18e5f72bd007f2b8U, 0x3b05ca5d0ff9b200U, 0xe73cddc9a1b5ac24U,
  0x47a5da0458490c03U, 0x6295e71781ece256U, 0x2ae105a3e98920a1U, 0xdba9e41f0202a0a3U,
  0xe74605d5e7e5e79fU, 0x9602cd3f59473affU, 0xf5322d99fe3eedaU, 0x16c738b0143daf2eU,
  0xfd2f082914d6aaceU, 0xbf53a2bcdac7ce3fU, 0x9cda5c11193a9c08U, 0xf15a81d05e29e029U,
  0xc8e022aca8f0be0dU, 0xf0e2f1f10fc29aaaU, 0xec1fcf3b0940bdeaU, 0xc5dfede5a9b5df41U,
  0xd204cb021236e25fU, 0xdb6aefb6df5149f4U, 0x99e4172c26e5bc14U, 0x25f5cb493de532d2U,
  0xbdf01c27d4b9247fU, 0xf1ed21e8b8cd1f33U, 0x9418a5b81bd39f5eU, 0x704bc043d7b4f405U,
  0x30e365cbe0ed231fU, 0x30f658ee4b585ea9U, 0xb5d137c8e6d8fa43U, 0x3993cb3d9be74916U,
  0x3702efc804c934ddU, 0xe80e1675d1fd07d9U, 0x40ed454f511b2cb8U, 0xa2eddf2452badaeU,
  0xfde8b9b001e35baaU, 0x1694f40c00fe44f9U, 0xd925c58a29b513fcU, 0xf0b41e613e39b5d2U,
  0x1c1f5816d5eee4f5U, 0x36d9ed353d61e5eaU, 0x2fbee034d3e41a81U, 0xb83cfdc8c310f33aU,
  0x49e0f71c411e1e48U, 0x2be6fea6b348ed06U, 0xf920373816e338f3U, 0xec3f34ed225001edU,
  0xcf34f72deefd1744U, 0xf50b9e0a19f5ab3cU, 0xb922e0294347f440U, 0x174c4436e439a7b8U,
  0x307b1738134e094fU, 0x32dfe20ff6fd0bbdU, 0x17ec4d1521d1eb34U, 0xd30c4c3cf30d42ddU,
  0x2551053ed2d2e71aU, 0xf65c53ebceebe0e4U, 0x35680da844ec2afaU, 0xed0f6bb76b17e628U,
  0x5b0a1fbdcaeb1262U, 0xa04be4bff6d8725eU, 0xe5b526655cb54630U, 0x2ed91e99f8d767f9U,
  0xd4c10ae72df51b35U, 0xba310de9fa63204dU, 0x50c210420a481e08U, 0x29284ecccb5abfd5U,
  0x42d013b92d18e920U, 0x3a48c2d4f647d6e5U, 0x29fed135ea22d01fU, 0x3a14ba97ec12ba5fU,
  0x20d106f6df3ff278U, 0xe12a610744f06f29U, 0xa75ab3fe5c16cf18U, 0x5925aee2d3601909U,
  0xd32cf91b5bb4d8fbU, 0x7f045441f110c4e5U, 0x5c3cbd3fdfa32cb7U, 0xc1f3fd3da13b24e8U,
  0x5747f5dec706071dU, 0xd33f13dc4da4d28U, 0xdf42039cc0de3802U, 0x4529208c7b5ac01U,
  0x33e0520d3c3cc5b3U, 0xfd233381c4339faU, 0xa8ce00abcd3a392fU, 0xbe1f81d0a644ac26U,
  0xc9c9d00b06262d00U, 0xa71eb3ded5171e2bU, 0x59094de5c023bc32U, 0x22f3a2abaeb841f5U,
  0xe6baba34cca8f2c4U, 0xe9d0e7139be7cdc6U, 0xcf5e0de039b6ceb2U, 0xadccf3043328904eU,
  0xf52328daaacdb81dU, 0x19f6ddcef4f4c1f2U, 0x3c0b41ed1dde0dcU, 0x3b06e7e60de5f385U,
  0x9be229ade2c2dde3U, 0xe97281c99affd283U, 0xe4fafdda1508f307U, 0xf5e544be2dc9d7e4U,
  0xdbb3b336bbfea1cfU, 0x2b16f9cc2e0e2cdcU, 0x9dcc4b3eb1e9be24U, 0x1d2323d032b6bbbdU,
  0xe11ae60410293cb9U, 0x460b100e4ac4f844U, 0xbf22f4d7cb0df31eU, 0xde0e2d6440abceaU,
  0xd1311ae8d5323934U, 0x1b55fdbde64e0d37U, 0xe51dee365661af2dU, 0xc4fcdc6f01e2e4fU,
  0xa723ef0f20d204bfU, 0x4becd0c0e8b1bcf6U, 0x35ecb5e6aba1edf9U, 0xaff13d993712392fU,
  0xe662eee226d4ebf6U, 0x612b563fba2a6324U, 0xa6fb19a5512fa8f8U, 0xca41e7f8c54b20d9U,
  0x11a4a05c620233cU, 0xc14bccc025e347c9U, 0x54d1ffe04efe12ddU, 0x5b4bf40a637f263fU,
  0x1c156c3bff6b7dbU, 0xd852260c1c02551dU, 0x472eeed61362d02dU, 0x846d8b76ea0a82cU,
  0xbfa0ff910114319U, 0x44d1c9dc3412aaceU, 0xd9e2eea737d9c18dU, 0x5236af284311e7c1U,
  0x271b83ca34b45319U, 0x40e963e95b2509dbU, 0x2bec05a5d4f75112U, 0x45ded1aeab4faa28U,
  0x10ba56c4b3c9e316U, 0xbe05231e81a4fe47U, 0x160ce5bff9250202U, 0x8b7ba13eeed9dd8U,
  0xe10d4640b6c9fabdU, 0x19430c27c508aa18U, 0x2a01bea1c9b23abbU, 0xb103be29d533f866U,
  0x28eb4803a4ec23ccU, 0x3cbb3fe14c233abU, 0x3c3d61443082838U, 0xdf07daa8f6d11dccU,
  0xc7161612c13cd006U, 0xbadddb113c0d9d2cU, 0xe83328c42bc9bddfU, 0x350af0de19ef0fe9U,
  0xcdfddc0350e13a0eU, 0x322457f9bd33e42eU, 0x273216bce329f820U, 0xee3cf141c7e5e41dU,
  0xf8c809cef0d24008U, 0xb8fcc7f12223a6fbU, 0x8819c8afbab12ef1U, 0xb4dcf4c1a21f2725U,
  0x81cb20d3f8fbc3e7U, 0x2ac9ac12d912fb13U, 0xe1e233f9cfe90527U, 0x29b762ddd9d8fa47U,
  0xe7d8bc0e22c01ffbU, 0xf5fbb84a48265022U, 0xfcacdcc7c9a9ffd1U, 0x9dceed401f3e900U,
  0x190f9ee6c5fb2ff2U, 0x70b14dbf1161c15U, 0x3e19c010e8f41949U, 0xcb2ea4e9f6eedee1U,
  0xdbf681b812a7f5f0U, 0x1f02d5009dbe03fbU, 0xd8f6cddc0ebefd12U, 0x3d906f1d70502e1U,
  0x2ceb25f72412ffe9U, 0x20f7e7e23d1fdd0bU, 0xdecbadc2f0cb2b36U, 0xf7cbf925b907bf37U,
  0xe6fe3446fcc718b6U, 0xfb1100eae747e714U, 0x21efcb4ebc7fe0fU, 0xf52fed3b131807f5U,
  0x6503be7bfd813aaU, 0x39fccfd820f2e8b0U, 0xdd0decb4132edec9U, 0x2c9f34db4cc920d4U,
  0x48ec55ef095d1f3fU, 0x37fa09d0edff51dfU, 0x17f261013f6d53bU, 0x42e6caf5653ffeedU,
  0xe137e3b0e1020602U, 0xde02d52817d7f5e8U, 0x4ce4fdbde9e11ee1U, 0xdadd2dce443400bdU,
  0x17f4e3f41a31d1fdU, 0xd962001ff11e2ff9U, 0x60f5ecf23d0ebf32U, 0xfb221b18d1b922fbU,
  0x1becf1fd2b61cee2U, 0x3a27c70d83c7c02fU, 0xf64a47d8c92f06e5U, 0x46bc13d3e3e9b7c4U,
  0xbdff1412cc692ae6U, 0xb5dae341dbc9181dU, 0xbd0b20f9de3b0b08U, 0x423cb7241427bd49U,
  0xb812e8ec0c3dead9U, 0xe7011c4b41fbff0bU, 0xf12317d7eaf8fa35U, 0xcfd2261a25e3ece5U,
  0xe223e62815eb26eeU, 0x23d6ccc634fbd9f0U, 0xb414b0d17041781U, 0x3c3dfbed26ccc0c3U,
  0xa10d7f30ee6b1e2U, 0xd912100b18eef1d1U, 0x2f2c2c172b030815U, 0x38f94af312514402U,
  0xdaedd4c135c8e302U, 0xbd48d7e8e5eb4fbcU, 0xeb23c01026ea320aU, 0x92cd626270c2bb1U,
  0xccf5fbd9d416faeaU, 0xe73105dfd1e5de2dU, 0x3f0314d90a101301U, 0xd5fa230a08f602ddU,
  0x2dab9501d11f43eeU, 0x23029be91529a5e3U, 0xec72affdd00cf18U, 0xfa21ccc41ddbc634U,
  0xde6f6c0d8efea03U, 0x3729d3d0adb9ad10U, 0x8ecbe4f4eec2dd0eU, 0xb4f3812b23c2d6d5U,
  0xb0adfec8e41ce0f3U, 0xffa825d2ec3104e6U, 0xe4e4f20434b01405U, 0x2811d0dc5e4bb10U,
  0xecc512f42fd6ebe3U, 0xcfc3ca28baf9e6c5U, 0xc5fbfd1d04382fb7U, 0x16070edcf31545faU,
  0x102ee3e60ee74b1fU, 0x15f236fc0d3bf9dcU, 0x3dd51ac6f8131318U, 0x22e3df3df13608bdU,
  0xfd0d2a0e18feebb5U, 0xbb5a1714d9331d0eU, 0x27f828eb01e0092aU, 0x1f05fa13105114f9U,
  0x42dd1713cbd20d41U, 0x35e0d10c33e8ebbbU, 0x2c11ef0b3b12efdcU, 0x2af00cd2eee4dc0aU,
  0xce19dddbdb34eb11U, 0xdde8010bcbffecfeU, 0xb6cc36fe190f084bU, 0xca19f5f2a1beedd2U,
  0xcacf0435eef93c01U, 0xf82d13ed03db2405U, 0x19de0fda24fc380bU, 0xe6140307f52ad620U,
  0x17f5dec8d3070230U, 0x1c1318cecd3f0205U, 0x8f28bf27131ed218U, 0xbcfe1eef25eedb22U,
  0xce1facf7ebee0209U, 0x4195d2c1a1a3a16U, 0x1a5af6f40cdb5109U, 0xfaddfd27157f10f3U,
  0xefe0f32640cb3622U, 0x2314ba159edca7baU, 0x3f1db1fb0ba4d0d8U, 0xb77fea602c24bcf0U,
  0x10cce7a9f8edd1cfU, 0xa33ca63a5c662aaeU, 0x36aea9ed3d00d3U, 0xe5061eb610d2e00aU,
  0x6245021ca12a1ec1U, 0xab263fed08fa33c4U, 0x593005f2c220dce6U, 0x1ace23460aa33aadU,
  0xe4442b2327b9360fU, 0x33ded315eb32e8e1U, 0xeeceeafd2ddf017U, 0xc5f4c4e141c6ef09U,
  0x5b6218fe06070116U, 0x3e35927d9e307e3U, 0xc55db1f5e44f04c7U, 0x5b07bf1018a80a09U,
  0x153dc2eed6202a19U, 0xd281f4362909b21eU, 0xbbdf37f3eb223b18U, 0xf73521c1aafaf6b2U,
  0x4e66e9cf1d512715U, 0x39e9cc04cae26056U, 0xd615140817c2d7ceU, 0x45eded2fe30742f4U,
  0xf09d070413c8e928U, 0xe63be032b0b240c5U, 0x3716e2dbeebb320aU, 0xedc35e8063bec11U,
  0x2d113eeb180f79b8U, 0xdeaec24f69f03baeU, 0x2e9df1e08da6afeU, 0x7402a21b8462de4U,
  0xf3334e0116f23945U, 0xdfd80a21db06fefaU, 0x31e4390628f61ce6U, 0x7c3efca81f0b4c6U,
  0x1a0733270adc471cU, 0xcc28e000a1d900dfU, 0xd217ffeb14d632fbU, 0x14db072ae11fc8ffU,
  0xea1f1028f9282929U, 0x1f37dd20adbefbfcU, 0xe4e6200eed1c04c8U, 0xe7e5e1fdaf0505f8U,
  0xf83404db2a2af8fcU, 0xeddf271de51b1ddcU, 0xdbf60d02fae52cfeU, 0x3548c611bf01223bU,
  0xe8f1503132eaea18U, 0x13fbbee8b9f0e309U, 0x511600000b3bU, 0x3562ffffc6d5U,
  0xffffca52fffff350U, 0x12bbffffb536U, 0xfffff6f4ffffc99dU, 0xffffec3a00000e98U,
  0x215cffffe3fbU, 0x8f400007025U, 0xffffa211ffff8f44U, 0x7add000057e0U,
  0x56e1ffffca65U, 0x627400005707U, 0x1daeffffe107U, 0x1b82000051aeU,
  0xc67ffffff00U, 0x17e3ffffea92U, 0x12223a560dd781e0U, 0x4e1d30eafa00be01U,
  0x4536f21a1b9fc44cU, 0xfeee2bc5c93ff004U, 0xbff916073904f9ebU, 0x2a40e4074208c3a9U,
  0xef2b21c3d4910644U, 0xe9f32fccb520eeeeU, 0x2110ff25f6c9d824U, 0xfa412a214b01e028U,
  0x47022baa312febf3U, 0x2c2401e2e9f4df31U, 0xd713e9ee03412bc9U, 0x372a3615fb2010b7U,
  0xf5dd2dbef3fa14dbU, 0x221fcbf6e9edefdbU, 0xec0331cb1fc439c1U, 0x2c3840e7bdc12905U,
  0x490214951910ed11U, 0xeff7cf0ede05edefU, 0xfdb1842ad170df0U, 0xcc27242c0401d9e3U,
  0x272a1bec06160f22U, 0x1c1b2411cfd1d4f9U, 0x261805aee409e0e2U, 0x11ec1326310a01e9U,
  0xbfb2ff01007c5fdU, 0xd70ffd17920ce112U, 0x17172410dfa3c3cfU, 0x13d010dcd71606feU,
  0xff1172fc11e72fccU, 0xe15f3e4ad260124U, 0x283150ee10db3d19U, 0x2d273e09e0d2e60eU,
  0xf51e1121b0da11dbU, 0x37e9210802f8ca0aU, 0xf8e4020af5191ae2U, 0xfe0bc906e7d54cf8U,
  0x38c5f51cd4f5dcabU, 0xd3162a65107019U, 0x1c05e5511df6272fU, 0xc328dc5b2fcce4e5U,
  0xe85b3619e3afc2eaU, 0xf3302fcb1ec953eaU, 0x42dc07f914bbf85fU, 0x6d4d0fbff00ffe7U,
  0x6407f1c28e1aee06U, 0x581f27d706d257e8U, 0xec76fd6deeed20aeU, 0xfd2703b3f6dcb514U,
  0x2bc53d34e12e1c89U, 0xcad1c8dffded3238U, 0x131c2443c217d525U, 0xb9f50b0f4dc5b418U,
  0x2157a2d1cb6f48eU, 0xfbef319a96eae12cU, 0x31a82f2eeba7f31eU, 0x3fd1aa9f4e2fb8faU,
  0x6d2412243724e728U, 0x36a22ef96d02713U, 0xd9e7d20cf7214c3cU, 0xa2bffaaddffbaa52U,
  0x2edd663178d332cU, 0xe7b500d71002dc1aU, 0xe2a181b2f0cc7bedU, 0x2616c3d9ac061431U,
  0x6051f11379a2c05U, 0xe5c43203e7d50830U, 0xe1895d40db005ecU, 0x3ff44087caf3e11bU,
  0x1c40dafe3cff5261U, 0x4d26eafc84bbab27U, 0xecf8f29dc7d399ccU, 0x4aa9fd1adaf1a516U,
  0xc5f0dafeecb3e7eeU, 0xdc16f121fbbad7U, 0x1e2f00b5ea0e810bU, 0x38163c23e0d2c313U,
  0xdd18f6ddca0547f9U, 0x1ff1d3bf22dfcb3eU, 0x4616ffe20c0220e3U, 0x13cfdc083cc5de04U,
  0x9f0703eb0051e82fU, 0xffefe1f8d24cd13fU, 0xe2d71ee2d9110bffU, 0xc940b699cce326fbU,
  0xe50e40c60aebd3f6U, 0xd0ec19133c0215feU, 0x30f2f3ff0a2bef15U, 0x34190ad4da32e0d9U,
  0xa7c4f10f17e8b81fU, 0x33ce8abdc0e1a3aU, 0x39f9c2f91629afe4U, 0xfac8e02156e0c9e7U,
  0xedc92ff4d3071221U, 0x282511dfb524faecU, 0xafed29dbf7095a13U, 0xc23d15e619f8f74dU,
  0x275bed263c090311U, 0xf916001703d6c405U, 0x18b71d2ff60c1953U, 0xfe1dd02bb8eb0b09U,
  0x1aabe6fa18cbe7bcU, 0xdcf001253304c62eU, 0xd7d52edbce1615fbU, 0xee1113300f10325U,
  0x44f60f09e00818b9U, 0x11f10e11082935e0U, 0xcd4cfeee313f4a2U, 0xf7692fd53ee13724U,
  0x1645264ec230fff0U, 0xfddbddfee442ddd1U, 0x84806f8f40fd9c3U, 0xcb761fd613123611U,
  0xc2be5312d53d0e6U, 0x727f12a0c120010U, 0xeaa126313af1c60bU, 0x48f0ece798d90bd6U,
  0x24896dc92be52ff0U, 0xe435f645cae4e3bbU, 0x7d2338b4f7345be3U, 0xef3b43fe1f0f0f4eU,
  0x3e2831dcff731ad7U, 0xdcc807eb8cd7b7b8U, 0xfb03f1fc0292d634U, 0x8ef33f6f90efac6U,
  0x1b0737abdf1df6d2U, 0xfefff11aff1f418eU, 0xd2db04bf243c89c8U, 0x4988f3fbcee4cfa7U,
  0xccf61203d1fa54f1U, 0xe6103cdf60f7bd06U, 0x5b1be3ece713b8e4U, 0x37b931e8ea63e2e8U,
  0x1ae2eeae300fdd0aU, 0x12b9fd54e4f20cbfU, 0xd6fe0c09ed04c813U, 0x2f85fd081db120cfU,
  0xbbfd28e9f611db0fU, 0xd6ec33bf7fb641d1U, 0xba0af1250125ffadU, 0xf6a20acabaafd1b7U,
  0xc3feab1241fa37e0U, 0xd8f21ab204ca4748U, 0xffe729da44e5efeaU, 0xb1ca08370bf7c4a6U,
  0x7aeef21ed445ae6U, 0xd4d400c6e239171dU, 0x4835f52732094fe2U, 0x1dfd04bcce0514eaU,
  0xa5e5330e5217f99U, 0xd83310d9f41cc4eaU, 0x3f3db2d1edccccaU, 0xcd49f597370bf422U,
  0x48fa2be7de64403eU, 0xb1e0d1f314fa06b9U, 0xc02e8dce1d7d9cfU, 0xe447e1efc1f41c28U,
  0x530afdb0c0bd4dcbU, 0x1cd2dbd5cac5e6feU, 0xfdd5d01f11d6fbd6U, 0x19e7f2cb3afcf2dfU,
  0x12002cc5380f01afU, 0x10c9e8f1eb24dabeU, 0xea24cb48ff08c3f8U, 0xc315e509e3e146feU,
  0x2605280c0542f20fU, 0x1d253a26251fd7dcU, 0xf72229212f4cd37aU, 0xbccce44035d02fd3U,
  0x2aa7f2122cdccd51U, 0xb838ec0b51de10f9U, 0xfba5954f735333eU, 0x152f1d37edcdfb03U,
  0xf70401d937d9e208U, 0xcedbfe37cbce29feU, 0x3109d6eefc36d903U, 0x1ae6eff6cc343544U,
  0x25f30ef7543120f4U, 0x2833f9faebf81a32U, 0x29deabc7f8bcc1cbU, 0x4f11c0a9e9e113dfU,
  0xcc2609f81001bec9U, 0x272d33bfef5bc61eU, 0xeb0c0092ddabf1bU, 0x1008adf9f8c13defU,
  0xf94c0fb51fbea69dU, 0x140c6b9adfbed24U, 0xbabbeae639c1af34U, 0x25f3ecd0ce0403eaU,
  0xf0fbc2b5dcfd38ccU, 0xd02ed31ba535fb36U, 0xb9f60fc9cde9cc25U, 0x2b26cdd51bfbdd30U,
  0x1f0fe13fb53dc62aU, 0xef1a32fd4ae92022U, 0xf1c92cc60ef71d34U, 0xe909e3c3cbd4c869U,
  0x23421cf927fbd9dfU, 0x3ad51e0f3bd2dcebU, 0xb5be36d815060835U, 0xe1ebbb5d5ee0e00U,
  0x3ff2abc158fc3bc4U, 0x11ca1705e2f91c38U, 0xe130e5c6d7bdad3bU, 0xe8dccdf1a93cf21fU,
  0x81d43c1abf254d15U, 0xd2d043051ae64a42U, 0x47171f100900de3dU, 0xc2021df2a1e140fbU,
  0xb5101a41f3c2c912U, 0xc8e9270f232f370bU, 0x17dd2ae24720084aU, 0x44f9f6c8c4cd3ccfU,
  0x2c71b1b09a3e2faU, 0xc6152c4631ce24b3U, 0x42a8db70082e410fU, 0x5e8c6ccd1fbf2c2U,
  0x480f13070be83027U, 0x4b625da0012fe32U, 0xdfe0e916eeba1542U, 0x46f628dee704ee2bU,
  0x172bc454fc081832U, 0x45d5c0ec23d069e2U, 0x4df01855e99024d7U, 0x8d1dd08c1ee1524U,
  0x23d327c2432002f0U, 0xdc17f72d29bedb44U, 0x3b1fc3272c1235b5U, 0xdc94ccdb18092bf1U,
  0x293ae2ec21fc44e0U, 0xd63ff6d1d228dcU, 0xcd46987f3e0e1d0aU, 0x2aeb9fe29c6b421U,
  0x1c36d9c6f133ea0dU, 0xeac4be07ff0d5c31U, 0xdae6dff203e046d3U, 0x5c31e695faeae1e2U,
  0x30ceba01281c09f9U, 0xf6b81829d7c0ccf3U, 0x2af1f4311e201bU, 0x33cb8f0102dd1f7U,
  0x311304d9dcb72af8U, 0xf00addc5e142080bU, 0xea310844e436053bU, 0xe2de3136c151c50bU,
  0x5acdefec27e82960U, 0xedef486dbbe9003dU, 0x10f9110c1dfd152dU, 0xe210543f7ea0de0U,
  0xaf7f132f0df0ef2U, 0xb482f31252dde10U, 0x3c0ef534db55a8c3U, 0x5112e6cc2eef19edU,
  0xf95752dcea0c2132U, 0x2cef230ed60ac83eU, 0x3bc2ff1ac27be07U, 0xfd00011efa43b5d9U,
  0x2fd7fecc2e1344c1U, 0x470b40ebfd5100fbU, 0xd609274ebfd042e3U, 0x11d81e2827d41417U,
  0xe20c2e353b2607f0U, 0x14e33ee0db59d1caU, 0xb924e7e08b08c2caU, 0xf6e2f9f927f51fecU,
  0x65a822e22844ce07U, 0xef20fe2830ee29feU, 0x381a1121d30011c6U, 0xde1bf60ffb19bcd5U,
  0x5d441afedccd24d0U, 0x4afc4fe0d43918f3U, 0xe4e5ea22d4fff45bU, 0xf806ce41ed3d0a46U,
  0x50012ee4bbb0dc4dU, 0x5533093ed00cccc2U, 0xc61ed581df153a81U, 0x9ec9f5581221d42fU,
  0x2416e2567416b2U, 0x3a27fbf8a957f022U, 0x3c320ea42fc2e5deU, 0x20f63f4d38bed5bbU,
  0x21f3fdba2dedd2f4U, 0x43e21e37c50f31b4U, 0xd4de06d51316e2dbU, 0x2247eed4273819f8U,
  0xdb66ebb40246dd07U, 0x133de0fad52ae7aeU, 0x1e425ca19c82b09U, 0xe7d61713b002e8e6U,
  0xb8daf55f090f0636U, 0xc83b15472b2f5b56U, 0x2df6d0cd1d03813bU, 0xf2af4bcbec21abcU,
  0xdb1ef23a17011b20U, 0xfd34c5fbafed0b32U, 0xbf2e1050f35baacU, 0x15ff19f11c170eecU,
  0x114efc332116ececU, 0xc714d3fad8e4bb2bU, 0xe70ad0bec5d34424U, 0x1df6dc1dfc60f1dbU,
  0xbde3cb0737e5d2c1U, 0xcf22ae0b4be140f3U, 0x3215cfcfdf2d102eU, 0xcb8d0d2916e024d6U,
  0xbfbfd314fc2faac6U, 0xe5f806b506f8c0fdU, 0x15f20bdcead731b7U, 0xd105cc44eef8eeccU,
  0xee04f237ddd700daU, 0xd903fdf22df5a9edU, 0xbc0326c120253261U, 0x34fbca3bfd16c9c8U,
  0xf827c7d5f7dbc2baU, 0xd2005617732b0c06U, 0xecccdc250b37f00eU, 0x34ccd6f9f421ef4bU,
  0x48aae914073d1224U, 0xf70630ac030ef8f9U, 0x141622fe093400d0U, 0xda1d2c371121effaU,
  0x64bff8f43816f22bU, 0xc71cfa080fe2fed2U, 0xf0194c3c0cffc2afU, 0xce59c0f3e9d0e21aU,
  0xe30f1006d61c5153U, 0x11d30d332abad80aU, 0xb8f1c8c2c7e0f8d6U, 0x24edefd214330914U,
  0xd5081d08eb211f12U, 0x3bbadc40efd4d6c5U, 0x12f4c1c8e7fbaef7U, 0xd3f6fdd0c4ff08eeU,
  0xc6d9c62d11c03100U, 0xed16e3ff0c2103c7U, 0xbf607ee02c2dea5U, 0xffeaeddfd810dafcU,
  0xcef508041a980003U, 0x45f42d1db5f0fa32U, 0xcfa3c7070bd9b703U, 0xf9f02130f705e3fbU,
  0xa51dd104e3fde728U, 0x4a001b1302ee15deU, 0xddd6ee1ae3f5f713U, 0x17dd11e5aa12eee2U,
  0xe3e4e9e529c51ccdU, 0xe5c7e86a08ccf52cU, 0x1c43cc71d230ff6U, 0x52070d010e3eb8f2U,
  0x390718febab7c2d7U, 0xc35014810eba29U, 0xc70cf217f347dc2bU, 0x1a4200e9361b4b30U,
  0xceafd19ddecd563U, 0x27c5563d88f50f06U, 0x49d6d02411255316U, 0x174d0a40f118fcb8U,
  0xddae8c5eab4a3ddU, 0x1f011513e60703feU, 0xb06a06242295efa2U, 0xbe19bfbfddfecb0eU,
  0x4628be2b2c12c3U, 0xe91b109536f50f05U, 0x2d122843d71719e3U, 0xb57523ece356ea1aU,
  0x42ef2d81ac23f7d9U, 0xe100e4cc0129e52dU, 0x2b01de4958df01d6U, 0xc6060213edf0fff8U,
  0xe5361d3de9f4d4bdU, 0xccb64aee4bb0fa43U, 0x81922db1e1613b5U, 0x2d140e0166ed19U,
  0xd9ade11ef1ddc9a7U, 0x2c060dd1cfe3e019U, 0xf916030123d3ccdcU, 0xfee63030f315c1ecU,
  0xf406e8e910472623U, 0xf15d80da8d828f2U, 0x150e2711f6e8c7fbU, 0xdf6fdd8d603f5U,
  0xa2f9ab25e8911802U, 0x48f11bfbffb908e2U, 0xd2c56b63b29eaeeU, 0xfbd7060a1cea4affU,
  0xdd9fc01f24fa0118U, 0x2928cb01f9001504U, 0x2ade04dae8221ff6U, 0xe89eefece697279bU,
  0xdea401d33a341be9U, 0x33afed19d841f0ddU, 0xae23e41c312c5ec0U, 0x12ca2b1310f227daU,
  0xbcdaf72fedfa10f9U, 0xe2f20e07c3223adbU, 0xcfda1ac9cc0535e3U, 0xe12205bae4fc012bU,
  0x9a23d205c0d952fdU, 0x4f5e0fe36bee11dU, 0xe52700f7e0da170cU, 0xe2141d2c20d4e0f9U,
  0xa5e6e6f3ba3a2bfcU, 0xfe512fbc9bcfcfbU, 0x1e0b12f914f52d14U, 0xd62a01fdfc151520U,
  0xc8dfc1eb9006f1f7U, 0xe016edf303d1e9ffU, 0x20f627d719393432U, 0xa2d9d9181607eceeU,
  0xcfd5b7fa81101be3U, 0x1d30ca01e404153eU, 0xfe00f6cad3e8190fU, 0x1fd520f10de91e08U,
  0xece6b12ea3fe1d19U, 0x11c1d2f29d6e8ddU, 0x705f4e6e60908e8U, 0x250036f015d41519U,
  0xd2d9104c9aee2ffeU, 0x11ec14201400e1e5U, 0xfe260b2ee5db1d51U, 0x860902f0f1174110U,
  0xc3d4d4e9bcf42bc7U, 0x143df9f207d21b14U, 0xf2c100a15ce1820U, 0x243505f932cf023cU,
  0xebd782f9d03902feU, 0x3b16f9f6fed3162cU, 0x90d0bdcc4fbfdf7U, 0x27f90e2ce102281eU,
  0xebff9521ba13d93aU, 0xa2ace3d39290a22U, 0xd7fee8f924d7e805U, 0xa7d3e06a04022d02U,
  0x40bcf431b21edf9U, 0xf6404849b7d322f0U, 0xde37f8ee2d14daa8U, 0xa305bf2a1c122003U,
  0xbcd6ee3b041c2a2bU, 0xe5e413e4d63307fdU, 0xf0b62744dd5ad1cfU, 0xd5ddb7afceeefb28U,
  0xbc751e76cf8e3ddU, 0xd6b5fa1debe626ecU, 0xcf3cece23a2eef5U, 0xd305cb36f4412806U,
  0x982e27ee415194faU, 0xf44509b9f93d19bfU, 0x2500c50500351dd4U, 0xdcfa3a38c8bab228U,
  0x1f4e0442f81ee5d2U, 0xc0223ece12cecd38U, 0x5ec6dc243e2043f0U, 0xfb27f209ea14bb1bU,
  0x61d23c80a40a1ddU, 0xb21eaee00113815U, 0xb2e6bb06bdbf9deaU, 0x1a4dcecf9b51ae5U,
  0xc2b8da1021ade410U, 0xbf7396302b72fd6U, 0xdf011934d12697aaU, 0x9ebfd60ed50cb4fdU,
  0xc2fa2f2fec31b22U, 0xc6c53c3cd6dec1d4U, 0x34d4d14103b0d1f4U, 0xd1f80405090010dcU,
  0xe126be98d4f701d5U, 0x1d2a367fd8e621cbU, 0xda4047bb3d1fb4e5U, 0xe5ffc9e81dcadfcfU,
  0x18fbf7d84a09d7e4U, 0xf4d400b0b5fc422cU, 0x432a20331c2fc4c1U, 0x2ebec55dd3180c13U,
  0xd600e230d41eb36U, 0xca1e1cbeca171538U, 0x11ab3e20babaa22fU, 0xbd93d58e0da082aU,
  0xee190e3fee50db27U, 0xeefc3c24d1c634e1U, 0x26fb16fe2ca90584U, 0xf3826fd3908c314U,
  0xe595b4c9e0c80f0aU, 0x2b15ccac1ec3d8deU, 0x9a0fd80c56e4dc05U, 0x442efc17135120edU,
  0xc7d7da5310532b2eU, 0x15f2e8d0ff123039U, 0x22c40d08eaa1fdf1U, 0x31609c0e6244d03U,
  0x19f2cd0c25e33e4eU, 0xd71b04b0c3ef29d3U, 0xdaf402af08b608f2U, 0x8bd11251f9e09b6U,
  0xad818a3c19dcc1f3U, 0xdb08fddcc406dc0fU, 0xd206f8fe0cdba635U, 0x1bf6f42bfb1109e1U,
  0xd3d13a1bed2219dbU, 0xcbdf1cabb8c1dcdcU, 0x11e839bd23c31531U, 0x3035b7dff0c11fd6U,
  0x83c1cff2edd0e3e6U, 0xc374c2d00beefc9U, 0xfef22020c7266538U, 0x28e8232922aaf9f2U,
  0x50f5ddc4ff34073fU, 0xf52c0df6bc2b1435U, 0x35c8dfc690064fa0U, 0xe2471a20ec04dc12U,
  0xd3f41b191fb822f5U, 0xf3bdb4de1140d21bU, 0xe1ebd528d80423d5U, 0xc6015dc10dc8e49U,
  0x2e2049f6c8fd46f5U, 0xdafedacef7ed8dadU, 0xcfe4a0c3dda0b7f5U, 0x92f42a7febbd633U,
  0xc0bfce2baffb3f32U, 0xe209f7c0f631bbc0U, 0xf5dfd197f92b1116U, 0xc2b7d6e12d81f0f8U,
  0x16f410f6145d411fU, 0xe70d0fe3464902c9U, 0xd0f8dcaabb10fbceU, 0xdc36d439cbbe16b5U,
  0x4034533ace4223eaU, 0xdfb3d9e8b20a222fU, 0x20f06bec01eb05b1U, 0x65ef03c8285ef7a9U,
  0xf2f8e915f7144055U, 0x242929d7c7050703U, 0x5ab9daf9220dd9e7U, 0x41ebd373a4857d0U,
  0xcf22321cde442216U, 0x33401ae5d01952f2U, 0x34c45cf1b7d4c5faU, 0x97da030e09c0d7e2U,
  0xadbbde7bc31aed28U, 0x4538145b356aeb11U, 0xcd0bd79101bdfeeaU, 0xdde0183bc92e56edU,
  0x2360f5ecad2dd0fbU, 0xead023c6d8d61df9U, 0x8f61eece8fca40aU, 0x2ec2081204dceeefU,
  0x4beafdb120dee435U, 0xc9d6213d1220f0efU, 0x110ac5ff13eac82bU, 0x5deefffdde051d0cU,
  0x29e81d039bba17d8U, 0xf121d2bfca7c9afU, 0xb3eed0e20f18ec09U, 0x18efb9c7ac3ae5faU,
  0xdaf5adbabec7ecd4U, 0xf5cd1111c2ffdf01U, 0xc80228f6eb05f007U, 0x43102cef1949db4eU,
  0xd1b60dbe39d0b923U, 0xe841ceeee5e40797U, 0xe9e6005a011b17feU, 0x1583b8f6f21a4ad8U,
  0xde150ae6dc03412aU, 0x17cb33ef12a7d12fU, 0x11ec04a8e5cbc97fU, 0x1508c61100e6d2edU,
  0xe2a4e627c5a8dad3U, 0x1becf021fcdef641U, 0xba1218076cf7ca6cU, 0x28fd2639d4c52b2fU,
  0xd1b1ac07c7c309fcU, 0x223b26d6049651b8U, 0xba420701c4d4dbe3U, 0x13a3cff7e02e0d49U,
  0xfbdf03fde00811f6U, 0xcbd31afd49ce0413U, 0xb71ab414e1191eedU, 0xe128c40950adcc48U,
  0x8d27f2a8e7d3fe01U, 0xebfde374632de92eU, 0x36c4d019e2e03405U, 0x33c5ed15d52daadcU,
  0xf4e3f62eedf65b22U, 0xaebec8cae5ec3ff5U, 0xe82917fd2f50f2c9U, 0xffa8402343afa5f7U,
  0x3810efef40225b31U, 0x2e0e2115263efa00U, 0xb543e0f64bfaf7caU, 0x2821351e2a0eb05aU,
  0x2409a342cc92d24eU, 0xb81abf73be7f33aU, 0x707183ae4b4d223U, 0xe306c639309cf60dU,
  0x4125d8c1e7a430e2U, 0x19eac904550b1804U, 0xe4d9f2f20719d221U, 0xe8b6c1ef43dcfbf1U,
  0x4e170950e3d4d5c7U, 0xd0c2a2cb5211fc00U, 0x4935efff13f9dda7U, 0xbdff581c3bc0a802U,
  0xf145f28bd3e5b53dU, 0x25beaf61f011a4cbU, 0x38f0e69a6d32bc14U, 0x2802bcc722b6a85fU,
  0xf0284abce0144cd2U, 0x272726c94a32d958U, 0x361cdb1012b6d5e1U, 0xda38dfcfdd2baaf5U,
  0x1f41eb31344adcc3U, 0x2d49d2004e34dae5U, 0xf7e82a07da2ec11dU, 0xc322cd17df09c017U,
  0x24f418f7e9ace8ccU, 0xcf0235dd20efe019U, 0x3801c5d3ffc9b9cfU, 0x20d1bdcde732b41fU,
  0x24a6f4ecf2d9f4ddU, 0xd5e731ec1bd9b3e3U, 0x1cee36c1240ff1U, 0xe30f0b2cc9d0d7ebU,
  0x46f8141735fe2a17U, 0x1406fde50418f309U, 0xdde7eaf00de7fdd1U, 0xbdfbbb11ecd2f20cU,
  0xdb1a0721e0b654e4U, 0xd72c24f304c7f210U, 0xd51013d5e2ed0a29U, 0xfa0bbcec082105fcU,
  0x1bcc1828cc0afc06U, 0xbd1edc1aafc30bdbU, 0x10f8b3d0cb23bce6U, 0xefdffbdcc6f3bae0U,
  0x39021004fced2e43U, 0xb41514cfa7e3c9e4U, 0x38d308eae026c118U, 0xe1d400dcda0dbde7U,
  0xbeedfdf71f12002dU, 0xdf2b1dbc0ef7f22fU, 0x50816cfeaec0e12U, 0xf5d728edfbcdde38U,
  0x240508acfd5001f8U, 0xee2007ed81070acfU, 0x5e232e8bf3fc12e5U, 0xe4fc4ca7dc2af3f2U,
  0x280424f6e1fc2cd8U, 0xc63c11fff8efb7fdU, 0xbe012a1692d67f90U, 0x9c3bf6191a3607e0U,
  0x2cec4cfa0215bcfdU, 0xcbb28f3043d35eaU, 0xc0d3cc31e102ff15U, 0xb1ef0ffbb0db43dbU,
  0xd5d6ef1f0d5195e5U, 0xffd20ed9c22cda1cU, 0xd0e50cdc1e3621cdU, 0xb4ddb5f2defefbcbU,
  0xf3e810bf07e515c4U, 0xb2d9d94c10cbedfeU, 0xe7d11e01c70c1f0bU, 0x324d3d4ef0e03407U,
  0x318e502f9face05U, 0x31d61b03a94a1fc9U, 0xf50807df0cc7f4e9U, 0xd524d743fbe4160fU,
  0xfefac00cfb1ec208U, 0xbffff80b1715f6e0U, 0xfd0dba0dc5e0fc1U, 0xf28ef3c3b7dbf8e4U,
  0x37a630ecd5eed710U, 0xbe2a1a612df903c9U, 0xfee73bf9321d230aU, 0xe3d9cc45013f24a3U,
  0x37fd2734beb32cU, 0xe260cfbc641141cU, 0x5f05064b0ce4b639U, 0xea0afe09b9142deaU,
  0x38e7335a2b28f602U, 0x2a13e70de2dcdfbcU, 0xd9d535ecb65be729U, 0x61fbe937ce0f2117U,
  0xdd071610dce1dde8U, 0xc13e312342b1f443U, 0xdefdf5f4eb4c0efbU, 0xe30b03112fc800e7U,
  0x103c2d0cc7072e30U, 0x9ff2d2ce804f456U, 0x530034ff3ef1cf4eU, 0xc4b315bb24f3e814U,
  0x123f614e5daf290U, 0x24d223ecdeed0b4cU, 0xfffc0f43cea719ceU, 0x2aa8bfa1c4c503d9U,
  0x410802ef0bdd25e0U, 0x29a60a190fe30c3aU, 0x22dc16221721222aU, 0xe9eeba1e00eab7d4U,
  0xcd09130436bd0610U, 0xfa81146d7d0df05U, 0xf4e2291cf7f51ad3U, 0x2027def0e4075001U,
  0x2efb291213f8e7a7U, 0x16a914fcf7fee418U, 0x1fd04b2af51be0e6U, 0xfd04d1c8c944fe38U,
  0x2ec0203350eb001cU, 0x33ba38df03d7dc13U, 0xd6a6d0172e2af924U, 0x26f160f5fafaf32cU,
  0xeaf4c5fe2a0ddab9U, 0x3de7d426111defc6U, 0x342ee314e0cd1fe5U, 0x433282d3196ec28U,
  0xdeccf61de10be081U, 0xd524cf304ada25d3U, 0x21b7cd13ec0dff40U, 0xe4e5fadf2fed19c3U,
  0x260709391e2e04edU, 0xdcf80d05f104f03eU, 0xedeae52d555ebf0bU, 0x1225ca16d616910aU,
  0x5448f502db1bd635U, 0xba2e15d0e131ccb1U, 0xf419cf3738370d50U, 0xcffed1e6fa1910a1U,
  0xeae5b8183af3f1eeU, 0xfce9d805a92ae5efU, 0xffe9fb1dd1321106U, 0x2a13dd04f215ddfbU,
  0xec24db2df65fcbf9U, 0x39e8c3e01310d0d1U, 0x515fc01e2fa21edU, 0x2dd3c4eb2f091be5U,
  0x90f3bda31190015U, 0x1e0040f2854ad0fcU, 0xb3f20dd627e2e60aU, 0x380edcd92006fa1bU,
  0xfcd820241bbff0b9U, 0xece3e4da3101140fU, 0x32604d0fe14d604U, 0xfbe7f70130f1ee42U,
  0xf5f3d41ff8ce0237U, 0xc5b9f6273e04cc27U, 0xfe2f81e7ffbce5f8U, 0x3ef60bcf0a2bc1d6U,
  0x28160ed923f2fdc5U, 0x3350dce2f417c2edU, 0x2310e909e7e2e0c9U, 0xe17dcf8f8eea8f0U,
  0x27e2fe96df0539a1U, 0xe7ed03373626ef36U, 0x15b6d6e7d7e5e01eU, 0x14e2f918f0e00102U,
  0x13240dc5141fd9e6U, 0xcaeee0ff0514b718U, 0xdd2318893c07ffedU, 0xf7bbf80e10d838e6U,
  0x6b2db37a9fd095fU, 0xee20eb5210d740caU, 0x2b003702f7c42c0dU, 0x22d3c7f2fa3edaaaU,
  0x88f28e16ca6004ecU, 0xdb08d140e2d818beU, 0x2bde45db42c9cb1fU, 0x2bc1d9d0f33316bcU,
  0xa02dc920393cfd1cU, 0xff12fa2ac7e70cfbU, 0xc11208df21b8e0fdU, 0x26042a35ed130be1U,
  0xd6e9f309fb4d02acU, 0xedf3d004070309ecU, 0xf5102d3406eed243U, 0xf7a4e92815fc09c7U,
  0xd2bf021bac16f3caU, 0xdd25f731eac80b2fU, 0xddd3181016cf0a1aU, 0x42b8cd1fec2d3cf5U,
  0xee9e807f47fc9ddU, 0x3024c4601108093eU, 0xc8fb160b3310f357U, 0x1438311407223714U,
  0x34b8b62611ebc6cdU, 0xf430ef7753f40242U, 0xff0a3c056303e6d1U, 0xd82f37bd1919d1U,
  0x5e01f0ecd7f2f0ffU, 0xfc493415719a0817U, 0x17e5cfc4181cfcc8U, 0xe414271dfdf60ce1U,
  0x1b0835161e0117e9U, 0x3916132524ca2e09U, 0xdcd3f0c5c9cceb11U, 0x4fb0ba5fd2b319eU,
  0xff2a37d8d6d5dbe3U, 0xf505f8260ce02e0bU, 0xdaddf81d09f3d8e5U, 0xebffdbe8ce33bcbbU,
  0x213e0325fbd413d1U, 0x13d2212cfcb8194fU, 0x3d2cfa2e2b108131U, 0x39071ceaf803fdcfU,
  0x3eb1d2efbfee9ceU, 0xdfd017c70f11f944U, 0xddef0038ea2cd2c7U, 0xdcc9e024d80615fdU,
  0xdf24f33d03e517c8U, 0xe910ea1d420b0ce1U, 0xe9ed2437f60c2434U, 0xed9fff29c7f8e409U,
  0xf1f3f84f03f6ebc5U, 0x1bfc35e6d5eae7f3U, 0xd82822ecd124115aU, 0x7ab0f140334c1f5U,
  0x2bcee4f3201504daU, 0x10234c0ee4cc12b3U, 0x8d8f70e0e24ecf5U, 0x40b725ff0818d2e9U,
  0xfa0514fcee1c1601U, 0x15d81809fc1706fdU, 0x13e304fbd6dac327U, 0xcc0621feda202bc9U,
  0x15d1f4bdd0133919U, 0x1e14e58fd44a372eU, 0xf728f919c1e2f927U, 0xebeb3ed2d00632U,
  0x461a1df803fc4a26U, 0x524d33fd322cf09U, 0xb93342ec17bb33d5U, 0xaffce91ff385dde9U,
  0xe3a49c0e84ced7edU, 0x28f2f608d12241b9U, 0xeba8222613ef4827U, 0xfabf101e0982d3f3U,
  0x3408e5d1c200b405U, 0xfc2113eb08f408ecU, 0xbff8f2a5bb14363bU, 0xc7fbca04d4b706eeU,
  0xec95f0b5c7ffe9e2U, 0x50f3f8e1e03d0530U, 0x61b4fbd414e396f0U, 0xdfe04016e4ff02fdU,
  0x812051cdc1bfb31U, 0x2f6832d1e8d70938U, 0x5fed4bf7b2ef2027U, 0x2381cf4b52d371bU,
  0x241503e817f50014U, 0xf817302a4b5bfc39U, 0xfdfb08f9d4f321fbU, 0xdaf2e7ea37c92d52U,
  0x58fe400419be0f00U, 0xddf83d080500342cU, 0xd3ec2205a70e9720U, 0x24e620e1be34b361U,
  0x24dc2dfc319f08d3U, 0xf8f8410f11ae14e0U, 0x12991425813dbb43U, 0x2e19c217251ab037U,
  0x192c0c3239ed2f08U, 0xfdcbe233d70a1cc8U, 0x1b1dd139911eda2aU, 0xf334ad3f335c2a49U,
  0x3bf92cdc50e703ecU, 0xde0709d5f83c0e74U, 0xb040831d0ec4a25U, 0xc22feff5d6ab4777U,
  0x93dfbe19999a2ffcU, 0x8c1407dbfac7c025U, 0xd21524aed7a30715U, 0x9c12a00de8d43458U,
  0xf0de2645fd00f844U, 0xfba716b81f32c631U, 0xdde4101df9ae07ddU, 0xaa3fad01b9dc23faU,
  0xd3fb08fab3ba4842U, 0xae012b81ecdddf1aU, 0xa043b5d230b7434U, 0x224b2105c9cd2310U,
  0x60dc58df0f8e51eU, 0xe7165608f153f6e7U, 0xffa41d5d30666efU, 0xdd2c14d3d54ad20cU,
  0xf0efd6aad83f361eU, 0xb0f30c1de35fa7dbU, 0xfccfffd2d9fcf3e0U, 0x1bd8ffe92dd633U,
  0xab322b22c6140419U, 0x22c842db06f8d338U, 0xc7e8ff4903fc4530U, 0xf4edb5d5511824ecU,
  0xfc0436db0e02c41fU, 0xd5fee118d6f90917U, 0xcf1a2ad93d2f19U, 0xc0ef3ca3ccb1ae4U,
  0xf31d1c2bcfde2b41U, 0x7cd24f8103eef03U, 0xe0d8f1e9edd91d57U, 0x29f4b0f5f3ab1ed9U,
  0x2632e722ccb5394cU, 0xb8450ff9dd23201bU, 0x2919de157c1cda45U, 0x150729bef8061fc8U,
  0x2516fb42e944d0e9U, 0xe8184df72bf436eeU, 0xa3fb0e1dca050b15U, 0x470d3d24f6cbcf1aU,
  0xcaff19ca1806ba01U, 0x25223ffbfe05dd15U, 0xe9e606603e16ec6dU, 0xe63bf0e03f04101eU,
  0x9dbebe25141cb9cdU, 0xf7dd03f2f1de283fU, 0x42f707dd03dddd13U, 0x8f2c6073a1d4024U,
  0x6aed828e23dcf25U, 0xfbffb1b408e538fcU, 0x20bf022817282e08U, 0x4bcc3309ecf412ecU,
  0x171cd49cd60afd0eU, 0x2ef9d5d5c2e413b2U, 0x232d003d6fba9abU, 0x70a0cf136e42bcbU,
  0xe5ddbc3b2b22d509U, 0x3cfb08eefa270edbU, 0xf1b7e2e725bfe6f8U, 0x37f4ee0510341481U,
  0x6306062ff10bee00U, 0xe6101422f3f4fcf7U, 0xdee91e3e01e519bfU, 0x3f13ead8d016dd07U,
  0xdf05f0d6f00dca18U, 0x28e1fe4d21ec11ddU, 0xf9051606d6fb2736U, 0x154900352af3fadeU,
  0xa5091f0ff60f13cdU, 0xe5fe74501f1c1a2eU, 0x330f0dfaec0f1d13U, 0xc3eb042bfae7f80eU,
  0xed1fba26f009e425U, 0x37190b2adf103dfaU, 0x3b06eaea23daeb32U, 0x1cf7f613fcf72708U,
  0x264d140eede6efd6U, 0xcc03f13dfc18330dU, 0x15d623f5d41ae6c1U, 0xf6e516fce448da11U,
  0xd17eba9eecdf4f4U, 0xbfd4f90a08c602c8U, 0x282012dc49130d35U, 0xc2b1e90ef2031c31U,
  0xd5f6d5fff1ee200aU, 0x37eed81e349d000cU, 0x12dbbb15040e88eaU, 0x4ebcebe8c71401f6U,
  0x8cc04f722fc1700U, 0x1d09eb3ceff9d61aU, 0xe5bfdaead5ef02eaU, 0x22e5fed9d8fb190aU,
  0x24fafd18ebc20607U, 0xe1f23afef0c90302U, 0xdff2e11e0a0ae8f2U, 0x19fbf226f2e33fdbU,
  0x39c40041d912c5f7U, 0x212142116eb2704U, 0xe5d60de33e333571U, 0x4381ddf2c51012deU,
  0x1fd4f514d3d300bdU, 0xe60ad04427caf8f6U, 0x15a8fa0837d8ff14U, 0x490cf9d7d51b2c0eU,
  0xff34bf26da182fdcU, 0x190fd9cf1318c150U, 0xc6fee9344017d5a1U, 0x9d0e5f22cf5ad1cU,
  0xbf2f4c4affdde8baU, 0xedf403e900f9e52bU, 0xc811eff7ff5ee3c0U, 0xb0ed3decd5dfafb4U,
  0x3c212f303001e899U, 0x113bdce3de4549f8U, 0x45c4f7edf7ce32c6U, 0xf7500cb63cf3b4d4U,
  0xf8271dfd4847c8c5U, 0x200c18ec03e0ac2fU, 0x9491fe7c50ce317U, 0xe108d5d43af0bca2U,
  0x1dee30d24b7e2ddU, 0x17d2382628371853U, 0xf245f3caf3ee01f7U, 0x407a61bc4119dafU,
  0xcd1efcf6172ecbeaU, 0x11ce3717d4004ee5U, 0xcd1489fbe3effeebU, 0x2d6d5caab589da0U,
  0x430823d2de559feeU, 0xd7c02522110502f4U, 0x121ff38130d8b4e3U, 0xebf8c81ad8060220U,
  0xadf22df9d4d0eecdU, 0x8152ad3f83437cdU, 0xf60cb0a6eebeb318U, 0xa31cf7c2ae2c133fU,
  0xb24c530de4dc8b5U, 0xdc3d0103271e56f9U, 0xeb1a31f6cc1be2U, 0x32e135ab17d5b3d2U,
  0xcc4adca838fdb4e3U, 0xfc57271dd3c749acU, 0x23ef0909192840d2U, 0xf1123fcf07eb2b31U,
  0xb703fdcddedbede8U, 0xe819f8daf431c024U, 0x52e3d8abcc1f24b3U, 0x1123e3b9060e2827U,
  0x145328cc2ffcf307U, 0xf9f301370e02f8e1U, 0x5bcd4dda22f18c22U, 0x55cfeb22e0ea06c5U,
  0xf216fa3bb5f5e8e8U, 0x36f22f371ace11ddU, 0x19a4cef60f22ebbaU, 0xe818cdc8ba233428U,
  0x351cd6daeb1db1e8U, 0xf2c79a3ec912fdc6U, 0x2a508f3d71619c3U, 0x907281eb9b741c8U,
  0xfac4d23d2fec3ed1U, 0x2349f93902cc15e6U, 0xc1cf0dd3be33a63cU, 0xe381dbdfddfeddc8U,
  0x441acdf205d0d5cfU, 0x41f6f0b4eb5404aU, 0xeb40fed60909f0e1U, 0xe7e134ffd65b32feU,
  0x3e3f1a0de5e3bcfaU, 0x451c43dafc203b0dU, 0x6d8163d0408cccfU, 0x3cc1e206dd2e3fdbU,
  0xcd3be3eac5e32dffU, 0xf44634ee1e0dd8e9U, 0xdab10c7e03139bfcU, 0x50a8b720bac21810U,
  0x2d6ec00c12c3c40U, 0xd3dc530dc429061eU, 0xfee8b82ab126132cU, 0xa1490990b2d7eacdU,
  0xbf004f2b70605f3U, 0x9a15d14bfcfa0f1bU, 0x7c2037fdde21e124U, 0x21f1152723f4e303U,
  0x10ff65819a9e919U, 0x15bd25bbd0f816d9U, 0x3112bc4cd225ded5U, 0xd106c5bfc3e9fa11U,
  0x1107c0171acc3505U, 0xf78620aa810be7d0U, 0xe00de434bbd9e921U, 0xbfb6e7eef038e424U,
  0xd90b1cd1bb17fc12U, 0xee1fbdad521e0b0U, 0xf6dfe5d89e4405f4U, 0xbab2aacdee01c04cU,
  0x7bfc6130bcf22e5U, 0xb8cc0625e50eb10bU, 0xfc098600a91728daU, 0xf9e0b6fcfcf6c0d7U,
  0xe0b9e61af6fd2a23U, 0x21f821eac4bdb1afU, 0x411e2bb70acecdc7U, 0xeb3203f53d0acaf0U,
  0xf112619fea0beee6U, 0x1ac9031ac304e3ddU, 0x1616a5e10ae7132eU, 0xf0ec0bf2f6fc0d1fU,
  0x400f20a8dcf9e2feU, 0x1ec9205624f7bbe8U, 0xc819f8e6c0e041d2U, 0xe1ec3fd6e8ed0b09U,
  0x1e162cec2806c500U, 0xf346d242f50bc9fdU, 0x19cb2411af034ae3U, 0x251ed0f0f79bf1edU,
  0x451bf9ec60414a3U, 0xac0cd4d6006105f6U, 0xc8cd00e136cf29bbU, 0xd9dc25ec36b10934U,
  0xc62ee7163120f79eU, 0xe22f9ddd7290724U, 0x2deb1d34e90bc3e9U, 0xb4232fb6baa7feb5U,
  0xd104f89b02fa0cbbU, 0x2518da3096ed3232U, 0x21cc41e81efd372cU, 0xef34f7fd16e0df0eU,
  0xd301fa0154f4e80bU, 0xaa16381807e9cfebU, 0xd50cca2abf0b08e0U, 0x43070f24b02fffU,
  0x1d00e0bf0653dcd5U, 0xb8af0ce1b51ac02dU, 0x3fb1d231cac4b423U, 0x3800f3b2f9b910c9U,
  0x30f8ee814dc9ba07U, 0xdc32dc4a2711412aU, 0x232a00eec6563762U, 0xcc5c2afbdbf14210U,
  0x2a0e32e5c80fcf16U, 0x8355104f9d314e2U, 0xf1b1adf8fe0b2175U, 0x42b8b22a032700e0U,
  0x49056f513503eeebU, 0x2e15e7e516ea1b27U, 0x34c034e4c20fbf36U, 0xbcdcfcea6cd08dcU,
  0xf01ae7343fa8d4c8U, 0xec3c4e2ad9b3b352U, 0xd8e4e118e630bdfdU, 0x1390b6ba01f0bd4bU,
  0xf3e1f3c5ed0b4ac2U, 0xa223382116cdff2aU, 0xa8c61fbb0d3745e3U, 0xdc31e4a4beca18a1U,
  0x234722e3ffe813a5U, 0xafde1dc19fbbef5U, 0xb108172d972bf857U, 0xc8ade1f2de223e41U,
  0xc1fc53dbddaeec19U, 0x10382484e9eea9c7U, 0xc4b137cd1a0dfe14U, 0xc7ddde1aa5d3a8c9U,
  0xdeb706e8bceedab2U, 0xf9c71eef63b31b46U, 0xe0aa2c3b0b33f231U, 0x18de3de8f4e7dbdfU,
  0xbe2b2905e7fc2a98U, 0x36326dccfe02e2b9U, 0xcbf0fb17ea49fe59U, 0xbf1a2dafe8022058U,
  0xa3e5beebc82dbf0bU, 0x1cf71f193af6e3c6U, 0xd1d82e9fbcb9ee07U, 0x4cf710ca37dc2d07U,
  0x212bd72cded149b3U, 0x2feac9f540120833U, 0x25f9cb5ccb10e8ceU, 0x932831b3fa15aff8U,
  0xe920f4f33ab7dae3U, 0x3bbe37af0fd10bb8U, 0xc4f020e612fd0f7fU, 0xdcc71db708045dU,
  0xd2eb05e3b8d9b51cU, 0x56c916040202d3c8U, 0x1339fffff28bU, 0x257e00003777U,
  0x4badffffee03U, 0xffffd98bffffd066U, 0x3f8600001f7eU, 0x24b3000030adU,
  0x475500004f90U, 0x697e00001070U, 0x6f38000014dfU, 0x3bb00001cb6U,
  0xffffeb1500002cd1U, 0x810000127cU, 0xffffef1f00001ca6U, 0x614d00001700U,
  0x80d5000020fdU, 0x7743000029b0U, 0x8f0c9e0225af7e6U, 0x394ae1d9f7d53d10U,
  0xe8d81a15ea0d10daU, 0xd9bb21ebfffbf947U, 0x3dce9c0d391ae5d8U, 0x174e0a071b2403fdU,
  0x2bce41ec27bf09e2U, 0xeecc56f8e414e3fdU, 0x230bb3e4243afa28U, 0xf85c02bef1e64bfaU,
  0x29290f031429113cU, 0xc2c56fd43219fa20U, 0x2327c2d825ddeb19U, 0xc3e0b3ea04c22823U,
  0x660f49fe16ee2fd2U, 0x37070bf209f53912U, 0xe01de5f413fa09d2U, 0xce9eff315f7f214U,
  0xe8250446e4c40e02U, 0xfadad5ee24f92d09U, 0xfb17f12bf30ffe23U, 0xd8ccca17d8d11eU,
  0x50432161de8f90bU, 0xdff20fc52e270aedU, 0xdd0bdbcc4efd1adfU, 0xf3cfb8321405ffcfU,
  0x2c3cfe09de8105d7U, 0x3eb3e61e2419f103U, 0x131ff416fe1d0f2dU, 0x33d3f3460fe5f7d6U,
  0xe3fe3c18218ed9c5U, 0xcdeeacf264c0afeU, 0x12db010a1804cc03U, 0xe7ef0276cfa7c4e1U,
  0xdcc63efd28d5ec03U, 0xbbbfb2b23ff027ceU, 0x19fc81e04111cc55U, 0xdc44e8133a114f3cU,
  0xea1b27e30a251b09U, 0xc50f763ef739aa24U, 0x13f3aed3e0f2e1f0U, 0xf113f0f22aeb27e8U,
  0xf2d707f9eeecf6f4U, 0xf0df4713d30acc2bU, 0x1605dfed1704f107U, 0xcdeafe06dbe33009U,
  0x320a04f62162e932U, 0xf90c070b37dc04f4U, 0xfb0a04d42ef1013aU, 0xe1e7ec0d12e314f0U,
  0xdd19021f37fe041fU, 0xe41602e92f0904b6U, 0xe11fe0303b315f1U, 0xdee5070cdbccecd6U,
  0xd01dec0ff1eef7f7U, 0x3d9f12b032cede2U, 0x23705f111c217f6U, 0xf7e6eed01ef9e90aU,
  0x1138f9fb2803ddebU, 0x10160b122b20f7d9U, 0x2632e911cf05f5U, 0xdae7e3e5160e37f9U,
  0xe904dcfff7e930f6U, 0xfc35fbf4fa05eff0U, 0xf4151653d5d8d1fdU, 0xfdfde1cb1e12fa0dU,
  0xdeeb3220fc27e1beU, 0xee1ae4cfea0f05dfU, 0x22041a39f7140de8U, 0xe4ed0c2c11f31c32U,
  0xfe0014311f42e9cdU, 0x18e2d4e806fbeaebU, 0xfefaf7fd26c7f1b7U, 0xffef173ec70b1725U,
  0x22ecd4e0b936c4e2U, 0xe215f352d13cc4edU, 0x430439f7e81116e8U, 0xaf4fb1e24a70e43U,
  0xdc08efb7c4f8d71aU, 0xcbb4232fcc1be751U, 0xced0382607eadae4U, 0xb5fbcb202af5cd02U,
  0x11cbd90debc8bdb4U, 0xc430216cd23dbeeU, 0x3e03f124a5e6da2aU, 0x8efd336c5f04e22U,
  0xb3dd0be20401f32fU, 0xe10c15dcf3f33121U, 0x5209f127d833e549U, 0xbd0d081705101afcU,
  0x23fdecfcf023dfecU, 0xbeee0d2711dd0426U, 0x14f4173c25d0ef37U, 0xb1ed02f3c042fa22U,
  0xdedd00182f06c5d8U, 0xfe52be1717e5e3f6U, 0xe81861daaef61cfbU, 0x662a16dd03ff41c1U,
  0xb61602811cfd37c7U, 0x32e8f200a5231b51U, 0x2ed8730fb544e2efU, 0xe5461d0be1122bc9U,
  0xcae2f2da0fd511f9U, 0x2a06e424161e0a00U, 0xc3073ef4a7d02bc9U, 0xdfc6fb350f271e0fU,
  0xc8de15c6f0eefcfeU, 0x7648a732f4f50114U, 0x5f517e5e0e22dffU, 0xbdfa0711d208be32U,
  0x335d4e8f6e90ce7U, 0x6f8d7c800d2f201U, 0x6402d29ffea125dU, 0xe5e5f70cc9c411daU,
  0x3f98d0e0e0f2f11U, 0x20190fcdcdbcf93cU, 0x303bf230e70ad4f0U, 0xd049261cee08fe01U,
  0xdbcd0a1a0dcaf817U, 0xb8be20d7db190932U, 0x16c73cb428dcd2dcU, 0xf5f7cf16e822de0eU,
  0x1912101b35fc0cf0U, 0x2eecf80625f425e3U, 0xfe1226f51c263f2cU, 0xfe25241ddb2d4011U,
  0xe5b029faf704ed29U, 0xeca9ed16f3cee624U, 0xf64009eb0ade0d4eU, 0xe809f900cded083fU,
  0x3bc420717d7b5dfU, 0x9e33d9c91651f7c3U, 0xdff421dd7d0606c7U, 0x7f2b172f08053013U,
  0xd305fca81efa4c3dU, 0x4740c55099504706U, 0x21203f4301c85d07U, 0x29cd1807f6dbd227U,
  0x1d240bdc1ef71e0fU, 0xed1091ff3e2e1317U, 0xfb16deb1f3f9fe09U, 0xe8f44316d502ec3cU,
  0xa9e40919f744e3f6U, 0xe73edfe4100633efU, 0x3c2b22c61b1206U, 0x3535f906e2f4fff3U,
  0x1b0fef10f210e71fU, 0xec39c43cee3ae5e2U, 0xff1de71a111f1836U, 0xd434cbcfddf418eeU,
  0xcf02d924f8dddb09U, 0xc4ffde30faefd2f6U, 0x3162ee822ebded7U, 0xf2f90d02dd101bf0U,
  0xcadb24f9c0dfb82cU, 0xd200f6bfddfef7f2U, 0xfff51ee5dd1c05c7U, 0xfd2cff19eae6370fU,
  0xf4020dbddb290946U, 0x16d334c8ec0a0e18U, 0xf0c8daeae612e417U, 0xd309d5280b0f2b19U,
  0xeff50de3efffdb33U, 0xecdbf013e8f40ce5U, 0xe81429dcf320f619U, 0xfff617f409efe30cU,
  0xccdaffcbc207bb06U, 0x114fb02308251ae9U, 0xb4e63507811017aeU, 0xe8001cc2d90fe840U,
  0xfefe10c5ce264acfU, 0x2cf9e107e617f517U, 0xefea18c1c3f40d08U, 0xf001e4dfbe110900U,
  0x1641eff3f2cd17d9U, 0x1bfe20edfefb0cf7U, 0xfbff11e0ece00a20U, 0xf8e7f91deae70bfaU,
  0xe716cee8e83417deU, 0x4816140de50d3f01U, 0xd1052543170902feU, 0xeb2816fbe4f603e1U,
  0xf7fe0cf9e0f60117U, 0x242eaf0ebd02de5U, 0x10efd802270cf40bU, 0xe744f9f20836f1e2U,
  0xf317e3d707f5f84bU, 0xdbef30edcc0d220bU, 0xd10af800ca1611f7U, 0xde29092f11e1ea19U,
  0x18dcd0e10015ddf4U, 0xe523f3e5f730ed25U, 0xd5fd21069e59fee8U, 0x9ff0104d4eff5e9U,
  0xc4ecffdffe030014U, 0x71d28dd1b2533f6U, 0xffbb2133e80fe517U, 0xe4fd08fc080902edU,
  0xfef80ce6fbffcf30U, 0xfd1205f0f5fc0df4U, 0xc4d9f4db27f8f507U, 0xfed412f9fb040df8U,
  0xeee7ebf5e20206ebU, 0xfe0b0105fb16251fU, 0xddfc2ae5ffef2a06U, 0xa1401e20f2d0cd9U,
  0xcff7effd7ff8e7U, 0x113eed05ca09e2faU, 0xc01ef1f820ff1114U, 0x40d2103170f022cU,
  0x1ae3e3d4ff36f1f8U, 0xf83e320efb272306U, 0xed1810e721db3003U, 0x29fc08f2e809090aU,
  0xe758100617473ef5U, 0xd915183f04090ecdU, 0xd7deaff0f70ae6c8U, 0x61b5e3cd63f2ff8U,
  0xb906dc0bea2911d6U, 0xe60a53d03dc6040aU, 0xe9e4f91f1dff13c3U, 0xdff43f56cce7e702U,
  0xfb15cdd6191a0005U, 0xc4d0fde445d8fafeU, 0xc2120b3432162cfcU, 0xf0ee40f92d1cfceaU,
  0xdb29d7f31c052c17U, 0xc00326e313e02bdbU, 0x30a0e5f9f118c6efU, 0x7eb342b241cf205U,
  0xeadad9fd253ac4e2U, 0xa80f7034dcbeeb19U, 0xf7f6fe00eee6eb0aU, 0x1017f33fc624ebb9U,
  0xfec7bfe101e2e1d8U, 0xce076d1fdeca03fbU, 0xfd121a26fcd8c3d9U, 0x1fcd11d072a20f5U,
  0xfeeac7173314ec29U, 0x9f2d3505dde209d5U, 0x29acb0edfb97bc11U, 0x1aef20ba012cbe1eU,
  0xd1cec313d84cd3deU, 0x13f1c1dfeceed2aU, 0x11beceda55ccf3f4U, 0xc01703f7cdfecd2eU,
  0xc501fd1203fa2dc5U, 0xc6f61bda26b981f0U, 0x113ab1e3fe3cffdeU, 0x4e141e05ce0c08faU,
  0x32f101b2b49f9f1U, 0xe701ee1be3e2b8c4U, 0x17e1fd16f0d9cb47U, 0x818fdf73b1962deU,
  0x1dce35f5ed00ebcbU, 0xebf5af09a94ae57fU, 0x80fb705b9101326U, 0xdfda0cf813061ceaU,
  0xf90c3722feded319U, 0x9333e4e1e824de1fU, 0x1c43a71106dd451cU, 0xfbfbd6ed09220b1fU,
  0xd93f2af22def1c0eU, 0xa2e129183500c40eU, 0xc90e16eeebef17ccU, 0xe835ede7000fff4aU,
  0x2f430ca26fb0bffU, 0xebebc0cd0f1e2b1eU, 0x274503044ff93436U, 0x1bdafcc7292a0232U,
  0xefdfef0b1d29dd03U, 0x1414bb0df909174bU, 0x3bfff721d2f2e5U, 0xc30fd3d423ea04f2U,
  0xe2fffd0c0f41eee3U, 0xb920f0380bf6131dU, 0xfbfd020fe1f9f5e0U, 0x1e2a2a06e0f5ec25U,
  0x22e71e06093e1d38U, 0x12dfd8e101ce19fcU, 0xeb0e21051f0138feU, 0xee1511e1df10f123U,
  0xfe2b1225fa2547c0U, 0x1b4afb3413e111e3U, 0xc026ea0e221000d8U, 0xce0808be0e0ee032U,
  0xeaeff4fddf4c0cedU, 0x2b0a0110dfde22fcU, 0xd91ee925e1bb15d8U, 0x58d850f7b7b90b30U,
  0xfc26d82cfa330602U, 0x1a3c631fdfc3cdbU, 0x13c7d200e0b9f829U, 0x1e1851151bfa104eU,
  0xf0d0cc0cc6df4138U, 0xf0a8e617bc0ce415U, 0xe8ea1537dcb93ddfU, 0x480d1e3410bc48f9U,
  0x2f0fd9bbe5b928e0U, 0x3df2d7d1f9cde9d2U, 0xdfa1c2fdfb6ebe0U, 0x3b3f18c4d6e7c9f6U,
  0xb5e3e11cd4e51bf9U, 0xfbde0a0b3a13fc02U, 0x42fc3be4eaebe51aU, 0xefca2cde11d9e437U,
  0xc1db0612294416ffU, 0x1c0e0d0618d6214fU, 0xc9c436d0fbeef54cU, 0x7db4b090206191dU,
  0xfee9e0a5e609f806U, 0x4af2cce7d810213aU, 0x10de000de8ddbed9U, 0x322b99153adcfaU,
  0xbec1dbe21cea2305U, 0xd1d4fb1330babd34U, 0xceeffddb26fbdec0U, 0xc62cc70b3100d9e8U,
  0xc147fa2960f07fe9U, 0x120cf01418ff1122U, 0xf6fcdbe40ac4f6c9U, 0x335ec5f0320c0cd7U,
  0x906f3cd29f85717U, 0xaee8d75a03e317e8U, 0xdd00f3111c02e4dfU, 0xfa3ce7f7e0c11933U,
  0xedc9c610c0b7ef07U, 0xccfa301b0ffff21fU, 0xe1d1edd1f4cfcee3U, 0xa710cfcb0e1503f4U,
  0x9f0be513cddbe4dcU, 0xcdde310024cef612U, 0xe7011a391b8114ebU, 0x16dbf650e9bfd7d1U,
  0xccc6e1e508ecc3e7U, 0x120e9f61d2be00aU, 0x1d1001e0516fc24U, 0xe03f8eb031911e0U,
  0x6e1bc180f0decd9U, 0x41f8ee2c0d21e70cU, 0xee04d9ccf0eaf415U, 0xce921bc0bf6f4d0U,
  0xdbf4da46bb0eff04U, 0x29f32a460a00c91cU, 0xfc1648ff07e8e82dU, 0xe1e6fa050d11f6c2U,
  0xe0f3e6f82bef1bc7U, 0xf122d31dec28fb17U, 0x42c2a45b4482108U, 0xfc0a2ff5f5463a29U,
  0x353d1bfa2c29e50cU, 0xfc0107471f1bd5edU, 0xbf80e1c05342c19U, 0x301708f91bf4ea22U,
  0x821b81c21cec847U, 0x4df833fb2643b018U, 0x23de1dfe04093b2bU, 0x51ff1b1904e30a21U,
  0xb1d41b1d0cfc2dc4U, 0x5f5f5f917f534c9U, 0xb6d20bfb9d31cdbdU, 0xebdc4608ab81e922U,
  0x18dcda05fecf09caU, 0xf5282eefbd4d6997U, 0x2be514f9e52dbbf4U, 0xded216fb32d22845U,
  0x80eb9f5c0f1ecf6U, 0x4cffacbe7164ec6U, 0x19841925d818bbd4U, 0xed2073ebcf3fefdU,
  0xd10d07faeffcf305U, 0x41f5c5b89cc3f0b8U, 0xd20f29238b500dbcU, 0xdbdfb50e89100ffcU,
  0x1b3514f440a1fcf7U, 0x121f472c113045b5U, 0x20d4efe0b244e734U, 0xe1afceded700db1eU,
  0xe6eabc37f8bb9abdU, 0x53cdf5f337e5eccdU, 0x3013160da5341cd7U, 0x23f21fc506caa104U,
  0xc7041bb617aea222U, 0xf9f022e32524fad0U, 0xe8d72aecfcb5bcf8U, 0xfd09ebd613f90acfU,
  0x2de7ca0d1621f5eaU, 0x36b6411dc5040128U, 0x3507dd3e03a9014dU, 0xf71e1a83fb111f1eU,
  0xc106c808fee91bcfU, 0x22df113151f3ca27U, 0x1b78201dd91a13e2U, 0x2c41da9c031d141cU,
  0x94d1db09eb46bcf8U, 0x1c34bc052d220ffdU, 0x8f5dfc511022548U, 0xf11f079b2ce22ce8U,
  0xd14426f4dbed3b1eU, 0xc8bfd20bf7152df7U, 0x153a16322e1a2a07U, 0x260a35ba01d14013U,
  0xb3ef47044abd082fU, 0x1035c9fbf732ef9dU, 0x39fc1d0d1001f735U, 0x44001e05acb743bbU,
  0xc5d8155b1ce5c658U, 0x220aeb2254d240d6U, 0x102a30f8da090a2fU, 0x730c7e4531cd61aU,
  0xb291f31f2f43506U, 0x11ff0e808ad360dU, 0x10010c2821210aabU, 0xb1ae11110eb190bU,
  0x4ce033f2e108f724U, 0xd805dbdac2a868d0U, 0x3416f418205d22f2U, 0x2fe626bee724dce0U,
  0xfce1dde3003fabe5U, 0xdafbd5bb3afa41bbU, 0x2a01a5e92024f223U, 0x1ced1819dfc7e9d6U,
  0xdbe6d150f40b05d2U, 0x1ed500e803a63c1cU, 0xd4abb7041511ecf3U, 0xf5030876ff36b8f6U,
  0xc11c29ef0cd6f5e8U, 0xfb23e4d5e4c2bfdaU, 0xd220f8ffe54a0210U, 0xd6d2387f182dcbb7U,
  0xe6c2efca1dfbffe1U, 0xf9d8ddd0d2dfc9e1U, 0xf7161e66d6fcfe35U, 0xe3d66f58e9382f22U,
  0xcd03f74dc72de6d5U, 0xd72f66ef08f319daU, 0x10fdfacfe1de47f7U, 0xacf037e11d17f0dcU,
  0xe7f3b3f6cfd2261aU, 0x6255fd9ebbdd721U, 0xd3e145322def00f2U, 0x1cce49452efcdbcdU,
  0xd0169f1527fec518U, 0x324715011acf1809U, 0x491a35c708f9d11bU, 0xd2fb37ef0ee61f12U,
  0x2046e0ff9a13cb18U, 0xe51b4431f29fe331U, 0xac42ad9c41ae7dcU, 0xb80614f11b4df7e0U,
  0xe1f9cc2f232f2e62U, 0xbc0a55ede7151f0fU, 0x4ce10b0a0ff01d23U, 0xce0e7fef22d311bU,
  0x14dd83ffe503e93aU, 0xf20fe4e9fc30c025U, 0x12f61928e68c0930U, 0x3b394c2c0c0cfbc5U,
  0xa5f8cadfbb7ffc1cU, 0x4a25bf0d1ef3eff9U, 0x851e551c93aaaU, 0x42d72b1ddcd543f1U,
  0xa61005f8390b231cU, 0x2a0fa8e5f904fd36U, 0x50ec20e5221a1114U, 0x47006edd154be708U,
  0xe3109ab2f92913b2U, 0x5c12f6dc0025b0ddU, 0xda0d130705d7e125U, 0xa23c31fd921dddeU,
  0x1dfc1c1fedcefefdU, 0xfeedb2ea19fafdb5U, 0xd5375e1237f108feU, 0x62ed5ec090de40fU,
  0x2627ff20173fcdd5U, 0x1fd9cdf532bb00e2U, 0x9d293c402ee945cfU, 0xdae8f6dface0fedeU,
  0x9a0cdeea2216bbd2U, 0x31081c6e5f726caU, 0x52200f2bc1219e5U, 0xe6274428e526d924U,
  0x150febb3efcf1222U, 0x1e1a06ccd9341bc0U, 0xf8d9f02e06fc4749U, 0x132e10f70d17180bU,
  0x110bfbfc07eec4bfU, 0xf9230bf6ef05ee2eU, 0xd5d53fc91e11f7deU, 0xff0adb0cba151e01U,
  0xee24f4e10c10fce7U, 0xf510dff7db06fa5cU, 0xda2123d3b90a230fU, 0xe34a0cd8e220163eU,
  0xdf0e430a2700f810U, 0x36043dd51afe28eaU, 0x10eef838a9ffe639U, 0xe01e1d2424d8fe26U,
  0xc4c8e808cbd3dff8U, 0x162342c6f3272f15U, 0xeb0dfc10d5f32e05U, 0xfae12ce200231b01U,
  0xf707d420d74998d4U, 0xf1fc41df8ef7d835U, 0xad1dd0867bd9f16U, 0x9134b33e0eb033bU,
  0x4004f8f0a355fee7U, 0xd1fdcedadf2fedddU, 0x6200b51df80f1045U, 0x27210a0721fc0f0dU,
  0x13f6f13ab1ba114aU, 0xca32229cdf99d18U, 0x3e33ed0c2b0fcaffU, 0x161cc9163eaff1c7U,
  0xccfde4100893b80eU, 0xefd6d7d8071e9ffaU, 0xf30032213e19fa0cU, 0x4dd0df3117e6fd45U,
  0x1030d0d2e32b2a22U, 0x5c2dc6cc072617ceU, 0x45c3ee0cb2093321U, 0x93b3f2b29104c16U,
  0xd9f910ed9ad3f65bU, 0x122f2ef214ece114U, 0x1548b202a73adbf8U, 0xf13d1c1742140bdeU,
  0x1e20dc4cc22b40fU, 0x383ee508d62bfde1U, 0x93177508a70f5fb0U, 0x11fa4c10cffffaddU,
  0x9c0c0781f7f55830U, 0x11fbeae483aa32b5U, 0x28f03a2394c9290bU, 0x4fe0a2a14341003U,
  0xaef4dcc81d4c0ee1U, 0x28f8d8d220d330f7U, 0xf10717f0a628e9c7U, 0xfd01ff112e39c30cU,
  0xbe02b6f2134625c6U, 0x6714d128affd0e2dU, 0x8c2b55faacc82fc6U, 0x1107210ed0cfd7fdU,
  0x54cef9f32cda0f12U, 0xd72dcbf8c02b1aacU, 0xa4b7ee0afac935a6U, 0xe000d4d8d5e0ddcfU,
  0x1bea911fc7ffaefaU, 0xfcbc3e6ebebddf5U, 0xa3f16f81cb3bc1d6U, 0xc91024dfd7c41eb4U,
  0x37b7d904d5a1f5bfU, 0x65ef190cace9fe18U, 0xbe0b1405c9e3230dU, 0xf905e4f6aa4036fcU,
  0xf028dc131cdc28d3U, 0x4e5dffcd6efeb1aU, 0x8ee34d0b02bdf06U, 0xec14e1260fdc1829U,
  0xbf60b31f0fd6e9c8U, 0x31170804f6f2decfU, 0x91b0bedc0d7f325U, 0x461619b510e1b1f2U,
  0xd044d2cac60f1433U, 0xf53ecc0c23cadee5U, 0x16121716eb0ed208U, 0x1adf4afbf64d1f14U,
  0x131eeafdf1580bb1U, 0x404e0e8b1d9fad3U, 0xecf1ce39b2efff29U, 0xcd31edb2fb40463eU,
  0xef32f321e209eaf1U, 0x57d7400904e3f00aU, 0x4afb5a6ae8dff92eU, 0x8f628bd06512827U,
  0xc8002c211c49dbf1U, 0x1728c42ce1630055U, 0xdd1f06f817fe520aU, 0x533e2f401f31fe2U,
  0xe41d01302ded1613U, 0x8d729eced1bff51U, 0xbc16dcfbff0642daU, 0x27f8d6f5f7fe0a06U,
  0x635fffe1cfb1906U, 0x2bae17dffd0b1825U, 0xde181019e1e010f2U, 0x12eb07ea2810080bU,
  0xda04fcee35de0c21U, 0xf081fed0e11cfc0dU, 0x3709fedf1900e5fcU, 0xbd40617e01df5U,
  0x20dece1c0703e616U, 0xfadffc021304ed09U, 0xd113fefefd0af504U, 0xebfac90cdf261b12U,
  0x3cf0eec31fd0bebU, 0xf8f3ea13bd25d2faU, 0x291bf016ea0ef7efU, 0xe8f71cf10efd29f6U,
  0xf9e8e2dd29dc190aU, 0xf3c91fc60be3f50bU, 0x1114dfe638b10966U, 0xbdd4b8c4e1f107f5U,
  0xf525e600f8e8cdd1U, 0xf8f3f1070ffbd733U, 0x1326e6e7c11a0909U, 0x19f6f7e5eb1cfff8U,
  0x6de051d11cbce15U, 0xfbe7daedff04fb2aU, 0x241bff20f7e31e29U, 0xe9f0f4ecc4f8eb1cU,
  0x3c2d46fa27333320U, 0xc8f7d913170bf412U, 0xf308ebf4ff10250bU, 0x240a2ffefa00f6d4U,
  0x40fd27c2eadce2deU, 0x2fd6aa2ee0ff04e4U, 0x2d2a07edff18e4daU, 0xecfb2e18070d0ff1U,
  0x9e30ae911faf4f5U, 0xfaded02622d4daddU, 0x39f30eec0ef31817U, 0xfb4c011912ebd335U,
  0xdcf11a02261df532U, 0xc016eee253d1fabbU, 0xda0b100dd2300cf5U, 0x24ec280af2ac1bdbU,
  0x4fdb07f0f3f00113U, 0x3bda81d002fe0ff8U, 0xfa0925f2ee0b0300U, 0x7c8264fe7df0bfaU,
  0xeee3031bfc0dfafaU, 0x3ef0b411e41412dfU, 0xf63ce5f53508f138U, 0x2c3be3f50bc1e1feU,
  0x28d6e15004e10332U, 0xe3cf191f5fe3f10aU, 0xdf21dcd9c4f0e6f7U, 0xbde9f158b7bf1d0fU,
  0x18d2c63cdb240ee7U, 0x3112f2f219d4602eU, 0xe9ecdada4a110800U, 0x9e4f8cfe1eb11U,
  0x1ed7d417e50f1e1aU, 0xa15e922efcd1c29U, 0xf7d1b6dff13c2505U, 0xd716f421d9ede32cU,
  0x24131e2e1bb43516U, 0xda1dae1da5e7c9U, 0x1cb3ed2e04f2b84bU, 0x2cd5e7bbf9ea2a66U,
  0xfe5ed43b2a1b4406U, 0xd218012225060a1eU, 0x4fd22804d8bee8e7U, 0xdfda3d0f440edb4eU,
  0x328afd2ed1f61ceU, 0x53d93e7716b4f3fdU, 0x1bf70307af17b8ccU, 0xffb94f0bf0b933cbU,
  0xa20bb8de07f62effU, 0xe8fdf924fe81f703U, 0xd3ec16c20206ec24U, 0x14cecd09ff1ceb36U,
  0xd7e8f1320aba3e22U, 0xd25233c30fafac7U, 0x1ffc350ddc3fd2c5U, 0x3614161e39e4f3d2U,
  0xc40cdaa51adcc544U, 0x36c0031cead13c8aU, 0xf8523bf9e8454ce3U, 0x1ed62dc8e5d0f3e8U,
  0xccf609fbc4170e14U, 0x20bf7e7200e13bfU, 0xf010ec130a2818b2U, 0xfe09ee00f4f1e3e7U,
  0xe8dbc0f411e9fbfcU, 0x290bf0fdbfcbe7c6U, 0xe00403e9d918eaadU, 0x1c3410fec5ed4aceU,
  0xf925b0c3100dea00U, 0xeaf7fc08c9c72ff4U, 0x6ed463a03351bdfU, 0x12fc13cfc215f0e5U,
  0xf21bb1ce110de935U, 0x14f3f6fdcc2b3f0fU, 0xfeea3a16cb26d23eU, 0xb3900b1feab2c1cU,
  0xcfaa427fed8ed11U, 0x13144b260e03461dU, 0x43dc0206f8f5ee0dU, 0xfbfe1ffd25da01e4U,
  0x45bfd2e4c2ecf107U, 0xef2a3c0915daf014U, 0x26dc27f9f5d3cf16U, 0xdfd61e38f3e7d7deU,
  0x3bc915e40423c203U, 0xed4dc92a05e80b0cU, 0xbf718009d39d3d8U, 0x35d003041ad503ddU,
  0xbf2c015f8ca0715U, 0x34ce1d08ccd00c42U, 0xebfaf8e6f4f61dedU, 0x15171e2917e130efU,
  0xefd712f9ddc42528U, 0xf4f432fbf6da1f03U, 0xed201e08e5f0e53bU, 0x1a193a1becfd0514U,
  0xf808c3353634f3f5U, 0xfe16e74f112922fcU, 0xedb4f91ede0b62c1U, 0x2c1a3547cee409f0U,
  0x3ad8b3c4f6c928f8U, 0x4eced9c014f0fcfaU, 0x9e32f2b180101cdU, 0xd8fd020ddffcf304U,
  0xc7fce707feefe409U, 0x19e3f0ffc3cd0becU, 0xf2da28dc142e28e1U, 0x15cb2134ec30cf0eU,
  0xc12ddb01fc260100U, 0x7f48b246f4201005U, 0xd8c2145008d92de0U, 0x19be3db0f1d5bebcU,
  0x10f502f61b079e03U, 0xfb38dbc5e5f5e297U, 0xfdde6ecea3cf60eU, 0x1016fae71ddbfff3U,
  0xdefb012bedc4d6d6U, 0xe70af0e430ad0105U, 0xfcca27d0eb1bfa21U, 0xd7eb052cfcf80f13U,
  0xccb913020eebeadfU, 0xfce7e624dcf9e8ceU, 0xff29211913e20df0U, 0x15f82a1003e60cdfU,
  0xddf314eaf20f0339U, 0x1fe9ee2af9f016e1U, 0xde08fa19b42e08eaU, 0x707f9fddeb84c35U,
  0x1fef921f30f0e01U, 0x41bd0a03070700daU, 0xef1c55fc19c4d808U, 0x2fd10bfee6eb078cU,
  0xc80606fef33401U, 0x5e60f0ae5e2c30bU, 0x253f063b27811541U, 0x1fcd3cd611e43ff7U,
  0x30bbea060a3ff0e6U, 0x6ccc5cdcbdf21fcU, 0xd02fcccc430053eU, 0xdd350eae2ddc1e17U,
  0x5c1d5e1ce460e30U, 0x471bc8d950efe245U, 0xd46a6dd30afe49f9U, 0xe3ae0210dff90fb6U,
  0xf51ff0fa3e6d38e9U, 0x1154b15644ce152bU, 0x380c20c97fe2d45eU, 0xde2f13122a1cdb35U,
  0xaf38e617f903fbd6U, 0x17332f093e08add7U, 0x340aebe0e7e41d10U, 0xdfdf5dbf00ae7dfU,
  0xd7414cd1ec1e01feU, 0x193c3a3934d51916U, 0x50b3dfff9184ef6U, 0x171217ffea38e1dfU,
  0xc150903105c0315U, 0xf36b15da0e0ffcc4U, 0x915e7e92ac3f807U, 0x4329d7081901061fU,
  0xb1ef1b1924ece9e3U, 0xc32cbe902132208U, 0xfcd713ffbbde1b0fU, 0x2cd40ec9cbe018cbU,
  0xf313ecccc9f9de09U, 0x46d3e9e3091dcffdU, 0x181c3503dbe424ecU, 0xcbde8e910172d0fU,
  0x34dfead7e9160c34U, 0x611cdd38e4fc02f5U, 0x203ddee3ca3542dbU, 0xfe11be48e00b21d2U,
  0xe49fae3fdbe1f2dU, 0xd20723cf1eb718efU, 0xe7dcb0f3d9201712U, 0x1ad20427deeb2f9fU,
  0x13f2cb203511dbd5U, 0xd2dbf8f8b3bc1ef7U, 0x8f826ff021edbe4U, 0xe6fff821e907cd06U,
  0xf40aecebf11330c8U, 0xe92102bff402ddffU, 0x20e6e645a92014e0U, 0x7f3c0dc73fe16006U,
  0xf7f9f0d9f6d2cd53U, 0x36e103fe25f81ddaU, 0xc20b2c41ea0c0e4fU, 0x2cdf19e71d1a360dU,
  0xf4e73eea2df1cc51U, 0xec373cdce90b27feU, 0xef5f01b0aec3830U, 0x1307153317eec5f9U,
  0xeded2bfafbe6ee38U, 0xf7c82326231027bfU, 0xae23f72cf2ed1e92U, 0x10181703e4f8fad2U,
  0xabeae2abe8c36919U, 0xc5b6dcbb15212839U, 0x10a42dcef9ba2c24U, 0x16dccb1bde3508c5U,
  0x11ffd0c1bedc2a27U, 0x21d22cf802ec04ecU, 0xae90d08f1d2fa51U, 0x1a06f10221d29e1aU,
  0xe618fecf42edbb16U, 0xfcde03f03161ae05U, 0xf1d30c28ee5c09feU, 0x26dae4f211244376U,
  0x10e7d7bc380d4ebcU, 0xc5f4e0caccfbbc5eU, 0xd1ebdd312ffc2efaU, 0x19e0e2ae1c021339U,
  0xe012cfc6690f11ddU, 0x181d05faddc0da12U, 0x9bea03649c6ce24U, 0xf643c600392fed0cU,
  0xd80ede0a2de754d8U, 0xd83e2ea2d804c815U, 0x49efc3f04bdd1530U, 0x18f9f5ca22dde506U,
  0xfcfb022e48901addU, 0x43bd4b38ee26bc45U, 0x2de7e70a15243ce1U, 0x367fd900040702feU,
  0x10f642241ae228f4U, 0xf704ed2deeebeff0U, 0x21d9c2004904f6feU, 0xe52b0746d1270b07U,
  0xf53a04e2f6273b25U, 0xe8b705ce08dad01cU, 0x1713d0f106e2281cU, 0x2a0ebff53cb9ead6U,
  0x12fa2912e2e13ed2U, 0xecedfde4122cf91cU, 0x340be30c0720f2d6U, 0xef2d4f7020c3715U,
  0x57f61107f5bbe92cU, 0xbddf8e0f4012811U, 0x3efc18b737d1e409U, 0xfafdc10d26c60717U,
  0xf914e824d4cd1d27U, 0x10f7f0f0e0280bc8U, 0x1cf99dead0cbe8e4U, 0xed19993f1ea71ce2U,
  0x2a35081c11a41d25U, 0xc8020ec2e10ff631U, 0xf306ff3a1cbdef14U, 0x1c9e43fc0e810d8U,
  0xa80937e817c7d810U, 0x1af90f2b171d3f07U, 0x12ea1fdd2fdbe8f6U, 0x18d6053509d7e8fcU,
  0xd0d1292bf6b8f528U, 0xfb0ce0e7ebdb22e4U, 0x4802b9caf8f6d45fU, 0x2714ca992fbeea09U,
  0xd5b1e0ce1acb20c6U, 0x291bccea2b0bebd4U, 0xecfff5e13a2cc6d5U, 0x542e001f52c2dedU,
  0xa9203ef37d2f448U, 0x10d65753f421ea01U, 0x270ab5f72205f6ddU, 0x5249c6f205151f3cU,
  0xfff21bcd10b32bcfU, 0xc9b85b23ff43ec18U, 0x135ec010619f659U, 0xf599e8e22ac12a26U,
  0xd7c9d1e5bd022ad7U, 0x1eedbfebd80d12e7U, 0x3a362f223709f9eaU, 0xd20b0120f8f0f72fU,
  0x39e70ac33981ccfdU, 0x1c342108d2120614U, 0xd8ddd8050cdaf9c3U, 0xa173306550f2c34U,
  0xda3f27b6dfb3d405U, 0xf0ece50f0f1901eaU, 0xf31d135913ca9168U, 0xf816eb2e34e93511U,
  0x6bcd04c9b712dae1U, 0x2d10c33cbcbb3300U, 0x44f8fe53d0ced647U, 0xe406e33c01fee11eU,
  0x53e83fafe7f5cd02U, 0x1915ab27d6fce3e5U, 0x7f7b4103d13ebe3U, 0x711f3f21bc0322cU,
  0xf3fe2dfeb81ff8fcU, 0xb4d5dbf8e72ec901U, 0x86c6cc52c002fa81U, 0xc0e43371bdf5cad3U,
  0xfc9de64038eeaf0aU, 0xc0fae6af250243a8U, 0xdefe24fcbdf8c6deU, 0xe1d3ad3e89c538b1U,
  0xd3f918f4232ed2f6U, 0xf600fbab39fad227U, 0xcdf56ef554e93f02U, 0x4eed95bc01b6bba2U,
  0x15e3d3fd052a150bU, 0x5254ef483346fe0dU, 0xfe290c3b1e9d0322U, 0xd4d7f817e625b4c3U,
  0xfdd53130f13ffaedU, 0x99123436eefc0118U, 0x5bf7e02404b2b7e3U, 0xf3df2cdc1acad6efU,
  0x45befefd4d408bbU, 0xc4fb4a1d1442eb21U, 0x25dc2ac0651b1251U, 0xd13fbf538dbdb46U,
  0x427c15c1d422bc4U, 0x22fe493c451ffd08U, 0xd1b2591ca7b964U, 0xbecaffe9c94f1a57U,
  0xed50cda6bfd9bba5U, 0xdee8262fd3fe171aU, 0x22d9ce5146b2b355U, 0x463f4efe28fbba66U,
  0x2282613fe16fb06U, 0xd19ccc50180899e6U, 0x12501dfb08d6d8ebU, 0x51d5ff2d0d14f00dU,
  0xb5f5ec1048efd0ffU, 0xa0a9fbf842ca1e0fU, 0xed234bf90f27fefeU, 0x2af72fffc4d00a04U,
  0xff2e2eeb20f3dbc8U, 0x200d81edc261aebU, 0xe8fd36ec7fc31716U, 0x312e07e409cff21eU,
  0xe3ddd9e806010115U, 0x72d22ccff4d1303U, 0xfc1942da56ace32bU, 0x26fce0f6f1fd15cbU,
  0xa5f3f502e522f2f2U, 0x231a2c052332d312U, 0xec00372e1e160223U, 0xff04002fbf02f8e3U,
  0xe5d5ee0fe934f3e6U, 0xb60b0de10e0620b2U, 0x6180b041daeb613U, 0xed332123d1211a0eU,
  0xeb11fcd8da21e445U, 0xc3f431f9391be11cU, 0xfcff00d21bddc519U, 0x9f2df1741d63be9U,
  0xb83324e5eae2f122U, 0xbd13492424ebd2ddU, 0x9ef4d05b202f1dcU, 0x26f20d0c0227e109U,
  0xea2512c5eae5d7ccU, 0xe9e5101dd82f49ecU, 0xf2f60fe01701ecU, 0x14c31817bb05dcd8U,
  0xcad6d7dc181d2ef5U, 0xc00011308d80308U, 0x41db18105cd6e10dU, 0xee142652e5f00904U,
  0xe003f5ee014307d2U, 0xc223d3137ce8d0cU, 0xc9011c5316feb1faU, 0xe4ef2ac6cec417baU,
  0xd4e8c225ab07d4e2U, 0xdd3a240ab5e6eed4U, 0xf10eb341e3400e7U, 0x1c09d7582411fd16U,
  0xdf2ef1f6c628b302U, 0xa2fce6ead6fce2f5U, 0xdff173c1f43001feU, 0xdbedc220a7e1100cU,
  0xeed50f1e1fbec113U, 0x22e4a7e6c8bc2d06U, 0xcf1bf54acff023faU, 0xebf2e3ed20fa4535U,
  0xc41dce0fd9eacb27U, 0xf7121209a1081ddcU, 0x65fb0416d15622f3U, 0x137f2fc27d5f451U,
  0xd1114cf497031247U, 0xd40c3ded3621e10aU, 0x18ff52a2f8a51f21U, 0xf0f141d9b72ceec6U,
  0x18fab7d6dc19dd1eU, 0x1d58b826c6bc140eU, 0xbbae7903c51416d4U, 0x49093ed8ce04085cU,
  0xf9f6f3c61d11f4e5U, 0x3fd9dad00804f5f9U, 0x2712651f8c0f03d1U, 0x11631970ed1e033U,
  0xb7f2c4fdc8f2e12aU, 0x5efcd5dbb1c2dbc4U, 0xdea67f1c93392b13U, 0x35287c01f82d48ddU,
  0xe4b68eb518420af9U, 0x6f19073aac125609U, 0x7f35bfed06c9b47aU, 0x1d07d5a055006db2U,
  0x26f312e601b7c245U, 0xf5fc2401ff22f447U, 0x5e2f03ce0bd00926U, 0xf21024dae00e2c2eU,
  0x421f54bc22d729f5U, 0x33c4c512e64d1a32U, 0x192c15dbd1fbfaf0U, 0xdbe3fd011a1d1a55U,
  0x47d14a2901dcce27U, 0xee20cb092f28f733U, 0x34c218edfec7193eU, 0x1ab7ceb7270f4e05U,
  0xc1ecef201d0bfbfcU, 0x3531dbca4000eb3dU, 0xff05de0243ff0232U, 0xf3d0cdaa080c0729U,
  0xe9dff8cf22fceb1bU, 0x670dae01311e2101U, 0x2008f4c7b61602b8U, 0x4915fc0bf9421b2fU,
  0x2c27d9b7250a04d6U, 0x3649ab1ef10a001bU, 0xd7f105072ae5d160U, 0xd2a4eb2af1140af3U,
  0xb5ea061f292ce4baU, 0x30ce0f912aef3dfU, 0x2cecbe27b6002e30U, 0x1d08293d00e42afcU,
  0xfdf61119312a0af0U, 0x28c204ed1f1a12fbU, 0xc4140c0212faf6e2U, 0xebce423b1b2b88d5U,
  0xecefd1ee04220990U, 0x4224aa0e2de90fc6U, 0xfa35cdcfd71726fbU, 0xe61713b253e2efebU,
  0xc027c6e219b2274dU, 0x913feab0fb3d40eU, 0x1f13fef602a5c232U, 0xc101edf72fe9ececU,
  0xe0159ef91a030618U, 0x1ad4fdee45a81d29U, 0x1f2019fc15e0f1e4U, 0xffc84d0acd3305dfU,
  0xf424eed317200b0fU, 0xd5fe3927e0e03715U, 0xf02705fbe2361109U, 0x4f7060b160333bfU,
  0xe1ead717e1e92931U, 0xfd15dae6fbbff4ecU, 0xeaf12e1025c70b05U, 0x40d505ea1ae922e6U,
  0xfafaf4e403c8d0f1U, 0x2ee9d0d9d60a54c5U, 0xff09faee12c619ffU, 0x2e7e5f6d63633d6U,
  0xf04cf924f5e0d030U, 0x3a17f604eb3cfbd5U, 0xdc4ee06196815cfU, 0xaeb6bc7fb7d6afe2U,
  0xb0b7c63c30fb091bU, 0xd91c0e9a2cd201ecU, 0xd3011f06e8342bd0U, 0x3ddbe547f4dffc22U,
  0xcf40030010f5c006U, 0xae20fece26d32f96U, 0xc9e1bcf0d30d23ecU, 0xae4c9feaa2bc5e7U,
  0x40e17d6e6c407e5U, 0x26fa37f5eedf4af6U, 0x2f132218d746efeeU, 0xede829fcc237f043U,
  0x1af5d0d6e9ed47ceU, 0xb72156f4ebe6f6e3U, 0xf9f3f63c27f70bf7U, 0x21eb3b0314be9e02U,
  0xe609cdbdd9c7dfd6U, 0x1636244d382513f8U, 0xfb1fda122427a13cU, 0xf43107eccedaaf2eU,
  0x34feae14dc1f36e1U, 0x1f281005cf8e3129U, 0x2bfc57eaca5ee7faU, 0x160be9fef9e3f211U,
  0xb4f40d202502e9c2U, 0xbffd7d31c8ef5bd9U, 0x2c13062e1012e207U, 0xe71efb15230b09fdU,
  0x2722cfc3e8e209c8U, 0xe3d21c4ad72bc8cbU, 0x2b0ec447554ad3ecU, 0x26ab090039fcf6bdU,
  0x39e4c3c5cbdde3d9U, 0xe7f826c71444e1b6U, 0xf5891a49fa1e21U, 0x1d70dd9e903d4dcU,
  0x2c08ddf0237fa1f5U, 0xd5f309441eb7b9feU, 0xf6dbe8eb11b8e3c6U, 0xfacfecfee81f23dbU,
  0x1bd9ca05ee1715e1U, 0xcf21d4cefc395ceU, 0x34ac18c8f33f0823U, 0x40a4b651d3718c9U,
  0x98c3fcf3c209c4feU, 0x24fbe1dce5e987dcU, 0x6906c8f13abc532fU, 0x115b05e5ffb623f4U,
  0xf01dde5f7829570aU, 0xfaf0243c11f5cef1U, 0x6b38f8f4f1e3f4d0U, 0x75ff8daa8141334U,
  0x2acf01310b0e21fdU, 0xf4de5a4e164da89cU, 0x203ab9f4f8d5de39U, 0x1e102cdfdaf34be9U,
  0xf511c72f1324b91fU, 0x2a06052aea49ecbcU, 0xca3004b5aecbff38U, 0x2e02bf0e37d82214U,
  0xe220d125510d5cd9U, 0x26fac5e007e644a2U, 0xee2ef83af0f0081aU, 0x230101f7ffe7f7c0U,
  0xacd2306481cfcd1U, 0x4f60611c8fcf996U, 0x25e7e9cc0fd0141fU, 0x2df3140c12e7faccU,
  0x24130553b911f930U, 0x222aabb7e0fa37cbU, 0xe0ec33f4c5efe1fdU, 0xabdab64fea17e306U,
  0xe4d0e30120b7551aU, 0xbde1d50813d134faU, 0xfd014d766e3f9b9U, 0xc3d7dc1e002eacc1U,
  0xb981281be62400ddU, 0x9cecbd12b426e22bU, 0x16d501dc200dd71dU, 0x25daf265b8fdb726U,
  0x289ab415efdc1f53U, 0xe10adfddecd326f3U, 0x48073ae5f8dffa11U, 0x2df110fbf704e806U,
  0xbe450606f41944ccU, 0x3cffec1433d90fbeU, 0x3b14faeaf9fcea29U, 0xd9ed39e8ef3004deU,
  0xcbffe1e9d9c8e038U, 0xc1270cec36010d99U, 0x5df3231c041e1d12U, 0xa13fe1cc6fbc816U,
  0xdae1e8470c0a2308U, 0xec0ff7f75ca80781U, 0xe428101d20f5f5e8U, 0x1b2d2c04e3f7e431U,
  0x1ef3f9eb0bd12911U, 0x3f30603fa11011bU, 0xeff309ec23f506c8U, 0x12d8320bf3e1f3d2U,
  0xb5dde5f1f1dbfff0U, 0xef1fe4eee9ce23bfU, 0xd41a3cd40024ee0dU, 0xed232b31ca1ea628U,
  0xffe50fe717151c24U, 0xf1ea239b31d5ffcbU, 0x1c1ee50ddd23f3c8U, 0xe605cf6bf3d62012U,
  0xffcd110a28be0fd4U, 0x16ec1816cef41a07U, 0xa2d03d0dfe0801b0U, 0xf2f8ed20fbf11dc0U,
  0xcdf8ee09ef1bed17U, 0x4e41ae9b61ebcfcU, 0xb3e609ebdc3b0b10U, 0xdb0a1032eee9f312U,
  0x23eada17ec00f71bU, 0xd91717b5d9d0cc14U, 0x25c8d89f45af2f29U, 0xf54bf704e817f2d0U,
  0xc113df302223f10aU, 0xe42fe71812dc13a8U, 0xf83017ea0e27cf18U, 0x2e08310b2002df2dU,
  0x1f37f01adce6edf9U, 0xeef5e40ae5d320aeU, 0x300e38e91ad6d3fbU, 0x30ecccfe1aeb29c0U,
  0x11ef0ee601e8ecdbU, 0x3e0500c3220e3ad8U, 0xfdd62db9d74c49e1U, 0x1f17cd25e921fedeU,
  0x21f11205d630fad8U, 0xf470f0e0549a028cU, 0xe033f3615f5c7ebU, 0xf208be3ff53a2ae8U,
  0xe8136c818e4c4f0U, 0x2a01031517d527bbU, 0xd4ed3a08ec21d435U, 0x300e2023f318cbccU,
  0xb04fce41bc596ceU, 0x493cd0da2acc33f9U, 0xe12713dcfffad300U, 0xe60f0353e426e7c4U,
  0xd61d21fcdbd3cc02U, 0xf51f1d1404d35006U, 0x29feecb3e4e5e1d9U, 0xe609072c1400cfc1U,
  0xd0dbef0b06bdede0U, 0x21ffdf03dd0b0215U, 0x200ef01d20430fedU, 0xebe7ca423222b6dcU,
  0x23f7bfe7e7efd70dU, 0x310f01f30b0adb59U, 0x411bd814cbe60805U, 0x1364cb151202ee2fU,
  0xf8e6fb04d9f6213cU, 0xa8e9da24061d15f5U, 0x4fd8161afefabffbU, 0x14ec2e08dde52617U,
  0x3d572ee2cfa23032U, 0x2ad2211ae1e9f4bcU, 0xee45b111fc3e0447U, 0xc53341fb0e3803e3U,
  0x15522e09e0f31f48U, 0x31042a3eeccc5ef6U, 0xeef9fbdddbe31a55U, 0x821dbe41dde45c3U,
  0xc6c9391ed525e50fU, 0xc921ed93cfa31e09U, 0x18d1b11cd7b51914U, 0xdc12ffde0a331fe9U,
  0x398235d50e16edbeU, 0x6e3c5cf0a1f0f31U, 0x24e0bbe207373817U, 0x1c31ecd21cd1dcdfU,
  0x601209d7c3fbddefU, 0x351bf30205e2f70dU, 0x1deab7e4dce40fe3U, 0xe820f928e9dc38b3U,
  0xf7b2ca46010b05f2U, 0xb9293acd2a83d205U, 0xfddf2fc31c60ce6U, 0xf4e91140140ad8c2U,
  0xf8acefc3ec02f1a9U, 0x13fe22f5139ff51fU, 0xac0e2ee8e9fe24f3U, 0xebcae0191dfada32U,
  0xe09e0dda14e3eafdU, 0xfe031c81f2f2e1e1U, 0x9dbec220002509ddU, 0xcbd515bfeedc3bd8U,
  0x42c9e1a2721e336U, 0xf53ddfe0fed5f209U, 0xf419070f172cc1ebU, 0xe89f24f4f1aef9ebU,
  0xc4b2ec2ec419ba05U, 0x4dc9100d01000d0cU, 0xc00b5fc2ea1bcdb1U, 0x108af1dcf338e9d8U,
  0x4cdf13ef0d46e6c7U, 0x7c430f6ca7bbe3f8U, 0xccd1e4ede717f2a3U, 0xe22beb36e022264fU,
  0x4a41ffe003edbaf9U, 0xb3cbb70fc3ece6e0U, 0x23f23d1dffedde2dU, 0xedadbefde9dccf3aU,
  0xf94addeee6fef21dU, 0xd91221273b4d2acbU, 0x33ee19292e4cf51cU, 0xc4f820212e2bd0c3U,
  0x110022dbe7f6e3d9U, 0xc7bce11d0c2cea24U, 0xe2de9ef20c07d2abU, 0xbc0cafa9301f4564U,
  0xf55ec0b004e0ee22U, 0xc2bf493dc7eae3beU, 0x4ff9e940f0b81608U, 0x3b0111ce11d4e337U,
  0x923f5d30ec0d8f0U, 0xcf97dedef1bbadeaU, 0xe15142eb8e981daU, 0xcf66cf8a1617f7d7U,
  0xf013c2b90a97db03U, 0xcbb51eceea94a40fU, 0x3922ccc952d5f3ffU, 0xfb30e5d858220b31U,
  0xdfe04127ef0dff17U, 0xe1084a641802b90fU, 0x660ca8bdc3b8f80bU, 0xe8f222d91bb55723U,
  0xea2a0afc0edffcd0U, 0xd4f327f9002bfd16U, 0x69fef651f031d7fbU, 0xfb07f5bbf1cf20faU,
  0xffe7084c190d3a39U, 0xed9d2cc20f9a9efU, 0xde1a36fcfaf3f3f2U, 0xf2ee32c1e9f310e3U,
  0xef0eec2726ace4d7U, 0x9e6f149d21949d9U, 0xe7d615f4f1ad11c4U, 0x3e2dfb504e712baU,
  0x2afa180df0111d1eU, 0x2a04eabbd598f281U, 0x131c2d38111605dfU, 0xf0e6ea34d4d9d7f2U,
  0x11f6fb37094434e4U, 0x7f3ffafc77b1038dU, 0x9b0aef03e713ec81U, 0xb2f406600003a624U,
  0xebef24b0a4b82c1dU, 0x26d81ddceaadfeabU, 0xf8aeea0933fb05b5U, 0xd5110968c6c4f3ffU,
  0xf8c002e919c3a9e3U, 0xe6fd2afaf1c10ff3U, 0xe9c2e3bae6570df3U, 0x27a42926ceacccc2U,
  0x29f0c407f5de2a27U, 0x6cd5c7cd049020c9U, 0x7f1eb0ad31d64544U, 0x3923ebe0f90f1a12U,
  0x329bd390bf9fecdU, 0x2fc836e9fcb6cb0fU, 0x15f3cad53709d6c3U, 0xe7fef718eae94f25U,
  0x4a01011fdad00c0bU, 0xfa053b36ef11f4e6U, 0x74f9f324b819cb3dU, 0x1407f505261006f9U,
  0xba312016ef23193cU, 0xa0b339fc471ab704U, 0x22d014b9e0db24e5U, 0x2a25da0ee919172bU,
  0x27def24c45c03de3U, 0x2c38fa2c04cc1982U, 0xa5052dbc6eded20U, 0xf3baf42c264b10U,
  0x15c1e71e48c9c8d5U, 0x454d9e2eaf7f03edU, 0x81715cefdd2cb3dU, 0xbe6e6f02df80cddU,
  0x18e53cdc33f8b3e4U, 0x671ab9dd53eed8d2U, 0xe61649ddd3381a33U, 0xb812d767e7f2a6b2U,
  0x489cd621d50a32e0U, 0xc6ebb3c851d235aeU, 0xe2c9ef24fcdac4fcU, 0x2408d5fcc510d6b9U,
  0xc3dfe737ebeceedbU, 0x21cb0a052a0d2fffU, 0x30c9fb0b203da60cU, 0x15cf0e701faeaafeU,
  0xcba9bd2334b721ccU, 0x4bca484fdf74bfeU, 0x163b02b94cc21254U, 0xc909e2563b1ae815U,
  0xe61ec34015fc1eceU, 0xdf5101a26f727e0U, 0x520049b21f0c060aU, 0x14140ddedcd90eeaU,
  0x2de7cd2837080a63U, 0x53cd73a0e329923U, 0xe6051dd915083319U, 0x253ce7a204e9e1d3U,
  0x3d2c71907434c22U, 0x4711ef69fc7935eeU, 0xea421eee0cf8d6daU, 0x5dc401fbff231c71U,
  0xc4fcf8edf3d92a88U, 0x250d23481e3f5ea2U, 0x2b140c30d9d2ef2fU, 0xe3c72a1845c2de0eU,
  0x98ef20bcd2eb1136U, 0x4f11e2e80b2ada02U, 0xc8f80c142cf1f2e4U, 0xfc2dfed1f9c05b35U,
  0xf41fffddd01a2817U, 0x21ce1108aef1dff3U, 0xe041e251c3921d7U, 0x4cc5c16ce681e8bcU,
  0x22bf8dfe12d1c322U, 0xf931e4e00fd012f6U, 0xde9d571ccef910e9U, 0xdddb3c5abd2dd8ecU,
  0xbb9acfe58d07f3deU, 0x924fffdd5aad08e9U, 0xb18f203f01f32ef8U, 0xbf2bbb2daeadb3b4U,
  0xc78f1528cbb410eaU, 0xb425e3a81eb41baaU, 0xebfae011d119030bU, 0xaf9dff4d537a231U,
  0xec05efe6278edb1bU, 0x43cd34210e393104U, 0xf4ded64dc12ae1dbU, 0x212e0e20c208ec12U,
  0xe9c4cf0f18d7093bU, 0x2bea4cedc5482dd4U, 0xd0caaa41f908e43dU, 0x1e161d44d6ff0a1aU,
  0xc0a53037ccc11c4dU, 0x3e2644d8ceea08f2U, 0xe01ddb0c08070fd5U, 0x1e91b74c2324d009U,
  0xd1002edde4ff0bfbU, 0xfc0a14d3c7038df9U, 0x8e4e77cc1d1ee3cU, 0x22d1293cd7e8a4deU,
  0xb6fce4b005e6efceU, 0xf21932bff2ced7f3U, 0x20e6f646ba09d727U, 0xf31035f9a535eefbU,
  0xf3e62404ff18f1e6U, 0x5f622f705f0f8dbU, 0xef00bc5d3be1f051U, 0xc4d9d0332df00ffeU,
  0x7f58ae141bdf56f1U, 0x4a3f0e47b04efb6bU, 0x5fc0823b623fe1aU, 0x23e904e0174b061fU,
  0x2a0104a65ec43a28U, 0xc7c8f928ea4bb5f2U, 0x2d2760f9e3241102U, 0x244f14cff9042c22U,
  0xfb2449d6d02bf4ceU, 0xecd4d645124ac655U, 0x212df217c8c2ed2eU, 0x5311fedd523f82fU,
  0xf2030913e7a4ee4bU, 0xff04adf0d8df0ac6U, 0xe8100e2dc5e0cbd4U, 0x10502acade5b2628U,
  0x2001f06dada2c68U, 0xd5eaf8e5b1f1f1eeU, 0xf435282142eae3eaU, 0xbf2d25aedb0ef609U,
  0xf83104ed00fdf9f1U, 0xf33a00f9fc09f2f5U, 0xc0200538cbfb0121U, 0x108d7261ace0003U,
  0x14f9f9cfedf2f427U, 0xeff12bd62b1016b9U, 0x802301f3e1bf90aU, 0xd52bef0f05f709f4U,
  0x540120ed0b2728f8U, 0xdd0f15eb3e0df3f3U, 0xd5ee3ce3bf0df70dU, 0xe0e20e1ce5da2dc5U,
  0x11e4bd291352dae8U, 0xfb150aec1e1f0001U, 0xcdf0bfad917d4b0U, 0x2e403534ef0dedcfU,
  0x9fcbd881fdf71910U, 0xf2e5dfa69707f7e0U, 0xd12831f2150432c8U, 0x1fd221fc61c29b0U,
  0xfef3b8f103153913U, 0x2d14dfefbc10efe8U, 0xd300f9d9af102ffdU, 0x3ac73f1daaefedc5U,
  0xd7f383ee221ff0d3U, 0x220509fe9d2a181bU, 0xe5e51cc0dcbda713U, 0x21c20e1419f4f49dU,
  0x211de9f511d4ccfcU, 0x28e081eaab1605f1U, 0x3006e50133bfd409U, 0xf2fecbff1acbdfcaU,
  0x51c260deb02c0e5U, 0x48e1b8f60c23ec52U, 0x13fb19b3eb5ff82eU, 0xdee0023fd0de130U,
  0xf33617d1cdea0f29U, 0x6aa06f0eefe2303U, 0x1f0e280dfad4defdU, 0xf4b815f1e60ddce6U,
  0x3f0245e51bffd4fbU, 0xfb0799ef103cfd2fU, 0x29e1042d50ec093bU, 0xfdfbf0f5fcc103feU,
  0x16f63e36021bc7eeU, 0xf1000f1e1547ea01U, 0xf5143b1f1d13fe4eU, 0xea0ff4f9d5daf821U,
  0xe215fbf1c302c6f7U, 0x35f6c4d9fc241e08U, 0xbfc1f1e11d80e0dU, 0xcaf50543c90005f9U,
  0xfcc0ad5fd03b91dU, 0x8f1d1e1f3fe1616U, 0x107324e5fe10a27U, 0x6dbed50ff14e511U,
  0x10b3b08eb39d5f0U, 0xfef8fbf33e31de30U, 0xed13d5f0cbcaf4f9U, 0x15f5e628d2de1c2cU,
  0xd4c606f8f008c005U, 0xfcdb36c00cfdeef4U, 0xdad3f428ecfebe16U, 0x942bd0e9cbcae0eaU,
  0x1939e22d5293703U, 0xdcc207d60504ee10U, 0xc5e0fa36bfc9bbedU, 0xe0d205214706aefdU,
  0x1bc6cf4493d9e4a9U, 0xb502ea8af5cd1ab6U, 0xcd9a22500fe2dc17U, 0xc12e130c26a1c6e9U,
  0xf80134fff4121011U, 0xb90208af16dcac08U, 0xf71b792afa6c0a54U, 0xe81c61be0b101be8U,
  0x835d443eec7b3f4U, 0x32104033b0fe4f8U, 0x11f84f1f0d0b025dU, 0x15bfd2a708e52a21U,
  0xd6e60f41de54fdbcU, 0x14193ed6e62c1decU, 0xe20ae35efe172360U, 0x2ce442c1cd0edc19U,
  0xd1bfe11f0efa17cbU, 0xc1dde9e927f207f2U, 0xf1324b26438d312eU, 0x3acd17a5d647d43dU,
  0x2972afd7135ae4d2U, 0x3cf64f62045abec5U, 0x2ebe4b1b360e5b7fU, 0x424e1b38eb0e0077U,
  0xddeaf7372c27ffd8U, 0x6decf67338dee6e9U, 0xfdcf1f26d059f92dU, 0x542bfef906c71afdU,
  0xc15bb7e94a092bc6U, 0x14e711492445a5d3U, 0xcfb9fb0c0b44a6b3U, 0xdcefe6f80201bb1eU,
  0x35b82d07b6bec322U, 0xc212462bae12f7d4U, 0xf1e418fd04e32e19U, 0xe4f10ef405c41519U,
  0x18e010e3eef6a8eeU, 0xf61ddddacdcee4c0U, 0xd2fbe0e1ca002311U, 0xe0f0e02ef9bff01bU,
  0xe90105efd821f0f1U, 0xb34f3d21333f30fU, 0xdc8e2490506e1e5U, 0xb350d200a1c0bfaU,
  0xd2fb11dbf5f208f2U, 0x26fc45250ee2e80bU, 0x4308dd2a4cd5131bU, 0x1fefc821f1151318U,
  0xd80705173d1b1ff5U, 0xd95103f6e823fcf2U, 0xef0c10c127e935e5U, 0x1bfeda02f7d605e7U,
  0x1d51bf9f3441c00U, 0xcfedf5040a0a27e0U, 0xaa2b275fd931f111U, 0xd41850f1e0eb251cU,
  0xf8a8240bf54e0be3U, 0x296bcb0c18171001U, 0xe40afb1c34d911f5U, 0xf53dfb1822f33b0eU,
  0x26e61502260ef919U, 0xf82713ee2f59e2f4U, 0xf447f303f6d1ea1bU, 0xdc8f6de09ee2623U,
  0x1120da1b687f13faU, 0xf9d3e71e3c3ff9edU, 0xeafbe8caed16490dU, 0x321ebdce3cd0fc4U,
  0x2fec1802361a09d1U, 0xeeef930def8de30U, 0xfae1c63be51d0f08U, 0xe4eeed2d222f20eU,
  0x2ced35f13dd2e506U, 0x30c62f0d0801f653U, 0x17ccdbe8dc2214f5U, 0x1eea11e80f2825U,
  0xf9110c23e9182210U, 0xdb8135f6dc24d516U, 0xf5f7b5022b05052fU, 0x16cbeb0a0bdb07f6U,
  0x68f4dde81c14ede6U, 0xdfd801da1411e0U, 0xe60ffada3e0ec9efU, 0xb000212e207eed9U,
  0x40ca04de24fde2fbU, 0xf2d3ee0c053a00f3U, 0xe7f9d5da19fe05ffU, 0xdd24d21410df1b13U,
  0x2ad407ea38051b02U, 0xc1aaf0df1e1d0cefU, 0xcdff001426e8f015U, 0xd9cdff12039b0c02U,
  0x2d0ffc231df90af4U, 0xd38cff0f5e11cfeU, 0xcc1120ff19e72c02U, 0xe002e4350e1709d4U,
  0x4f70b2fecfc1dddU, 0xe72ae71d08182d00U, 0xef28f7ea15e51123U, 0x9c7ee16e3d0e8f1U,
  0x8e308eff9dcdef5U, 0xb0f7e5fc1ed1feU, 0xf8e6ef1cbd121ef3U, 0x22eb278d1ecadb15U,
  0x1cd6001ad1eb0815U, 0x251622b1b2f8e808U, 0x1404e3e7e21eff26U, 0x15400bd7f80607feU,
  0xf6082d140e0de513U, 0xfe331df8dd06eee0U, 0xe1f321c77fcdf1efU, 0x12d8ecba12ce1ae5U,
  0x583105df19f2b304U, 0xd14de94410dd0df0U, 0x18e6cf03f7012f26U, 0xce4334ff27fcf025U,
  0xcb1fd14c21cd00eU, 0x4d0d27dd9ff8dc23U, 0x1defc6f5033017f9U, 0x1e1c0915f713e11fU,
  0xeee20314f00e4c27U, 0x1c2649f8e504e5d2U, 0xe023f7da3618070cU, 0x1e0dfcd415c92aceU,
  0x3611c1f53b1ff210U, 0xff012544e6fff8e3U, 0xd8561b04ebd8ff13U, 0x1cf32ded3308274dU,
  0xe008ef3a102a09f1U, 0x506d8e2c7dc2006U, 0x99480fb4cd03c7edU, 0x3d0403320333e727U,
  0xdcd60dc8dcb5cc13U, 0x21ff15fa102d2ceaU, 0xcde932e1d9e3e801U, 0xecd045fef1ae529U,
  0xd7cc1dcf24d10a21U, 0x1551bf11efda10efU, 0x11d0f0cf10e9b316U, 0x65cb7c437eae606U,
  0x96422060902da21U, 0x10372a062ac90a12U, 0xfefad14259032ccfU, 0xf32ef5d7be061acfU,
  0xf833f33f4a3335bcU, 0x445230a2723b7a6U, 0x790dd224010ace06U, 0xd3f6b1ac02c41220U,
  0x9f7fc37f243e809U, 0x20240ed37f20aec7U, 0xa556341a07d60328U, 0x1cd62136181829e7U,
  0x53e3acc19cc00eeU, 0xeee4b91153170ea4U, 0xa409391fd10810beU, 0xe1f8360a9343fdffU,
  0xe40623c23aae0fd7U, 0x27dea35be1dc13d0U, 0xe91e402135dfe04aU, 0xb0dde08bd9ca5a9U,
  0xfbbf60af4afdc17U, 0x35e6c0a42202188aU, 0xe9ed37c7e83c20f4U, 0xc5eaec1a039a14cbU,
  0x361ec51b12b52307U, 0xbd00e03212befc1dU, 0xc6f126c919f7ccc0U, 0xd0eccebb5cca60eU,
  0xdbf8efae0a14f119U, 0x17f9d3e0e3ff01d4U, 0xf0e416ce1a35c6c7U, 0xb709572f05d1d7efU,
  0x42c8d6ca14e708eaU, 0x3bbefaab4081422U, 0xcf2a0607d22d2102U, 0xf0082b16b94c2630U,
  0xe6fb05a7fdcee22aU, 0xc70dfdceded64ca2U, 0xb90f15141c1fb631U, 0xec28ab28e8a8bdccU,
  0x200b14ed0fb6fc49U, 0x10fb143916dc01d8U, 0xe2d611a349380b0aU, 0xe42327d7f41d32baU,
  0x16102b0cf3e5d929U, 0x9d3cc9c9d6234266U, 0x5ea203dcc6806ceU, 0xb5ce32c5b41d0111U,
  0x98d1090007d1fddfU, 0xe0234a10191d2ce9U, 0xfcf53827290bac66U, 0xf9acbeaabab73c17U,
  0xc613fb39ced6f50dU, 0xbfe80019d9cf3aadU, 0x35b0db203706d5e5U, 0xe50501f24e383d07U,
  0xd4e3dee1908312f0U, 0x123f5d0d6091132U, 0xf4527def130d40eaU, 0x623c0f12df04f13cU,
  0xd31032a349713dbfU, 0x6fb709d1af4212fbU, 0x23c7dda3f8ec4f25U, 0x45f00a23a42a00ceU,
  0xe95dd7db7a2839afU, 0x28f20121f2321ac1U, 0x2846bb9bbe0e1cfdU, 0xd92d35b9fae7fadfU,
  0xb201a26efda1d37U, 0x43185a81cbd60628U, 0xefb514fd08f2d606U, 0xfcfc2238d024ac25U,
  0xf349df12f0b6adb9U, 0x49bd8ee301163ed6U, 0x259b2db23da4cdc8U, 0xbdeadffc2215ea10U,
  0xd30b3d08f6f8ee8dU, 0xedf1c68a1fbd11edU, 0x14f729a8f5ef04fbU, 0xbd11101ccb10f5d9U,
  0x161d341b3b242126U, 0xb3d4eecc4515f6cdU, 0x92b46fcd8ece4eaU, 0x1fef04f2f2d6fc08U,
  0x1e1fdc924ade00aU, 0xc2ccd4d8d2343fcdU, 0x170acf0f60c2d638U, 0x9f7df030ec5d014U,
  0x3c1b5339f6e1daecU, 0x9814e6cff947211aU, 0xda15ec2640da30ecU, 0x1524d4fa0613f630U,
  0x2a2a031909201bdfU, 0xcd0920eeea21d101U, 0x28d204157fb9ceedU, 0x3fe91126f922ebdfU,
  0x31cfe4ed0421e5dfU, 0xc137ec370558f3deU, 0x3af718456b81fa42U, 0x2d3317251f0e34f2U,
  0xe5efb40170ceff2U, 0xbdf3ff203c47f911U, 0x4afd100852faece1U, 0xd80601fb0110eb24U,
  0xe6c4fbf4ec0f27f5U, 0xfbd15426154ca221U, 0xac394a219e3e03c9U, 0x1abbca45c0db0c0aU,
  0xcd49eef82800ca24U, 0xebb728df02337feaU, 0xb928393d0bf6d511U, 0x11fc8e1e1eaaab7U,
  0xe10faed847d9f30aU, 0x17b1ebc4ead940afU, 0xe4eff33653ecec2dU, 0xdff805b73f1d1b1aU,
  0x5fc14d4445614e4U, 0x294fe322eff80100U, 0x58e4f80949af07f5U, 0xded650163234ed0dU,
  0xe49c35271813d929U, 0x92d705cf19fcd745U, 0x4f0cd41521aa06dfU, 0xf5470b3ee033ecd6U,
  0xbddece3caf14d0daU, 0xe4171807efded327U, 0xed17dd122ec9ac40U, 0xfa309ffb0d5001fbU,
  0x95320aeb27e71417U, 0x9a0320514525aadcU, 0x1e1405fdff8d1d31U, 0x66ebff4123eeeefbU,
  0xee30ddafc74dd5deU, 0xd72fda0a0a1ed9fcU, 0x2ec7ce3dd987f306U, 0xddd8d40a01f1ca1bU,
  0x1dea1a0a1cc7f519U, 0xd1d719d3351ff7fbU, 0xa0bb2ded806bb1aU, 0x2205c1f0ff0cfbefU,
  0xffdd15043c41d014U, 0xc5281ad53fdbd82cU, 0xcfdb6851e6d2bf1fU, 0x19f739518126f7f7U,
  0x4c131b14d4580b1fU, 0xf057e11a023bd1f7U, 0xd50febf9e0f2d317U, 0xf10024fada280715U,
  0x7d80f07dff71bf3U, 0x1ee325caf4a517d1U, 0xb8bd3070cafddec8U, 0xeeda043cf2fd18daU,
  0x15d9f20df7e80ac8U, 0xf8050cb307102906U, 0xeede4ffccf270a50U, 0xcc084816cf26daf9U,
  0x1209d014f8d0e556U, 0x36d340ed49e91de4U, 0xe9ee57cc1b48b42eU, 0xcc1c370aca1edc14U,
  0xd5fafe46fbf4eebdU, 0xfe1f5d26472300b8U, 0xda043146b72e1f19U, 0xc11f09e8fecfc119U,
  0xd1de34443810df10U, 0xfa29fe1ed9e6f7f2U, 0x1e0a0e0c07e328f4U, 0xbe5fac8ef5033f6U,
  0x45015e10d0819efU, 0xd2ae27f5ef28aed7U, 0x2d20fff8e8c5e843U, 0xe72c69d20f39d7e6U,
  0x1c2ed71641df071eU, 0xd5cb054f3211b0dcU, 0x2aeb0df10cbaf2feU, 0xc32b0d11e9ffdffdU,
  0x1e55ebe51e142fb7U, 0x1e3292be7148d0eU, 0xc4e23aa82df728f8U, 0xfdccc3e2d3d5e0e1U,
  0x51d5100f08d9882dU, 0x1036c8f7db2aebdcU, 0x51f15ec622e60dcdU, 0xf4ecdedff81cf581U,
  0x3919b51c0259a426U, 0xfe3fb1f513d50feeU, 0xc052fce2b2ff3eeU, 0x6aebc786dadb15e3U,
  0x40e802030dd6bfbaU, 0x77f2c73ab4143318U, 0x52b505ab17e289c7U, 0x2234f93caaf2cf17U,
  0x335906f9edf8e928U, 0x2dec11f8e7c01d4bU, 0x26f907d7083ad317U, 0xfb49cf10e91f3ff1U,
  0xc617041efe33ec15U, 0x22042d331515131cU, 0x1d0d31066724b6f0U, 0xf7292142fe1d280eU,
  0xb1301ee4ce0d454U, 0xe820cf16a512e127U, 0xdff81df9e11d0ddbU, 0xe8330bdcf7201111U,
  0x40fa18c42716b1d9U, 0x6e6aae419ec1309U, 0xfa31102107150fe3U, 0xd8573ad9dcffd6bfU,
  0x38ff01d9e829f8e4U, 0xf418da0beb032017U, 0x35e21add1ee3bc19U, 0xf316dcdbfdd117ddU,
  0x17ce49c4cbe8aaf7U, 0xc622c9d8abeffbfbU, 0x271bd81438f3fc12U, 0xf34aabe9d03244faU,
  0xcc23f21b00e42421U, 0xc496f9f93ef0f4c8U, 0xee09e80ce82610d0U, 0x3f39c5ffe5b96630U,
  0xb9e50d11dab50423U, 0xcdd1411b2ee0f4ddU, 0x43d910e7042ff233U, 0xf720f20b09f0e806U,
  0x1d001e39c9becc1dU, 0xd908181730f9b69cU, 0xd5e20cfef7fbe0f7U, 0xebe51de017fcf9fdU,
  0xe3eee115d7d914cdU, 0xdfdf0da22ceb32dfU, 0xcbc815413ec8ce2eU, 0x19191412f6261bdbU,
  0x2b25f109bd07eae6U, 0xd3ddbcb8043dfe3bU, 0x7edbadafabaf4c0U, 0xe3ce1f4ea1b1605U,
  0xe0dc12fc33edc827U, 0x14131014eedab823U, 0xbac37f0604112e9cU, 0x46063b03c857c91eU,
  0xde1b089cf1fa11a0U, 0xee05aef11425331eU, 0xfd3a42af1636dae9U, 0x271c10d3bffef662U,
  0xe6d53018261ed8fcU, 0x2c32fd4408652831U, 0xf9fd1ff1e065010fU, 0x31ec24e73be6ce2dU,
  0xd130add0ef65fbfdU, 0x4c2112f0f8eb3046U, 0xe0ff2bfa0318168eU, 0x2dadee2ce089cc17U,
  0x2a2c27092aecd50aU, 0xea22ecb1b53ae1adU, 0xc4cbb2cb48af0bb0U, 0xff1f34395e042902U,
  0xc341f6ae0d96d8ebU, 0xb1b0bcdc4cc6ecb4U, 0xb0defae2c8d3b9d4U, 0xe3fdea0e501430d9U,
  0xdc9edaa4b720f2ebU, 0x11aadac4e2810900U, 0xe2f54fcfd5d5ef9bU, 0xb7adc3f0a446d503U,
  0xf5dac8d026f7ed25U, 0x17b5e1c4cb05f8e7U, 0x22fa203202abc9a9U, 0x102b36bb19dd0bdeU,
  0x9fffd339b3b738a8U, 0x340406e10fb1d8bbU, 0x16fd4dced0e2d5c4U, 0x30e141e7cc0f0ed6U,
  0xd0cc08dc2b53bb11U, 0xcfef20e401d6ac36U, 0xa381b349235e6f6U, 0xdcd4eff3f7f9ca1fU,
  0x26f2cb341b60c0b5U, 0xc0dfdaa10a62c2cU, 0x65dee234b2314ce3U, 0xfc526923d03ccf2U,
  0xd023c8f4ea0a5316U, 0xd3360308edef9616U, 0xea7268531e982a43U, 0x360cdacfc35cd938U,
  0xf407c534f66bd32dU, 0xb17be61523e71079U, 0xf5cfec07dde903afU, 0x12f34b0dd0f9d436U,
  0xfaf145ddcf0dddfcU, 0xd623d3e0f1002ddeU, 0xded5dee322d7fabcU, 0xd309eb0cebfbe10bU,
  0xf5c6140cfd17bfa2U, 0xe60720e318efefc0U, 0xee2be2e20f14ddf5U, 0xc939e6fdf705174bU,
  0x7f0ded73e1f2a04U, 0xe7e0f1cfe02ffb22U, 0x11e262f5d7f84c1fU, 0x1031e90d0527d32bU,
  0x10c52a1b1c30c200U, 0xca34f4d4fc06f411U, 0x1e1fedfb0aed1ae9U, 0x2430cb21d7e2fd18U,
  0x3aa1fd7470125c3U, 0xebe82ad61f040200U, 0xc61727271a2941e5U, 0xf71a040addd7352fU,
  0xd51b320b060e2e03U, 0xabe2f6d93440f51dU, 0x40bf362d0f21fee3U, 0xe009cb0bd2ddcb27U,
  0xfce906181400fb1eU, 0xb22215fcfc16c256U, 0x130ed7211b81f80dU, 0xd94606053103d437U,
  0xe60cf005e10deaf6U, 0xac02331c3fe2d1f7U, 0x3f34f62cdbdaf7faU, 0xd01d290133ee1f36U,
  0xe109e21c0e741da2U, 0xc53c0a1c2dd3ad10U, 0xb9ba065ef70416d8U, 0xd5c4344db9d71f21U,
  0x44f204efd7cec210U, 0x4ddcfdfac0ce130U, 0x12e22314e010fdaeU, 0xfd9f7f63dbec0faU,
  0xc4c7d1f2ead9bbd1U, 0x12c415bf27810b2aU, 0xb50211d013beebc7U, 0xc5fc2848cbcde3f1U,
  0xedd6d4fcea22f6c5U, 0xa6e1fcaa1a8647cbU, 0xe8c2fd3ef42a0a15U, 0xf2d12bb70f35fa96U,
  0xf3c3fb2febbad1d5U, 0x26f3f2f2d310e5cbU, 0x16ea331819f5ee55U, 0xdf23d8e6e3f4c8ffU,
  0x33f611e8f60bc007U, 0x7f723ed18f0e715U, 0x311ceed31be7eaf6U, 0xdf4e9d907d7a8a6U,
  0x1c03cffefde3271eU, 0x8e13fdcc0b121b05U, 0x2b122f56ed05cc0cU, 0x19f044d6192e3fcdU,
  0xae819dc0f18eadbU, 0x1dc0506eaf8d8dfU, 0x90de91e3919d601U, 0xfd37fd2eddbd2121U,
  0xf22dcb14b827e7f1U, 0xe0bb3812032de7eeU, 0x2c22c638fffe0f34U, 0xcab5daf3fdc3e4fcU,
  0xfa000513e31e0de1U, 0xcf35ef1f1115ccb2U, 0x173fd70b11ff3a21U, 0xf727f1e418043c17U,
  0xd8330e231aac4044U, 0xeae90fb3d82de3d4U, 0x4aef04011907d704U, 0xd3c471c1c16f6fcU,
  0xe9ce37f4ffdbdb22U, 0x9b7f7e9e5f52011U, 0x7fbf8d5f1220d27U, 0x717eac80313012eU,
  0x4ef0f0dfa0ccb47U, 0x81c91dc946e71ee6U, 0xccd4e5d9041019f0U, 0xe7c3f15452efee14U,
  0x1b2133121f345002U, 0x49d315b5102cf50aU, 0xbd04b6de3922f5feU, 0x210bfd0e2f073735U,
  0xfa9953ff1010f818U, 0xc91cd9f01dff43c5U, 0x2cd4b3fc222d32f9U, 0xc33371807f4b7ffU,
  0x19c3e04c2a06ee43U, 0x29eee6ba61b5e1f6U, 0xdb241815e3d9ab0eU, 0x18f7da4323b9b5e6U,
  0xf7e13cf20cb6391fU, 0x907ebf624e034d7U, 0xdbdbf4c8f0dafd0cU, 0x708ef430ce3efc9U,
  0xf5110403eec91be0U, 0xe2cb07e60c1c28d0U, 0x18b78df4cbd7ddf8U, 0x1df341cd1cad606U,
  0xf4cb1907c0d6f43aU, 0xc5db24d82d98db03U, 0x19430db90e24e50fU, 0x2106cdc0380bddf6U,
  0x101126e2fe1dfdf9U, 0x7d08e41ac507d11cU, 0x30f8f807e9f018deU, 0xceee5463ff8b1b7U,
  0xfa1dfed7183aeaebU, 0xfe00dc40ed01bc20U, 0x233d4f10afcfceeU, 0x14eafbdd04dfe0d3U,
  0xc8f9142515413a37U, 0xa1075f0ff11cbfedU, 0xc855eaee28ff23fdU, 0x2af2d1d30b0fccd1U,
  0x1ee151dfa0a5c25U, 0x7f1cc5e6bc3635f7U, 0x50cd1ebfcd0200cU, 0x1d281de24708f024U,
  0x3200440a1b160de8U, 0xee060ace081fd42dU, 0xe50ef7ef2a2210f5U, 0x3d2033b5403c57dfU,
  0xf7ee213a243d132eU, 0xf9be37f33e0e15f9U, 0xd710ede107ce18e7U, 0xf8f102f4e1aaf68fU,
  0x132c1f091dd94fd4U, 0x1df1e4122bff06f2U, 0x24ff0703a9e4e802U, 0x23df00ea1ace1927U,
  0x45d4274a20dedd0dU, 0xc1aeac1f442e507U, 0x2847d314f4070a29U, 0xaeef4dddac90615U,
  0xf6c81f732e1a2122U, 0xbaf1f0a94233f4b3U, 0x90fea16e923f103U, 0x15e5eed5160911d3U,
  0xf7ef2c0f09d9cc1fU, 0xf1053df42ae61bfdU, 0x1e220ec951bb3200U, 0x30f32ed1e4e6f4d6U,
  0xb16f02e23ebede1U, 0xe9d403be09e82430U, 0x2516feee41ce1d0cU, 0x48fa050a1a04fe07U,
  0xea0be02a4023d5f1U, 0xb86516d35827e08aU, 0x1ab5e805e42ad51bU, 0xf18e3dffcc7cbd4U,
  0x1214e9f1c0e7adfdU, 0x4cd806f2fd13d73dU, 0x2a0ddee30cfee0f3U, 0x3e1616f40fd0ffe0U,
  0xeab203e31ce2d931U, 0xffe535aa1ed41e3bU, 0x12ccde3f7b702f4U, 0xecd8c6071eb2e629U,
  0xf353d62bf6162b17U, 0xd748174b0becb515U, 0xd3dbe8100f03bc15U, 0xf52d164143ed12f8U,
  0x2ff315b6e01c1e1cU, 0x906d1f1dc35fb61U, 0xceeaf5e412cfb8ceU, 0x10e0333fec20f122U,
  0xbe17bfd4fdadfa39U, 0xcdfed0cb1014121eU, 0xc921ddd219ae0acfU, 0x3ee0de49f4d3042aU,
  0x103fe2e82c27e8cfU, 0xb4e5e97fc535042cU, 0xdf004760f84a3214U, 0xf6ec20a1a7241fecU,
  0x12ced93ef937d813U, 0xc32c398e5031d6bfU, 0x1012340253e6ab3cU, 0xd25f4f1dfacd21eeU,
  0x6f02b7fb20f7d959U, 0xf7605928d74149eeU, 0xf2e160185bde1742U, 0x3ae74c20febb2201U,
  0x3be6e7c71e2b1ce3U, 0xd67f1d423d47c746U, 0xf2181d27e17a264cU, 0xd639285c3de8e6d0U,
  0xcb8ec02bcd241fe5U, 0x54276bccd80a33dcU, 0xe30af3d34a0d9fd9U, 0x23243af90813fe49U,
  0xeeaced3fb1bd0c29U, 0xfbb14bd7e6080313U, 0xf316f5f234abb1ddU, 0x3009125b41d6fbd4U,
  0x20f740285337e4e8U, 0xca10f1322112b125U, 0xc9e109c7a60931f7U, 0x829dd360635ce20U,
  0x1bf3b7e12b30d8e0U, 0xda1e3332e5f1d4deU, 0x3afeaaeda40ec27U, 0x12d975f90c15fdd2U,
  0xeed4ae3b4b10d612U, 0xe3e3f3cefa03b8d1U, 0x16f05bec1815c9e7U, 0xd9a51046213d30eaU,
  0x9f05a2c94f37f2b5U, 0xd958fe6307eaf6dcU, 0xe4e40e38b22d26f2U, 0x41ec2cda0a1a1500U,
  0x1af2411df3f41bfaU, 0x15e41dc2fddc03c7U, 0x324e51e041e2412U, 0x6a02dd000911ed3dU,
  0xf8eb380207182548U, 0x28ec02f20e050406U, 0xd1ebf90b503248edU, 0x6e25d9df00e90501U,
  0xe612262c212cfa33U, 0x47de06ead8460000U, 0x2533103ae005f43bU, 0x17de0908edf1f918U,
  0x13de27f304022701U, 0xfa030f9a04e6e823U, 0xfc19f0272ff3cc0dU, 0xfb1603f317f8f203U,
  0x35c1ebcbfb49ebd4U, 0x182525deef2f08fdU, 0x30ff2e10beb15eaU, 0xfcea00fb0106f02fU,
  0xec1af602532e24f6U, 0x12f8e713d71709f1U, 0x19f9c1d269d1cb0fU, 0x34c5f5c0d5c04ff6U,
  0x2c14fcf1fc1bcdd9U, 0x1ff1dffc150315fcU, 0xd14123fef5d90eeaU, 0x2efdd3e333e11b08U,
  0x12d8e8dd1305eefbU, 0xe1cbce10cc7fe31bU, 0x1b32b119cc1d14f6U, 0xebeeb0b801d51f21U,
  0x183d241a2c3347ccU, 0xb3fed914c8059c2cU, 0xb80f1d40a6dd0cfeU, 0xeacdfdf5ca12e91cU,
  0x2a28fe3459deebedU, 0x6fd181ad0b4512f6U, 0x3dd9f6b655dfd4ccU, 0xe8ffb2e6ed210c12U,
  0x17e2180bef0eb7f4U, 0x2bb712c754c2c4e7U, 0x1ae53eb3368fff2fU, 0xb0a43043a2cca08U,
  0xbad220d4131febb0U, 0xe5e7bd1f4bdeca00U, 0xf8e20e3eb7f434f6U, 0xad2142f32bf5c13U,
  0x1eea29d61fc5e816U, 0xe7a7f0f3c3bee23cU, 0xf908f00a42a4b140U, 0xf94e37cbf30b33d4U,
  0xb5d0cdd0f1cfe7edU, 0xecd7ce053caaf234U, 0x36de06ca70974642U, 0xf02924eee4dc62c4U,
  0xe323cc0f472cd52eU, 0xde4ba75e2437cdb9U, 0xdb44e95a9e01ff04U, 0x27e53f170441e9e4U,
  0xfc15ec22221749e5U, 0x80ddd4e32a7c9d0U, 0xe0c3b9fd0604a429U, 0xcd6f325f617f9d6U,
  0xfa200efaffe5f9c9U, 0xe1b4342a070912f8U, 0xca2602bb26b2dea8U, 0x4d98e0262a16fc10U,
  0x1bebc12f2d4d46e6U, 0xe350d523fd3febe4U, 0xc1412fffcfb1d02U, 0xc204d0f7db0539bcU,
  0xd7f2dc26141ceeb9U, 0xffa351af0f9f31eU, 0xdd09cace33e8e2fbU, 0xfe6d105f306e1f1U,
  0xd4f6de254b1e011bU, 0x607fad6453e0ac0U, 0xd8f4e6f1070cfa04U, 0x1ad218d3d1ed04ddU,
  0xd5eff1de2e0c1cd9U, 0x1a11d51a0f1cf8ddU, 0x1cbef0be21c8c726U, 0xd42e421537ebfcc3U,
  0x1d1d17440cecf327U, 0xddc4082dfcee0526U, 0x29fdf102163beee0U, 0x212c22110a10ebe8U,
  0xf2ddea07ee120d2fU, 0xee280b0bdaffe116U, 0xdc18ca3ed4fde70bU, 0xf9e0f343e2233b15U,
  0xd82a250efcdc1e16U, 0xd02ddf3be5dfe1e9U, 0x22f9f1da37cbff29U, 0x11000cea0bf7f8dfU,
  0xf04603162316dee8U, 0x4cdfc101304d613U, 0x2200e7db20ea2310U, 0x1b141e03e8eb341eU,
  0xd120fe5ebe7f2bbU, 0x3620d016e7d5083fU, 0xcff1edeeb041feeeU, 0xcdfcfa2efe183621U,
  0xd1feecfcfd813519U, 0xe3b818191ac20cdbU, 0x2e4903e52fb3fa6dU, 0xfdf3caa319fa04e0U,
  0xc610bbf410fb4703U, 0xe8030a4a0de4cc13U, 0xf823f52b36f6fe03U, 0x320af6d299dcee0dU,
  0x11cd8d300cd3bf0U, 0x21f54d44dd3897f8U, 0xe2df2320bf2f137U, 0x938d001dd0a1ee6U,
  0xdfe91cf02d1dee0dU, 0xdff0712f136ffe4U, 0x2a1bd6ffe6e9fd0fU, 0xfef0c1d4fae418cfU,
  0xfb02f7112d16fde1U, 0x1210162a24d9320cU, 0xeb39d4e0f9eed60bU, 0xf4dacc220c221cc3U,
  0xd637f21cc0d2f119U, 0x34dbc3f901e42fe1U, 0xcf250cee0a0bfc0eU, 0x3e07ec0abfbe0d25U,
  0xdae1e011e4f5e6e4U, 0x2ae00116cd48d9dcU, 0x7050b06050848d5U, 0xdbc1c55dfac3dfa3U,
  0xcede26fac22c33U, 0x1225f5c4dbce189fU, 0xefe5dc23bb2532dbU, 0xf1d5b720dece09c3U,
  0xf281fd0ca9c836e3U, 0x182820accfb5e7deU, 0xf40e04f3d7cadfedU, 0x23e1c640e8d6f0eeU,
  0xf0b5cac7a8f21ee9U, 0x36d4ff9c16dbdd04U, 0x11e500000a8eU, 0xffffb9130000297dU,
  0xffffd9960000626cU, 0xffffbd2500008054U, 0x16ad0000463bU, 0xa080000c8afU,
  0x1f87ffffa697U, 0x9c90ffffff26U, 0x16c800001c19U, 0xffffe823000035e7U,
  0xfffffe3f00004909U, 0x924fffff49aU, 0x3f6200002814U, 0x66b2ffffe79fU,
  0x8cfeffffb3c9U, 0x3c71000055fbU, 0x34140000504aU, 0xeef000006858U,
  0x3b0e0000b29bU, 0xffffe2820000315bU, 0x21df00004871U, 0xffffdcf6ffffe00fU,
  0xffffef3000001e0fU, 0x191a00008ca0U, 0x4c48000017d9U, 0x1ebbffffd45dU,
  0x12ace00001831U, 0xe0660000159aU, 0xffffb5c600002087U, 0xffff6f7d000034bcU,
  0x644bffffadcaU, 0xc03b000020afU, 0xf6b229cf2bc3e22fU, 0xfd01e1f6cab9ed32U,
  0x4f0d0f0a4b0909e1U, 0x2d1a29060931b30bU, 0x2f4c40dde933c223U, 0xcb10e2d81baa1deaU,
  0xe4f7ce1f45ff34caU, 0x3adef2ea0ef062fbU, 0xed0407fde6c5f9d3U, 0xc6e6cd37c6ab2550U,
  0x48005708077f3e28U, 0xcef5d21640efc1e1U, 0xbcbad6523fff2d5dU, 0x1038ec20ff0ef10bU,
  0xd4f6c7c9debbbde4U, 0x14d82f32f82afcf1U, 0x29f7ef0449a5d6d3U, 0xddd6a4d3ea204e58U,
  0x6ce42ad526623ff2U, 0xfcb9683fbaeadc1fU, 0xa2f6012b0502dd1bU, 0xd2dcea2d24b3580cU,
  0x9f2be2fae011242cU, 0xbccf6032db40745U, 0x2dc200f22d0ff024U, 0xd7d1e4e30e20e005U,
  0xae227dee8385440U, 0x2df849fe19e4cfb9U, 0xb0fa301fd52d03eaU, 0xa7b3ed1de4181f23U,
  0x124fede49e9a03bU, 0xd920d5f31ca0594eU, 0x1a1813600f45acfeU, 0x4b6edbf5f7052170U,
  0x2919dd18c4f802cdU, 0xe6242881be20e9fdU, 0xc34a2a0046d7a516U, 0xf8c3f227d612e529U,
  0x9f8203efafe1a12U, 0xbf0f2d2403c5fef5U, 0x11bee4e0108e844U, 0x42e6ffd7c46214cbU,
  0xaf1f2ef43335db25U, 0x114476e5b32035ebU, 0x21d401b63ee113b8U, 0xa6ea1fd01fe4c036U,
  0xedebf1fc1e1ad8f2U, 0xddfbc51d53539c07U, 0xf165427db8f21c32U, 0x3035e311d22903caU,
  0xd06afdd241201740U, 0xc22aa8658fdf7dbU, 0xf6a8dce51d3fa31aU, 0xe441201d9701e019U,
  0x58f40542031d0516U, 0x50ae3183627b743U, 0xc3af94a98fd9f03U, 0xd15f93afb5ce3d6U,
  0xcb411b1e5ae5f0b7U, 0x936c5b67d07dabbU, 0xb801aa934c25d9adU, 0xe2103ddfeeed945bU,
  0xdb561a49e6025722U, 0xcb6b2c27ca002212U, 0xfff3502a9812e9d8U, 0x3e36e6f8dc093111U,
  0x2b14daf4b5f8d53aU, 0xcc2cedba04033bd1U, 0x3625f321e5030509U, 0xa51159c10d35101aU,
  0xf335cfb64512fc41U, 0xf92c1034e226c30fU, 0x2d1e42dc2c209f5U, 0x26fcc003cae53918U,
  0xf6ef30d807b6c900U, 0x1e901d0abc703fdU, 0x384eedfa29e80e04U, 0x3ef7ff3fe28def1U,
  0xd5d4eafd69021efeU, 0xfc00273e2060e9deU, 0x111f30f59514e715U, 0x4af011cde626ec1aU,
  0x111ced25e1abff10U, 0x1003ee06facbc6d2U, 0x8f52e01e8d71210U, 0xacfd4f142326959dU,
  0xd6b5e30152270f1bU, 0xec3edd24f2030de9U, 0xdafb3ce4e6f9e6ddU, 0xe4ddf004e0f8002dU,
  0xc1ef403fdd80342U, 0x123dd506dcff1fd9U, 0x293a371ee2bf3817U, 0xd52c44e31203c5aeU,
  0xe5bf0ff33ed3252dU, 0xf418196a202fdefdU, 0x7fdcbf19dbacd19U, 0x2c0310eb2736edb2U,
  0xf31008cafe4ec133U, 0xb9f1643c0a13ae1aU, 0xa17d4ca28e1fbd4U, 0x2e41e01ae0c00a8U,
  0xff12d798101433d9U, 0x2543ebf70a55a1ccU, 0x2314e3f8fee9c4d4U, 0x44fff0c2d760fec9U,
  0x231af2f715e00ef8U, 0xf2ffdd7e51ef239U, 0xe5f9e8bc18eff10eU, 0x2c060c069d1d23a1U,
  0x2da19a315ca3714U, 0x127ff4eb6e56eccdU, 0xbcca011eaf2be4f7U, 0xe61bced22c102c9cU,
  0xf6ef21dd29021924U, 0xd33b290220e9eb2aU, 0x3f10d6fcea04a7d0U, 0xccff21ecfae83dcfU,
  0xced01cbb4ace2acbU, 0x2c2ed4093d3804deU, 0xe9000617c629f923U, 0xf6ba2f37e236cc0aU,
  0x2f24eff62fc7f9f2U, 0xeb3a27b2c2f927e0U, 0x252646bf330e0ec5U, 0x10140c05c60d3dadU,
  0xe5b309a339de66bfU, 0x4668eb2631011ed2U, 0x27aff50361353207U, 0x19401529bf4bcd32U,
  0x9b08a4ba064d82U, 0xc98cf26a1906f668U, 0x31f9152cf4082043U, 0x292ee91012171878U,
  0xf3e40c1ed0343410U, 0x132cdca64fda1bd2U, 0x48cd0bd13bf10e5aU, 0x24f220dd24bf1fceU,
  0xc30fdb03d5f3e9afU, 0xd2b4d6ea1613c851U, 0xcb0d2de5ac4f2101U, 0x1749a3583fe7e723U,
  0x20b8fec813b9d9faU, 0xb9e90f10bfaf316cU, 0x12b6c3ade5001f63U, 0xcb9809e115d241f4U,
  0x2af81cbfd6fe04cbU, 0x26b142e21ee0e1e8U, 0xd5191539aa2e2fc9U, 0x44e016f6c2fc00f8U,
  0xc10cf0a0e9dfddc1U, 0x29e6c9f50db5f138U, 0x58c5e0bbe3e1f646U, 0x8b0212b333c13630U,
  0xe1b115d1b3081e4aU, 0x14ca3beb98dbbbf1U, 0xb64a544381e40ee9U, 0xdb3df1cbac23ff2U,
  0x36c2edc4ebc0b2d5U, 0x25d6d7c32b084637U, 0x183bd602eaecc3d3U, 0x177ada24fe24f0e7U,
  0xe92b0e37d5153bebU, 0xd9462a0e1cbfcdddU, 0x120bf9034243f514U, 0xbfd9f3a9d53467d7U,
  0x2b1ce53db4dcf35fU, 0x3f1d4f3cf639e20bU, 0x3a4dd7fb235507b6U, 0xff4bc3d5e5f82754U,
  0x1e36f6342df4edfeU, 0xed55066df6bfcfbaU, 0x1b1ba48a336f2d1cU, 0xf5c542d9bdad2deaU,
  0x3fa1202fdf233eeU, 0xdfc14bca09af1b01U, 0x32570db92ea1f721U, 0xaada97f92429f977U,
  0xcecb1c120ff8b9c7U, 0xf4406fc0c5e1f1d7U, 0xc622cdf83c55fc02U, 0xb29ce5e109f30ecdU,
