/**
 ******************************************************************************
 * @file    cnn_mnist_data_params.c
 * @author  AST Embedded Analytics Research Platform
 * @date    2026-04-11T14:13:33+0200
 * @brief   AI Tool Automatic Code Generator for Embedded NN computing
 ******************************************************************************
 * Copyright (c) 2026 STMicroelectronics.
 * All rights reserved.
 *
 * This software is licensed under terms that can be found in the LICENSE file
 * in the root directory of this software component.
 * If no LICENSE file comes with this software, it is provided AS-IS.
 ******************************************************************************
 */

#include "cnn_mnist_data_params.h"


/**  Activations Section  ****************************************************/
ai_handle g_cnn_mnist_activations_table[1 + 2] = {
    AI_HANDLE_PTR(AI_MAGIC_MARKER),
    AI_HANDLE_PTR(NULL),
    AI_HANDLE_PTR(AI_MAGIC_MARKER),
};


/**  Weights Section  ********************************************************/
AI_ALIGNED(32)
const ai_u64 s_cnn_mnist_weights_array_u64[112517] = {
    0x3dd92120bd158ccbU, 0x3dd8633d3dd4fc1cU, 0x3de0727b3ab5dca4U, 0x3ccb10623b783200U,
    0x3e1c97cfbb9863b2U, 0xbe7cc0453e0091bfU, 0xbd8d34bb3e90bcb6U, 0x3e54a997be9ea6b6U,
    0xbe08ddb6bd23b83aU, 0x3e3c12ba3ea6bc0dU, 0x3ddb5ac4be509747U, 0xbf16146fbd453d4cU,
    0xbf22b7c3be9e0734U, 0x3e0a4068bd8fc593U, 0xbe52929c3d092090U, 0xbe9c5c51be420f49U,
    0x3ea1082abd8a0908U, 0x3e0cdd593e31468fU, 0xbdc751473da2caf4U, 0x3e23a7aebe3c9396U,
    0xbe175dfe3d8f09b5U, 0x3dde7c2ebd28d367U, 0x3dc6d67e3e505731U, 0x3d6cf6433d8ecd9eU,
    0x3e920707be8cb9afU, 0xbefd53803e3c5647U, 0x3e98035ebe14745cU, 0xbd2ee7163e81bde6U,
    0x3e86f270be9ee65dU, 0xbeaaa0d1bd9851afU, 0xbe3728c63e80948fU, 0x3e144c76beda5463U,
    0xbe8952ccbe6650bdU, 0x3e53cf2f3da694dcU, 0x3d486f8a3e518b47U, 0x3d0fa5dfbddf8ab9U,
    0x3eae052e3cdc3ea2U, 0xbea1dbf23db118faU, 0x3e4bf8c63de7e467U, 0xbe607686bedf8e86U,
    0x3dd92d473e159976U, 0x3ea2034c3e37d593U, 0x3db9a013be2ca5beU, 0xbee1c2ef3eb363c9U,
    0xbe682679bf05b729U, 0xbea0acdf3aead94cU, 0x3e5d166bbe84cb52U, 0xbe91ffd83e5a5487U,
    0x3e9133373d6d2e1bU, 0x3e6f3f453d6b6771U, 0x3e591fd93ea69d0fU, 0xbd8c7685bd35d28fU,
    0xbe71b0793b9be930U, 0xbd9902dbbeb71f1cU, 0x3d2934fd3e2765d1U, 0xbde11a17bdb1eed2U,
    0x3d78ae23bd523c65U, 0x3cca7d19bee0750dU, 0xbce996703ebf3a86U, 0xbc6eb6793d00f497U,
    0x3da6e4d23e03903bU, 0xbd9ef9103e03d349U, 0xbdb2f49b3e03c057U, 0x3dc6a711bd382547U,
    0xbd6f5e9f3d4333f8U, 0xbe1ac9ee3e44575cU, 0xbd298fb93d408b10U, 0xbca0f7e5bde58c7aU,
    0x3e89b7083e57a4b3U, 0x3db10c413e9420c3U, 0xbe87857e3dd24d85U, 0xbea4012bbed254adU,
    0xbed3a037bef27dbaU, 0x3daa5969beb4d69aU, 0x3d0da70cbcbd3c45U, 0x3e99f9d83db5ccc1U,
    0x3d633fe73e3fbd74U, 0x3db0922e3d11e6c7U, 0x3d38d6583d1e8845U, 0x3d9bf5e13cfdcec5U,
    0x3dae6799bbca77e5U, 0x3d303529bed1273cU, 0xbeb816bd3e4b6e9bU, 0x3ea696f33de3ca74U,
    0x3daa6596be49ac7bU, 0xbca0cd3a3e00645fU, 0xbe85dfe8be90378fU, 0xbc8577e23d166e1eU,
    0x3d99b39f3c2b1141U, 0x3e1689393e8b1e97U, 0xbecd2d1abe0994bfU, 0x3e6506a1be8e2a4dU,
    0x3dcf94c33e010880U, 0x3d497c9e3e4262e6U, 0x3e0075003d90cb7aU, 0x3df673b43ddbc6deU,
    0x3d83c54f3e2f48d4U, 0x3cff135dbb314d27U, 0xbe014d7c3d67480bU, 0xbd244d9b3e629080U,
    0x3e87988fbed06497U, 0xbe0c63aebc64f66aU, 0xbc98a37d3d843e4eU, 0x3e3f9a89bbb1f472U,
    0xbe82d8e23d8709e8U, 0x3e8d2542be082f66U, 0xbe33cb523e00f95eU, 0x3d9719c4bdc98d80U,
    0x3e024fe63d2f2c2dU, 0x3e1049babce9674eU, 0xbe50b3c1bdaa8b34U, 0x3d99a42c3d0f19ffU,
    0xbebf2ba63def88b3U, 0xbdcdba48be8a8a91U, 0x3e9204083e042577U, 0x3e3754213e7cb82aU,
    0xbdfd7fc93b868c98U, 0xbde302e03e495947U, 0x3e2c6ac7bec38e63U, 0xbe818177bd63110dU,
    0x3e6c7a503e5ce96dU, 0xbe7c62a0bd1956c3U, 0x3e1c79f6bcc0c369U, 0x3e790c623e922490U,
    0xbde27454be1aa4bbU, 0xbd67fe0dbe26dfdeU, 0xbe277ffbbc857bc5U, 0xbeb5e31fbc3610bbU,
    0x3e5e6c833d186285U, 0xbcff584ebd120a33U, 0xbe330be63e7b9709U, 0xbe01d2de3e32eebcU,
    0x3e34b9653bde5e9bU, 0x3ca693b6bd1f6a30U, 0xbe15088b3e67edb1U, 0x3e76a0223ebd3fd7U,
    0x3e4707da3deb1f02U, 0xbe66488bbcd8b87bU, 0xbebc947dbe8f9cf7U, 0xbed9b7eebe3641a2U,
    0x3d6a99f7be14087eU, 0x3e81d118be92bfe5U, 0x3e3e84b43d618290U, 0x3d3c261a3ea73360U,
    0xbc9f6580bdc0b215U, 0xbce980283e235a48U, 0xbd62283dbd7f0c87U, 0xbd4b24313d1c2b17U,
    0x3d1a8c1c3c71ec4fU, 0x3c19ae2fb9b7fc23U, 0xbdcf3f313bb3a2f3U, 0xbbf0a308bd644f96U,
    0xbddad7023d63d95cU, 0xbc4e801cbc090bf2U, 0xbdb2def3ba525ca8U, 0xbddce952bc8fe1f4U,
    0xbc4df95abdb7d65fU, 0xbc3ac9f6bd55b935U, 0xbb31f1f1bc097fbbU, 0xbd10b51f3c9eccc6U,
    0x391609013d0d4954U, 0x3d49eba2be4d4b76U, 0x3b8b555c3dfa3baeU, 0xbcb75c2a3b20f131U,
    0x3dc99cf5bd0cc028U, 0xbcdf2deb3d5e7f0bU, 0x3d87dedd3d0f3ac6U, 0x3e0b6e053a36ad7fU,
    0x3def0664be1729fdU, 0x3d8d7b103da3ba92U, 0x3dd7c828bd4f88cfU, 0x3da82d783cc4bc21U,
    0xbd4193b93e2da79aU, 0x3d7998e93deb491cU, 0x3d1a04ebbc2974d5U, 0x3d14b067be0fc3c3U,
    0x3e06976f3d34b972U, 0x3e078d4fbe57d90fU, 0xbd1648ce3e1f7174U, 0x3d908610bded7dd6U,
    0xbd9e073cbd70e289U, 0xbb1ab1efbaa76bffU, 0xbd4f9fa8be5b1da9U, 0x3e01068b3d42802bU,
    0xbd7685f0bdd7c212U, 0x3c39b05cbe93c5edU, 0xbdac7254bcb82c2dU, 0xbb4b7c7d3df253bcU,
    0xbd51e6613da475f5U, 0x3d8952e63e492c3eU, 0xbdc20435be290902U, 0xbbe02789bc3057acU,
    0xbd8ce404bd8e9aa7U, 0x3e4e027a3d81c105U, 0xbded383a3d34ac1dU, 0xbdc857e2bdd7bfe6U,
    0xbe831046be9689e5U, 0x3a539279bdd3aca3U, 0xbbba8b1c3d7b24a9U, 0xbc9af57b3d11061dU,
    0xbd8b6e093dc0956fU, 0xbc83e96b3c912869U, 0xbc5c516fbc698f8eU, 0xbcbb1f5dbd661883U,
    0x3deb6bfe3db74907U, 0x3e5cea76bd80ed63U, 0xbd4e16673e4092f6U, 0x3cb5222cbd588924U,
    0xbe4556ff3d211ab3U, 0xbe8f2a56bdabfc63U, 0xbbbfc7523bd2d774U, 0xbbd58158bdd9f8c5U,
    0xbad3f43d3e036b82U, 0x3d58c5b2bad37ff0U, 0x3d525ba9bcd9b48eU, 0x3d03cc7cbd55137cU,
    0x3db3de7fbe4c40dbU, 0xbcffd686bd5d7e43U, 0xbb53c4d2bdd5bf53U, 0xbcd9b6aebd8e3eb4U,
    0x3c5c46b53d4fa71eU, 0xbdb501fdbd534a28U, 0xbcbf4d9abe460292U, 0xbe002c4f3d8cb742U,
    0xbd67ec5c3d92eb11U, 0xbcb9d3fcbe375de1U, 0xbc3f8b933dabd250U, 0x3d4a9ba0be5acfddU,
    0x3df3f9533d165762U, 0x3e136d913df1a507U, 0xbb87c9c4be27e68dU, 0x3d3f1ecabd90fc5fU,
    0x3d26f6b4be13b4baU, 0x3d3ece39be86d366U, 0x3db768ea3e0ead2dU, 0x3dd3185abd9e2a4fU,
    0x3df31111bcb91722U, 0xbc73f568bb99a3e8U, 0x3cb5c8afbe54322eU, 0xbdf7a313bda573f3U,
    0xbd6e32123b683047U, 0xbc8596e43d2bc0f1U, 0xbd92099ebdaa2015U, 0x3cacec55bcf79375U,
    0x3dbcdafb3c89a554U, 0x3d8cf377be2bf06fU, 0x3dd31ecebcc39a8fU, 0x3e35a22c3d4b36ddU,
    0x3d81f937bdc7130cU, 0xbe1c857ebdb1ecc4U, 0x3de1532abcdac379U, 0x3d0d2a173b9985c0U,
    0x3e8b53efbba63860U, 0x3d42d433bdd599c4U, 0xbb1150b63d8f47cfU, 0xbbc9e2763c8034d1U,
    0xbb639ad0be064dc8U, 0xbdadf37bbe80d38dU, 0x3dae6c55be0e1e95U, 0xbded9b64bcf4830eU,
    0x3e16441a3dfc7e5bU, 0x3da1e5f1bddf6949U, 0xbe0e3a87bcf07df1U, 0x3cc60a12bacd63b3U,
    0x3c8804aabe42d628U, 0xbdb26f4bbd4eea5fU, 0x3cbce956bdeee792U, 0x3da6e0f5bdaabcb9U,
    0xbf024989bdb40d9aU, 0xbe80acdcbd3c6fdaU, 0xbe315dbbbdd7c7aaU, 0xbe85394cbd9c7fcbU,
    0xbd8f7270bddfa215U, 0xbd70276dbd95ad47U, 0x3c5e2fbdbe1bfc12U, 0xbd4bb160be275fbcU,
    0x3df5565c3d77c101U, 0x3d15dc61bdf5b9dcU, 0xbdd3cea1bd842f57U, 0x3e10b33fbd8450feU,
    0xbd9a6ffbbe14f235U, 0xbe31437abe4b9b4bU, 0xbd268ff0be65498fU, 0x3db461fabd279128U,
    0xbed09d5bbd730f5fU, 0x3c3ca41cbdb42dd0U, 0xbd93f61cbe5da1a1U, 0xbe94a8f13c87e707U,
    0xbc86834bbccf1972U, 0xbdcebc363dfd1639U, 0xbde24b3fbd87f0feU, 0xbe1c53f1bd1ceaacU,
    0xbd47bbc9bd4b17baU, 0x3daa624bbde59cd8U, 0x3b912deabd9e0555U, 0x3e418cf13d012eedU,
    0xbddef5743d5546baU, 0xbe2441d8be1635c2U, 0xbdfba06dbe8e90ddU, 0xbe1556c5bd6def74U,
    0xbe261dd1be0583a0U, 0x3d2715c4be3ad9cfU, 0xbe1a1dc2bc790a00U, 0xbd378d653d2528bfU,
    0xbe0ba00bbe72f848U, 0x3ccc7dff3c48b979U, 0x3d0f13b8be00ea21U, 0xbe64808c3d7eca5bU,
    0xbdb443ec3cfea6b2U, 0xbe8d782c3b1507dfU, 0xbe8afd39bde79193U, 0xbe7acf6ebe155d8fU,
    0xbde64737bdae51b9U, 0xbd7fad733d707d6cU, 0xbe98c25cbdb7b27fU, 0xbe3989f2be247465U,
    0xbc456e70be4a27fcU, 0xbe070f83bdb5f46dU, 0xbea5c3963d0d9584U, 0xbd1bc144be578c7dU,
    0xbe0b495dbd5a931dU, 0xbe5c6ab13cd59e5dU, 0x3dd0fe4fbe0c279fU, 0xbdc12d2a3cc89116U,
    0xbdf27f213cc60e35U, 0xbebcb77abe155a41U, 0xbca542763cae43f1U, 0xbf0d6ae4bd532128U,
    0x3c44ca9c3da03f29U, 0xbd4826023df0e489U, 0x3cde0c57bdc4602dU, 0xbc1f62b3be691d80U,
    0xbdad7588bdc80fbeU, 0xbe747cc5be6a5d51U, 0xbdb585e43cc91e5cU, 0x3e029873be944d4aU,
    0xbc4279223d3d3baeU, 0x3c9f01dcbdcacee7U, 0x3db11c923caede49U, 0x3db1b14fbd37b9d0U,
    0xbe1589c83ca0e2aeU, 0xbf1fda86bcf870b6U, 0x3dddc10a3e0c79dfU, 0xbeab4d753d4baf9aU,
    0x3c9a2cd53d6a3392U, 0x3df0c9a23e2153b6U, 0x3ce688b53afd8a8aU, 0x3d7f681fbe0ac7fdU,
    0x3d416cd53be334ccU, 0x3d659d893c9ccc4dU, 0x3db8bbc73deeec3bU, 0x3de220f0be516d26U,
    0xbdd0c50bbe229722U, 0xbd9831a33d124dcaU, 0x3d72fa17bd3f1736U, 0xbe0ca6d23db3fc43U,
    0x3c36f2403c17c08cU, 0xbe634e763bab1c20U, 0xbde136c8bd4019ceU, 0xbe7cf083bdc2bcfbU,
    0xbe208e1ebd3bdd0eU, 0xbe1ee0f23b8a95fbU, 0xbe1edbd0bc997931U, 0xbe29d9b7bdfd08dcU,
    0xbde10a2abe3e6653U, 0xbe47a8eebc904a14U, 0xbde073413cd06d2dU, 0xbe0012b3be759d6fU,
    0xbd691be03dbed94bU, 0xbe1b4a473d91a7b4U, 0x3e6a6c903d9ea9c5U, 0x3da6c49a3d4f645bU,
    0xbdb122b23e080199U, 0xbe92f6693c8dd609U, 0x3dc4c6ed3e09d338U, 0xbe5bb20abd1cbd38U,
    0xbd0a8f933dcf3561U, 0x3cd332cf3e5d55d4U, 0xbcfca11cbd570ff0U, 0x3d870765be1a44e3U,
    0xbdd863fe3d7f7eedU, 0xbd793629bbc3a38aU, 0xbdd1a56d3dab5bebU, 0x3e02e74bbe303845U,
    0x3dd38bd73d6ed0e3U, 0xbd717536bd366c55U, 0x3d4e7927bcd6ee29U, 0xb9f5a17d3dd0b460U,
    0xbeb922ffbdd3c804U, 0xbec4d685bd8b50b4U, 0x3e24e39fbc5d233aU, 0xbe72350d3e077eceU,
    0x3ddc98c9bc8fbf73U, 0x3d1dc1453dbef8c3U, 0x3db81cbabdc69526U, 0xbc45f510bcfc6795U,
    0x3c77415ebb92fceeU, 0xbd2bf0df3d8d1071U, 0x3e09d5663db8a30aU, 0x3d82617b3a75659dU,
    0x3da287aabda58d49U, 0xbdf4d6fe3d177da2U, 0x3d657e8cbdb85fb8U, 0xbd96e9a83e5f83e0U,
    0x3b051f3b3d309489U, 0xbcfdc5dfbe242652U, 0xbe25414dbdad8b78U, 0xbdafb383be2368bbU,
    0xbdad5fc6be132528U, 0xbe318eba3dd25e07U, 0xbe01349ebdfcc4e3U, 0xbdd558783cc7c33eU,
    0xbe727006be042ce3U, 0xbdc326b93ca66e6aU, 0xbe954e2e3a088c34U, 0xbe459e923bc7c0e5U,
    0xbd3612a63d639d91U, 0xbe9f90c6bccf1f96U, 0x3dfebc59bce368afU, 0xbbbbd0873de6f9b8U,
    0xbd8561ff3e07fcb5U, 0xbe8abaee3d14d032U, 0xbc00d4813df7e352U, 0xbedc34ffbcb8abcdU,
    0x3e1abc38bd9f71d8U, 0x3ae43e393e3eb4b2U, 0x3d93f532bdc47aa0U, 0xb89a7d0ebe25c00dU,
    0xbd4b4168bd7ad8daU, 0xbd2151a7bd4b2e46U, 0x3d54e3303e145e92U, 0x3e18bc3abeae96c5U,
    0x3e34f5743e055a1aU, 0xbd2184e3be27532bU, 0xb98d402c3db1e7b2U, 0x3de983573de1cff1U,
    0xbe24127abd66250fU, 0xbe6d90d63c38dcd1U, 0x3d564b80be4ef47fU, 0xbe83e2e03c3c0f4dU,
    0x3d3fecccbdf92f93U, 0xbd24a5ce3d8a809eU, 0x3e2856333dc664a6U, 0x3d222a223e3621c6U,
    0xbd83550b3e2ba74cU, 0xbd3363843d5c6ba3U, 0x3dc28d7fbd719cacU, 0x3c951642bd8b01a2U,
    0xbef1ea2fbe81de71U, 0xbda8b1debe1ab539U, 0x3cf2469bbeae3539U, 0xbe98d14dbeb1934bU,
    0x3e1625be3d197999U, 0xbd6a7f19be9ce1e9U, 0xbe7c085fbe70846cU, 0xbd7ee159bdaa33f8U,
    0xbe6b7e77be8f96dcU, 0xbec948c4be1e32edU, 0xbe311122beee4adbU, 0xbda7e2dbbed642dcU,
    0xbed391ecbea3af97U, 0xbe3f4b84beae1c44U, 0xbe6137febe706e76U, 0xbeb7fedebd8a6130U,
    0xbea598f63d901c8cU, 0xbe30ddccbd22f842U, 0x3e64bdc9bd9df28fU, 0x3d573c10be218f92U,
    0x3e7d2e653e29f661U, 0x3e0260cbbece7559U, 0x3ddd73773cc91a07U, 0x3cf8e04d3d80a166U,
    0x3d02fadbbddae4b0U, 0xbe3752f33df5adb9U, 0xbca4702ebe8cdd21U, 0x3e523974be129f87U,
    0xbdfeb8e7be060239U, 0xbd931d9cbe63466eU, 0xbda904783e1f3f83U, 0xbdc27be9bdee3452U,
    0xbd9694ed3da15ca3U, 0xbe94a5b43dc99af2U, 0x3c733026bc6d5e12U, 0xbceb7a7cbe07fd74U,
    0x3e6a5d68bbfcb852U, 0x3e1f91c0be7dfe47U, 0x3e2066b1be0faca9U, 0x3e9273173e5254ecU,
    0x3e1bf03cbe1b1c23U, 0xbe2377223e27af10U, 0x3e1cddb9bdbb8fbbU, 0x3c6c1356bd0eac27U,
    0xbd6c3209bcef4a85U, 0x3e34f16cbe150ce2U, 0x3d2e2fc1bcf857aeU, 0x3d884ce53e1ad104U,
    0xbe1b6307be419b0eU, 0x3d437418bde87d1bU, 0xbe26c8ee3dc6115fU, 0xbcfdbeecbe6db4baU,
    0xbe3b7823be288b14U, 0xbdfc6f613e4a2ceaU, 0xbe423fa839e729eeU, 0xbea383d8be849d2bU,
    0xbd9ed55d3e8db5d1U, 0x3e2025aebe6c59abU, 0xbe81f1a73dfdf686U, 0xbe161a60bd15741eU,
    0x3d735b10bc50486eU, 0xbe784458bcbc2d93U, 0x3cf0077abdd52397U, 0x3d38ddd3be755b75U,
    0xbe815f9abe5dc0eaU, 0x3db4b4aebd65e92cU, 0xbe8b61283da64b2cU, 0xbd722029be1850a7U,
    0x3e858b1f3ddf78bdU, 0x3e4dc94c3e988f7eU, 0xbe6eaedabe5995ceU, 0x3e0ca96fbd276087U,
    0xbe3c44723e4369f4U, 0x3e3c0dfabe5918adU, 0xbe809abe3d3bbe96U, 0xbd93eb2ebe79b1edU,
    0xbe15d429bd568924U, 0xbe1bd9d23d01e65cU, 0xbdaee3afbe0f8dcdU, 0xbd9358b7be306dc9U,
    0xbe9866f2be196af3U, 0x3e19d4713d6cead0U, 0xbdadb438be3dd516U, 0xbe778aeabe8b60e4U,
    0x3e8cea983cdecd3eU, 0x3e5f6ec8bd0d6e79U, 0xbe256147be5f21eeU, 0x3ce679e2bca67f2eU,
    0xbdecf8e2bdc9e359U, 0xbd8ce9eebe3c4526U, 0xbe424d98bd582694U, 0xbb6f6909bea98dadU,
    0xbe640e973b91df46U, 0xbe4b37b9bdd63151U, 0xbe5ea6efbda17148U, 0xbd51941c3daa0b3dU,
    0xbc89d8cf3b785833U, 0x3d22b881be21a118U, 0xbcdeac3a3d677b6fU, 0x3cc136d13db422a6U,
    0x3c99c9edbb8e4022U, 0x3ccd19b33db5c06aU, 0x3dd615443d0fab6bU, 0x3e05870b3cc05786U,
    0x3d9185943d4ec2dbU, 0x3dff63393c17767dU, 0x3c4224533df98bfbU, 0x3e0b4479bd068a7eU,
    0x3e21b7843d55f683U, 0x3e161d0b3df73376U, 0x3de9c14c3d829916U, 0x3c99ce0dbd5a930aU,
    0xbdfe2e4b3d28da82U, 0xbd32642ebe095be3U, 0x3ddb674c3e0be549U, 0x3d89deadbdcc8bbdU,
    0x3dcf525d3cfc18a6U, 0xbb65064a3e272219U, 0x3d043d5d3e3d1f56U, 0x3d8a6f5ebd85c2ccU,
    0x3dcb38ef3e46700dU, 0x3e35d34e3c8b7ebbU, 0xbcd60c073e43933dU, 0x3e117096bceac2c8U,
    0x3e0d99c13db78329U, 0x3c3d74593bd8664aU, 0x3db4c6ac3d9fe15bU, 0x3da7730ebe479a0aU,
    0xbd920a23bc392811U, 0x3dabbcd5be0dacd4U, 0x3ca3d22b3d6eb413U, 0x3d76d5eebdf98aeeU,
    0xbd5ae720be1133e5U, 0xbe2abecf3e942d1bU, 0xbc0cbd03bd08b377U, 0xbda612a03cd00d56U,
    0xbcf0e9d83e78f5d4U, 0x3dfeb194bd885032U, 0xbd8af4243e74d675U, 0xbd1c2803bb9aa272U,
    0x3e05fea63d28c544U, 0x3d83052e3dac60ffU, 0x3df37959bdaa7818U, 0x3dfb2fd4bdf64c96U,
    0xbddd503bbe57811eU, 0x3e63a3b7bddd770aU, 0xbde7033e3db1bbbfU, 0xbd5225e8bdd976eeU,
    0x3da41563bd2ed1e8U, 0xbd5f82423e9cbe6dU, 0xbe0b38973d08c5d9U, 0xbcc1be26be9b290bU,
    0xbe16b1793e8caeffU, 0x3eb98606be829b4eU, 0xbdf3a50d3ed041f4U, 0xbd34627bbdbdd8d9U,
    0x3e734540bd81c3c6U, 0x3dd150ea3e21db62U, 0x3c86ab06bc0fb8c8U, 0xbde29e39be9a9191U,
    0xbe17506abe8ad931U, 0x3e2bab43bd7d550dU, 0xbd8bab56bd3fb64dU, 0xbe8f85afbdf8906fU,
    0x3e1b5b3a3dcf2591U, 0xbdfba5e73e37d379U, 0xbe87c79abdf2470eU, 0xbe5cbafebe8f4ce2U,
    0xbe7c2e6d3d42e97fU, 0x3c9a917fbead19baU, 0xbe87b5d73d4afb43U, 0xbddd2d21be70e2c5U,
    0xbc68f634be2ac68aU, 0xbe68619dbda8b9a7U, 0xbd7bf9a0be524bffU, 0xbc56eb4bbe54db2dU,
    0xbe2cb03c3ca9404aU, 0xbe57f964bdc68744U, 0x3e4c50fbbe8a04fdU, 0xbe8de420bd91bcc1U,
    0x3e2136ac3dfe0be7U, 0x3d1cad8abe6ee3e8U, 0x3bcb2449bd3f3b66U, 0x3d9460b3bd42e94dU,
    0xbd85e8c0be566c38U, 0xbe5e931e3e657267U, 0xbdce1573be3892bcU, 0xbe0b0731be973ae4U,
    0xbe3c49fcbe939dc5U, 0xbd2eb513be858ebbU, 0xbdc766603dde2646U, 0xbdd3b9ecbe2760f5U,
    0x3c2c544a3e0242adU, 0xbd9d0978bdfc535bU, 0x3d89fdd93db0d5c6U, 0x3e0382783da3a317U,
    0xbe5f8340bca1df04U, 0xbe274a293e3ed59dU, 0x3d1da6b33e2490d5U, 0xbe9baf463dbd7366U,
    0x3d528c693e42abc1U, 0x3e0dcf733dabd060U, 0x3d3751b83e05841cU, 0x3e3291bd3d16f0e6U,
    0x3e3c58433d889c4cU, 0xbcd01c543db92a92U, 0x3dd28e073da69212U, 0x3e0be15ebdb3f142U,
    0x3e3a699c3cb2471eU, 0xbc9cab0ebde4f38dU, 0xbdebbfcd3d9ec222U, 0x3dc94b0e3df85568U,
    0xbe308d6ebddf464bU, 0xbe87ebcc3e03655dU, 0xbd8a9b0fbe85d918U, 0xbed31619bd4bd11dU,
    0xbd8905873d8aafd1U, 0x3da91cdbbe73faf1U, 0xbd8e7a423e04a9acU, 0xbdad29e43e37820bU,
    0xbb4e1623ba85c349U, 0xbe0669e73daa44afU, 0x3d8c194fbdb2d985U, 0xbddbae34be016d95U,
    0xbda2fe8abe3b6f42U, 0xbdac422cbdd4fc3bU, 0xbcca8296bdcdbfdaU, 0xbda0488e3d249108U,
    0x3dc0a1de3dc4590dU, 0xbe01241bbd8f1a70U, 0xbe2677bebe0e09d3U, 0xbe58e04dbe3a63b1U,
    0xbe426f04bce95156U, 0xbdf488e0bdaf53aaU, 0xbe481ce5bd92ebf4U, 0xbb4a3fbbbd6dcf87U,
    0xbd9b5420be5a9298U, 0xbd32df5ebda8f57aU, 0xbe1c6e51be23f3a4U, 0xbe74e4dcbe575eddU,
    0x3e7b6be93e17500dU, 0xbcc5c9cb3d88b44eU, 0x3df4df463d52e498U, 0xbcd7919c3e93dd3aU,
    0xbd8f5acd3b5f0d18U, 0xbe4237e53ca3a020U, 0x3e2ed12fbdc0a01eU, 0xbe17e1ff3dc742f5U,
    0x3d2949c4be2e1f36U, 0xbd8369673e661fd4U, 0x3d18b7a93bf2f831U, 0x3c3274113e1d0b8aU,
    0xbe04a9e83dced8bdU, 0xbe13e07c3ded03feU, 0x3e1314673c26482bU, 0x3e36c0963b55ec67U,
    0x3e8f45a03d29c34dU, 0xbcbe2c81bdfef1e8U, 0xbe0260493dc55a3bU, 0x3dea50173e5124ebU,
    0xbdc35270be48b2eeU, 0xbead1bd33d5c4b20U, 0x3cd02d53bda53381U, 0xbeb4caacbda51228U,
    0x3d14daf1bd3810b7U, 0xbcd4c2c9bd91be3bU, 0x3da2d946bda921dfU, 0x3d3fceef3e18adc7U,
    0xbd4cf0d13e04a98aU, 0xbe9fc4803dec3c2aU, 0x3d058d02bcf2368bU, 0xbe209b8bbdd61317U,
    0x3db9b3c7bdb551a6U, 0xbdd80e38bd7dee6bU, 0x3d9358fcbc3947aeU, 0xbcc1bc923d7a8cf1U,
    0xbd1aba4fbc18e29eU, 0xbec46af23da05585U, 0xbc7fd3f5bc126f86U, 0xbeb44404bdecffd5U,
    0x3cc7ec323cca59b4U, 0x3cdd89fb3de7beddU, 0xbbbc9735bd982641U, 0xbd6aa12c3c4d325fU,
    0xbd7b3cacbcaa4dc7U, 0xbe2ce0c93d05e3e8U, 0xbdaa7b363d2eec2bU, 0x3c91b5e5be882806U,
    0x3d88a866bdf5cfbeU, 0xbd81590abbfa3f48U, 0xbd877cdfbd7d1535U, 0x3c8b0c2f3d9da483U,
    0x3e3cf43a3d038e17U, 0x3e0f9d05bdd10cf1U, 0x3c3648b0be9f930aU, 0x3dc9b3743d677bd8U,
    0xbde16b30be9a61f5U, 0xbe92649b3dc1cc60U, 0xbce3a103be7183a5U, 0x3d2760253ccc1466U,
    0xbe9f043dbcda611aU, 0x3d9e386e3d0fda33U, 0xbb2eb062be6c63f3U, 0xbe88ea533d860208U,
    0xbcb7e87abe33e953U, 0x3d22baaf3e0a879fU, 0xbe14e964bd309ccaU, 0xbdc4b1563be87d24U,
    0xbd865e23be24fe18U, 0x3e4dba91be329fe8U, 0xbe210100bd7762c9U, 0x3e83580fbdf5e4bdU,
    0xbdc07f1abe18cdc8U, 0xbdb45d2ebe8045eeU, 0xbd7a5230bed04e9dU, 0xbd930607bc36970fU,
    0xbead12353d617325U, 0x3e239353be3269ccU, 0xbe9b424abe75af1aU, 0xbeb688e53deb1c29U,
    0xbec2a0fcbe9329e3U, 0x3dbb817d3d6c67a9U, 0xbe4bd1b9bddf0a85U, 0xbea1fc03be556b3aU,
    0xbc82a060be2606b0U, 0x3db9704abc9d4f9fU, 0xbeae8597be2ec50dU, 0x3e0ef130be3ca741U,
    0xbe8bba603d4b9c69U, 0xbd975db8be737a9bU, 0xbea1571fbe3fdc97U, 0xbe90ea53be962b76U,
    0xbe7ea235be2020c5U, 0xbdc4b69fbd8e1271U, 0xbe83f347be362ed8U, 0xbe7032e03dd372aaU,
    0xbe489e9bbe1d1689U, 0xbe7fc70b3d80e2f0U, 0xbe4c6fc6be1e8adaU, 0xbd80947abdb6a4e3U,
    0xbef06d9ebe8131faU, 0xbe25efc4be85b5c7U, 0xbdcd76c13d65a79bU, 0xbe918724be49be40U,
    0xbe547a5bbe0706dcU, 0xbdbde94bbe41108bU, 0xbe594a2abe46fa83U, 0xbe6fcaafbded9206U,
    0xbd96bb77be17086aU, 0xbe2a2a12be6026b0U, 0xbe319d213ce5c3c8U, 0xbe6c800fbd9a942dU,
    0xbe8f98d0bdb6ec78U, 0x3db24a05bcb9f4bcU, 0x3dc688b93d3d0795U, 0x3c812639be86785aU,
    0xbdc97c4cbd8060b9U, 0xbdfca21d3d293020U, 0x3d60bb5c3e6f931bU, 0x3e02a303bdbecb97U,
    0xbd5455c33e62dc3aU, 0x3e38d79f3d3f98dcU, 0xbe1a86023de5004fU, 0x3bdcaddebe20b9feU,
    0x3ea3dc48bcf8c691U, 0x3dd2ff12bdb0bdc7U, 0x3da1cad33e12fb84U, 0x3e2d1bd6bc74591cU,
    0xbe5d3d83bcbf974cU, 0x3e250430be25dcddU, 0xbb4af37e3dd3240dU, 0x3e3f4b7abebbabbeU,
    0x3e42ee86bd98edf3U, 0x3e0bc6bf3e9ee486U, 0xbd2d8000bd5e5024U, 0x3e4995a2bd2702c3U,
    0xbced7bc93e9083f2U, 0x3df397e0bdf627d6U, 0x3d2f0c3c3e98b12aU, 0x3d60abc5bd9396eeU,
    0x3e8f5ec7bd274966U, 0x3e9c281bbcbba35eU, 0x3d302eeb3d886500U, 0x3de1bf8fbbc56fa7U,
    0xbe250000bdcb2644U, 0x3e04dfa1be00da0eU, 0xbd30e6993cd2bf28U, 0xbd893ea7bddc2f88U,
    0xbe500942be05ab89U, 0xbe83a8bcbcc605c8U, 0xbde475c03d7caf5eU, 0xbcef33c8bd9db24cU,
    0xbd53e2633debe4cbU, 0x3b88be453d0c9305U, 0xbdbda135bd1ca6b9U, 0xbda54c91be8cf6d7U,
    0x3d97dce83cfe2601U, 0x3dbcc7be3d43c001U, 0x3dfbca753e0869c1U, 0x3e6be569be40ade6U,
    0xbc8b122e3ddde42aU, 0x3e845838be84389cU, 0x3d490e9a3dd5a5b0U, 0x3d85ad9b3d51cd95U,
    0x3e887f143dcede3dU, 0x3e498feb3d983eacU, 0x3d90be393d989f9bU, 0x3e9c1ab83d8093bcU,
    0xbb3329e03e105387U, 0x3e2270783d591916U, 0x3d6fabab3d7ec8ecU, 0x3da5e51ebd153335U,
    0x3aa2d1e03e06878bU, 0x3e4bd0f33e19d2afU, 0x3d91671b3ca9e3f1U, 0x3dcd9281bd42817eU,
    0xbdf2b392bc133603U, 0x3d0b6294be487cfdU, 0xbd398ee13df10a12U, 0x3db336e8be367ecaU,
    0x3e6dd56b3ceb7701U, 0x3dcad2e03bbb95aaU, 0x3d6728f0bd8093e7U, 0x3e5f96463d8b9d9bU,
    0x3d92952c3ce084e7U, 0x3d8c83673cf8d986U, 0x3da60c233e010c74U, 0x3e1ac388bc41575dU,
    0x3db61bd63d84db1dU, 0xbcb8837dbda32d0dU, 0xbd9b0803bd6544f3U, 0x3c9099ed3d0ef339U,
    0xbe2cff753d4aa681U, 0x3c02af76be010251U, 0xbd4d38333c42c0efU, 0xbce771e8be1ea0ceU,
    0xbdaf3609ba932f46U, 0x3cd04be53d1cea7aU, 0x3dde99753bef0930U, 0xbdd8965d3d34342cU,
    0x3c120f3c3c93cb45U, 0xbc0c49ca3c8eb399U, 0x3baa63373dcc1dfaU, 0xbdc4487bbafa5125U,
    0x3d8559e93db252a1U, 0x3e1abc9ebdf3c251U, 0x3ca6cb6a3d9995a1U, 0x3e04a8b3bbfd6f89U,
    0xbe3f56433d580d09U, 0xbe218299bd8d7d57U, 0xbc1799623d423848U, 0x3d961fd0bd9896c7U,
    0xbdadc5b63d8fbe79U, 0xbda5fbd2bd0ac37aU, 0x3da5bed9bd8ddaa8U, 0xbe54e1f93d9389ccU,
    0x3dcdb44ebe19534bU, 0xbc7d6f1ebaf1274cU, 0x3cf07430bd3e415cU, 0x3e0c582dbd9d3219U,
    0x3adc2c48bac9114aU, 0x3ce25b53bdeb26aeU, 0x3d1dcb00bd1b1721U, 0x3dd60f78bddd622cU,
    0xbc728d9d3d907cf8U, 0x3d4a2a27be67d934U, 0xbd83d2e93d62acafU, 0x3d5f33403db42c37U,
    0xbeca321dbdb1c0aaU, 0xbee563a3bc824a14U, 0xbc47ee11bd675abeU, 0xbed414633c6f5c28U,
    0xbc47e46ebe2701a9U, 0x3d261ca93d0652b4U, 0x3d4d90a03d367490U, 0x3bbb16e0bcc097fcU,
    0xbd8f12b53d2db171U, 0xbe887b013e08f3d2U, 0x3df07cf33cd9da83U, 0x3ce8a7cfbe864779U,
    0xbecf82683d2cb5b1U, 0x3e007b583db7daeaU, 0xbe3423943ce2e715U, 0x3dcc06c4bded0d85U,
    0xbe881419bd8d8471U, 0xbdb830f7bdd59f37U, 0xbc008fcb3cb5cf0fU, 0xbe7fcc13bd71edf1U,
    0x3de859debc8f2931U, 0x3c25ecb4bdf84d09U, 0x3bbab2cabcb89a9eU, 0xbce3b5ddbe86b7bbU,
    0x3cb6603e3da13103U, 0xbdcc6643be50f5d9U, 0xbd5610a0bd3df1bdU, 0xbb42f06b3d37ecf3U,
    0xbdc34de93de4c3b2U, 0xbccf74c83cba8711U, 0xbddf27f93c8d13afU, 0x3cb58076bce59a66U,
    0xbe8c3227be0992efU, 0xbe8d1724be5959f3U, 0x3da5b7c0be1d6f83U, 0xbe80f9fc3c532be6U,
    0x3dc36b6ebd78b151U, 0xbdf9fa093d05eabcU, 0x3c3164c4be2c1446U, 0x3c0df59ebe338867U,
    0xbcda8fcebc8c6155U, 0xbcf9c5bcbe0ce6cfU, 0x3d2c623dbbe1a30bU, 0x3d195c28bdf782faU,
    0x3e005fbc3e0c3473U, 0xbdd190083defc8adU, 0xbd3f5945bd79b673U, 0xbc0758ee3dd03d69U,
    0xbe88cdfdbea460eeU, 0xbdaba538be4f8fb5U, 0x3d6e09dd3cfdf875U, 0xbdf730b73dd52e31U,
    0x3df06e33be528938U, 0xbe7b482cbd384834U, 0x3dbf2fa8be8435ffU, 0xbd8c0a343d38644bU,
    0xbdb521f63dca220cU, 0xbc8245b8bdd53934U, 0xbd5b7922bd457564U, 0xbc0d48d53d12f28aU,
    0xbe4dc1663e1f547dU, 0x3c9fdf33bd9493e7U, 0xbe8d23c93de47a78U, 0x3da26916bd9f6f7bU,
    0xbd6809acbe3c9db3U, 0xbd2a944abcf6c61eU, 0x3e0fb65cbe516386U, 0x3dacdac2bd1d4702U,
    0x3dcb8da63e3092ddU, 0x3d45570bbe5256bdU, 0x3e3b6a373e0204aaU, 0x3db3719abe729e84U,
    0x3e5cb2b33de6414fU, 0x3e25a08abe035ddaU, 0x3e08a3313b3b32dbU, 0x3e3b893a3dc72528U,
    0x3da0183b3c2be730U, 0xbde6201c3e9d6c2eU, 0xbe8a9742bd50440fU, 0x3d051cb13dc5abedU,
    0xbc7aac39be4091b6U, 0x3e28456bbe843f55U, 0xbbd96d15bebfcf81U, 0x3e123de83e06a3ccU,
    0x3de298f03c4af048U, 0xbe0e219dbe914e37U, 0x3df3d641bdc18884U, 0xbde3d9023c6fb027U,
    0xbc9f799ebbcdeb51U, 0x3e2ba394be2427deU, 0x3d4afbeabe54853aU, 0xbe589ce13e03f9f2U,
    0x3dfff7e8bb5f1a2dU, 0xbdebba873dadc8daU, 0xbbcd9eb5bdc6f89fU, 0xbdc7fa5d3d2aa2a5U,
    0x3d90119f3d48c606U, 0x3ddf920cbdb6941bU, 0xbbdbbb183d249950U, 0x3e05a3f73dd26689U,
    0x3e03411bbe467188U, 0xbe4f55a13e00ad7bU, 0x3dc79ce4bea1f501U, 0x3da2dd1d3da5e82eU,
    0xbe5f38cd3d759f76U, 0x3de797423d94ce1eU, 0xbdf64c8c3d3820cdU, 0xbe17b20c3df15cc3U,
    0xbd8a389f3de18ea7U, 0xbd772ef83ce04346U, 0xbe43fbdbbe0613f7U, 0xba7572d3bdcb4030U,
    0xbe3a12babdc895e7U, 0x3d990619bcdfd5aaU, 0x3d79af683d72b9ffU, 0x3e6244793de3d0cbU,
    0x3d1651ff3d555373U, 0x3d99fd863e174cddU, 0x3db1497a3e11f413U, 0xbd8ba3c2bca1f4deU,
    0x3e8001c8bd77ddc7U, 0x3e6ea95cbe2c9564U, 0x3d5bd15f3c9d6f64U, 0x3e891a5a3d882265U,
    0xbd063e97bd27332eU, 0xbdfafef0bdcaab28U, 0x3d7e9dda3dc0819aU, 0xbd8528d5be074e3fU,
    0x3e052eec3bc60ad7U, 0x3da6a6883dac2becU, 0x3d6104ba3df5ca5aU, 0x3dd08914be04cea7U,
    0xbd99135e3ba98c26U, 0xbccaf366beb4e9a0U, 0x3d328fbd3d58897cU, 0x3d17f1e43d38ad22U,
    0x3ce5732dbdd13fe9U, 0xbdb6c6d9bd93d2ddU, 0xbe1d5fb8bda9ee6aU, 0xbce4dc353e015c29U,
    0xbdcd2b3fbc3f7928U, 0xbb02c604be5758f6U, 0x3c4ab1503d2033cfU, 0x3d72f592bdb5fb6cU,
    0x3e0e2bfcbcd1a097U, 0xbd2d23263dbbaea5U, 0x3daf5310bd085a1eU, 0x3dafd53e3d8db316U,
    0x3cbe86e2bc7bcdecU, 0x3c764c81be13f0ccU, 0x3daa6e11bcddeb14U, 0x3cb808e4bdfc49abU,
    0x3ce6aa2d3c93a8f3U, 0x3dc1e6983dce9941U, 0x3c2fc24cbd96a1eaU, 0x3d14a029bca6eddcU,
    0x3dc859af3db818d1U, 0x3db71d233e44b2f5U, 0xbe66e8acbd198f99U, 0xbd66b8753e1e5e79U,
    0xbe6c396dbe585c7cU, 0x3e17137bbe7f4b64U, 0xbc001ae53d0efdd9U, 0x3d85b5acbd4e02b3U,
    0x3d2fda2dbe3889e8U, 0xbe23d760be8ce758U, 0x3b9e4a7fbdd2d0cfU, 0xbd99299f3d872966U,
    0xbd8c9c6f3afee9b9U, 0x3e05b827bd9ac3efU, 0xbc5cdad1be0c99faU, 0xbd5648dd3e4cc611U,
    0xbe570ba2bd7b2a4dU, 0xbd94f286bb5b0ba1U, 0x3da2e879bd59f746U, 0xbdf2245ebe1a6b5aU,
    0x3cc9751ebd1a996eU, 0xbc83f8d8be3b8ee8U, 0xbd0d97003c1c3b6aU, 0xbdb9df8cbdc984d5U,
    0xbc829393bd851b87U, 0xbd0107f5bcbc72dfU, 0xbd6126d1be22fdefU, 0x3daa9d58bdb81e8aU,
    0x3c856ae0bc3b9b4dU, 0xbd5c3844be1e79b4U, 0xbde857243d5805f3U, 0xbda562a6bd94ce71U,
    0xbd2aeba53d4b4d20U, 0xbc8b7d40be67ff9aU, 0x3d9ca473bc6dd235U, 0xbbbfbb07bcd386d2U,
    0xbb242c673a9c1bc3U, 0xbddc229b3e22c175U, 0xbc93be5d3df05823U, 0xbe0754afbdba542cU,
    0xbca9e457be4dc9a3U, 0x3d0926c0bd739c7eU, 0xbd188a3c3d81b326U, 0x3d911e1e3d59a37fU,
    0xbdeb92513d26542fU, 0xbd7757753ce5bc55U, 0x3d91dae2bc93623cU, 0xbcc08424bd980e1aU,
    0xbcef355fbe071424U, 0x3e2065773a8ef8daU, 0x3d9d479d3d91564eU, 0x3d918e6f3d90ab89U,
    0xbcfa4a0c3d4e627eU, 0xbd5310893deee7f2U, 0xbd201371bd7d4eeeU, 0xbe20bd94be725612U,
    0xbceadf393ca341e3U, 0x3dd5d315be360995U, 0xbdbf1fa13e016f8dU, 0x3d86f7453cf15445U,
    0x3d6fe8903b7f7ee4U, 0xbe5a45f13e0c2d46U, 0xbdec8ee2be3643ecU, 0xbd2f2742bc1e29bdU,
    0x3d139ac1bdb3a54cU, 0x3cdd8bd0bd97e362U, 0x3d9e3a62bdb97302U, 0xbe2713d83c58a7bfU,
    0x3d930516bc53b031U, 0xbba3fdecbe465bc7U, 0xbd6a3868bde732a7U, 0xbe1ca606bd7e7ea2U,
    0xbd9dd85bbd85949aU, 0xbe3e8cd93d43cf62U, 0xbe184545bc9827deU, 0xbe089e0cbb6a8b27U,
    0xbcd2711fbdd37c6bU, 0xbc2d588abbf48c32U, 0xbe38052a3dad0c2eU, 0xbd8173a6be1bc2caU,
    0x3cc5bc26bc47e6fcU, 0xbe66d603be785b79U, 0x3cf2cdb0bd75f4e2U, 0xbd495e94bdf432ecU,
    0xbcd066ab3c07cdecU, 0xbd4cbf47bce45a6fU, 0xbda84c1abc627e06U, 0xbe210f393d75f638U,
    0xbdb8094bbe9b1029U, 0xbe05a93d3d9cdb43U, 0x3c6114efbe8b610dU, 0x3c8bced6bcb6ec5bU,
    0xbdaf23c13d3e0052U, 0xbd1112e1bdbe0a01U, 0xbd9ab0ba3cda276bU, 0xbdd7df79be6fcd69U,
    0x3dc2738abc516fb2U, 0xbdb00152bc9fe7dfU, 0x3dca76c33e3bfe43U, 0x3d433bc8bd17a782U,
    0x3e4b6992bc08c94fU, 0x3df9f4693dddb828U, 0x3d9b21c6bd14a010U, 0x3e3cc9203ce2adc5U,
    0x3d253fa0bd560b5fU, 0x3d92b7f2bdb1aacdU, 0x3b8719013b1056eaU, 0x3e0385b73e64fbfdU,
    0x3cc840553ce2586fU, 0x3e98a83a3da070f4U, 0x3d73071b3b82d214U, 0xbd46ae4abd5dd344U,
    0x3c3cbda2bd983b36U, 0x3daf0d3cbec034aaU, 0x3cf8d2a33e2b024cU, 0x3e19ae50bd993372U,
    0x3caced88bd8001deU, 0xbe03ada53e7f90e6U, 0x3d852f2b3d6b9e60U, 0xbe7b8ade3c89c5d9U,
    0x3c00abe03de643d6U, 0x3e28b6933bfe7cf4U, 0xbdd0c9eb3df0e061U, 0x3de8cd8a3d83dc22U,
    0x3d273ab03dd7715eU, 0xbc9336773e330f66U, 0x3da118763d1dfafaU, 0x3d4c3007bea1bc6dU,
    0xbc2b8368bde1b064U, 0x3e30c03ebe5573aeU, 0xbe3ef2953d464c34U, 0xbd95f104bd889357U,
    0xbd599bf9be84af42U, 0xbe478e683d44a891U, 0x3c8c541dbe215eddU, 0xbdc733c5bdfec4a5U,
    0x3bfbeda33e3525d4U, 0x3e16e4cc3d6bbb69U, 0x3ced862b3e298e27U, 0xbe6f08afbd19be89U,
    0x3e110e003ca5676bU, 0x3c830de3bd388b52U, 0x3d83cbd8bc581063U, 0x3d6b874fbe844b2cU,
    0xbce6fca63c06b057U, 0xbdbfd607bb50d0bdU, 0xbd90c129bd22eea8U, 0x3c39a2903dae260bU,
    0xbc0fc3683d3893b9U, 0xbd0d8c6abe40595fU, 0xbdde645e3e02c726U, 0xbe0957b9bd48f25fU,
    0xbba313f3be2a5000U, 0xbd5077c5bddfb9b0U, 0xbd7bc0f3bd7800c4U, 0xbcfeb211bc081f4eU,
    0xbba00d97bd91908aU, 0xbe1633efbd02f2b7U, 0xbd646be63d666111U, 0xbcf2fc7bbe08ad08U,
    0xbe1597573d85a6d9U, 0xbe51660cbe92b0ddU, 0xbc42ee4d3c8227caU, 0x3da75e05bd9d8536U,
    0x3d6226893aeac30cU, 0xbe46a29ebdb5b145U, 0xbca80e693de8f947U, 0xbeb000353d6e3efaU,
    0x3d9eea2dbead6efbU, 0xbde30d493ca0c85aU, 0x3c7a7ad4bdacd512U, 0x3a923d6e3baa30a4U,
    0xbe02af0b3d222444U, 0xbe06c642bdcdfe9dU, 0x3d6c43023d75bf90U, 0xbd8ce623be8d65ebU,
    0x3d4860053da7fd28U, 0xbd389adabe29cfcdU, 0xbe1ff130bcf017c6U, 0x3cba0e7d3d96181fU,
    0xbdf14d44be71b1b0U, 0xbe0cb69dbd0bd2f7U, 0xbd196623be46e938U, 0xbdeb2e25bc8e55eaU,
    0x3dd58cd3be446e2aU, 0xbdb7a999be10f918U, 0x3d2b8b3b3d2f509cU, 0xbc24af953d7b6194U,
    0xbcb8b0693b83ae4cU, 0xbd8ed81f3d976d30U, 0xbcdf3908be4356a5U, 0xbd83e8a4be22898fU,
    0xbd522c1b3db56387U, 0xbe44e0523c74f827U, 0xbe19637ebdc8c649U, 0x3dbe99ecbd9e07b5U,
    0xbe1dfd6ebe2ce54fU, 0xbdd81a37beb0c582U, 0xbcc297813d969148U, 0xbd8eb6343cf740f0U,
    0xbd6dc61a3e3c6894U, 0x3d13ca9dbc875336U, 0x3c4f9eecbd9a4cb1U, 0xbe3d615bbe5f7eeeU,
    0x3d8cb09dbc26dac4U, 0x3e0a8be4be8da6cfU, 0x3dd9daa23d38e8e3U, 0x3dff63f0bc315c8dU,
    0x3db4775c3d50741eU, 0xbe8ebbb9bd6d9a6eU, 0x3dfb902bbd9f29c1U, 0x3d34abd53dff6f72U,
    0xba18aefcbd8a49d1U, 0xbc9030d9be5ab6e0U, 0x3de491cb3da71d9cU, 0x3e48d4723df49924U,
    0x3d2a2b27bd698e52U, 0xbe7031763ca0edfbU, 0x3dc02d0ebe5d5604U, 0x3d051d963df597d2U,
    0x3d5bac4d3c54dd4cU, 0x3e828f5fbc399f8bU, 0x3e26fe053d891226U, 0x3dc9e3f43cbd4fdbU,
    0xbcd8553f3d52be77U, 0x3c242742be111c3dU, 0x3e6a12f33de018c1U, 0x3d80fad83d1529f3U,
    0xbe01b2443e4154c4U, 0xbbea07583e118599U, 0x3daf5e083e2599d4U, 0xbe45ae30bdb9f8d9U,
    0xbc9cbe61be576eadU, 0x3ca407c8b9af3008U, 0x3d5932adbd932324U, 0x3cee4e123d7ef4e8U,
    0xbe518ad3bc3488d3U, 0xbd00229b3bd3e5f0U, 0xbd819fe03d988f2cU, 0xbe045b20be503a9fU,
    0x3d01f6833d83050bU, 0x3e06bf57bc498100U, 0xbe489bcebbca5e35U, 0xbdaa4b78bd17fa47U,
    0xbe819b41be88a6a5U, 0xbd8aa2e6bd400e61U, 0xbce79213bcc534afU, 0x3ce44f28bd2de224U,
    0x3d60fceb3e605838U, 0x3e01c64d3c373c58U, 0xbdab19ff3ac33ce7U, 0xbe810b47bd9f26aaU,
    0x3dcb5ba7bde70107U, 0x3de5d05bbdd75babU, 0x3d45160a3dab4ab7U, 0x3d50878ebd4da057U,
    0xbcf326c5bc758e3cU, 0xbd86f0a93db8d885U, 0xbda016d4bd8bed4bU, 0x3d4b695fbd53da67U,
    0xbe6af019be95fcacU, 0x3d9314cdbe795783U, 0xbc1984a33dd62102U, 0x3e9422413dedb9baU,
    0xbd91fbb63d2e09d6U, 0xbdf254a43cdde5b1U, 0xbbbbb1d9bd3ed95eU, 0x3caa593abd7cff1dU,
    0x3dde0b45bd5b6303U, 0x3e353837bde9fc9eU, 0x3d7246893d63c2ccU, 0x3e2138113e0d70bbU,
    0x3e1ee9373d32c8e5U, 0xbdcbb1013d078700U, 0x3db196cfbe1d63fbU, 0xbde40e473d8d1a14U,
    0x3d7774803c227ea6U, 0x3c3a7616bdb2fdc8U, 0xbd3745783e398a53U, 0x3dcd2a8a3e17279bU,
    0x3d997843be7bb5bdU, 0xbe4ed5a33e1ff7c8U, 0x3ccf60eebe30feddU, 0xbb735b243d39e0c7U,
    0x3d522ad13dc26e49U, 0x3e6f17c8bd99ba88U, 0x3e0dbb323da19a9dU, 0x3dedd2afbd787744U,
    0x3d70a7533cf62e49U, 0x3c13f0d9be80f2a2U, 0x3e0ebd343de1e492U, 0x3cb6ac453de376f1U,
    0x3e63f90c3d84fcb9U, 0x3d05d0d23c721bf8U, 0x39def8ae3d91a03aU, 0x3d96169f3d7a4a29U,
    0xbd91b141bdc530d0U, 0xbd0eb5c3bcb4c38eU, 0x3d163eb9be229123U, 0x3db0d427bcd96270U,
    0xbd2ef6b7bcf3ad46U, 0x3c873590bc6791d3U, 0x3d2338f9bd017dcdU, 0xbb43e724be3a03d3U,
    0x3bad6f9fbe20f5cfU, 0x3e19c13ebe559936U, 0xbd3419433cfc1e9dU, 0x39a478f2be076e75U,
    0x3d09826cbe0d0342U, 0xbe3c7ad73e107378U, 0xbd34221abe124441U, 0xbe12747bbdeded47U,
    0xbe0f94d7bdcfd902U, 0x3cf23317be16194aU, 0xbda6133cbd8257eeU, 0xbc0029073d919d31U,
    0xbc8cc7ee3e0035e6U, 0x3dddede03de336c5U, 0xbda73904be12016dU, 0xbdcef703be1e791aU,
    0x3c820f4abdb37322U, 0x3e2bd662bdbf41e7U, 0x3d27c567bcf51fecU, 0xbdeee534bde74b17U,
    0x3debba34bd12c5b4U, 0xbd84dddf3d82c3b8U, 0xbe0f10303d4cf0ebU, 0xbd50a250bcae14c9U,
    0xbd256841be2b7fd5U, 0xbcbae77ebd11e264U, 0xbe0fc652bd9f3ac4U, 0x3c8e601c3d00ea07U,
    0xbdb33e283ca00828U, 0x3d8483d13dcb3a43U, 0xbdaf0204bd60a8d7U, 0xbcfb80b73cb005b7U,
    0xbe17a2ceba7723eeU, 0xbe474d2ebe6372efU, 0x3e00388dbd031d5fU, 0xbda6e374be2bdf02U,
    0x3e150b123e4cd3a2U, 0x3dac920ebdbb706dU, 0x3c79f08e3d0cbfc6U, 0x3e1ed30b3c930952U,
    0xbd51def7be22ea99U, 0xbd9f5bb0bd032ce1U, 0xbd0f121abdb51b2aU, 0x3e11cf143c01136bU,
    0xbe8a7eaebd415b38U, 0xbd2d4b6ebdd0f5faU, 0xbdf9438cbce033a4U, 0xbe44842bbd943ca7U,
    0xbe29a270bdecbe8cU, 0xbd8f6889bee79c96U, 0x3e4c12633cf93bcfU, 0x3e06f68ebeac30dcU,
    0x3e5096983e6a02d0U, 0x3e1127693e9c9f07U, 0xbcfac8f93e0600e0U, 0x3e3277bc3d8fee84U,
    0xbd3dd9e33d091415U, 0x3e726f99bc544ea2U, 0xbda687433e2f8a98U, 0x3e812db53df03b07U,
    0x3e478fdf3b534240U, 0xbd314def3ccc134dU, 0x3d5f1ae5be0533a3U, 0xbe241578be0b4a74U,
    0xbe1f256e3c1eafc1U, 0xbdc0f511be01d4fcU, 0xbd819fdebd18ad9aU, 0x3d908e8abe7a5e9aU,
    0x3e349cefbd9d02e4U, 0x3e1054933e029524U, 0x3d276385bd790552U, 0x3e49ff1c3d9c20d0U,
    0xbe0058c23df029feU, 0x3dd8c38fbddcc0e2U, 0xbd1df11b3d667f35U, 0x3d92b895bd8e92e6U,
    0x3e3a3d18bdd2c48bU, 0x3e19bd7f3b30a2feU, 0xbd95c468be158c57U, 0x3d2e0e82bc20de74U,
    0xbe7ecea4bdbb72acU, 0xbd1c49b2bc246d20U, 0x3d87c71c3e00aedaU, 0xbaea1676be66ec75U,
    0xbdcd2fab3d62df4aU, 0xbe84249abc82f77fU, 0x3c27d46e3e4468adU, 0xbe32a456bcfff122U,
    0xbe0ddec23e213afcU, 0x3e0bad4fbc0476f4U, 0xbd7e5ab23da712e7U, 0x3bd43097be10bdacU,
    0x3e0cebbbbdb0d4d6U, 0x3dbe76ffbdc6ae0fU, 0xbd85bdba3d89d26fU, 0x3dcc57afbdc4c968U,
    0xbdcafa273d9b01c0U, 0xbd95689fbe1e7844U, 0x3e3d1285bd8b6497U, 0xbd9bb44ebd2e2aa7U,
    0x3cb26fd83d013d93U, 0xbe237d123d9d1765U, 0xbcdb04a83dbaee0dU, 0xbd02ac193dc4969fU,
    0xbd7e20653d9b697aU, 0x3dd8704b3e16c645U, 0x3db87c403d4b1e10U, 0x3d2a643fbd7bf12dU,
    0x3dc8282fbc4ec3cdU, 0x3c80b260bdce743dU, 0x3de8c9763e5b3078U, 0x3e52797cbda22557U,
    0x3e8548b93d2e915bU, 0xbe04f6973e4174ebU, 0xbe2e673bbcf8bc96U, 0xbd8c6d3a3e69d2f4U,
    0xbd866abbbe2fc606U, 0x3deefc12bd0ea910U, 0xbc75c4d5be35f88dU, 0x3dbcae873c9ecf30U,
    0x3d155650bea04872U, 0xbe018ba3be989ba5U, 0x3db0d4babe51f48fU, 0xbd1e04e43e3c51baU,
    0xbe3fc00abd9ed64eU, 0x3cd83d613cca7bf4U, 0xbc0159aabe35213aU, 0xbe85d96c3d5b9afeU,
    0xbd0890103dab0fecU, 0xbe3c840a3d68403aU, 0xbcd357c8bd8773ccU, 0xbde2a6c1bca56f04U,
    0xbea12e4ebd7b1aebU, 0xbe2cf8ddbdee4e67U, 0x3dd337bd3ea2e91cU, 0xbd8c12b83ac8a3afU,
    0x3d9de43d3e79c123U, 0x3d48a6683e8e7b7cU, 0x3d4ade5ebce57858U, 0xbd9c5d67bdd3220dU,
    0x3da6b0afbdc3feb6U, 0x3c9f3958bda06cf4U, 0xbc15220e3ea1b897U, 0x3e752b91be5bc8acU,
    0x3e24bc5f3d1b00b9U, 0xbc8d18cd3e756dc5U, 0xbeaab22ebc2fbff9U, 0xbd448f143e4a88f3U,
    0xbe491350be26217cU, 0x3db575093d58aad5U, 0xbd1bdb743ddec75dU, 0x3d6428223e29d40fU,
    0x3c03a8913d48a038U, 0x3d23a883bd3e5d31U, 0x3e08590b3dc6f526U, 0xbdb2a0703e3a8833U,
    0x3d5248613de359baU, 0x3e9abb2fbca24e4eU, 0x3d701570be616fd9U, 0xbcd5e4943de9e056U,
    0x3d856e16be31ce76U, 0x3dd25d673e774c50U, 0xbe7c3bfdbcdb63bdU, 0xbe3505f63dee1146U,
    0xbe2eb8ffbe8521e8U, 0x3dd54675be834ac7U, 0xbe62827a3da9710dU, 0x3d8c6b0ebd83ece3U,
    0xbe0864b1bbf5ffa8U, 0xbe06d443bd241f37U, 0xbd91b3f8be5b48a4U, 0x3d98a1833e1b66d5U,
    0xbea93644bd0d7fadU, 0xbda01b3c3cb7db4dU, 0xbe807eebbd660e8bU, 0xbe7628323dcdfa2bU,
    0x3e37e09d3d928df1U, 0xbdbe0d713e259f69U, 0xbd34ef0ebcdf08c0U, 0xbd11c4673c7ca380U,
    0xbeea8e17be4cc685U, 0xbaacc363be96cfcbU, 0xbc872df73d193f7fU, 0x3dbba968bc401c51U,
    0x3c8af486bdf39a17U, 0xbe1e1ed23dd38f78U, 0x3da4d84bbe1c6537U, 0xbcf285893d307248U,
    0x3cefe4893cfb2bddU, 0x3e7180d6bc8bc4eeU, 0x3da7d9f73ca28c5eU, 0x3dcdcdb93df2f817U,
    0x3dbe7b06bcbfcb89U, 0x3c7838053e71801fU, 0xbea13b8b3e0b94a5U, 0xbc82bf373da9ffdcU,
    0xbeb7a56bbe3d3732U, 0x3caece4cbdd862e8U, 0xbd8ef493be3839b9U, 0xbd88e9d1bd97b23bU,
    0xbd678b86bd337d65U, 0xbda530dcbe2e7579U, 0xbd9752dbbe3f4a19U, 0x3c72d1ed3c0a2a19U,
    0x3c9ec5fe3daa8c70U, 0xbddfdbd9bd032408U, 0xbd66cca8be371df5U, 0xbd5ebed23e2d2900U,
    0xbe480a22bddf7a56U, 0xbc0da29dbe292988U, 0xbe43d5f43c6f5269U, 0xbd1b2e92be2d936eU,
    0xbdf59a8ebe7819e9U, 0xbe0f82893c68b6e6U, 0xbd4bc7adbdc7b6ccU, 0xbe51117fbe24f30dU,
    0xbe19a1203e14a76fU, 0x3d5646abbe3d22fdU, 0xbe77d961bd64d49dU, 0xbde03fd1be0100b8U,
    0x3dcc2c61be4707e0U, 0x3da15a72be192ed7U, 0xbe003118bd9e98c7U, 0x3d8c9e84be83e265U,
    0x3e3fff243d0329c2U, 0xbd87dea1bd8cd825U, 0xbd5af0473d0b77a6U, 0x3ce998a53c88cf83U,
    0xbdb4e81dbde7ad03U, 0xbdfd6a80bd24a21cU, 0xbba36f9c3c17a796U, 0xbd8d5fc1bc1a304aU,
    0x3d6c6509bde16017U, 0xbdeb05bd3e0a3cc7U, 0xbd3eae50bdab238aU, 0x3c8c079139fcbdf0U,
    0x3e1ec9973dc6c829U, 0x3dd72477bd5a5900U, 0x3d62b8123d9e5ea2U, 0x3bc04c57bd9ece94U,
    0xbc14255d3d316d00U, 0xbb6c5a2bbe82a229U, 0x3e009a913da057c5U, 0xbcc394b5bd5f51b1U,
    0x3df140a93de92588U, 0x3d6a7ffa3cf033daU, 0xbc2027993c080d41U, 0x3d924d00bd462d93U,
    0xbc96d5b8bd8ef641U, 0x3da1e8a5bd50037aU, 0xbce16a543daa1d7aU, 0xbcecb2063d744a49U,
    0x3d4e1748bcee934bU, 0x3e14e4113d1ae829U, 0xbd11aa6abcfad6b9U, 0x3d2578043dfb7611U,
    0xbce93ebfbd504617U, 0xbc45f1c33d2d0a09U, 0x3d20ca9cbc22fcf9U, 0xbd8597e3bd9f8f32U,
    0xbe7ceea1bd1dd59aU, 0xbe06d0f63c583fc3U, 0xb9e962183e821651U, 0xbea1ee24bdf894cfU,
    0xbcc6473c3dc4fc99U, 0x3cf942a63dce2dabU, 0xbd96fc5cbca6633eU, 0x3c5ee352bd23e7faU,
    0xbcc58cbe3d429b23U, 0xbc6e7fc2bd93c1b4U, 0xbce175443e01029bU, 0xbb91ae73baf8e79fU,
    0x3d972eb9bd3b0fbdU, 0x3ddbfbccbe7707d2U, 0x3d8274383d8f70a3U, 0xbd9eb8f83df02bc9U,
    0x3d8e9f863da11362U, 0xbe5c8be1bcfa8c6cU, 0xbd627c473a099d4eU, 0xbe2fa8cabd841e64U,
    0xbbc20200be9f823cU, 0xbc95b6d4bd87fa99U, 0xbd57045ebe0a3182U, 0xbd925a8a3d59c886U,
    0xbe5791a03d89cb30U, 0x3bbf82cb3e336069U, 0x3d8c7b843d78e33bU, 0xbdb4f66dbe2a2d59U,
    0xbe13c549bc928a8dU, 0x3de83ed7be876ef3U, 0x3d13d71cbd1681d6U, 0x3d4eec7dbe281ab9U,
    0xbdcf51173d9721bfU, 0xbe7c9c42bdd92883U, 0xbd61deb93cd0cc65U, 0xbe455664bc9dfdbfU,
    0xbdb6054abde675f4U, 0xbd0bc8e13c98c1a5U, 0xbd87d09fbd50d76bU, 0x3ce43a1bbdc2e0f7U,
    0xbd79d2a5bd5dd38aU, 0x3dbf0a28bd32023dU, 0x3c0e40a1bd450da6U, 0xbcd58fb9be92759dU,
    0xbcefaf37bc3809b3U, 0xbd82c3893e1f70f3U, 0xbca649d2bdd16e90U, 0x3deb0d5f3dc2b770U,
    0x3ca8cb11bdea9080U, 0xbd24002cbe9facc4U, 0x3d6ebba93cef3301U, 0x3e1a21e03def924cU,
    0xbc0237fdbd9b5ad6U, 0xbd1ab9b63e1989afU, 0x3de1ebd0bd0044f1U, 0xbd7bb80fbd0f0db5U,
    0x3e3e6c04bd7c4510U, 0x3db171b8bde2c563U, 0xbd60f7c43e29e92bU, 0x3e3cf2aa3d1a940fU,
    0xbcb73c91bd39869fU, 0x3e103f97bda8aa1eU, 0x3cfeaa3abc955092U, 0x3da6d3e1bd761fdfU,
    0x3e9cdb983df69f63U, 0x3e44a8d93deef7c7U, 0x3d988123bc4cef76U, 0x3e6d18643c196287U,
    0x3d62feffbe15f9b6U, 0x3dd2de88bddac789U, 0x3c3c51483dfcdb54U, 0x3da28238bd378d07U,
    0x3ddf4d1c3cc5ab26U, 0xbc91c9473d793e01U, 0xbd50d70d3da553e6U, 0xbe11cfecbb9fd34bU,
    0xbdb29f6ebcc9a9f5U, 0x3d80d4c13e6fc324U, 0xbe07124ebe8ff7f2U, 0xbd839e1fbd0c567dU,
    0x3e578d4bbdc43851U, 0x3e57f49fbe2f28e8U, 0xbbbc4377be65ba62U, 0x3e3b6ba13d3b66c8U,
    0xbdaaa08c3cefa93eU, 0xbd87a9a8bcd80541U, 0x3d12b04b3db45d46U, 0xbdb0d0c1be08b3c8U,
    0x3df70c803d409670U, 0x3e9ce6c5be5008a0U, 0xbd4e45b8be6d015eU, 0x3ab246eb3e3da007U,
    0xbdc7af9ebe011f7aU, 0xbd591de23e6f3156U, 0xbe1cd2b3be01e73fU, 0xbe91dff23a4c9912U,
    0xbdc4f041be0adabfU, 0x3e07ba4dbeee30d8U, 0xbc36dbf83e440501U, 0x3e499ae6bab97c7dU,
    0xbe1a8eca3e08e8daU, 0xbe14c0a0bdc8adc6U, 0xbb83abacbe655d12U, 0xbe21307dbd290c7bU,
    0xbd849abebd85a87aU, 0x3dda846bbe8481acU, 0xbe5d3d79bd7562feU, 0xbe1671263e2bbeefU,
    0x3d9befeabe217f15U, 0x3d06ee54bd242098U, 0xbd468fba3d017e8dU, 0xbdab6c993dd0202eU,
    0xbe33f256bd7dd3d3U, 0xbd49d362bde76e46U, 0xbca3a4ec3c51ef23U, 0xb9e9d28dbe0020adU,
    0xbe28c98bbe01009cU, 0xbe0fa56e3d63af7dU, 0xbe0e4649bd4a0374U, 0xbe0cfaa63d34bbfeU,
    0xbe02952ebd6014e1U, 0x3e4aaff93d02550dU, 0xbd8dffcbbda60224U, 0xbd5d0f21bde5dc3bU,
    0xbe81d6583c8b1030U, 0xbe4fe8b9bd61d787U, 0x3d6cc12bbe3263d1U, 0xbe110f84be5f3475U,
    0x3c1620963d5b870cU, 0xbc6eb63dbe2f6d17U, 0xbd5b4254bda6f57eU, 0xbd9a7c92bd17c3d2U,
    0xbe007e12bd21c792U, 0xbe36669f3d870e64U, 0xbe19e399be3c0e10U, 0xbe27fba4be66169cU,
    0xbdeca74bbdb4739fU, 0xbd8d8fd2be709418U, 0xbd6c90fcbe0802b5U, 0xbcd9bac2bdc57226U,
    0xbcd4a065bd80c96fU, 0xbe57718abe496ec7U, 0x3e022d773dabe94eU, 0x3bc96709be4d6a86U,
    0xbc4cc3443e0a25edU, 0xbcb48696bdd13432U, 0xbd295fc43e0c29eeU, 0xbd4bab3b3d6f69feU,
    0x3d05bd56bdc12054U, 0xbe1dcdb03dfca307U, 0x3cb5bfe5be4aee61U, 0xbd74aa08bba8bdfbU,
    0xbdeb89dfbd8c281cU, 0xbd6786943c403c23U, 0xbdfc670dbc3c7c28U, 0xbb0d87e1be347492U,
    0xbc811d60bdd4708aU, 0xbd8504c2be29a61aU, 0xbdd127b7bce41ea7U, 0xbc581b03bc99660eU,
    0xbbab58d7bdaaa288U, 0xbea5fed53c4fa67aU, 0xbd7dc07abdac5fffU, 0xbeb806a6bd35ab9aU,
    0x3cc515753d64e16dU, 0x3bd84733bd41c293U, 0xbd18efd1bd1c8b47U, 0xbd6a6fe0bd9882dbU,
    0x3d157fd4bafbf75dU, 0xbe1227be3c630f11U, 0xbcedc086bd94ad35U, 0xbdbc770dbe268435U,
    0xbe4e69293d738c74U, 0xbb2b2a89bc88b08fU, 0x3dc36747bc28500dU, 0x3d9ecd183abfa399U,
    0xbdfd2a52bd83c7d9U, 0xbead5971bcf37d21U, 0x3c632ee83dbc21dbU, 0xbd988458bd9a9394U,
    0xbd32dccbbdbf7408U, 0xbd81b8a5bc580f1cU, 0xbd4bf0913d4d39a4U, 0x3cba415cbe7b198eU,
    0xbd81d89ebceb7608U, 0x3d304fcabe002b10U, 0xbd1fbb7d3deeb65aU, 0xbdcdcf50be225a73U,
    0xbdc342e03da1ab03U, 0xbe23e3b9bd30f81fU, 0x3dc3c935bdb00c22U, 0xbb7effa6bc05540aU,
    0xbecf6e6ebe1a4c49U, 0xbe547020be026d01U, 0x3db5dceb3e05aa68U, 0xbd11674ebcfe44c1U,
    0xbd4b3f403d3860b9U, 0xbda05b483e3d7768U, 0x3de198e8bdfc74a6U, 0xbe0c891cbd3573a8U,
    0x3bec35093da626cbU, 0x3b11b978be004113U, 0xbcc777523e09ed6aU, 0x3e3632f23c5bce56U,
    0xbe422c35bd9daba1U, 0x3d9582d5be1ecbb2U, 0xbd0a22b33c1e2ba4U, 0xbc507717be9ae5b0U,
    0xbc2bbaee3ce3e5b0U, 0xbd1549293c3bfbe2U, 0xbc5573d33d4ac45aU, 0xbccb7efc3d306034U,
    0x3bbfbdbd3dd59868U, 0x3d15f56b3bd2f0b9U, 0x3ce26fa73ddb6561U, 0x3c929dbc3d566f87U,
    0x3d05d0febc0ec809U, 0x3d6d92103d4831cdU, 0x3d25f21d3d78fb14U, 0x3da40b6ebd9139ecU,
    0xbd769dff3d565ad2U, 0x3dfd0aea3b3aaf1dU, 0x3a1d0a6f3d5e803fU, 0x3b93b8e5bc3d462eU,
    0x3b83adcbbdd2c5a5U, 0x3d8dd3cebdfb8763U, 0x3d25f3703e0f245fU, 0xbc9036373d1e6773U,
    0x3d09326bbdab89a2U, 0xbd16570f3d7110d2U, 0xbd7302713d7184beU, 0xbd839a32be1a4e29U,
    0x3ca2d1adbd3eefadU, 0x3e1ce335bde7655fU, 0x3c75450bbd186ec3U, 0x3db87fb93e16255bU,
    0x3dcd24d43d33f5fbU, 0xbd9e1828bd896018U, 0xbe4e40a1bdadcfa7U, 0xbd6b2c133d98eb0bU,
    0xbe510ee5be62dda2U, 0xbd223e77be294a6cU, 0x3d0c8faabe884a22U, 0x3cea144e3c0bdc6fU,
    0xbc959f08be0db5a4U, 0xbe066a4d3d1f412aU, 0x3d60afd7be40e1f6U, 0xbd84124ebd0c357dU,
    0xbac5e6d73d031ff6U, 0x3bf85fdf3dac6841U, 0xbd2cc94fbca0258eU, 0x3e2bc62c3c01b77fU,
    0x3da945923e04c7b7U, 0xbdcb491bbdcb97c0U, 0xbd52c34c3cdf519cU, 0x39b7f1c4bd01204cU,
    0x3ddf29e6bcc8c71fU, 0x3e743c213c2fbc9cU, 0x3e114220be16f3fdU, 0x3e42f9503e0a6f64U,
    0x3dc05633be0ed8daU, 0xbd934660be7db941U, 0x3d68352dbdfd9373U, 0x3dc9dd71bd8bb0e5U,
    0x3c35919b3dd69e92U, 0x3d82f9e2bbb19716U, 0x3da12be5beb34d7fU, 0xbdf3fa873e0ed18bU,
    0xbe806ddebdaa7460U, 0xbdff62b9be4e4c54U, 0x3e46bfd2bd79691dU, 0xbd3fc039be3af6c7U,
    0xbc1a7c8b3e2de419U, 0x3de7ddb6bd8e765fU, 0xbd2bbf483dca5a6dU, 0x3d5efd1abc849affU,
    0xbd17b0a9be31fa9dU, 0xbda325df3bcfdc07U, 0xbdae7916bdb4a989U, 0x3d770480be0b45c8U,
    0xbe50c10cbdaa5cecU, 0xbda777c5be53d438U, 0xbc4d47b5bd1f6397U, 0xbd6f0d15bd839880U,
    0xbd431dfebc372b29U, 0xbe541555be838e06U, 0x3d37cf573c0d9db5U, 0xbd1e37673db5d7d6U,
    0xbe8910b73d39e92eU, 0xbe0776aabd65077bU, 0x3d72b3243afa146dU, 0xbd55cd30bc64cc1eU,
    0x3d2d90a6bd83d555U, 0xbd183c043d25b4efU, 0x3d233425be30e017U, 0x3de83393bcf065f0U,
    0xbdc42123bc800f2cU, 0x3c46a292bdefbb6dU, 0xbc41ed0c3cf6f3a7U, 0x3dde85dcbe5089b9U,
    0xbc99528ebe432d79U, 0xbd99f3223dc106d5U, 0xbd97a557bdfd763aU, 0xbe34ef8f3e42f5c0U,
    0xbd84f1cf3dd012ccU, 0x3e114409be556fd6U, 0xbe445cd63d58e6fbU, 0xbbfadbfabe2a14e9U,
    0xbe3ca28abd379b9eU, 0xbde5bb9bbe1410f6U, 0xbd8e20e8be03ba44U, 0xbe09af43bcdce112U,
    0xbe86fc1abc26ce3aU, 0xbd9ca4f5be492965U, 0xbdfb76913c687adcU, 0xbe0aad603ea8ae45U,
    0xbdba9dd9bd879c22U, 0xbe194a38be76c170U, 0x3e1c0cacbdda9dd2U, 0xbdfd38b2bcf78982U,
    0xbe2420243e1e4028U, 0xbd9715a2bd063e5dU, 0x3d7e7bd83dc236d8U, 0xbdeb4f073dbae727U,
    0xbc87fefe3d271b1eU, 0xbd8336b23e659ce5U, 0x3d2e2953bde3976dU, 0x3d4d1e2abe3bb5e6U,
    0x3de3b4afbcd6c537U, 0xbc00b866be0ccf79U, 0x3d9660fc3dbf3befU, 0x3df5b412bd808943U,
    0x3e714acabceebcd9U, 0xbdbf772f3e208391U, 0xbd804d24be009fb4U, 0xbdfb87943eadde4cU,
    0xbe97ac9fbe181d0eU, 0xbb8e23fc3b93736eU, 0xbd58e59abd8891b2U, 0x3d018cc93ddb7ee2U,
    0x3d2e0278bdc5e8caU, 0xbe3451803dcef6d4U, 0x3e01e439bdd90b93U, 0xbdf383f23d80763fU,
    0xbd79b4f73d3bda61U, 0x3d77439a3d078cb0U, 0x3d7a6766bd6f3ab5U, 0x3c482fc43e3abb5aU,
    0x39f8af5abd8e62b9U, 0xbdc0afd0be24160bU, 0x3c1c3f373d03dc66U, 0x3b33ccd53d81cfd9U,
    0x3cc2a2ff3d0d9a81U, 0xbdf9e108bcaadc22U, 0xbe1fa6443ddcd1abU, 0x3dc2749d3d388191U,
    0xbdf8b19c3d9dd5dfU, 0xbc8cb9cd3df6a932U, 0xbe058caf3c982882U, 0xbddf8a73bdc6b792U,
    0x3c4431b7be102facU, 0x3e1e0a6ebd363327U, 0xbdc67efd3d0ad376U, 0x3d690315be39a9fdU,
    0x3e4be19d3d128904U, 0xbd92091b3e3f5313U, 0x3e0340acbdabac34U, 0xbdb52b353e856942U,
    0xbde84bdd3e395f31U, 0x3ce86a32bdc313cdU, 0xbc1a42ed3dce9658U, 0x3dc21c7c3c843c07U,
    0xbd949b73be19ef7bU, 0xbd8adf0a3e24de9bU, 0x3ceee508bdbf551eU, 0xbdb38df73df1d8f7U,
    0x3db7a8c33dc9ff8cU, 0x3e3748c1bb3c1490U, 0x3d9fc7ab3ba72d0fU, 0x3e16bec93e71dbe0U,
    0x3e52181cbc4ed829U, 0x3e2603843dc6561cU, 0xbe2590c03cc694b9U, 0x3cf990143dc930b8U,
    0xbe37b377be041a04U, 0xbdee2aadba9a6f78U, 0xbd4556b3bdab0b3bU, 0xbe18de81bdc7b4d4U,
    0xbd9f4127beaef62bU, 0xbe0e9ed0bd90c74dU, 0xbbb3e4c3be29fec6U, 0xbd32db7b3e02be01U,
    0xbe3a04623c88234cU, 0x3d8201653dbce743U, 0xbe0f7fc2be23f468U, 0xbdf8e49b3d2a3e7bU,
    0x3d3b6a14bdaae56fU, 0x3e01d20ebdd629bbU, 0x3b5cc7273df50c18U, 0x3d9fde39bd46e7d2U,
    0x3dd0b8f7bdbf8e5aU, 0xbaabaaf93d996834U, 0xbd32e5febd487eb1U, 0x3dc1f15cbcb39951U,
    0xbd80e27c3d47d8ddU, 0x3c243a9fbc7762ebU, 0x3ca28f70bd378c2aU, 0x3bc6ef0bbd44e74fU,
    0x3cf3b804bd231795U, 0x3def44c13dfd2f88U, 0x3d5e00893d7ceb27U, 0xbccad2a7be6620e8U,
    0xbb9d9b033c89095dU, 0x3e57b2803d05a099U, 0xbd0b8c6dbcb5e8e4U, 0xbd263399be13bd3fU,
    0xbdce0408bd84c728U, 0xbd6bfc63bc8b4111U, 0x3be53f50bd64ca6fU, 0xbd681504bdbd6da9U,
    0x3b98a1463db43f29U, 0x3dbf6a683d8b4c82U, 0xbd0aa5d83c49086cU, 0x3d87acb7bd6271f5U,
    0x3d9311b43df075d4U, 0x3e0b03803d582d3aU, 0xbce4a7323e314e7aU, 0x3e03bace3d8146d6U,
    0xbe35d5ea3e2f061dU, 0xbb986d1abe03bbd3U, 0xbdcd5109bdb6caefU, 0x3ddb6bbdbea25902U,
    0xbd8450fdbe55b616U, 0x3d9e7545bd50e6adU, 0x3e3cac48bd4efd92U, 0x3e61413d3e3d81feU,
    0x3d975b783d86f8d7U, 0xbb504b12bc1453f8U, 0x3e0d3b8ab93f2fddU, 0xbd429771be9047abU,
    0x3e5a3d41bbe76528U, 0x3e16b6aebe15a2aaU, 0xbd040dbd3e288e27U, 0x3ddcca85bc49c09dU,
    0xbddf13edbca3e42eU, 0xbde70dbabdbb1091U, 0x3da974f8bccc03f3U, 0x3dcef404bdbad977U,
    0x3dd8f8a33e0a4ad2U, 0x3da59544bc8fbc69U, 0x3dbfa8213c6cde9aU, 0x3dad2af93d81d565U,
    0x3dbc3231be303e99U, 0x3cd8cca43d91368cU, 0x3d2cbb283d343d9cU, 0x3e21c9ed3c51f7a5U,
    0xbe0a02033ce327b7U, 0x3bd83d1dbd540b3eU, 0x3c93eb52bb925fceU, 0xbe7a060ebbd2d192U,
    0xbe2e623ebc7cb4f2U, 0xb6841170bd8a7650U, 0x3d8f99a3bd92a085U, 0xbbbabf8dbe1735b3U,
    0x3d89092abc33ae4aU, 0x3b5171c2be093607U, 0x3dd3b468bd031ac3U, 0x3d7715413d4866e4U,
    0x3db8f97fbdd2c2a7U, 0xbdcebea4be0c799aU, 0x3df46e8f3e1f03ccU, 0x3d8c4441bdba1fdeU,
    0x3dd6c1413d9f499eU, 0xbcc267a7be300735U, 0xbd8e8c17be1cdb13U, 0xbd27ef0e3d285855U,
    0xbddf74fc3d9b3db3U, 0xbd5e31d23e063d40U, 0xbdf47930bda7bca2U, 0xbdc50e94bd227dfaU,
    0x3c5549fbbdb8a172U, 0x3ddbecaebec1d957U, 0xbd12a4163db72167U, 0x3d8e6460bc24fdb6U,
    0x3d807589be890adbU, 0xbe8a14bdbd93033fU, 0x3de50953bea720eeU, 0xbd801f1bbde73afdU,
    0xbe3c3b193d029e82U, 0x3e46e56fbea74546U, 0xbd32832dbdb856f5U, 0xbe5032a33e34b84dU,
    0xbb8e86a1bd64a8e3U, 0x3b00ab35bd97fd75U, 0xbd8717c0bdefd03fU, 0xbe236892bdef29a1U,
    0x3e6d9e3d3e31c757U, 0x3c7681a83d926792U, 0xbdca0e30bdfcef20U, 0x3db7e8c4bddeb70aU,
    0xbda4f7023b646fbdU, 0xbd79313ebd276611U, 0x3c85f86e3d640962U, 0xbe309fbcbe390343U,
    0xbd04b749bdf4a732U, 0xbd8a26d4bd26862cU, 0xbd2f752fbe6c25f4U, 0xbde0fb07bc29080bU,
    0xbd724e49bd97bed4U, 0xbd0c55e93da1b723U, 0x3c810c0f3bd68efdU, 0x3cc9d0f0bdbc45dfU,
    0x3dff35c43d60aa4bU, 0x3d39b811be2ead84U, 0xbdd5477f3e251a77U, 0x3ddb09ee3c671149U,
    0xbd030f523d36a749U, 0xbd1fb4ea3d06004fU, 0xbd5bf3bfbe0644f0U, 0x3ce51fa1bdc13318U,
    0xbe543b15bdc2f3bfU, 0x3d158ac0be0b02c4U, 0xbda7f6e93d4a20f4U, 0xbd89bfc43b0137eeU,
    0xbda64bbdbd64d1baU, 0xbd6fa218bd0b2135U, 0xbd06a506bd3f1c45U, 0x3b7759ee3d5cbd9eU,
    0xbe7fd237bde6d5a2U, 0xbe5c4005be7f8a60U, 0x3cb333683e1f5c4aU, 0xbe511f31bd479bf0U,
    0xbddd2ef93d27e3e3U, 0xbc88251f3dd31838U, 0xbdbde9fdbe26c4a4U, 0xbd3d2087bde77f3aU,
    0xbc9b079dbd714d15U, 0xbd6349bdbe2256e0U, 0x3d7faf063d3e6e52U, 0x3dbea5efbdecbfefU,
    0xbd2120423c312029U, 0x3d7d220bbe385333U, 0x3db82d253d80597fU, 0x3d88c78dbc8b99fcU,
    0xbe4fe1bfbdc37766U, 0xbe797d4f3c3a2eebU, 0x3d9600b43d7a03b1U, 0xbe156761bc98312aU,
    0x3a91bc96bdeed10eU, 0x3deb231a3deb93c0U, 0x3da2fc9abdba985aU, 0xbce17595bd2e3dbaU,
    0x3dc8a871bde9773fU, 0xbd9af0da3add54c7U, 0x3d9248c93d8cb8ecU, 0x3e1bb16bbe768883U,
    0x3e1af0933de77ac7U, 0xbd6eced1be3636c8U, 0xbdc5bef93d9b2f4cU, 0x3d5c9f69bc7a47a0U,
    0xbe258d0abe950a6eU, 0xbd4fcc63bcf2df04U, 0x3d8285763d2de6e3U, 0x3d014ab43d127c96U,
    0x3cb6d142bc2adff7U, 0x3c890abc3d8b9172U, 0x3e0a6ba33dcbcf6eU, 0xbd5e13013dbbf740U,
    0x3e54fc803d500a87U, 0x3e57caa53a14d0b8U, 0x3de05afa3bb046cfU, 0x3df21f543ca94604U,
    0x3d8c18f33d120b1fU, 0xbe15e1f2be743adeU, 0x3e40fd28bd585d7eU, 0x3d543427bc6d13e3U,
    0xbe14da2e3d8872c7U, 0x3d8c0802bdc9fc8dU, 0x3a77b3ce3e45290eU, 0x3e98c0ee3dcbc2c5U,
    0x3cd27e7b3d1624b5U, 0xbdd971f43e6bdfedU, 0x3c6c8164bddf342aU, 0x3d9031bbbd06d697U,
    0x3e302c9a3dac8726U, 0x3e0a632dbdb1cf78U, 0x3dcf1be63e54cfaaU, 0x3e9d5dd3bbd27139U,
    0xbd8671e5bc10e93eU, 0x3cb2e56cbe83fad0U, 0x3db89682bd6d4ab3U, 0xbc71275fbc967d39U,
    0x3d224be2bb805dbeU, 0xbdc3c3ebbe68fce3U, 0x3d4e6b923c47cc3cU, 0xbe13d4163d05342bU,
    0x3cab5026bda7c66aU, 0xbd620da8bc438715U, 0xbc1d9df6be3a020cU, 0x3de3e085bdce8cfbU,
    0xbde2461dbd5649cdU, 0x3b498f38bd92bf5fU, 0x3d199c923ca8c023U, 0xbc3e40cebe1f4abaU,
    0x3db485e9bd8b4114U, 0x3e0df764bf04aeaeU, 0xbd9cabd53e0d43a9U, 0x3dd2ac42bd9ab14dU,
    0xbd782e91bd6ecb49U, 0xbe24d9323d739c62U, 0xbdc216733c7916a4U, 0xbe2da783bc992943U,
    0xbd5bf37cbe82393fU, 0x3cead8f3bda7be2bU, 0x3cde05093c54f90bU, 0x3cbb17cf3d2a4a79U,
    0xbd164e793d8f2e4eU, 0xbc50688b3d9a0dc8U, 0x3ad38a24bc9849adU, 0xbe188bf6be6b31bcU,
    0x3dfea7dcbc5436a4U, 0x3e60784bbdc77f6fU, 0xbe0e6a8cbd801bd3U, 0xbd6ea028bd733cb5U,
    0xbe6c9a73bdca8d34U, 0xbdcedbe7bcc48858U, 0x3d0fcb37bda16338U, 0x3d5283b63dfa825aU,
    0xbd1aed1bbe964043U, 0x3d30b3323dca8a6dU, 0x3cc956ed3d743df0U, 0xbd859bd13e1f1598U,
    0x3d84c1753e067470U, 0x3e533b8d3dc2dd40U, 0x3cab34693d952363U, 0x3e041e41bdf9868fU,
    0xbe37cc893dd1e4cbU, 0xbd1c1619beaa36fdU, 0x3d9da9b13d6f135aU, 0xbd83cf8dbe66376cU,
    0x3d57f08abd8fdb11U, 0x3d6f61b1bce6d2cfU, 0x3d791fcebd5af59dU, 0x3c48061d3db32d53U,
    0x3d84d63cbe1843f1U, 0x3dbd17b9bd19b99fU, 0x3dd59537be0af7faU, 0x3e168c0d3a02ebf3U,
    0xbde1c6adbd32130fU, 0x3d509e94bd6ffae8U, 0x3ddedc8abd65dee7U, 0x3cddbae5bdd9b28dU,
    0xbe9eaf773d503d01U, 0xbdffb80bbe9f1408U, 0xbdc540e03c750e94U, 0x3c102d25be9bd434U,
    0x3d804b0b3d0ce7b6U, 0xbb28a200bc2ec825U, 0x3c82504abda5c61eU, 0x3d039056bcd1445eU,
    0xbb245c1cbe85b347U, 0x3d4069ebbe06cd10U, 0x3d126ceb3e054d0aU, 0x3d067842be2bb200U,
    0x3cd4f87cbd544fd9U, 0xbaeb6432bd546d60U, 0xbda3cdbdbe9ea888U, 0xbe8c2a78be4ef0efU,
    0xba0743f63d22c17dU, 0x3dfec493bdde3ba9U, 0x3ab7db2cb8fda958U, 0x3cb8ff50be474ed0U,
    0x3c7a3fefbd903b50U, 0x3d6e08da3d66437cU, 0x3daa323dbd07cde0U, 0x3d9f41b7bc977374U,
    0xbd29c337bdcef277U, 0x3ded5aa5be323d34U, 0x3d78bd3a3da2a5f2U, 0xbd1212ec3d8abc31U,
    0x3bc1c5083d996aefU, 0x3e2326813e263812U, 0x3e025917be943a2fU, 0xbd24d38fbc9eb9abU,
    0x38fad4543cc82b41U, 0x3c9706c7be906bfeU, 0x3ddd41cebdb07463U, 0x3d1ab7bcbcef90f7U,
    0xbc41e17fbc0cb82eU, 0xbe9fae453d8852dfU, 0x3c7af8a03e077f46U, 0xbe160a6f3c195cdbU,
    0xbd2c6ea8bc94f645U, 0x3d9b29da3dda61b4U, 0xbce69879bd2e8b0cU, 0xbd5be536bd607a9fU,
    0xbca0e0cbbd125684U, 0x3db5e58abd071c50U, 0x3dcd6c873d9cb46dU, 0x3c703e75be8a2fd4U,
    0x3e0c3a283caedddbU, 0x3de3bf72bd405184U, 0xbdba8b9a3c891d5dU, 0x3bdef8bb3decb7e8U,
    0xbe579352be00a721U, 0x3d7267fa3cba27bbU, 0xbbeebb703cd4de04U, 0x3e10f03f3d2d29a2U,
    0x3cc36ba73d0d5242U, 0x3cc691513dbfa902U, 0xbd9d4cc53d4c8bfcU, 0xbcb841f33db181dcU,
    0x3dd25ce9bcd0f310U, 0x3ddaa86d3d511cb1U, 0x3d0e732a3e0699c5U, 0xbcb175f2bc65a874U,
    0xbe0d41be3d58b15fU, 0xbe4ebb91be2f9997U, 0x3dd51d70be0bca0cU, 0xbb81bb70be18d3dcU,
    0xbdf809c83d46dc9cU, 0x3c42ebfbbe01b4faU, 0x3bb2453a3e27d55fU, 0x3e1c8af53dab5819U,
    0xbc28a4e6bdf11708U, 0xbdccb2723da0791fU, 0xbdab240cbd82350eU, 0xbd17a19abe234c35U,
    0x3d4c53a1bdb72c8eU, 0x3e56b442be657a2aU, 0xbc35e9f83e2f3cecU, 0x3dd6ce45bdbd28f3U,
    0xbc0da665bcdb356dU, 0xbe39d86abe101efdU, 0xbd19f740bc3cbd7aU, 0xbe0b28313db4b927U,
    0x3d805a873cf2573bU, 0x3d433684bb2f5dc2U, 0x3c49a44a3d074303U, 0xbd3125a5bd22eab4U,
    0xbd3373e7be80337eU, 0xbe0b53d23a51e743U, 0xbd209ebfbe87cbc0U, 0x3dc444a03d224741U,
    0xbe15b8fa3c9bdfb0U, 0x3e045e4cbdaef10eU, 0xbb9ae359bdf203ddU, 0xbb3a382abd94237fU,
    0x3dd2c168bd87d490U, 0x3d58452dbeb95d95U, 0x3d4bcdc03d66f8c9U, 0x3c120c383d3388dcU,
    0xbd4ccb31bd747414U, 0xbe2e14d43d431fc4U, 0xbad75ca0bc9fff83U, 0xbe4db451bd94dce5U,
    0xbde5cb56be8034bcU, 0x3d1b5b193ccd3d32U, 0xbb404937bcbb223eU, 0xba8c927b3e251b96U,
    0xbe2336583dfc5610U, 0xbd9398293db60fbaU, 0xbde35fcabd9f9dd8U, 0xbd308e86be826a74U,
    0x3de6e846bd27771eU, 0x3e4fec81bd9372ecU, 0x3bf514edbcbd6daaU, 0xbe06e4b0bcb858fbU,
    0xbe117f60bdd1b553U, 0x3d1c8c98bb3039ceU, 0xbceb08acbccb4fe9U, 0x3db669233d3b9d31U,
    0xbde68c44be04eceeU, 0xbce22c6b3d25cb46U, 0xbd8d59653ad8a744U, 0xbe1611d83d079535U,
    0xbcb6611d3d8a0ac2U, 0x3e3b75ab3e0b950dU, 0xbca128a1bc2c89ebU, 0x3ca4d0a93dcfff4fU,
    0xbe2409acbd28c5c9U, 0x3dcbee9abd0d823eU, 0xbc127830bd647b3dU, 0xbda69d34bdeed5f9U,
    0x3dd15f56bc917f79U, 0x3dea8376bc0c6417U, 0xbd1abf2e3db1ccafU, 0x3e50a9dd3cf9968dU,
    0xbdcb7732bd0e1a67U, 0x3b13a1c33d4894f9U, 0xbd9a9f56bcd1c72bU, 0xbd6d9886be12ab38U,
    0xbdd8c64cbca198b6U, 0xbc94df88bb5f1598U, 0xbde47915bcfaa0b8U, 0xbc1f43763ce5e12bU,
    0xbe03d00ebc1c0755U, 0xbbde50e1be873f9aU, 0xbd168eac3d9ca58eU, 0x3d8d78ffbe93e629U,
    0x3ddf0eccbc09cc19U, 0x3e056ff5bb3ddd1fU, 0x3cf70b85bd732757U, 0x3d54c7bcbddb7d27U,
    0xbdd7558fbde8bd68U, 0xbd534c55bde73344U, 0xbd02c8623dd0cb44U, 0x3b8ab1ffbd9664a6U,
    0x3e20b9b1bdff7fd0U, 0xbd07215bbd263ae9U, 0xbd98028ebd6c3989U, 0xbe17cfe53b53433cU,
    0xbb7551c23cd8799bU, 0xbcbc2d23bd9647cbU, 0xbe03500a3de32737U, 0x3d6da28dbe6bd759U,
    0x3db831673cb03649U, 0x3df0d6a63e2e8c5bU, 0xbdab3e24bdb0941cU, 0x3e2adc473d869742U,
    0x3c86ec923d20c197U, 0x3e1da068bd38f7a6U, 0xbbefbaf23e276341U, 0x3c9745473dc26f6cU,
    0x3e4fdf97bda2277dU, 0x3e14c1f7bd0c4bcaU, 0x3d8f11683bec4b67U, 0xbd52a35fbda1400aU,
    0x3e0f9be5be0b655cU, 0x3c919eba3e4e83edU, 0xbe11fc6fbd814eefU, 0xbe38d6a73e647a91U,
    0xbe520c61be3475aeU, 0xbd26e8993c29d619U, 0xbe1787a13c8177faU, 0xbd023a9fbe4b78a1U,
    0xbe22dcbcbd8c9835U, 0xbdf7ec2bbe947dbbU, 0xbc7a7b43be6695e5U, 0x3da317ce3e146821U,
    0xbe860c093cce1f96U, 0xbd8eef6e3d340c73U, 0xbe67bd69be5c2754U, 0xbe5351aa3e050eb6U,
    0xbe85b22bbe018ce5U, 0x3c14f5873e168770U, 0x3dafdcc23cb9b722U, 0xbd101bb9be0bddefU,
    0xbf089ff33cb1a178U, 0xbec6a6bebe5e3399U, 0xbdc57ea23dc135f3U, 0xbed75aafbe8512fcU,
    0xbda5bc5b3e7a75e4U, 0x3d1fc6fc3e0b2140U, 0xbe2e7dbc3cdf2cfeU, 0xbdda16f9be491048U,
    0xbd0db904be71653dU, 0xbd3e547fbe4ce0e0U, 0xbe75c7333e0f250eU, 0x3e50382fbd835075U,
    0xbe0057ba3d6a8719U, 0xbe5d718bbdba95ffU, 0xbd9e8374bde963bdU, 0xbd66d12dbce3e034U,
    0xbec2c102be5189d4U, 0xbdaadc25be2e35fcU, 0x3dc3c4693d2060ddU, 0x3e39ae9c3d5bb9d4U,
    0x3dd2cd363e1d9deaU, 0x3e00ac2c3e83132cU, 0xb9c714cabe0234f2U, 0xbde6aaf6be1b02a4U,
    0x3e5b769dbd2ed36bU, 0x3e32b986be8a9bb3U, 0x3e03fd263e3d34e0U, 0x3e431f383db8a630U,
    0xbc8660d1bd5ea304U, 0xbe0e7ea33ce81c1dU, 0x3d6ccf553d05fb98U, 0xbcecaf103c691508U,
    0xbe9814f83db8eca0U, 0xbe89f078be2af262U, 0xbe084a623d8d265aU, 0xbea766d5bca9b5f4U,
    0xbe06b5313c219c88U, 0x3db053a33dc03ae2U, 0xbe68d6c5bc9c8dc3U, 0xbdb5c595bd90a762U,
    0xbe3b12a5be25eee2U, 0xbdd4982dbe35e840U, 0xbd74de5a3dd8a88cU, 0x3d0ce5a5bd4d281aU,
    0xbdbf77083ddf51b6U, 0xbd8c7bc1bdae3c94U, 0x3db3b937bdf7c217U, 0x3d2bdddbbd0d7e89U,
    0xbe6c6ba73aac559eU, 0xbeaf542abd9d1159U, 0x3d862a3f3e207b49U, 0xbe8f49473e0a4656U,
    0xbd2127a03dbcc2d8U, 0x3d8e24663e45cdd7U, 0xbc563967bd7db4b9U, 0xbdc46762be3b77e9U,
    0x3d1bb8d9bcda25d7U, 0x3db8f0babe68c350U, 0x3daf01d63d89b5e5U, 0x3d3a099abc2428e8U,
    0x3e3af17c3decaf16U, 0x3e187afb3dbc9891U, 0xbe9d947d3dc19047U, 0x3d2006e93c34fb39U,
    0xbe6e8ee4bea4fb81U, 0x3c5eabd3bcc3961eU, 0x3db6187a3d970686U, 0x3dde5b223d7789deU,
    0xbcd9ebe63a747f14U, 0x3cadbb63bd25ad84U, 0x3d1ea98bbd4d9687U, 0x3d6576d23e577658U,
    0x3d811e4f3db3a10bU, 0x3e5aa6343dd8ff0cU, 0x3e075d34bd00d389U, 0x3dac9e4a3b9afa3eU,
    0xbb16c7b3bd447befU, 0xbe0c3a72be4fd6b7U, 0x3deb7ea53d990282U, 0xbd3bac51bdcda1beU,
    0xbe17cc44bd37f555U, 0xbe9f385d3d136ba3U, 0x3d5815dc3d6c4c99U, 0xbe8707c0bd32db0dU,
    0xbd3c92343e1c794eU, 0x3dc5e8a13e37202bU, 0x3c260f7d3c41ee5aU, 0xbca3fe38bca3ad01U,
    0xbbac087abd548175U, 0x3c6de975be1e61c9U, 0x3dd1fc703dcc7280U, 0x3e38487fbda0963cU,
    0x3dba712cbd246d0cU, 0xbdf564da3d48b44aU, 0xbdefbaaf3d90d90dU, 0xbda40aa63e11294fU,
    0xbe40df66bd9eb843U, 0xbea083aebe254f2cU, 0x3da52393be5524beU, 0xbe6b38a9bd2a4f02U,
    0x3cfeba32be6445a1U, 0xbce8d5093d81fc4dU, 0x3db53e3cbd9ad97bU, 0xbe1bc3453d237fb2U,
    0xbbf904023dc27138U, 0xbc903a4dbcba7d60U, 0x3dbb8f77bd64e5b9U, 0x3dadc295bd9e9e61U,
    0x3dd3593d3d3bab8dU, 0x3e49e1513c92c92bU, 0xbe40b5743cf8a708U, 0x3da1affa3da0607cU,
    0xbdee27a5be79456aU, 0xbd060aeebdfbf7efU, 0x3c67eef1beb42210U, 0x3d6cb4db3c9c5adbU,
    0x3dd66d2fbe687c31U, 0x3cc5f165bdb1c03bU, 0x3cfb4805bdf1c2fdU, 0x3de824543d642ffdU,
    0xbe40a51e3ba76b6eU, 0xbdd3722a3d8731d4U, 0xbd14645bbe4ea609U, 0xbdfd96853d9ea105U,
    0x3d8921563c5d6250U, 0x3d5fd90dbe3301bcU, 0x3dbf45113e127ca5U, 0xbd060819bd4ed0f5U,
    0xbdd47dd53ddf236bU, 0xbdd1fcb23e258172U, 0x3c6d38e23d9bb4a3U, 0xbe0fc7b73d71f05dU,
    0x3dac006ebd7d5296U, 0x3ce29a133ca6c586U, 0xbd9fbe4f3d7b2821U, 0x3e08c09a3cab1c83U,
    0x3ccd802c3d74c398U, 0x3d77399a3d9dc8b0U, 0xbcb63aa1bc6fcd70U, 0xbd73d79dbdb2036fU,
    0x3e23441fbca98386U, 0xbba83d5ebe1e587fU, 0x3d1cad893df15358U, 0x3d3f1a5e3e454ac9U,
    0xbdc37c06bd1ef82bU, 0xbe781ec43e971abfU, 0x3b32d521bce532ddU, 0xbe561f633d63d136U,
    0x3c0f2d7e3d0a9278U, 0x3e46242bbdebfd04U, 0x3b2667593d4d26c5U, 0x3c12e89e3e61ca2eU,
    0x3d78f4d13c570dc6U, 0xbddfcd363e60abe1U, 0x3dfbeababdaf3aa8U, 0xba3ee4edbe5983a8U,
    0x3cff4117be5eac57U, 0x3d2304bcbdf48e59U, 0x3e27b418be6e43b4U, 0xbdd1d5823e05d70bU,
    0x3e0130c03e414b74U, 0xbd947fcfbd996b22U, 0xbe37c474bd60a8f0U, 0xbdd4b263be2da499U,
    0xbe3f063bbddfb788U, 0xbe1e16063e4a64ddU, 0xbe2b48e73c5c7a4eU, 0xbe4efcbfbd7a7311U,
    0xbe2ba533be7543f8U, 0xbdc9c6e1bceb5323U, 0xbe1b728c3cdba1dcU, 0xbd85ebf1be10e15cU,
    0x3d31f3373de51264U, 0xbd6735bbbda10e2eU, 0x3ceeb4b7be049b1fU, 0xbd2c70763debde83U,
    0xbe3caec3bba53607U, 0xbe2110c8be2ae358U, 0x3d3efb3e3d16289fU, 0xbea26f9f3db7958bU,
    0xbc99f80ebdf75697U, 0xbe0c8b183e214289U, 0x3d43befdbc39107dU, 0x3c3f5b50bd2695b1U,
    0x3c6791ed3d1c5920U, 0xbd81daadbdf34376U, 0x3d48afd03da353a7U, 0x3d49167bbdd2ed94U,
    0x3e016dd8bcc3a167U, 0xbc38b0b2bdac4cc3U, 0xbe95171d3d315534U, 0x3d01f8783dd4231bU,
    0xbe82d0b8be95fb1cU, 0xbe2883e63dc9fb9bU, 0xbd8ee54dbeac78e8U, 0xbe496dae3d17739fU,
    0x3d0a0db8be031060U, 0xbaef40543dc5c3caU, 0xbcb9ba5c3d298c32U, 0x3dd3ef503e3e730aU,
    0xbdc0b29dbc3f58c2U, 0xbe1a06713e06b94fU, 0x3e21dd23bde03af3U, 0xbdf8871e3c8cd5e9U,
    0x3da6ff11be0dcbe7U, 0xbceaa17dbe01ea52U, 0x3dae671fbc30ce97U, 0xba72eb913e402236U,
    0xbdf788703d9cc3b1U, 0xbe55b0aa3d7d7a4bU, 0xbcbb8aa93c5f5d6eU, 0xbe31d43dbe49106bU,
    0xbd1663143c869b2cU, 0xbddd6f593e1e560cU, 0xbd290a2ebc8626efU, 0xbe0955323e5233acU,
    0xbbb3b001bdbcd6d0U, 0xbd4085cf3e0bbf22U, 0xbd2331133d7adbb3U, 0x3d50ea17bd8b2ebbU,
    0x3e30c0063da03e7eU, 0xbe051baf3e4ee174U, 0xbd8378453d0d82ddU, 0xbc256b2b3e856e68U,
    0xbdc0f617be13dbbdU, 0xbda70d65bdfdf0a6U, 0x3d86b1b5bb7a92feU, 0xbd9c68b83e080293U,
    0x3d320136be712f9bU, 0xbdfd6d7c3d240006U, 0x3d6d40ebbe25c229U, 0xbccf6645bd022339U,
    0xbe494bee3b046ad8U, 0x3e845d5ebcfd15eeU, 0x3daaaf08bc59dd4dU, 0xbb7f2f063c963c1eU,
    0x3d52cab1bd8de2f6U, 0x3c377ced3d4e44a1U, 0xbe294c88bd83d29fU, 0xbdb44e913dce3548U,
    0xbe84a954be7b6811U, 0xbc67b895be1f02b9U, 0xbd8e5f99bd2c2a20U, 0xbdc64946bd2906aaU,
    0x3cb982f4bdcc0009U, 0xbcb91481bc528debU, 0xbd188a3bbd87e35dU, 0xbd49423f3c9bc966U,
    0xbe17e5d03d0abac6U, 0x3cee7fe03d05bcf8U, 0x3ce492983dd892b6U, 0xbdac27c83d6feafeU,
    0x3bc80cacbd45b001U, 0x3de48fb3bce7b2c0U, 0xbd9502e53d56bc49U, 0xbd0440febd40410cU,
    0x3b94314c3bb1d202U, 0xbdbb60ff3d79c8faU, 0xbd07c9daba91a5f1U, 0xbe6efb03bd3e0febU,
    0xbd299024be17220bU, 0x3a5043663d3f26ebU, 0x3cb20a2a3c17fd90U, 0xbdad5cc5bd67ede0U,
    0xbd834aaa3c35f6e6U, 0x3d8c172ebc1788d4U, 0x3c75524b3dcbc98eU, 0x3e07431c3d23bbe3U,
    0xbbd1ad5dbbd70957U, 0x3d480618be1444b3U, 0x3d0dacaa3d8d6ff7U, 0x3bcd53e53d665254U,
    0x3dbc4cb03d7cbbceU, 0xbca8464f3cd26ddeU, 0xbc4421dd3da846e0U, 0xbe5221bdbdad10e3U,
    0xbd988c1cbd51de9dU, 0x3c4b92673d4c7a4dU, 0x3c16af73bda62811U, 0x3d8be01d3db8f89fU,
    0xbcc1d32d3de0f6e0U, 0xbc94bd663d5900dcU, 0x3d1eb7fbbcf25d96U, 0x3d0d4a70be57fa6dU,
    0x3e256f433bcdd38bU, 0x3e40293cbea976eeU, 0xbe27d5a9bc2f4486U, 0x3d157884bdd3d6aeU,
    0xbdf731c7be8cd6faU, 0xbd95617d3e552cd1U, 0x3d44f6a7bdfdc735U, 0xbdbe59663d5ad94bU,
    0xbde231cbbe25617dU, 0x3db3bf5abd131526U, 0xbd92b58d3ddf680aU, 0xbcfcbc313cc85520U,
    0x3d6e67923dafe5b3U, 0xbcac40713d801556U, 0x3ce85848be26223cU, 0xbd83d5c2be506e6cU,
    0xbdf415d6bd4a69b5U, 0xbbd67acbbb07f7c5U, 0x3d25daffbe10cd1cU, 0xbd2cd63dbd8a7016U,
    0x3d9537c03e272a9bU, 0x3e805b68bdabfc66U, 0xbd3fe0973e9dd850U, 0x3e02c25ebb96b7c0U,
    0xbdd16b343d9ef83dU, 0xbaac017c3dea8373U, 0xbd59d7b4bdde701cU, 0xbc086e9abe25981cU,
    0xbcf45f9dbdaf56beU, 0x3e446926be782f27U, 0xbd0a431c3cf85aacU, 0x3dafaabd3b47e16fU,
    0xbe9a1b183c40391dU, 0xbe941a50beaa251dU, 0x3e05ef1dbde49696U, 0xbcc7724ebe57a0fcU,
    0x3e2311be3e4be496U, 0x3e1eb859be9abad8U, 0xbaf54f4f3d96efa9U, 0x3d4d0b623d06ea99U,
    0x3cbeeebcbe894ae9U, 0xbe674f653dda82f6U, 0xbc3a3a66be33ad48U, 0x3da5e07fbe4337c0U,
    0xbe15ca05bdaabeedU, 0xbd48ff56be878b44U, 0xba764ba5bd4a78d4U, 0xbe635716be3cac99U,
    0x3e18c2eb3c3e062dU, 0x3d9b0cdfbeec8beaU, 0x3da4475f3e22e903U, 0x3cecedaebbc06bb1U,
    0x3d9b01e63d217257U, 0xbe7cea763dddd983U, 0xbaea07063d748084U, 0xbe71cfa73dbc0c72U,
    0x3c9240c6bd75a0ccU, 0x3e14eb193cbb4377U, 0x3c247ccb3b92a33cU, 0x3e3a20333e045c38U,
    0xbd725c7e3d58900eU, 0xbd89b0053e340ec3U, 0x3d67fea83de89e53U, 0xbd85910fbeaa5720U,
    0x3c7ebcd1bd303976U, 0x3e2cde74bda7be9bU, 0xbe80824bbd1f6b56U, 0xbd52505eba875d31U,
    0xbcd2f7e5be8e9db6U, 0xbd7267b03d766131U, 0x3d28a9cabdc9fdb7U, 0xbdc0d856bd957698U,
    0xbd82abafbc62eec7U, 0x3d00d5a23d93d4d0U, 0x3d651fed3d91557bU, 0xbe2635e33c32423bU,
    0x3dedaa853da49b2dU, 0x3d2f30f23e0b1a55U, 0xbd2b47413e281c65U, 0x3d32d753be0858bcU,
    0xbe485f9dbca3f000U, 0xbe54a9c9be47181bU, 0x3d3b3b1fbe831780U, 0xbe62a93ebd8fc09fU,
    0x3d21d3b53d98e0d0U, 0x3d4edc3abe7c46abU, 0xbd9a1ab23c704da8U, 0xbcca94b0bddd5377U,
    0x3c553538bdf8b3aaU, 0xbe37d0ca3e01bc0cU, 0xbe1299e3bdacda57U, 0xbd944780be1c2dadU,
    0x3d168a3ebe4d87eeU, 0x3dda2586be75e869U, 0xbdac0cc2bce10b8eU, 0xbade8bcbbdbf0aedU,
    0xbdbea2d83d679afbU, 0xbd3e69d7bedd1741U, 0x3e4f27993d45f89eU, 0x3cfbac77bd733d72U,
    0x3e6597d43e0a1827U, 0x3da817f43e1f94e7U, 0x3df115c83db1bd2eU, 0x3d57a0a03db23292U,
    0x3de8ebb6bd80f864U, 0x3d7fc6ae3dfb34cfU, 0xbd60e5b8bd0f563bU, 0x3dc11707bd4d340bU,
    0xbdbf80f0bdc3617bU, 0x3da7e39ebd4d11cdU, 0x3cdc63c53d2235fdU, 0xbe0c432dbe14e25aU,
    0x3da9c2723d04038fU, 0x3de88c1ebdad2267U, 0xbda4e61abba0c3a7U, 0x3e16c3fd3da65defU,
    0xbd9fe526bdcff372U, 0xbda7544d3de26549U, 0x3be10581bd34839dU, 0xbce23c313d01ce23U,
    0x3d0cd6ecbcaea28bU, 0x3dd26269bdabe6dbU, 0x3d91452a3df867b3U, 0x3d8cab163e010037U,
    0x3d989f713b2a92acU, 0x3daa41803e0ac026U, 0x3d8a4ba4be1b5365U, 0xbc6f1468bde95b8bU,
    0x3da6a9813d0e954fU, 0x3e095f26bdf7dfd0U, 0xbd91c4e13d377379U, 0xbdb4fd0b3e08e977U,
    0xbe080e1fbd9b5fe5U, 0x3d8be1a53c4de539U, 0xbbdb23f73d590274U, 0x3c02ecfbbdda34d5U,
    0xbc9d7a1fbd858af5U, 0x3d08e16abd3edbd5U, 0xba01bc00be31692bU, 0xbe00af723d205334U,
    0xbe612a453e135c19U, 0x3cc92faf3d1ae6d2U, 0xbe210f23bd088f43U, 0xbd45332b3d86916eU,
    0xbd2131d23d693fd5U, 0x3e41f78ebc9a39deU, 0xbebf55633dcc92c8U, 0xbdfe8b383cde84d2U,
    0xbe3f75a4beab8a67U, 0xbe15aa87bd2dab1dU, 0xbce38610be02ed20U, 0xbd9ea812bc824bbfU,
    0x3d2702f1bcff1c30U, 0x3d9d8eb9be3ef957U, 0x3d4901dfbdf461eaU, 0xbe05e7f4bb9f26dfU,
    0xbd745de03b87970cU, 0x3cc333653d90e9cbU, 0x3c3a4f023da8004dU, 0x3d5b65523db3f464U,
    0xbd223811bdbd9a20U, 0x3d563180bc0cdbb1U, 0xbe3fdd3fbd895077U, 0x3d664167be320779U,
    0xbed74b5bbe82a3ceU, 0xbe9222f73c92dc84U, 0xbd3cb974be959e49U, 0xbe557e7ebdb5dc83U,
    0xbbcb959d3d063d55U, 0x3d988ce4be3a5011U, 0xbdea1c78bd33ad3eU, 0xbdaa491ebdf036d5U,
    0x3d45aebf3d84c418U, 0xbe22cd0a3d4e7bfcU, 0xbb8dedf23d2126d8U, 0x3d96be22be389bcdU,
    0xbdc39bed3e17203aU, 0x3e55b104bdfd0a3cU, 0x3c7623973d9fceddU, 0x3d9eaf22be7e4e7bU,
    0x3cf93a99bd67292eU, 0x3c6cf81c3d895d78U, 0x3d81c28ebd66c620U, 0x3e638d653c81028cU,
    0xbcc4ce5f3ae70d16U, 0x3e1900f4bda0a2efU, 0x3d28bab83e33a73dU, 0x3c4ecaab3d820147U,
    0x3e072442bc8a02f3U, 0x3e2afe7f3df992ffU, 0x3d97e9d13cc4e2c5U, 0x3d4bc0bfbda02bdeU,
    0xbe0584ad3dc48fe2U, 0xbd11b5bcbdbce7e2U, 0xbd53fcfebacf3b32U, 0x3d73c721be00b5dfU,
    0x3d809d13bca3c9afU, 0x3d9132f43d71b61cU, 0xbc9eeb7fbd7c3099U, 0x3e1e39323dcaa1d6U,
    0x3d0bf5743c64d80bU, 0x3a13ee6dbe50de3bU, 0x3d4c60fb3d1c3b14U, 0x3daef68e3da8b4f2U,
    0x3e3b56bd3d5c5c02U, 0x3e835688bd60ddeaU, 0xbd7a0494be446510U, 0xbcdcfe26bd94e482U,
    0xbdf93baa3d6c0650U, 0x3d9b4a49bd4d8bb4U, 0xbc5d2200bd9edc0eU, 0xbd211b8a3d2363b9U,
    0xba0e20fb3cccbdb1U, 0xbd78d84ebcaadfb5U, 0x3d500a39bc94856aU, 0x3e20bdf6bd11dbf4U,
    0xbd4a18b7ba9a9e73U, 0xbd4c72f4be9630c5U, 0x3d9c3242bd420fbbU, 0xbce91a7cbdd0c923U,
    0xbd5a216b3d39ff5cU, 0x3d824f4ebd71d48cU, 0xbdb3f9cabcb4d068U, 0x3ace7507bdf548fbU,
    0xbe1abad6bcd6bcc0U, 0xbe038e12bd0b9ee7U, 0xbd4d0bd1be12e9bbU, 0xbe0f1274be33ef8dU,
    0x3d008b7dbcc6f763U, 0x3e5c9a79bea6eaf7U, 0xbd9659e2bcec0b68U, 0x3db930ae3dcc8d7cU,
    0xbd81fa8fbdab637cU, 0xbe4d4b6e3b17e515U, 0x3df2f242be8c486dU, 0xbc28214cbe3ac5efU,
    0xbe8d738dbc0d8f00U, 0xbd56a368be894d5eU, 0xbe0b1517bd961a3bU, 0xbddea4313e0e17ecU,
    0xbe3d0717bd62b949U, 0xbd627e48bb620d0cU, 0x3e398d513d0c4928U, 0xbd5cb629be03f74cU,
    0x3e2e08bd3e1cc9e1U, 0x3e5e3ba93d344dafU, 0xbda3d6593d6a88ddU, 0x3de009553c1bf136U,
    0x3c08d245bd3913f1U, 0xbdd4f2fabe4a338fU, 0x3c0197723d1f4090U, 0x3e24354fbdf9d2b8U,
    0xbdf0aba93d1a94aaU, 0xbda0b8d1bde8cdbaU, 0xbdd64ac0be5c3c3eU, 0xbea611ff3e2d6b3cU,
    0xbd5517303cf93cfaU, 0xbe08f50abe716e0aU, 0x3de9f5813d6d8276U, 0xbc8071c1be3c9799U,
    0x3e1413063dbfcb4aU, 0xbdca395c3d5d76f5U, 0x3c10cae23e567573U, 0x3d77441cbdbd8b15U,
    0xbd37d1b83dcb1eb7U, 0x3d832341bd3ba7d2U, 0xbd32c406bc929736U, 0x3d12f1a0bcc8376fU,
    0x3d05e7133d138e17U, 0xbe468e893d1e5e66U, 0xbccd158bbcd64bd3U, 0x3d2e6b99bd31e9d5U,
    0x3e012f4dbd384892U, 0x3c17ff29bd71d726U, 0x3ccf4d9d3dbc6ab2U, 0x3c3c05babe7334e6U,
    0x3e117ed83b53e0bcU, 0x3d5f61133d048ac0U, 0xbd91103b3db051bcU, 0x3d465329bde26fe8U,
    0xbd9bf6d9bd1cc32fU, 0xbd9cf468bdbde488U, 0xbd2d8a1c3cfefff2U, 0xbdc5a8b73d9ce6f8U,
    0xbcf37c9bbd5cd2b5U, 0x3e104de53d2e1a68U, 0xbdcc41adbd4643e2U, 0xbe38d38ebd41c7e1U,
    0xbd1b4c0ebd9c3491U, 0x3cd9326dbe4cc719U, 0x3d92acce3d16d70eU, 0xbd3d7cb5be10fd2aU,
    0xbdc813493e73491dU, 0x3d71b5f2bdd15603U, 0xbd90ce7a3e74b404U, 0xbe7cdba3bde13fd8U,
    0xbd2b26593dab190eU, 0x3de1ea0d3da9ed5eU, 0xbe0e81ac3caef47eU, 0x3de41f8dbdbf560dU,
    0x3ddda89cbca0bc39U, 0xbe1c2bf53c9b84e4U, 0x3d7a7c9f3c98e14eU, 0x3e40aa4dbe2e4211U,
    0x3b21fc363d2416e3U, 0x3d183e54bcae150fU, 0xbe17a2fa3bed729eU, 0x3cc63f86bda159f6U,
    0xbe5fb2b0be19535cU, 0xbdfc8866bcecbb57U, 0x3d7d25eabd9cc8f5U, 0x3cd968f43caa7e8cU,
    0xbcaffb9c3c7d710aU, 0x3c735947bdf943e0U, 0x3b7ba703bc8058b2U, 0x3db34364bd903f9cU,
    0x3dbe76313cb7c9ceU, 0x3e18240b3b851759U, 0xbcdd63373d93fdb1U, 0x3d87653ebd375828U,
    0xbe5e70d8bc0223dfU, 0x3e046462bdd7dcfdU, 0xbe18b1fb3da2148dU, 0xbc98d9d6bea9ac0aU,
    0xbe6f7796bdf1c81fU, 0xbe8c35de3d966db9U, 0xbc6673253e1ea429U, 0xbe1d8ff33db71e13U,
    0xbc1b40a73dc0dc5eU, 0x3e0738193dbbffc5U, 0xbd93af893db9bff0U, 0xbe07a25cbd7b6cfdU,
    0x3dbf7bffbd59b8d6U, 0xbe30a2cfbd65c3b2U, 0xbd3187ee3e0feb3cU, 0x3dc9f1febde43b93U,
    0x3e2d43f03d1afbe0U, 0xbe5e59993e8eafefU, 0xbe7d8775be34611aU, 0xbd592faf3da14b56U,
    0xbe13d4a9be36f7beU, 0x3e1f0098be5091c2U, 0x3dc60fa5bdc92b88U, 0x3e0c22273df876b5U,
    0x3d55d5a3be064c63U, 0xbcf418d13dd8101dU, 0x3d8bee65bcdd37b4U, 0xbd35c891bac23757U,
    0x3e3e0ad83dab8f17U, 0x3e551acdbe1a08a9U, 0x3c8360853dad4508U, 0x3dbb6a7a3e6de028U,
    0x3bfc7fa9bdb01a65U, 0x3e023c1a3e2c7523U, 0x3da075d5bcc5b4dfU, 0xbd5063753cff74aeU,
    0xbdfab9f63a53873aU, 0x3daccf41bdb238e7U, 0xbd29bec53e975431U, 0x3bae516abbad3e8bU,
    0xbc36ef4ebe8356b4U, 0xbe3d636bbd96bf5eU, 0x3d756b76be56c605U, 0xbc5c8b6d3db45378U,
    0xbe09995d3ad99247U, 0x3e183c09bcbae6cbU, 0xbd43ea61bdc8d6faU, 0xbe6bfec13e050314U,
    0x3ba0264fbca0bd4fU, 0xbc4d02e23e0d94cdU, 0xbe77ae493d75406fU, 0x3d86af3a3dd5b195U,
    0xbda47b26be2b225bU, 0x3c20ffeabd28be62U, 0x3db72b5cbe82535cU, 0x3ddeb2253c9f7061U,
    0x3d3f63ebbe208c6bU, 0xba9cd064be1bd4a7U, 0x3da6b1ac3d967895U, 0xbdee3e2bbc097c21U,
    0x3de1727b3e1289d2U, 0x3e73ef80bc9056eeU, 0xbd61be90be40f8ccU, 0xbc899a05bcbd9164U,
    0x3cf068e5bd043d36U, 0x3e555ecb3de4414aU, 0xbd8afd74bdad2798U, 0xbdb88526bd1262f4U,
    0x3d126290bd5e72deU, 0x3e2a8bd9bc3b1207U, 0xbe170f46bd26e8feU, 0x3d2a1a243cf8698aU,
    0xbe018ee3be1d72c5U, 0xbc394cc9bd43ec2bU, 0xbd265050bca329c7U, 0x3c81fe13bc638ce2U,
    0xbd0b9ed1bda0bd75U, 0x3d9318c83e12eae3U, 0xbe1caacdbe01dea0U, 0xbe2ad19d3dbc4943U,
    0xbe6ea1c2bdf8b5c9U, 0x3e033bb7bd47523cU, 0x3de93461bc9be83bU, 0xbd559c76bd9c955bU,
    0x3dfea3e03dd84701U, 0xbb86f5363d775cddU, 0xbc5e4178bd148c82U, 0xbd8a8874bbca050cU,
    0xbe081b993c101699U, 0x3cece6103c6fe4c0U, 0xbe17bedbbd0c97c1U, 0x3d65ce71bdd6e7e0U,
    0x3e1f5ff0be091b42U, 0x3da3f7313d9c53b2U, 0xbd96eeb5bdaf7b66U, 0x3c1cbd38bd7707c9U,
    0xbd1ce7e23d358f52U, 0x3e0b1ccebd25e2dfU, 0x3d2a34d93d5d7d4dU, 0x3e1fdd65bdda13c6U,
    0x3de42fc33d0a7988U, 0xbd0627943ddb9e7eU, 0xbcb1982bbd52a21aU, 0x3e40bc7b3ba2b09bU,
    0x3b92786f3db24087U, 0x3e23dc673dc0fd88U, 0x3cf1f5c23e47c1a8U, 0x3da1ed37bc0d38a3U,
    0x3dc4fddebc36ab35U, 0x3e9c4b533d8ff13fU, 0xbcfaeebf3d6b3e76U, 0x3cd859c8bbe638c3U,
    0xbd1d41fb3de58a37U, 0xbd440157baa6f4a0U, 0x3c6bd49e3d7377e4U, 0xbba5f11bbb4f391bU,
    0x3e3361f43d226605U, 0x3d9e388ebcccbaa5U, 0x3e0f987e3dea6a58U, 0x3e2961e23c8ca0f4U,
    0x3dc292d1bd0c4179U, 0x3da99e803d762c97U, 0xbbc4f7c63dc873fdU, 0x3d4c99cc3d44add5U,
    0x3e778f6fbca0c5c5U, 0x3e83a419be2f52c0U, 0x3ddd75ed3da0ba85U, 0x3da578983e35e03dU,
    0x3e87e6613d932c72U, 0xbca0c4683e6c8d54U, 0xbe332470bcf25a20U, 0x3d61a3be3eac74b5U,
    0xbdaa7993be3b7e3fU, 0x3dd024843cd64138U, 0xbd354cd53bc25f28U, 0x3e08803d3d45c829U,
    0xbcd50dd8be47020eU, 0xbd3dc905bce8f087U, 0x3ddbd8083d1bbdc9U, 0x3cbfed243e78cdb2U,
    0xbd5ccd93bc90081aU, 0x3e87728a3de7552dU, 0x3d7633cdbe207921U, 0xbd921d743e20fe3cU,
    0xbca18cefbcf4643bU, 0xbca84be13e12450aU, 0xbd13bec1ba6a2a17U, 0x3d104af8bd83bba0U,
    0x3e1280f3bcbe66abU, 0x3de60fedbc8e9087U, 0xbc8f4317be067bbbU, 0x3dcd39953dd8ee89U,
    0xbdd3079dbe05c092U, 0xbdd5682bbe397eb5U, 0x3ce63d71bd59386eU, 0x3dbd8340bd808fcaU,
    0x3cd85ec83d296738U, 0x3db6f84fbd9e0180U, 0x3d5a8287be8384ccU, 0xbd94de723e269ad4U,
    0xb9a1bfdd3d884c8aU, 0x3d95615b3e337520U, 0x3d5022463bd96a92U, 0xbd292ee03dc2a642U,
    0x3d6c438e3d5ccecfU, 0x3da93d02be71a3adU, 0xbd3473d83cbbabd7U, 0x3ddfe9b23c8f4636U,
    0xbbe0961bbe56235aU, 0xbd3d64acbd45c92bU, 0x3d04f67abe069a4dU, 0x3d14daddbd3504e0U,
    0xbe6fd4b23d045c7eU, 0x3e0723353bf1de20U, 0xbde65ee2bd1c4c45U, 0xbe7e07273dcbb2bfU,
    0x3debcd77be4005f7U, 0xb84631c23e0c89bbU, 0xbdea84f9bc08a3e2U, 0xbd60485bbc9b0682U,
    0xbe1948d5bda1dafeU, 0xbd1f8223be2e0eaeU, 0xbd8d31c5bcd98232U, 0xbe033a85bdbaee95U,
    0xbe538770be7cb718U, 0xbe42bee8be4ceb4eU, 0xbd50fb2fbe8d8a27U, 0x3d79bc153d1b719cU,
    0xbefa7d6ebd7a1de2U, 0xbe61e097b9bdaa46U, 0xbdd2d18bbea2cc8eU, 0xbebca945bbd76e70U,
    0xbdf69149bd88a7c8U, 0x3d0aef55be5db328U, 0x3dee3ed93de8982eU, 0xbd166b10bd8ba511U,
    0x3d29f68d3dff2147U, 0x3ac7f0713e681e12U, 0xbd0e9db33c97193dU, 0xbdf5790abdd01923U,
    0x3cc4d638bb3b69d0U, 0x3c9f9ceebe798492U, 0xbe1ed02e3e38b990U, 0x3ceec007bae710cfU,
    0xbd51cf463d161df9U, 0xbc5b4a1f3d3e32faU, 0xbe310664be1e9edeU, 0xbdc92e92be436113U,
    0xbdeee199be4115fbU, 0x3e0c422dbd587bb1U, 0xbd9bc887bc8d0a96U, 0xbc47c165bb674dd1U,
    0xbd5500473d06c5ecU, 0xbe4debca3e002d36U, 0xbe632112be404fc5U, 0xbe812369be6bfb00U,
    0xbe36c4833de0d2efU, 0x3de42819be06ef56U, 0xbdb073543dcf5bacU, 0xbe0f01abbd1d4550U,
    0x3c3412bfbd2fcaccU, 0xbeb3a4263d446149U, 0xbe1b0613be6c1d11U, 0xbe54ae19be7d6c7fU,
    0xbde02bf6be85a143U, 0xbdda5d09bd844c70U, 0xbd9d45ed3d09f5e6U, 0xbe8dff35be299ad5U,
    0xbe67aae6be455eefU, 0xbe56bf9bbd8edbcaU, 0xbe8b04f9be349b3bU, 0xbe82cf53be5e1f57U,
    0xbe735d03bd97fe4eU, 0xbcaaaa4abe72af03U, 0xbe92a34ebdd2f135U, 0x3b8deadbbd1765b2U,
    0xbe8c5a49be064799U, 0xbe842e433a7b2f44U, 0xbde99254be7dbbc1U, 0xbe73f298be9e7a33U,
    0xbe0241ee3d58506fU, 0xbea5cd61be1c7b8aU, 0x3e488c42be165b69U, 0xbdaff64f3d6b2634U,
    0x3b62d7943dad4ab4U, 0xbe1eb500be4dd20cU, 0x3d96e7d53dd6bc5cU, 0xbe2b44133ba73f58U,
    0x3d1b9f55be768c61U, 0xbe6b462e3e47136aU, 0x3d2875edbe5f93aaU, 0xbd8407313c6fd949U,
    0xbe33bdb1bda141b9U, 0xbde10f6abe135228U, 0x3bcaa5b63df2f5f4U, 0x3d00509abe850663U,
    0x3d8c534d3defc7eaU, 0x3c1c3feabea57838U, 0xbc1f7a02ba87f207U, 0x3a7bffcf3b154325U,
    0xbe619897bdcea9b1U, 0xbed1da193d096b24U, 0x3d74d5e5bdc2cbd0U, 0xbe3feeed3d9898f5U,
    0x3d812d7dbd36abf6U, 0x3d200b423dc82f5cU, 0x3e060df13de7a99bU, 0x3d7cb0f23d9b1b10U,
    0x3d9376cf3cb10430U, 0xbbe0e1c53d87e095U, 0x3b486ba4bcaeda8aU, 0x3d1ce2c6be9dfd45U,
    0x3dff6991bd071968U, 0x3c43ec22bddfa8c1U, 0xbbbfa145bd75f71eU, 0xbcb7e727bc1042d4U,
    0x3c9886fbbdd17cc1U, 0x3cade360bdd73e94U, 0x3d836eb0bb066848U, 0xbb189a41bc970c33U,
    0x3d6521d7bdfb84b3U, 0xbe2b1171be40e66fU, 0x3d983c53bdde781bU, 0xbdb6a41d3dc1c1afU,
    0x3da65f3f3dd52124U, 0xbd00b9b63d321cccU, 0x3d4d14ebbe02bdc6U, 0xbda9e570bd3dc723U,
    0xbdda45313d0795bcU, 0xbe597dfcbe0a170dU, 0xbcc23837be2c8097U, 0xbd84ffbdbb956f04U,
    0x3c927faabd57ae61U, 0xbeacee84be8bd691U, 0xbd509ef7bd07e22eU, 0xbe8a5b923c9b7a12U,
    0x3da64ccbbe634c41U, 0xbe1465883dcfac6fU, 0xbcccc9bfbe94040eU, 0xbe27ae7abdc7c48cU,
    0xbdde8d84bd734286U, 0x3cc1a47cbe585dcfU, 0xbdd406843dbbcd0aU, 0x3da0915cbea770b5U,
    0x3ddff427bd582f76U, 0x3d867b04becc2920U, 0x3d2d958d3e152fe3U, 0x3d0a7b8e3deaf010U,
    0xbdd9720e3bfb7069U, 0xbe4e7ec03cd7891dU, 0x3c1664acbda05563U, 0xbe90dd103d034533U,
    0x3da71839beb9b058U, 0x3b1090893d399e70U, 0x3d9a0487be288fa0U, 0xbd521f603d4984fbU,
    0xbe9c64883dd40980U, 0xbce3d006ba795578U, 0x3d61788dbcec2c59U, 0xbd330969bdde1018U,
    0x3dc1e549bdfcc90fU, 0x3e491387be789781U, 0xbe3305a53e223825U, 0x3db94f3c3e2ce880U,
    0xbe339a92bd8d6147U, 0xbe878e723da895dbU, 0xbdbfb876be1d1525U, 0xbea5a36dbdac489dU,
    0x3b17febebe61028dU, 0x3dd824f8bcc1eb85U, 0xbdd678ca3dc0bb47U, 0xbe03dd8e3e00b258U,
    0xbd8cdb423e29406bU, 0xbe3c74823e3f5779U, 0x3c9268aa3d3d2e7eU, 0xbd33a0f1be4613c6U,
    0xbee805ad3d0f8311U, 0xbe3905f1be58a625U, 0xbd11fd40bd8dab18U, 0xbd87c2cbbe6c6e66U,
    0xbd33b86ebdd04078U, 0xbe85e3b23bd4b37dU, 0x3d5082a6be0635a9U, 0xbe7286dfbe11bc78U,
    0x3d6afa87be8b9942U, 0xbde1924ebcd95971U, 0x3cf4b0c2be53991bU, 0xbc05d6febe388135U,
    0xbe7d4c17bd9e0d72U, 0xbc3831b0bd6d70f3U, 0xbdcc1570be0b3575U, 0xbe481f95befc1724U,
    0xbc4d74c53dcb54d2U, 0x3de54871bef38ae5U, 0x3ac3564c3d203812U, 0x3e1e5765bdd7e9c8U,
    0x3e0ee0ffbe03db19U, 0xbd9317e63da04ce7U, 0x3ce85ac2bdf02c06U, 0xbc06f702bd4b6c1fU,
    0x3d01c2febe88f1a2U, 0x3df4fb4cbd8e49e1U, 0x3d7948c63cad5fc3U, 0x3d8baf34bc96fa84U,
    0xbdb06899bce39e2cU, 0xbe32aa653df9d163U, 0xbc2fda12bcce1737U, 0xbe01a43abeb99230U,
    0x3d34ce1cbbfbe3b5U, 0x3e2f9e2ebe523432U, 0xbd9aee943e4b1a85U, 0x3e5488e1bd552014U,
    0x3e6f92edbcb5b248U, 0x3dcc5e193dca1736U, 0x3dc93874bdadb055U, 0x3e900eb53de9336cU,
    0x3d81c2793de95106U, 0x3defe42fbd76f56eU, 0x3d59fc903e8fe03bU, 0x3d6b0e5b3e229166U,
    0x3e6b304cbca58bb5U, 0x3ddec83e3d133e04U, 0x3d7667a9bd790769U, 0x3d1033f63d8b5982U,
    0xbd2856d7bc6540dfU, 0x3e5f90e13d3d5601U, 0xbe02c0363d5b1f5dU, 0x3d34cc57bd96834cU,
    0xbe3560d1be1016aeU, 0xbd7e31623db9cd78U, 0x3d15c8d5be6232f7U, 0x3d32cfdebd7c34a9U,
    0xbd5a8fd23dff404fU, 0x3e04d68dbddadecaU, 0x3d5e94733e112075U, 0xbe07e3763d6fdfddU,
    0x3dc64f04bb0a1786U, 0x3e47e4fc3db9c65dU, 0xbceeb0673cdf0f54U, 0x3d39594b3d4ccc76U,
    0x3dc99416bde0bbbdU, 0x3db92f993d2c5fcaU, 0xbda9de40bd41df0aU, 0xbb15737a3c013bf5U,
    0x3d7f9acdbe1ad535U, 0x3d95e69b3c94d62eU, 0xbdd26503bc9844c2U, 0x3e1ae2db3d88a72bU,
    0xbd4af81dbda96b0aU, 0x3d35208abd774590U, 0xbd5a760cbd5c6f4cU, 0x3ce59c9c3d194581U,
    0x3bfffc66bd9b9f32U, 0x3ccdb5903d2c4015U, 0xbd8464f13c8d3b38U, 0xbde715983e0fa98fU,
    0xbd82e4c5bceb86ddU, 0xbd18dd063ddc707aU, 0x3d937f6ebe613683U, 0xbe187e163df099bcU,
    0x3dfb3e523dab3181U, 0x3ad1d6f4be59271eU, 0xbcc5ac76bcdaff13U, 0xbda2c19f3c1091b4U,
    0xbcf94df3bdd62879U, 0xbded86f63e2bbc75U, 0xbdfa3727be2bdc0bU, 0x3991543c3c0b1ae1U,
    0xbd6ed4adbe2a6ca7U, 0xbe1d03aabddb6ad6U, 0x3c941ac23cc4d0f9U, 0x3cf4cedd3c8a2b9cU,
    0x3cb47c2cbcfcd0b9U, 0xbc1b0689beaa574cU, 0xbe3666563dad52ecU, 0x3de42a83be72dc7aU,
    0xbe071e2fbe8a011eU, 0xbdf9ecff3dbf02b8U, 0xbcbd9be8be2d9126U, 0xbd9e71d43b9d469cU,
    0x3e016397bd62ed55U, 0x3de61d82be3585faU, 0x3d8e07353da2659fU, 0x3dad92573cac4a49U,
    0x3d958aea3e1adcb2U, 0xbd0efb6a3dc60c42U, 0x3db779a5bd61959fU, 0xbb5d52d8be35486fU,
    0x3dbbfdecba394650U, 0x3d675804bd8d5de0U, 0x3cde300c3e256747U, 0x3e09e2adbdb9689fU,
    0xbd76cbf1bdfbe989U, 0xbdf19e253e886096U, 0xbda106223d8c2043U, 0xbe9a7527bcc49b10U,
    0x3b7c7caf3de57015U, 0x3e2818983b7fe4fdU, 0xbddf14723de644a6U, 0x3da50c8f3d66d8d7U,
    0x3d0db22b3d8de616U, 0xbca6b1543e139106U, 0x3d538393bccff5fdU, 0x3df15aadbe7b02bcU,
    0x3e542b59bd8ff9a7U, 0x3e6ef6e1bdde6177U, 0xbded4b943d89fc1eU, 0xbd4fc4ce3df9c8aeU,
    0x3dc1b8273c75bb99U, 0xbd6b21ca3dff139fU, 0xbda64e1bbe81418fU, 0xbe501ff6bdcb66f1U,
    0xbe10e9a1bd3e319eU, 0x3bfbe346bdd3eeefU, 0xbe0d06323cb2c6b0U, 0xbe198ba53d7cad8dU,
    0xbcc6505b3b88e216U, 0xbd22165f3e297449U, 0x3d821fc2bdef36edU, 0x3d8f09d1be1b3fe8U,
    0xbe1a8b1e3dc8146bU, 0xbe728a4abdb79d5bU, 0xbdfb24453c8d992cU, 0x3db9150fbe071cabU,
    0xbe0e3392bdd80569U, 0x3de9eafabcc697f7U, 0x3e0964dcbe166e8fU, 0xbce3bb4d3d60e1a9U,
    0x3d81fcbebe26825fU, 0xbbee4d41be003ddaU, 0x3d641e2dbd169f16U, 0x3c9647a43d2e419aU,
    0xbd1dab9e3b9fc834U, 0x3ba4c733be07f600U, 0xbc8ced2dbe2831f8U, 0xbe2ebd55bdd460f9U,
    0xbaf0aec43d9dcc88U, 0xbe64f181be2dcee6U, 0x3dfb972c3d77ab78U, 0x3df00da03da856d4U,
    0x3d9c21e23df26382U, 0xbdd749823ce05a26U, 0xbb3721f93d920c7dU, 0xbd9f145d3b5d3d47U,
    0x3d8702e5be1cda38U, 0x3c8f19373da377a9U, 0x3db02b4abd46cfc2U, 0x3e66a8b83d47b3b8U,
    0xbd20eb17bcbb0a2eU, 0xbe7d5d213dce479fU, 0xbaf8045d3c8e280dU, 0xbc376fa4bdf0f865U,
    0xbd11360ebd1ecbaaU, 0xbc826e31bec85bfdU, 0x3e10d3a33e4d51c7U, 0x3d9eac04be113a7cU,
    0xbdc615303d6c8640U, 0xbec230893e8f87f8U, 0x3d8d550bbd8287d1U, 0xbe6393953d56ce00U,
    0x3c339bde3d244e83U, 0x3d443ccfbdda62fbU, 0x3dc259d33e3251b1U, 0x3e2bc15b3e179252U,
    0xbd6a22b6bb86591dU, 0xbe31bb803e439be0U, 0xbca4d532bc9b6d29U, 0xbd0fb078beb41661U,
    0x3e136768bd467bb1U, 0x3d8919f0bd9721efU, 0xbdfcab583db41c72U, 0x3d98423ebd54b2ecU,
    0xbe2ae107be156632U, 0xbd82f6f53e13f80cU, 0xbd8599d7be26806cU, 0x3dc3a1133caafc6cU,
    0x3bb2fe89bd1694f8U, 0xbd04d3133d6d808dU, 0xbd5d98633da9eae2U, 0xbd65e9bf3dedc7a9U,
    0x3db785433d990455U, 0x3d87427d3ce9b98cU, 0x3d83c3ffbceba322U, 0x3db873783cd6cd40U,
    0x3d038549bdec9668U, 0x3cb92398bbbbc15fU, 0xbcf226323cbfaa31U, 0xbe068f4abe0e8959U,
    0x3d0e69b03dbe425eU, 0x3e162d9bbbb51726U, 0x3d6a0b423dbc0177U, 0x3d05d0103d91f21bU,
    0xbd1429febe168b1cU, 0xbdc6b11e3d8c88fdU, 0xbdd34f153cdab440U, 0x3c851ed63d068fa2U,
    0x3c827277bd3bea48U, 0x3e060a26bc935a38U, 0xbd8dea593c9fdd5fU, 0xbbc408dabc52c835U,
    0x3d545941bdddba3cU, 0x3d9cbfca3becbe60U, 0xbcfa07bebd766e65U, 0xbbd2974f3de44a71U,
    0xbe738e673da44b84U, 0xbe82c631bd9b80b7U, 0xbd452f203dd134f8U, 0xbe76cf8fbc50e0f5U,
    0xbe00e0ccbd1e5b21U, 0x3c0fe081bd4d762dU, 0xbdc1ae713cd7cb4cU, 0xbd4388f73d4ceb11U,
    0xbbec367b3b9ae9e4U, 0xbe43534d3d190b34U, 0x3d5303ffbd81312cU, 0x3c7dc9fb3d12b9d9U,
    0x3d750a133d0fc17bU, 0x3dd17556be7ea66fU, 0xbc8c49e1bb853d45U, 0xbd5d5521be128cb0U,
    0xbdbc0c60bdb475f6U, 0xbe3d47673e151a23U, 0x3ae627d23a322dd8U, 0xbe069407bdae55f4U,
    0x3c836267be84ee6eU, 0x3d45e0dfbd248871U, 0xbc06649ebbc2dc66U, 0xbd1473ec3d61480aU,
    0xbd22c65a3dcf27dcU, 0xbd9cc1423e001ed9U, 0x3ccba696bd99076dU, 0xbde65de4be676d55U,
    0xbd54ccb4bde452f8U, 0xbd856952be8bc656U, 0xbd1abcfe3da5a063U, 0xbcdfc088be2d2805U,
    0xbdc9a303be14bf79U, 0xbe31b595bdd4205eU, 0xbdaaa47bbd4f696eU, 0xbd611ca93ded64afU,
    0xbc5c009c3d5e1d68U, 0x3d3159463d9a74c4U, 0xbd65a553bd6188c6U, 0xbcf319d4bca27e63U,
    0x3d0ec977bdce3b76U, 0x3ceb4a87bd48d51dU, 0x3d8a39f13d48375fU, 0x3db79f3dbe7d1279U,
    0xbc1e072c3d4c2015U, 0xbd9b4b2a3e2d2148U, 0xbd96e4323d548e9dU, 0x3dd77de53c79876dU,
    0xbe1a8cb9bda92700U, 0x3d983509bdab4841U, 0xbcfe639c3d58d9ffU, 0x3daf472c3cf5f2a2U,
    0xbb33254a3be1d558U, 0x3d795ae2bbde3dd1U, 0x3d0255ae3ded1f12U, 0xbd9752e7bcbcc4a5U,
    0x3da426f43dec34e6U, 0x3d833419bd21e910U, 0xbc5e6d14bcf5359cU, 0x3ca5000f3e1b5d3fU,
    0xbdba48893d45beb7U, 0x3da7a43ebe61e20aU, 0x3d08256d3df087abU, 0x3dbf3f3cbe21bafdU,
    0x3bfb0f30bc204a3dU, 0x3d6df1ac3d770647U, 0x3df09385bcb44a99U, 0x3b94d94d3d4c9972U,
    0x3c3365f5bd42ff93U, 0x3d72fa26bd8b5760U, 0x3d2c69d33dabd3a9U, 0x3cf6630abc495d49U,
    0xbbd224e63db282b2U, 0x3e0111083d3b33a3U, 0xbce1fa2d3cd5488bU, 0xbd7440fbbdde9ee3U,
    0xbdb365963d8bba4aU, 0x3d64df253d8acc21U, 0xbdb7e63a3d41cabfU, 0xbd8c98d1bcded774U,
    0x3cd2ae77bd8c322bU, 0x3d843151be067bb9U, 0xbd773decbdeacccdU, 0x3e15f2093d6f82bcU,
    0xbd67effd3daf606aU, 0xbd2d834bbe6513e1U, 0x3c8fc2b93d883c22U, 0xbdb84841bc675ce0U,
    0x3e4b83673d4c145fU, 0x3e903babbda747e0U, 0xbca486b4bde02818U, 0x3e0e66a33ca85117U,
    0xbd63f8433c8e7c6dU, 0x3d89e0cabcc761d0U, 0x3d5e26dd3cef467eU, 0xbcb8b77e3c96ca5eU,
    0xbdc0951ebd8a5cd8U, 0x3db3a4923dccf355U, 0x3d9559893b6f1d80U, 0xbc3f6ababd48d3d1U,
    0xbd224848bc812ab7U, 0x3cafd8d8bd277211U, 0xbd93deae3d38e065U, 0x3dacd1eebcf96b91U,
    0xbd6080b63c0fc669U, 0xbdfe3b163c199d86U, 0x3d8684cd3bf4efacU, 0x3d13d1d33a57566eU,
    0xbbd0277abdd6f34fU, 0x3e2cea50bd9e16aeU, 0xbe2f1ec83e123444U, 0x3cc73cbdbd26280bU,
    0xbda04d03be3d8751U, 0xbdb8a3e73d176490U, 0xbd3ad47ebe101348U, 0x3de9c9123d23a850U,
    0x3d25814a3cea485dU, 0x3e0b0e59be832a66U, 0xbdd52ec23d423430U, 0x3d61bd303ce886f6U,
    0xbda58d543e5a78e2U, 0x3e4a69f73e5b5d87U, 0xbd539661be03a5b0U, 0x3d1bc64a3ce29062U,
    0x3d960406be2cd9a5U, 0x3e8255eabd2b615bU, 0xbe1d12093d6e123fU, 0x3db17fa9bde40b0fU,
    0xbcc3a240bdc8fd70U, 0xbbca29983e15f7faU, 0xbdb5b141be040cc6U, 0x3d94b371bdc74973U,
    0xbdd095593df9e6f4U, 0x3dc01bc7bdf0d4f8U, 0xbe3d49d03e165209U, 0xbd6084c43c398a46U,
    0x3d2f88113d4358dfU, 0x3d856de73e276f8eU, 0xbc9c6dc3bc18ec3cU, 0x3e0c7685bdd4be34U,
    0x3d02e672bd6edb29U, 0x3e5f29f9be5fbd90U, 0xbda3a43a3cb76b78U, 0x3e1ac8d4bd633fd6U,
    0xbe5c6170be596717U, 0xbea6b2e33e5339bfU, 0x3d08354cbe9373abU, 0xbea86d8fbe5d0f06U,
    0xbe0df27d3be51939U, 0x3dcc4de4be1d2ec6U, 0xbdc944fb3e0f998eU, 0xbd049f013c70c001U,
    0x3b1ff9213c309ae0U, 0xbdebe2753e51208fU, 0xbd06b3debda26823U, 0x3cfbb16fbe942df2U,
    0xbe478d143d872174U, 0x3e2c9957bdea88b7U, 0xbdaa2c5d3d5bf637U, 0x3e0de8d6be898134U,
    0x3e269b783ccd759eU, 0x3ea961f33ddc2f0aU, 0x3ca311c3bc7b73e3U, 0x3e8990f4bc3ea898U,
    0x3cd0e4a63df100ceU, 0x3e05a978be08f60eU, 0x3e0e89023dfe34a7U, 0x3d82debabdc1dbdbU,
    0x3dc326343d88e411U, 0x3e321b7dbced2f46U, 0xbcbc7045bdc49e26U, 0xbcf4fcf33e5605c7U,
    0xbe44ac373d404d75U, 0xbde021c5bc6ff6b6U, 0x3e140bf13ce84bb0U, 0xbd5c80a6be31984fU,
    0x3e8edd1d3dc95d5aU, 0x3e8807e43e17a671U, 0xbc4bd5ff3db72ebfU, 0x3ea3b3f63de56af5U,
    0xbd4e096d3e2ed279U, 0xbcffb1cebe128119U, 0x3c8337d53e2b357fU, 0x3e1a03983d942bd7U,
    0x3e264f34bda4c842U, 0x3de3bd0cba186b38U, 0x3d1827a63ca32614U, 0xbd78e09d3d89e342U,
    0xbc4eca873c737b1aU, 0xbd826d0cbde71080U, 0x3e7268f9bae42e55U, 0x3c269560bcb50840U,
    0x3dccf8193d934a8aU, 0xb9ab4cecbde704d8U, 0x3d29589d3e37c2b7U, 0x3dd374fc3c14ae8aU,
    0xbda235b3bdd99f8dU, 0xbe07e7babe2db604U, 0xbcc3669ebdad5495U, 0x3c84072e3d7f8563U,
    0xbde9a319bd4d5b40U, 0x3c4b40c8be0665e6U, 0x3cf2a54dbdc8cfa5U, 0xbe3219a1be3d83f9U,
    0x3d0c4e3dbe2d8b11U, 0x3d90e96bbdb60ee3U, 0xbe1d75ea3d1343fdU, 0xbe267087bd956353U,
    0x3b6e6d7abdadb03eU, 0xbce45156bd9ef04aU, 0xbe1256d63dade3ebU, 0xbd8c961dbe2fc3f7U,
    0xbe26c3cf3b88f32fU, 0xbd82e6eabea75462U, 0xbe173612bd882472U, 0xbe6a322dbc64a99cU,
    0x3d782cb43cce064bU, 0xbdb91d593cc10825U, 0xbcd948ffbd79c1f8U, 0xbce3d1233da8a962U,
    0xbe305cb4be1d3abaU, 0x3d9d9c8abe330b0fU, 0x3d8265dabde9689aU, 0xbdce1a9dbeb1be90U,
    0xbd85194e3d84b08dU, 0x3daf5f5b3ade6771U, 0xbd619d3d3e03642cU, 0xbe18962c3b8db728U,
    0xbdd478db3e040a8bU, 0x3d1426cabd4a7ce6U, 0xbdc260c43d7a9bebU, 0x3d9ed2f0be1e00bfU,
    0x3df43007bd919b67U, 0xbbdd7843bda51004U, 0xbb6698033e03129eU, 0x3e004f0bbd47af34U,
    0x3dc2da863c0f9019U, 0x3d4597dcbe428c22U, 0xbd0b34f8bdc4d535U, 0x3c8fe32cbc70655dU,
    0xbe86ed06be0c82ddU, 0xbe610405bdedac7bU, 0x3d04ab273e35449cU, 0xbe4f58c3bd830693U,
    0xbc523a093dba2faeU, 0xbd958f123d14e7e8U, 0xbdd3a5c0bd30d426U, 0xbe1209b6bdac9b62U,
    0x3d8974093d115987U, 0xbc74319abd965962U, 0x3dbca0143e5d2d87U, 0x3d2d0b59be43c247U,
    0x3acaf9e83d949ec8U, 0xbe43696ebeb77855U, 0x3e51ec3bbc97e29dU, 0xbdad7b1d3e2629bfU,
    0xbdca07943df7915bU, 0xbe6ed4babc3c1dd1U, 0x3d2f4ffd3debd3dbU, 0xbea946973e0040b8U,
    0xbb68b5cfbea6b856U, 0xbe0c3ae23e47a240U, 0x3ca5ae83bcd86b86U, 0x3e0721433dba0d27U,
    0xbdeb4fd13da7a41bU, 0xbda42e9c3d489d65U, 0x3df90b5e3daca204U, 0xbd28688fbea41521U,
    0x3e07f2333c43fbfdU, 0xbe4737a8be84598fU, 0xbcad0ad5bcf0c17bU, 0xbd080b7f3d06fde3U,
    0xbe6feca2be15a845U, 0xbd67baa2bddc1d83U, 0x3d0693063c066834U, 0x3c6f34c43d20d9feU,
    0x3b17815bbe38f7bcU, 0xbe115f9bbdab16cfU, 0xbc0dfc84be191388U, 0xbde725db3d903fd7U,
    0x3bd3b9553cd23da6U, 0x3d0543ce3d894d26U, 0x3cd2f45fbc47715dU, 0xbd8c1f71bd4533b0U,
    0x3cd25d273b81ff3fU, 0xbd5e6228bde7306aU, 0x3dfec28ebe1fe463U, 0xbd042d71bc81e5ddU,
    0x3cc0c8523e065c98U, 0x3dbd129dbe426eedU, 0xbb4811233e3f3486U, 0x3cb08d263db5a818U,
    0x3b2e8e4abe84e12bU, 0xbe5efbec3c04b25fU, 0xbd850865be306a06U, 0x3d8dce95bd04c4b7U,
    0xbda31061bdbcdb70U, 0x3da6ecf6bdb24ffcU, 0x3e1c8a41bcc1fe66U, 0x3da0b241bd158ec1U,
    0xbc8d25833d82d99eU, 0x3a82c211bd10a75aU, 0x3d0cf34b3d56064fU, 0xbcb2e14b3e4d0478U,
    0xbe25062b3bda3286U, 0xbe4c5805be2f331eU, 0x3d2a04763c46ce3aU, 0xbe47b8053db2367dU,
    0xbd247c6ebe913cebU, 0xbd997efe3e46269aU, 0x3db23144be344552U, 0xbd8087e2bd5aa155U,
    0xbe06f1863e080641U, 0xbcfd6e6cbdb76531U, 0x3cec58253e186647U, 0xbcd8daf8bd635a56U,
    0x3e0ff1b5bd965feeU, 0x3dee06c0be57fd41U, 0xbe90fa52bc8df7b6U, 0x3d60a8753e17cbafU,
    0xbe44a515be8f81e8U, 0xbda9c000bca9cec0U, 0xbd789314bda9fc02U, 0xbd53963e3ce4f857U,
    0xbd732777be2bba2aU, 0x3b755d2ebba69d69U, 0x3d20ec80bda14df0U, 0xbe182e903d7a426cU,
    0xbd208c00bcb706ebU, 0xbe1ac3753e39e68eU, 0xbd37dde1bdce8726U, 0xbc0f9801be171a37U,
    0x3cf3748ebdc611aeU, 0xb92eb838be54cc28U, 0x3e12a8673d45babcU, 0x3d220e56bcfb301dU,
    0x3d736f8b3ddc338fU, 0x3d70a4c6bccce113U, 0xbdd61a743d169a98U, 0x3cfc67d5bb24051dU,
    0x3d34d085bdeafdf1U, 0xbca78b843d96e87aU, 0xbd14938e3c4ce28bU, 0x3cdc454a3c996a6dU,
    0x3d8b6b94bd3bb002U, 0xbaaa09c3bd7ec994U, 0x3d30c0a13d904cafU, 0x3d290311be05db67U,
    0xbd743c133d2a746fU, 0x3e1f39f7beaaa35bU, 0x3d17283e3cad4546U, 0x3ded32f0be0f8593U,
    0xbd749a6bbc68a7e5U, 0xbe58295a3d711f69U, 0x3daa805cbdbf35d3U, 0xbc8bf512bcfab5f1U,
    0xbc79d596be748bdaU, 0x3c81a2ec3def406aU, 0x3d36bd5b3c80a45eU, 0xbc8e86d23d437ce8U,
    0xbdbc10433de25093U, 0x3d87bf5d3d6ff2d2U, 0x3d677544bc23d53eU, 0x3d7673a6be80cb5dU,
    0xbe1810c8bc0ece18U, 0x3dc2fbf2becbd3efU, 0xbd431aad3cb31959U, 0x3e393561be43bff9U,
    0x3e1cc480bbf43f67U, 0x3d8d7b4a3dfbd93dU, 0x3d2fff9fbdf56546U, 0x3dda16aebca0c7a1U,
    0x3d6b9f673dc3f4f9U, 0x3ded3276bcc53349U, 0xbdc0148d3e412fa1U, 0x3d92fc753d09fffeU,
    0x3e68bb5c3d7069dcU, 0x3d40e79bbcaadca0U, 0xbb142422bda576e9U, 0xbd28b5c3bd4199d3U,
    0x3d1312a4bddc135bU, 0x3bfc3ea1bda37d08U, 0xbe16b846bbd15084U, 0x3e09a0323d0abbb8U,
    0x3dfa2e34be608f62U, 0x3e2724a63d333507U, 0x3d182e56bdcd600bU, 0x3e47f3dd3c461933U,
    0x3d4631c43d8b8db7U, 0x3d711874bdfecbb9U, 0xbd4794033d3e71abU, 0xbdf9f7053db0a723U,
    0x3e81672cbdb11698U, 0x3dfd86ec3d7ef971U, 0x3e13a53d3c1dee8dU, 0x3e062ab83e39e32bU,
    0xbe4fa9f0bd093ec9U, 0xbd88438bbd99e144U, 0x3dade3a83d440103U, 0xbcd0e889beb8eb3cU,
    0x3e3f95153e01adfbU, 0x3d97d9ca3d31ecfeU, 0x3c34a34dbd9a0817U, 0x3d9497fdbdc3772aU,
    0x3d9ba05dbdb774fbU, 0x3d0b730fbd67cfc7U, 0xbcddaca53da6d2f9U, 0xbd63aadbbe1e95b6U,
    0x3d61f820bdbddbc6U, 0xbd2b1382bc39cac0U, 0xbdcbca99bc718ee6U, 0xbd88aa143d2bf4fcU,
    0xbe82de8e3d288620U, 0xbe1a1c03be5749f2U, 0x3db8ca633b27e155U, 0xbcd17049be7eeab3U,
    0x3d89f82a3e1061f4U, 0x3dcd6c7a3d18df66U, 0xbd546ebe3d3792c6U, 0x3dac09733da86b34U,
    0xbc9ed33dbd564638U, 0xbc6d742e3d1972d4U, 0xbd81d636bcd33681U, 0xbb5d2335bca1d4fdU,
    0xbdeff3243da6cb0eU, 0x3cb9e413bc175461U, 0xbd727180bda3b609U, 0xbc4d2ee4bd8290afU,
    0x3d1e36e7bc89bf14U, 0x3df2542bbe87660dU, 0x3e0e85f33c6229a7U, 0xbc1a627cbd6d60baU,
    0xbc5cc330bd01f296U, 0xbe61331b3de043d7U, 0xbd9f756e3e40792cU, 0xbe847d76bc2cc586U,
    0x3d0322993dbbd46fU, 0x3e34b7083d1db3ccU, 0xbd89e951bce476b8U, 0x3cba14a73b6dc237U,
    0xbe00c7303ce5b475U, 0x3cfa11b33dc3f605U, 0x3dd0d0bdbcd1b0efU, 0x3d6fc8ebbe925f8dU,
    0xbeb1e8aabd484bedU, 0xbd3f0b7dbcba2decU, 0xbda344edbe19469cU, 0xbe8905c3bea2e1c0U,
    0x3ce8450dbe333b5bU, 0xbd43c50ebd19848dU, 0xbde7b429be822af8U, 0xbd925b0d3d2ae1f5U,
    0xbe328bad3d1e9580U, 0xbc436c15be3bcb95U, 0xbda3c140bdb42010U, 0xbe2a9d26bece1837U,
    0xbdbb1531be36ffb9U, 0xbceed42abeb9b8b4U, 0xbdd71545be243a6dU, 0xbdc92b9d3bd02d44U,
    0xbddc436e3b9dbd50U, 0xbe76068bbd558ea0U, 0x3ce5efe3be32a48bU, 0x3bd95057bd362ac4U,
    0x3db6eae33cd2bb75U, 0x3dd21deebd83d0fbU, 0xbbd8a390ba575481U, 0xbcd3201abb1a31afU,
    0x3c4716d7bd974f3fU, 0xbdf2891d3d6dda8aU, 0x3cda928ebd1cd2e7U, 0x3a251bb6bdd2f8fbU,
    0xbe0e9a3dbdd4d645U, 0xbc62b52fbe42b51eU, 0xbe38fa5bbd7291a6U, 0xbe48698f3d27b9ccU,
    0x3d8016913c2cd239U, 0xbdc37d29bf3787e7U, 0x3e5c9a833d9abd85U, 0x3da1d45e3c94d2d7U,
    0x3d06321b3e72ea82U, 0xbe181d1e3e91529fU, 0x3c4fe9343bdb4a70U, 0xbec353083bde5e5eU,
    0x3db68315bd4f9d48U, 0x3bff4a6c3e1ce005U, 0x3c092d58bd5915e4U, 0x3da7f0f63d927eb1U,
    0xbe041a86bd12df30U, 0xbde6976d3e6470c5U, 0x3d6bb69c3db07e2eU, 0x3db4fbabbeb5dae1U,
    0xbd6f9b74be0e9569U, 0x3dcfffedbdb9157bU, 0xbeb5ac34bd77d0b0U, 0xbe15f77bbde885d6U,
    0xbde7e82dbe831456U, 0xbd728a8e3df94b76U, 0xbe198da3bea418ceU, 0xbe57f1b0bdc8f7e8U,
    0xbcb244c6bd0b7ec6U, 0xbcd00db1bebd2287U, 0xbd2d49643d5cfc3cU, 0xbd300c2bbdc1b534U,
    0xbd074517bd86b647U, 0xbcf7fad83db33213U, 0x3cd062c3be7364ebU, 0x3d03d8dfbe08cde9U,
    0xbe810a0cbc8aca54U, 0xbdfdd719bcee6d51U, 0xbaf1fcfdbe3db2deU, 0xbe1aa231bda18a97U,
    0xbbb40c533d1ee121U, 0xbe3b826dbdf5d6ffU, 0xbd93cbfebdafd58dU, 0xbe5390b6be4694dfU,
    0x3a956ec1bdd1cc45U, 0xbe10dc023dca9d6dU, 0xbe5f0fb9be66b5bfU, 0xbe2858a3be598e63U,
    0xbdc9e51fbd869597U, 0xbdb7b863bdb8909eU, 0xbe516acb3c81a8d0U, 0xbdc10141be568428U,
    0x3e2a52763c95b8d4U, 0xbd1ddaf1bec3eadbU, 0x3de05b293d981910U, 0xbd7fb68a3d262fe1U,
    0x3dc604253e23321aU, 0xbe61e1c93e1643aaU, 0x3c59f9803de136fdU, 0xbe8b68a93d998f20U,
    0x3db33d31bec90131U, 0xbe7366d53e33ccc0U, 0xbd7c4fb1be4da608U, 0x3da6fafc3e118275U,
    0xbdad0aed3b08265eU, 0xbe034e583e4f8333U, 0x3cfdfc373d5a658eU, 0x3c927427beca4b59U,
    0xbe9e932dbdc3725eU, 0x3d2eee69be303cadU, 0x3ce19e84bce67440U, 0xbe0867b3be7e4391U,
    0xbd1f96443d8e86b7U, 0x3d6b6bb3bddb1b39U, 0xbd7677e53d01b95dU, 0x3de079853c646c6eU,
    0x3ceb38873db33380U, 0x3da29cacbd8eccc3U, 0x3c7f8c5fbad2ab97U, 0xbe01175ebe630d71U,
    0xbd88aa7ebdec133cU, 0xbcfea285be168b66U, 0xbcb1d4603d267084U, 0x3db431d13cdd3568U,
    0xbd23ab543c0860c3U, 0x3d871316be973434U, 0xbc800d433c403fa9U, 0x3d4c132fbd03461dU,
    0xba03fba1be2cefd2U, 0x3d7cf1edbd9b5d03U, 0x3bc26076bd935e32U, 0x3ddc91f23d69e873U,
    0x3d57e6a23bbe6020U, 0x3bf51e1cbcfa1316U, 0x3ceccb2e3ce0f604U, 0x3cb8aec0bc8633afU,
    0x3e28f26bbd8c1611U, 0x3d83f090bdfeb8fdU, 0x3de183c7bc886d60U, 0x3d9d01723d77c313U,
    0xbd43b22b3cab2122U, 0x3e092b4dbe3f59baU, 0x3ddade8a3dec9437U, 0xbbbc89e3be0d498fU,
    0x3c9fa3b1bc92324cU, 0xbbb748693e4c45beU, 0xbc2ba03c3d9070b7U, 0xbcde5df0bd12ef02U,
    0x3b890037bdedc8daU, 0x3d69d93dbe4c8a5dU, 0xbe0fc4d93b366422U, 0x3e1f36d63d955d30U,
    0x3c9297503d49f306U, 0x3e27c6f03d372de1U, 0xbc5f4147bd6996baU, 0x3c598cc1bd5deac7U,
    0x3dab22acbc6be2e0U, 0xbcdf69c3bd906aebU, 0xbe16920cbda549c1U, 0x3ca9354bbd652cd8U,
    0xbe961d31be356307U, 0xbe2715cfbd8c40e8U, 0x3cb7c0483dab1879U, 0x3d4eccca3db62db6U,
    0x3ccb4add3e18cfcdU, 0xbd0665643dc8f911U, 0x3ca94d803c4db86eU, 0xbdd3118ebbb41b4bU,
    0x3e6cafa33da6c04eU, 0x3e3cce65be26bafaU, 0x3d86fa263e2fd76cU, 0x3e3135a03d370158U,
    0x3d8b243bbcc2b5abU, 0x3e36c0d33ce2fbeeU, 0xbcb43db5bd29f50cU, 0xbd439a1abd40da5dU,
    0xbd7f0bb3bc455a5aU, 0x3e188a41be2306f9U, 0xbd8784c73df18f73U, 0x3e5350ca3d35e2e2U,
    0xbdaf7973bda8250aU, 0x3cc39fcbbd85e493U, 0x3d08b689bc82488eU, 0xbde87ea23e020657U,
    0x3e0725a83d4a63e9U, 0x3e353f4abd3b329dU, 0xbdc6166bbd8cd16aU, 0xbda1aae03dc5aa92U,
    0xbe193f3ebc428c76U, 0x3e09b6e5be29142bU, 0x3d068b8bbd91b215U, 0xbcea1db3be6047bdU,
    0x3cd9fdc53df076d4U, 0x3dbba453bdd3c09aU, 0xbdd2817f3dca7dd2U, 0xbce7211abd8e19deU,
    0xbdcd3a94bd935351U, 0xbd82bd8c3d443a2aU, 0xbdbbec5bbb946409U, 0x3dbd4009bd542e16U,
    0x3d649003bde5eb07U, 0xbc3a28dfbd64ab0fU, 0xbe1e29493d47e026U, 0x3d0e44b9bca9c5bcU,
    0x3e3042edbd513901U, 0x3e0edc3abd61bca9U, 0xbe0513d73e1abc89U, 0x3d83ecc03bbac3edU,
    0xbd8c790dbe051fabU, 0x3c5ca79dbca12ad0U, 0xbd2c49a4be020d84U, 0x3d8219ae3c800597U,
    0xbdf059abbed48085U, 0x3cb34d40bd9743ebU, 0x3c956dabbdbbf251U, 0x3d0f69e83e27f7faU,
    0xbe04e41f3c330d16U, 0x3e34a9443d4c2a44U, 0x3cbf7493bd0d88d2U, 0xbe1b98a1bb928ce5U,
    0xbe3ad8e9bcbb952aU, 0x3e59abcdbe5a0a09U, 0x3bbfc95e3dd0bf0eU, 0x3df95e7ebe9ed622U,
    0x3d95f426bdf0597bU, 0xbe460c0d3e352133U, 0xbcef8392bdc895b3U, 0xbd3abf1ebe2ce4ebU,
    0xbdca57513df95375U, 0x3da694b0be32aa60U, 0xbe1a79a73df9902cU, 0x3d641a893c9a6645U,
    0x3e35064ebd123838U, 0x3e0f28063dce8447U, 0xbcea9abbbce579f5U, 0x3dccb7d2be33a8bdU,
    0xbd96b051bb9f1fcdU, 0x3c28de29be6b71e2U, 0xbda34b6bbdabdf0aU, 0xbcadd336be1c489eU,
    0xbde712dfbd8fe7e6U, 0xbd02809e3cec5864U, 0x3ce72433be6381aaU, 0x3e0116953c996444U,
    0xbdecb6dcbd3b3860U, 0xbd41a18cbcdd74ceU, 0x3ce325743dc97250U, 0xbdd2b7adbe4f7f24U,
    0x3e187ff6be0aab98U, 0x3e67e4ecbdb75772U, 0x3d39021ebd9e42a3U, 0x3ddda55ebe53e0d3U,
    0xbdb7f7a4bd6ffb7aU, 0x3dcab97cbe3bf516U, 0x3df1daf93dcb679cU, 0x3d98c072bae56dd2U,
    0xbe8b8046bc5cd074U, 0xbe42b1b23dbae580U, 0x3d9a212b3e185de6U, 0xbe159cf93ba5b84bU,
    0xbc3f44133dc256a3U, 0x3cca396e3db2be94U, 0xbcdd29f23dc09e74U, 0x3da9c2a3be078bb6U,
    0x3d781daabd43fb6dU, 0xbc862bf83cad3a08U, 0x3da221a33e24946fU, 0x3daa4092be8ed447U,
    0x3dc21419bd246dbfU, 0x3d8b5ead3d79c910U, 0xbcf610383d3bcdd3U, 0x3d78b9bc3c958ac8U,
    0xbd4edb0bbc82b9ccU, 0x3d1ce2e73decaaf2U, 0xbde4ec55be23d754U, 0x3d9a03f6bd6ccf12U,
    0xbbc54b29bd530796U, 0xbd1781d73d42db64U, 0xbd85e2663cf2a2c2U, 0x3ce176033d88aa10U,
    0xbd0109d3bd669ad6U, 0x3d2575dbbc79567cU, 0x3dc810233d713edeU, 0xbcf87077bc4c005aU,
    0x3cad44fe3b32d634U, 0x3cd89aec3c060d9eU, 0x3ca55d7d3c43bea7U, 0xbe0b75033de22055U,
    0xbd5bab1c3c9b9393U, 0x3d1541babe48602eU, 0xbdcb12533d0ad8ffU, 0x3ca820283d53faf4U,
    0x3c9d19ccbe5a7941U, 0xbe53b099bc0a8691U, 0xbdc1a1a8bdf8b3efU, 0x3d5a873d3dbc400cU,
    0xbe3d45f33c6a5569U, 0xbc950f25bc8175a3U, 0xbe02e1423d2afbfeU, 0xbe5e23823e0e2b64U,
    0x3d678fa33d8ef874U, 0xbd225eec3dcb5c4cU, 0xbd2a8d5a3d2f0193U, 0x3dea0d433e3b4797U,
    0xbea5d667bdc21602U, 0xbe54bb66bbf2ec99U, 0x3da167863dad5945U, 0xbdcb6ac23d733363U,
    0x3c848c413cb9cc79U, 0x3cbd47993de64770U, 0x3d5c0159bd6b69b2U, 0xbc317e643e114d58U,
    0x3dd4989e3dea5a8cU, 0x3ddc7b9ebb843a1bU, 0x3e0225233dcbcb62U, 0x3ddede623cfd9da7U,
    0x3dcdd7c939d38974U, 0x3d6b286dbd6c00b0U, 0xbe07e6913d9b036eU, 0x3d8b45443d99e75cU,
    0xbe692720be916867U, 0x3d86f6883d7cc1b7U, 0x3c3361d6be6a436cU, 0xbdd9efa23d8c796cU,
    0xbc4c5a1a3dc8e6bbU, 0x3d869b12bdf4e725U, 0x3df6dc363e0db51cU, 0x3ce53cac3d8dec20U,
    0xbd10b2bb3cf4ebccU, 0xbd0fddde3df81306U, 0x3d9a4355be2909faU, 0xbcc76cd23d95ef64U,
    0x3cd44c17be0311e3U, 0x3d19579fbd7ba400U, 0x3dc78e1dbda3c021U, 0xbd4a68ccbd2348eaU,
    0xbd93a33dbda55783U, 0x3cc3b5eebca94906U, 0x3c3ca30a3a702a38U, 0xbe3717b1bda30e11U,
    0xbd392c4e3df4bf2aU, 0xbd26adfb3d3da6b6U, 0xbd7f56bc3d5b56e0U, 0xbe0394173deb3648U,
    0x3cc456bfbd206b27U, 0xbd6b9565bcf5ab28U, 0xbe1987e3bd2ebb5eU, 0x3cf3abbfbe0b05e9U,
    0x3dc03fbdbb81180fU, 0x3d025cdabcd6a7a4U, 0xbd96a2213bccb029U, 0x3cfa5cb13dc0c0acU,
    0xbe9d9641be96a467U, 0xbe0dcdc2be4cb3fdU, 0xbd0496dcbe2a25baU, 0xbc827ca33dd61004U,
    0x3d41e974be87e9d2U, 0xbcfa95033df42ee7U, 0x3dbfa370bdc163a0U, 0xbd949bf03df3748dU,
    0xbdba9b8d3e05b2c4U, 0x3dc20b843d370833U, 0x3e2039343c805975U, 0xbdf6c0873c481634U,
    0x3e0a03f2bd961ea2U, 0xbda941ee3d59f1bfU, 0xbe1c32e3bda864d5U, 0x3cb96def3e0ece0bU,
    0xbd7c682c3c3f026cU, 0x3d00bb42bdad442cU, 0xbaeb15bebe4419caU, 0x3e0d795a3d8c9d23U,
    0xbdfd70b3be2885f4U, 0xbde836cdbdf22bd9U, 0x3b175865bda73fddU, 0xbc8250bf3d320f4aU,
    0xbdd4c833bdb1d8bcU, 0x3dc4539cbd5b75bbU, 0x3cc1121ebe05a7b4U, 0xbe38995c3e13a72bU,
    0xbd64f4d53c79b7b9U, 0xbe5cf2833cbd1ca4U, 0x3bb5c407bda5cd15U, 0x3ccbc352bdb05574U,
    0x3e25644a3c98ebe7U, 0x3dd0c2eebd9ec7cdU, 0x3d262a933dfe0937U, 0xbd86aee1bcedcddaU,
    0xbdafb2aabd5b3d97U, 0xbd9e76263de44d28U, 0xbd352fb3be0caa9aU, 0xbc423578bded2cf2U,
    0xbe26588bbe2bfb6dU, 0xbca81586be0acc9aU, 0xbe1cfae6bd2866bbU, 0xbd1b35173cbac7deU,
    0x3d90837d3d1ef942U, 0x3931ef83bd8cef1fU, 0x3dfa38ca3d9ee1bdU, 0xbcee55763d8b5f1cU,
    0xbdc595ffbdc43c70U, 0x3e1992613d443373U, 0x3d09ea1f3d341191U, 0x3da5c1d43dc40f97U,
    0xbc8e2bcbbe1f66a2U, 0xbe0ae448bd734ecfU, 0x3c8a1628bd8ddb84U, 0x3dbd1ddf3ddd0540U,
