/**
 ******************************************************************************
 * @file    mobilenetv2_fp32_data_params.c
 * @author  AST Embedded Analytics Research Platform
 * @date    2026-04-11T13:25:10+0200
 * @brief   AI Tool Automatic Code Generator for Embedded NN computing
 ******************************************************************************
 * Copyright (c) 2026 STMicroelectronics.
 * All rights reserved.
 *
 * This software is licensed under terms that can be found in the LICENSE file
 * in the root directory of this software component.
 * If no LICENSE file comes with this software, it is provided AS-IS.
 ******************************************************************************
 */

#include "mobilenetv2_fp32_data_params.h"


/**  Activations Section  ****************************************************/
ai_handle g_mobilenetv2_fp32_activations_table[1 + 2] = {
    AI_HANDLE_PTR(AI_MAGIC_MARKER),
    AI_HANDLE_PTR(NULL),
    AI_HANDLE_PTR(AI_MAGIC_MARKER),
};


/**  Weights Section  ********************************************************/
AI_ALIGNED(32)
const ai_u64 s_mobilenetv2_fp32_weights_array_u64[10908] = {
    0xbf2fd087beb9f5adU, 0xbf0e709dbf674282U, 0xbf358c7cbf83353dU, 0xbf21ae3d3f3343ceU,
    0x3fa5de263ed54af3U, 0xbf3b3b3e3ed9d1daU, 0x3eb2815b3e1d9394U, 0xbee7a2b13fc282b2U,
    0x3f5c36bf3e856293U, 0x3ec9dab93cabebc3U, 0xbf6e14a0bf792043U, 0xbf75736d3dbe4211U,
    0xbf7b659ebd34ff36U, 0xbee2bf573e980cf9U, 0xbf4be4dcbe60dba3U, 0x3eb01c63bf6cd4d2U,
    0xbfa4e0e3be75934cU, 0xbf384c483ebe39e0U, 0xbee96ef0401662f4U, 0xbf4b8ae6c01c7224U,
    0x3ff01c453f742929U, 0xc027250d3f0e1dbfU, 0xbf310348bfd84078U, 0xbeba8ff2bf590cabU,
    0xbe2f0769bf3f5290U, 0x3ed15401beb42d88U, 0xbf0d4ba1bdc8e20dU, 0x3fb4b76a40083af7U,
    0x3d7b62923f598512U, 0xbf025c4f3f84b83eU, 0x3ee49d17beb0d773U, 0x3ec8d496bf304de2U,
    0x3f3f54213e7c037aU, 0x3f832a073e9116e8U, 0xbf0b476e3f99a1a9U, 0x3d399a383ef0f377U,
    0xc02dbc6340157f42U, 0x3fab38d93fdd831fU, 0x3efca285beda85c0U, 0xbe16a6f13f0f47c9U,
    0x3fa087c13d9f22e8U, 0x3facbc0f3d0a7832U, 0x3fa3809bbf557e27U, 0x3e2c13693f8fc53eU,
    0x3d819d00be3e3f56U, 0x3f48ead9be92c8c2U, 0x3fac590dbf6812c5U, 0x3f10fe6c3f449e44U,
    0x3f99d0ca3f7325e2U, 0x3fe85135be5ff684U, 0x3fc7b3b9bfcb3351U, 0x3f9b184a3ff070c0U,
    0xbffe8e253fd621c3U, 0xbfc07f8fbfd5d494U, 0xbfea0288bffc49c0U, 0xbf91916e3fb934ecU,
    0x3fc756bfbfe3f5e3U, 0x3f6a1124bf874d0cU, 0xbf2e30423fab16d4U, 0xbed68a13bdeba9d8U,
    0x3f08351f3f25f1b5U, 0x3ea90a10be50b14bU, 0xbbffbd8bbf072f56U, 0x3f38fea63f1ed7c0U,
    0x3fabba563fdbc978U, 0x3ed8d185bf64eed0U, 0xbf645408bef3f300U, 0xbfbb64913e9854d5U,
    0xc008643dbf1c8a24U, 0x3e382dcc3f695b71U, 0x4046fc0640163170U, 0xc0232089bf8ef56eU,
    0x3f2a1f01bf5d021cU, 0x3e4373853e8f6be3U, 0x3efa6e723e9a9bceU, 0x3f2f8b353f44d408U,
    0xbe889e783e8c83e4U, 0xc0320228bf8a7994U, 0xbf2dd2103fd9b32cU, 0xbfb566e7bf396937U,
    0x3f62b102400f8260U, 0x3f41b861bf22a09fU, 0xbfbdeab63cf1948dU, 0xbd896a6d3e7b737cU,
    0xbf731e5f3f9fe61eU, 0x3e63b95c400ee620U, 0x3fd7ecbebed53ae4U, 0x3f86f87d3efae9faU,
    0xbf9a7664bf00f264U, 0x3e533d033f90dbf5U, 0xbfc4b35dbf805917U, 0x3cabfd783d8164dcU,
    0xbefacf01beb58d76U, 0xbf16a2273da14d65U, 0xbe4f47fc3ec9a96aU, 0x3e5ec5ecbf2fa52cU,
    0xbd8e7583bf3c0be1U, 0x3eb36ebf3ea903c0U, 0xbebe2e9abea8135eU, 0xbf2e6180bef8fd59U,
    0x3eba954c3d1b39c7U, 0xbed9c11dbf2ec1ccU, 0xbeb255493eeeea44U, 0xbeff38fdbd83c4f1U,
    0xbd88b78abf2c0083U, 0x3e86587abf1e98b3U, 0xbf15790ebe32119aU, 0xbe9b45013ec78d68U,
    0x3f1e1eccbe16f6b7U, 0x3f4970183f439059U, 0xbe3f41403f393b0fU, 0x3e1a18c8bef6db08U,
    0x3f091e9abd6b68b6U, 0x3f55ee933f3f7811U, 0xbe2403b7bf3f5441U, 0x3f3ee572bdbdbe16U,
    0x3db12bb63e8c6179U, 0xbe8d8debbf039656U, 0xbe920241bee732e5U, 0xbe85a6be3f035abcU,
    0xbf2bcd7ebe834554U, 0x3f3b5685bf55386fU, 0xbed57b6ebf1e6b20U, 0x3d7490be3cb6c87fU,
    0xbf0d1dcebf3465edU, 0x3e8251bf3e582130U, 0x3d3bcbd4bf130dedU, 0xbedf25bcbe9ccc9dU,
    0xbe1aac493ea55f45U, 0x3f39b19c3f16e4fdU, 0xbe88785cbf24d889U, 0xbebae3a5bef283d1U,
    0x3e67b3703ec617c6U, 0xbea9cd7e3e518f91U, 0xbeb3572abed7294cU, 0xbee0b17e3f163250U,
    0xbe80f6e63f2a8e9cU, 0xbef7cf76bf35863fU, 0x3f23bccf3ef3c5a3U, 0x3b9fb3003ed7b848U,
    0xbe824ab73e87c0d1U, 0xbea9d74ebeff5082U, 0xbe4fb856bef54208U, 0x3f304c6ebee65bb0U,
    0xbdf86878be498b24U, 0xbf6cc7c63e17ce94U, 0xbf1ed29d3f2f6f5cU, 0xbe9bc4593fa121b2U,
    0xbd9bc1853ef80502U, 0x3f348328bf0864aaU, 0x3ee61893be041866U, 0xbf4b5c69be80f8a3U,
    0xbf3bc7f83ea10f1dU, 0xbec782c1be5b158dU, 0xbe6b2dd83d8d4706U, 0x3ea6952f3e1a114bU,
    0x3f0bf707bf76c0b0U, 0x3e727818bee751baU, 0x3f64bc0fbf036229U, 0x3ee28d38bda5b588U,
    0x3ed280353ed504c6U, 0x3d230cb5bf099449U, 0x3f372505bdc19b49U, 0xbe6c1087be447f39U,
    0x3e2a20c9bdc78e9eU, 0xbf2990cb3f278f88U, 0x3d6d3d36be4536bfU, 0xbe33a18fbe7083e3U,
    0x3f3c63093f36ca08U, 0xbeb4e67b3e62f45eU, 0x3f34a2443e92806fU, 0x3db0fdbdbf1271b9U,
    0x3ee5d601be43b198U, 0x3e896758bec46fbeU, 0xbc8797153f3dee61U, 0xbe386367be82abc4U,
    0xbd2e15f93f3240ceU, 0x3eddca6f3e50b6e5U, 0xbf046c8e3e926799U, 0xbd894fe0bdc3e66aU,
    0xbf53ec3e3e01a018U, 0xbd9b78bd3f022b04U, 0x3e8fc3cfbeecd0c0U, 0xbe8524903e9cb2e1U,
    0xbea5edc8bf3317c8U, 0x3edd7804bc5beefcU, 0x3f0d05ca3f2f6771U, 0x3e6986393e93265fU,
    0xbf1c21a1bed6c0aeU, 0xbec0cbc93f208cc0U, 0xbec0ee08bf42f58cU, 0x3e95fc8d3e75fac7U,
    0xbe1b82fa3f382599U, 0xbf69e4a13e12d757U, 0x3f0b698a3da342d9U, 0x3d9c5b533f358f1fU,
    0xbe9941cf3f05c911U, 0xbef5aac03f1b3237U, 0x3f2470c7be2c3118U, 0xbe41eb9e3e4d0ef9U,
    0xbf4fbcc33e8c9c02U, 0x3d3c93903f287f28U, 0xbeeb3e45bd901e90U, 0x3ea985aebebdeeb6U,
    0x3dbeebf03efee041U, 0xbeea0495bef95df9U, 0xbe2ec37dbe84b944U, 0x3e5e857ebeb43824U,
    0xbf3577013f2f349eU, 0xbe685edc3f32f8e8U, 0x3e416b1a3ebfc42bU, 0x3f3be83d3f21ec2cU,
    0x3a87d57b3e16d36eU, 0x3ecd351fbeaa500dU, 0xbf021d2ebf0d2eb4U, 0x3d926d66bca35b18U,
    0x3e65f8d43ea49f88U, 0x3c0f72703e40cc82U, 0x3e9ada48be865ed8U, 0x3e8171593d847cf7U,
    0xbdad6ae6bda25283U, 0xbd703136bcd946ccU, 0x3bf55f683e5b4432U, 0x3c8469e4bb2ae5cdU,
    0xbe5ed4d43df08906U, 0xbd54076e3dcf7820U, 0x3de90a013e422c6cU, 0xbc0313903df23ae5U,
    0xbe2894cebd51db87U, 0x3dc325c53d90e5acU, 0xbe9dcc8e3d70a2faU, 0x3e4229c1bea8e4d8U,
    0xbf64ce32be0f192bU, 0xbddfa609bd8ae188U, 0x3f89088fbf41a9c7U, 0x3f0191aec0371f01U,
    0x3df4d783be9a1938U, 0xbf289bb13e9d25f8U, 0xbf565b663ec790e3U, 0x3e80ef223e00e05bU,
    0x3e7c8b823eb0c25bU, 0x3f15e7a03e174ba4U, 0x3d05f6503ee44539U, 0xbeec79143e6087b7U,
    0xbd19b66abf0110b0U, 0x3ab6ab17bf1fb3fbU, 0x3f1bbcdf3fa2e8f6U, 0x3f53d3a8bd71b1e9U,
    0x3e0ff9b4be697f28U, 0x3e1590e53efdfc45U, 0x3e7009a43eb8cdeeU, 0x3efc0ef43e3c509dU,
    0xbeebde783e5082ebU, 0x3fa3be063f0c9090U, 0x3d5e3f74bf0013bbU, 0x3e37cba53f8a8be0U,
    0x3eb34fa4bf5117d7U, 0x3e837ca13e99bb74U, 0xbe62cf493ed3ee13U, 0x3eaf0cf93e1c2bc4U,
    0x3da7b5b5bdf1aa38U, 0x3f2e5bc73e851c0fU, 0x3e7f7e52be658d62U, 0x3f74d271be87d308U,
    0xbf87d21d3f830d3eU, 0xbe1d14a03f6a53caU, 0x3f1ebd72beb72f73U, 0x3f08cbc53c7931f6U,
    0xbe9fafea3f101669U, 0xbeb6ee8fbf920aecU, 0x3eb8037fbe8fcf08U, 0x3e898a3f3e538218U,
    0x3ef122183dabb956U, 0xbe70f67e3dd3953eU, 0x3eb15502bcda144dU, 0x3e6d4a23bd622172U,
    0xbf8c04b7bed1b106U, 0x3ed16bb83f41de95U, 0x3f4fb314bd88fd29U, 0x3ebfb37cbea51504U,
    0x3ebb9ba8bd37eea6U, 0x3f0e23fa3ed355deU, 0x3e99788c3f14ff18U, 0x3e93133a3edd3d1bU,
    0x3e4808643f2e9682U, 0x3e7c5877bf2c4cd1U, 0xbe19fbe73e75b120U, 0x3ec56b82bde9e0faU,
    0x3e23a4b7bd353be4U, 0xbf0ee7c63f03422eU, 0x3e0504803e9bb1d6U, 0x3e6b558cbea2edcaU,
    0x3e4eb5743f0ece3aU, 0x3f6c6ab73fce9c4eU, 0xbf18599e3f09fa25U, 0x3c0c33aebfcdca80U,
    0x3f07faea3d0e0406U, 0x3f03f3d7bfaa1b9dU, 0xbf36e86cbe601c6bU, 0xbf2ae775bdc9a266U,
    0xbe573f14bed2f786U, 0x3f0986cd3d47653fU, 0x3f60d6f23efe9279U, 0x3ecc1318beae526cU,
    0xbecd4ba0be1abe0fU, 0x3d827acc3f084d23U, 0xbf4207463f1d9bedU, 0x3eed39babf2c2ff2U,
    0xbf4643fd3f44d7a5U, 0x3eb906753f9033f8U, 0xbf4e33e53f0695cfU, 0x3ed27779beeac23aU,
    0x3ce57fcb3d9537d4U, 0xbc46bd0a3f58c09eU, 0x3f4d22233dae135fU, 0xbe76bfdebd6f176eU,
    0x3f20eda23ed8de11U, 0xbf3a81b23ee981d5U, 0xbeeb5fd63ed12b18U, 0x3edaf3fe3e18a15bU,
    0x3df1a647bf2eb638U, 0xbfa1e94dbe1aba49U, 0xbeafe32cbe869fa2U, 0xbf58a2c6becb6777U,
    0xbee2d3e8beb29b5eU, 0x3e1e9b32befada84U, 0x3e968a08be297c08U, 0xbf17d23e3ece36d6U,
    0x3ebf8c523dc76935U, 0xbef24548bd6431a2U, 0x3f09ee33bd80ef0aU, 0xbcd5ef233eeaec78U,
    0x3e2c886fbfbecc04U, 0x3e8da8b9bf233534U, 0x3ef917a2bf84a701U, 0xbf978c64bf4b1e5cU,
    0xbf5ae4323f20c07fU, 0x3ef67d6bbe4d4655U, 0x3cb3736d3f20e7b9U, 0x3f40dac53e12c6ebU,
    0x3e1b27913ef913a6U, 0x3f172af83cc25834U, 0xbf878918be9293f4U, 0xbec1f583bffb0bfeU,
    0xbdbf921a4013816dU, 0xbf740ed23d2ffcb5U, 0x3f9f82103e6b71e9U, 0x3db204503e7cbaecU,
    0xbeaef97ebf0d3a75U, 0x3f0a79a9bc86df1bU, 0x3f0c2fef3f071e76U, 0x3f0813473fa64294U,
    0x3f348fc83e95d296U, 0x3ee1dedbbeaea8abU, 0xbdd52ff7be00b4bfU, 0xbf897e80bed063fcU,
    0xbedf02713efa9714U, 0xbe2d65ffbf743a8eU, 0xbeb6132dbf0e602fU, 0x3ef4b2b83cbc0b33U,
    0x3e9dcdd43be58e85U, 0x3dfadb4c3d6b9384U, 0x3ead28923fc31f1eU, 0xbedcd2f73e63b691U,
    0xbe52dafa3d2bd91bU, 0x3f3e41103f3d3de8U, 0xbeaabfd2bf3bd40cU, 0xbf15b31fbf251064U,
    0xbf501425beedd206U, 0xbf33ce3e3da82315U, 0xbf29103fbd718f98U, 0xbed3b622be6349cbU,
    0x3f060674be49f968U, 0xbe06484cbf1e3e28U, 0xbe5f760fbf216c25U, 0x3e109b653fbeaa00U,
    0x3f8773a93f1028c3U, 0x3d70c2f6bf55c723U, 0xbc6a4428bf4d08c0U, 0xbf39002d3f3f37e9U,
    0x3d638b18bd39eb03U, 0x3ea2e2c43d93fcb9U, 0xbe58db0c3f125307U, 0xbb69a3a8bd88242bU,
    0x3d52499ebed5370aU, 0xbee202423ddf8837U, 0x3efc81443e79c882U, 0xbd0f79bfbdd2f62eU,
    0x3e6cf1a23e8cf77dU, 0xbafeee923da86f86U, 0xbe838b833d6976c5U, 0x3ecfbf6ebecf1a9aU,
    0xba6d96e4beb65e79U, 0x3daf13143d87a827U, 0xbe5710da3d6a85fbU, 0x3de8d945bdc69820U,
    0x3eb27b6fbbffcab7U, 0x3e14d773be59701aU, 0x3e114674be2324aeU, 0xbe59ae38be28bc4bU,
    0x3e213e39bddeffb9U, 0x3eb0dbc63df09e91U, 0x3ea948403e47c656U, 0xbe9bc7463e7dfa3fU,
    0x3e89c0163d994a49U, 0x3e86dbe6be43ff0eU, 0xbe1c95d93c6c846eU, 0x3e0618df3da72ec2U,
    0xbe4e44cf3e56350dU, 0xbe1bff01bdd4a448U, 0xbeb65370bd51def9U, 0xbd9c79d93e719ac4U,
    0x3e918436bdfc598bU, 0x3e04652dbe97f662U, 0xbe5d6a9c3dd7c2e4U, 0x3eb2da953e61b120U,
    0x3e41d8f3bdb1ff6eU, 0xbd51d7633e7dacb0U, 0x3e3610adbe82d467U, 0xbe36ab803eaef90fU,
    0x3dcb6a08bd68fb3aU, 0xbe00a12fba562c16U, 0x3e6b0b2e3bf5bc2bU, 0x3e634e523e20c9b9U,
    0xbe4db2debeb73a82U, 0xbd80a5debe98ceb7U, 0xbdd421803d31bb47U, 0x3eafdc423ded034cU,
    0x3e8759c63ebea927U, 0xbe258cca3c2a6589U, 0x3ecbcc1fbe8d5e3cU, 0xbe946d4d3eb4eec9U,
    0xbe0d5084be7aa0e1U, 0x3e8cee623e774659U, 0xbee154a03e943f01U, 0x3e03dd9c3e0e935eU,
    0xbe126dd8beae566aU, 0xbebf4cd53ec97049U, 0xbea742adbcad93cfU, 0x3e225969be9aa9c6U,
    0x3d39c5d23db4f1f1U, 0xbe88982d3e9804b3U, 0xbe718d983d923af9U, 0xbe70a8313e5a65edU,
    0x3ebd440f3e55f99aU, 0xbe9a6e913eceea0eU, 0xbdcfb0c53e80527eU, 0xbe982c783e9670edU,
    0x3d3858ba3e0653b5U, 0x3e665ea23e52d7ccU, 0xbe28f4fc3e208fccU, 0x3df9b386be2da2efU,
    0x3e2c3c5ebeb78fccU, 0xbd4441ae3d848c44U, 0x3cbf1551be32b9d4U, 0x3eb1b70cbe610bb1U,
    0x3e88a85e3cb8275aU, 0xbd1b6811bea3c3a0U, 0xbd685f923eb738e3U, 0xbe8469f63ec46972U,
    0x3d55859d3e6aaedcU, 0xbe7e40563e31d009U, 0x3cc15d3f3d498b44U, 0x3e850b913ebf9597U,
    0xbc6e898abd81e04aU, 0x3ea95b7abf042c96U, 0xbe1f8c0b3e1e63a9U, 0x3e81b4a2bd4f3a17U,
    0x3ee4928b3b5d739fU, 0x3f02d41a3d29ca04U, 0x3e6e296c3e6cfb8fU, 0x3d03a56e3e120cadU,
    0xbe1e0dc7bd32dc2aU, 0xbdc4e268be3c954eU, 0x3e23f338bd3b09b7U, 0x3e7f23a0be47f2b0U,
    0x3d9ec49d3d7ed9d9U, 0xbe801fe3bcb6d194U, 0xbb2a1bf7be8b5ccaU, 0x3dac110f3d7938cfU,
    0x3e067f11be6fc45bU, 0x3e45ac9f3e620521U, 0x3c5664aabe4e3fc4U, 0x3e830ee5be71f7a3U,
    0xbdf82f93beae47d4U, 0x3eb29af23e641951U, 0xbe46ce3b3eb2f56fU, 0xbea47fe6be5f48d3U,
    0x3c16fb60beac05b5U, 0x3e3db074be912343U, 0xbe38123dbe47e139U, 0x3d971757bddd128bU,
    0x3ec5e725be8b8580U, 0xbe262c2abe1647ebU, 0xbeda605c3e196d94U, 0x3d0b23e3bd6b2a43U,
    0x3d2e0784bc0eb75bU, 0x3e507e41be3f0010U, 0xbdaf734d3e80a419U, 0x3dab25d53e9a2e9eU,
    0xbeee58bbbe5bed34U, 0xbe42b182be115a57U, 0xbf35bca8be38d4a5U, 0x3cccbfb23e2c1f67U,
    0xbd7d814bbea3f837U, 0xbea4b7de3eb70bdaU, 0x3d8c91f2beae4345U, 0x3ed69f1c3dc1b785U,
    0x3e1d7e5dbd1e9dd0U, 0xbd089fa43f30274bU, 0x3c3302b3bf060658U, 0x3e819252be247989U,
    0x3f575c993f10a10fU, 0xbe68d2a73f14c2e7U, 0x3ea1a9983e043a82U, 0xbc2d5a0fbf43927dU,
    0x3e844d5e3de30769U, 0xbf0561013e8ea2eaU, 0xbe94c3813e92d83bU, 0x3c9461913eb89c72U,
    0x3ee4bfa6be9405b7U, 0x3e317cbd3d90ebbfU, 0xbeb93b92becbdbd0U, 0xbec4b6ca3f0fb841U,
    0xbeb0b9babdca9231U, 0xbd20dbeabee9f9ccU, 0x3d4ac4523e745f8fU, 0xbe8bba9d3d5d8ea9U,
    0xbe4744e5bef8ff24U, 0xbe8d994ebdf1f836U, 0x3f18bd933ead1ff3U, 0x3e550ffc3f2e260fU,
    0x3dc4e8f83ec517a6U, 0xbeddf8f0be7529eaU, 0xbe482c023d107843U, 0xbeb3aa363e548024U,
    0xbea9680c3d22a246U, 0xbdce76623f8a48b7U, 0xbe56ceafbf555780U, 0xbf013fcebe156d6eU,
    0xbf10b42a3f11194aU, 0x3e9718473eb576e9U, 0xbed3287ebeec7131U, 0xbf31207f3eaa65feU,
    0xbca5d7abbedff0d5U, 0xbe698dd4be4db8f9U, 0xbddff217bee84101U, 0xbe8702a6beb8e7a2U,
    0xbf14295dbf1467adU, 0xbdfe57eabec8132fU, 0x3e2860ae3ebef338U, 0xbe1b99393db9e238U,
    0x3d958467bd5ae8d2U, 0xbf7089f43e7cfce2U, 0x3e7cf916bf098b72U, 0xbe4660a5bea19539U,
    0x3e34dd473da7c577U, 0x3e7348913d33157dU, 0x3e17b561bec310c9U, 0xbca201c8bf1ca493U,
    0x3ecade663e2e02f0U, 0xbe2d154a3e9c9b20U, 0xbe47be7bbed5a215U, 0x3e71acd9be9d918dU,
    0xbdff678c3eb4dda8U, 0x3bd7745b3eb4c2e2U, 0xbeda74633ee0b1c1U, 0x3d23db133e11967eU,
    0xbf2ac8473f13e413U, 0x3eaba1a0beddc3a1U, 0xbca1f153bd4f143dU, 0x3ec3eb383daa3171U,
    0xbdd9278cbf493c6cU, 0x3eac11c2be9181b0U, 0x3e842182be5d2109U, 0x3dfd2a4c3e4c5ce1U,
    0xbdaf0b1b3c205c74U, 0x3ebd6d0d3f017e08U, 0x3e16a756be72890eU, 0xbd16af903eef28e1U,
    0xbe88303a3defb880U, 0xbecb02d9bd85fd3dU, 0xbf3635713ead2657U, 0x3e0570e9bd2e1a47U,
    0xbe865b61bf0d8fe2U, 0x3eb59df43eab7938U, 0x3ed83ff9bec1bff8U, 0x3dedcf8abde7b27cU,
    0x3eb3b510be81edbeU, 0xbe76478cbe0a9341U, 0x3ec7e4c0bd818bfbU, 0xbe027c4ebef396d0U,
    0xbea43206be9dbb70U, 0xbda77198befc7ea2U, 0xbf65f36dbf2697d5U, 0xbf1b7fec3f0b03e8U,
    0x3e89ba01be1479c5U, 0x3de1d8afbe68232fU, 0xbe41fe6ebeaad145U, 0x3ea6523ebe9b9abfU,
    0xbf1b8968be9d3cdcU, 0xbf2a011c3e3391deU, 0xbed91402bf0a172eU, 0xbe4bf04e3ead209aU,
    0x3e368a313f4705bcU, 0x3e8e2706be437000U, 0x3e5e2413be6ea94aU, 0x3e9f2fa13f31c1c2U,
    0x3c3ddd513e22a7aeU, 0xbd8008ac3eb72642U, 0xbf1ce8043e579415U, 0x3eb46c57be0d7c6fU,
    0x3f08aad8beaf27c4U, 0xbe48aab8bf233515U, 0xbe8256d23e9100d3U, 0x3e9259d9bf20ea56U,
    0xbeac54eabe5c82b2U, 0xbeb08f32be8f05d5U, 0xbf5ca8efbd3a1711U, 0x3de0b8663e3e87b9U,
    0x3f0242b8be6d8f28U, 0xbf12ac3ebf0a79b3U, 0x3f088767be42d56aU, 0xbe6c07b83e98ba81U,
    0x3d18d410bef3eaf7U, 0x3dc2fe8d3f27b021U, 0xbf17a1e03eff4b40U, 0xbe155dffbf1bc329U,
    0x3ec50e483e2be912U, 0x3e7912af3f06e85fU, 0xbc0f67213ece43b6U, 0xbedc0ac93ebfdabaU,
    0x3eb213363db1c68cU, 0x3e60a2dcbdc90ad7U, 0xbc34b9e53eec5d51U, 0xbf1441dcbee8f7ffU,
    0x3de032ff3dcec964U, 0x3e955bdbbf374f92U, 0xbf07ff67bee97b76U, 0xbed358a13e591ddeU,
    0x3e8a9165bee710bdU, 0x3f2a186dbe83211dU, 0xbe600f9e3f0745d7U, 0xbe0e12193f397149U,
    0x3ef668f63d202750U, 0x3dd7b5e73e555cccU, 0x3ebecc77bf092127U, 0x3e78c4cf3eac923dU,
    0xbd9ae417bb8cee6fU, 0xbe0757d13e8e0444U, 0xbf13ea1abf807515U, 0xbf62ff52be96c62cU,
    0xbe907c6e3e8ba0ffU, 0xbe24ecf7bdbf8d7eU, 0x3ee09366beb99bc3U, 0xbeaf90c7be935c19U,
    0x3ea9d98f3f275a24U, 0xbeb8c04dbd62f702U, 0xbeed38d3be2f4bedU, 0xbed80fd83eec8affU,
    0x3d33e0033eab40c0U, 0x3f0911ce3dff2433U, 0xbdec40e6befad645U, 0xbf0adf46be942d77U,
    0xbdc05ebdbdcdc68bU, 0xbe6700df3ebce038U, 0xbf129aa2be53ba9eU, 0x3e256b983eb65416U,
    0xbf00f3c93f33e703U, 0x3e6d10e93eaa0097U, 0xbf1006653e6f37c0U, 0xbea2e6a9bc9230c5U,
    0x3c16bbce3d9ca646U, 0x3ed07d17beef7337U, 0x3e34b1c1bf1b0d44U, 0x3d255922be69ce65U,
    0xbe20e45fbee9e728U, 0xbf0272cdbe8a28f2U, 0xbd4429a93e1212e6U, 0x3e804fab3f27fd0cU,
    0x3df7982fbef4447aU, 0xbec71d663ed26d0fU, 0xbede6bbf3ebf3660U, 0x3e2821b1bec5c2d7U,
    0xbe654698bef77774U, 0x3eba6ed3bec7b3d5U, 0xbedea3c0be17af47U, 0x3e4500a8bec63705U,
    0x3d1ca8f23e99e68dU, 0x3cb7e9da3eb6f3d0U, 0xbe9eee2bbef6bbeaU, 0x3d9c8b63bf65e00cU,
    0xbe023b86beb05219U, 0xbe03c2003e9ac68dU, 0xbec6c68d3e4841d9U, 0x3e74f8ea3e8bc4f3U,
    0x3dd975d03de9f7f6U, 0xbc9bb4ed3cde298aU, 0xbe14266a3cecef66U, 0x3d8358ec3bf21897U,
    0x3bd3142c3d515a9cU, 0xbc06d1f4bd800c26U, 0x3d8b9db23cdf4a20U, 0x3c63643c3d815d80U,
    0x3d4a178a3baed7d0U, 0x3dee81e33e2e66e2U, 0x3df7073b3da7be2cU, 0x3dbd78f03d06a902U,
    0x3aa658c83dda03c6U, 0xbe04b7e13d0cd2d2U, 0xbcd09982bd58254dU, 0x3dac36723db36dedU,
    0xbe04ffdabca7af54U, 0x3e236ee23e39ddcdU, 0xbcab4fddbdef5e44U, 0xbd172372bca946b3U,
    0x3d15fb9d3c0a7c9aU, 0x3d39181a3a04c320U, 0x3e0851c13d1813b6U, 0x3bf54170bb733a2cU,
    0xbdb0510bbd1fa5b8U, 0xbe886901be81d91cU, 0x3f1d8a7f3f614890U, 0x3faa39d73f353116U,
    0x3f446bb6bed6701fU, 0x3f8b49b5bfdc9e91U, 0xbe3dbcefbefb5d24U, 0xbf1e9106be646b0dU,
    0xbf68e09b3fafeefcU, 0xbeea8f513f174f56U, 0xbea3b1b5bf1884dcU, 0x3e8cb9183f4b458fU,
    0xbf87e94a3ef969a9U, 0xbcda1aaabe652682U, 0x3eb49e29bdad6015U, 0x3d477c4f3f8570d5U,
    0xbca7af873ecc0264U, 0x3e5d71203ef9b3a3U, 0xbf2f37483e2fc8a7U, 0xbede8c57bf7206bcU,
    0x3f2551d23f12cf9bU, 0xbf5bbc733e86703cU, 0x3ef28facbf262f46U, 0xbe999677bf670225U,
    0x3e684efcbf9dcbccU, 0xbd3c02d33f5675bdU, 0x3f4b662dbf4722ddU, 0x3ece91b73ef36119U,
    0x3f04744a3e2a6e50U, 0x3ea534c93e220326U, 0x3dfb77123eb21410U, 0x3eafbd1d3eef6b10U,
    0xbd106bd43f3ecbe9U, 0xbeea40d73edc8d70U, 0x3f22bee83f01a6a1U, 0xbf0826b83e982899U,
    0x3f20e804be12f3d5U, 0xbefb1a5cbeb97c11U, 0xbf1b02b63f9e6dd3U, 0x3e93ac5bbed51369U,
    0xbebd10c93ccfe2c4U, 0x3f9be7c9bda55072U, 0xbe5a6995beb28b71U, 0x3d300b88bd9ab4f1U,
    0xbd81f6ad3f1d4cb0U, 0xbdb2b0973f2afceaU, 0x3e856d4fbed0ae93U, 0xbed418f93f3d7c06U,
    0xbe6bb93c3fa8ab4eU, 0x3f577e2b3e1085b8U, 0x3dc985ff3f42f75bU, 0xbf1efb003f029eb8U,
    0xbe33d2a13ef2cde6U, 0x3e9cbf893ed7ad05U, 0x3f1f3a483f85f227U, 0x3ede92ea3ee784dcU,
    0xbea3aad23e8d347eU, 0xbf287e663f53cdccU, 0x3f14249abf7d7730U, 0xbf4ef7babdff6359U,
    0x3f5c2f84bceeb756U, 0xbf2ed9ab3ea02c4cU, 0x3f822afebdf7cd64U, 0x3f83e4fbbf20b683U,
    0xbf21af77bf382031U, 0xbfa9cfc2bc693613U, 0x3f790c10bda973abU, 0x3e9d3a473ed9f8dfU,
    0x3f30c7d93e1d9165U, 0x3e4f80fdbf045354U, 0xbf85c3173f3c86ffU, 0x3cac26ea3e6b93d5U,
    0x3f64779e3f1cdb5cU, 0xbe442647bf2f781fU, 0x3c87344b3e15442cU, 0x3f2c23c9bc9710c7U,
    0x3f0cdfebbec329caU, 0x3ebdd247be8a0f76U, 0x3f357d373e79b5a8U, 0xbf781edebe0c6e86U,
    0xbf392582bf1f3983U, 0x3e6084433ed64da4U, 0x3eb0789cbf464a3bU, 0xbd444268beb2914cU,
    0xbf1904d23f20713fU, 0x3e637699bf19de83U, 0xbf02f90b3f6e8b2dU, 0x3c7a64123f7279a9U,
    0x3f201a0cbe9b0bcfU, 0xbef643eebd92bf3fU, 0xbe78e40e3fa02fedU, 0x3f4e5545be780c35U,
    0xbf3f8e63be2e73ddU, 0x3e538d223e3d11f3U, 0x3f874280be4652d6U, 0x3df26453bfc3d578U,
    0x3f93a910be8f5c04U, 0xbf7711bfbf274e42U, 0x3f3cbc8b3ecfb14bU, 0xbeb75a94bf69dc44U,
    0xbef02c7bbf3d0206U, 0xbd9fc5193e562d97U, 0xbd4b3b133d63f033U, 0xbf7022edbf2df2f9U,
    0xbfb48975bddc6d2fU, 0x3f132c5e3d7895f2U, 0x3f6908b1bf1cc693U, 0xbf35fc653f1289a7U,
    0xbf711e883fc73b7dU, 0x3e81d333bed3c94fU, 0xbea7dca9bf3ce1e7U, 0xbd213d963f1036baU,
    0x3da7fc4e3fa087bdU, 0x3eeedfa3be701baaU, 0xbed0234e3ed4cce9U, 0x3f080bfa3ef4f709U,
    0x3eb2f9133e58b9f1U, 0x3fa3f784bfa79970U, 0x3fac352b3e69d4e1U, 0xbf611373bf35cde9U,
    0xbfcb75643db3d4fbU, 0x3fd797af3fc09253U, 0xbed352943f81c345U, 0xbeb33e753e80619bU,
    0xbf2d143d3f9be972U, 0xbe94ec94beebab0dU, 0x3f877b66bd5df251U, 0xbec83e97bf8849fbU,
    0x3f4c5cd43f7a6a30U, 0xbf777541bf928f00U, 0x3ea4e1183f2474edU, 0x3f0775a2be827e3eU,
    0x3cd4ac253edc5a17U, 0xbd1ac7e43f6f666dU, 0x3ee5d7743e6a5ab1U, 0xbf5edf99bf421ae5U,
    0xbd5d79f2bf88b0eaU, 0xbf1cfca53dc42dbaU, 0x3f3cf1b73e066787U, 0x3e4e26593ebe7a9aU,
    0x3e9e0921be12e7bcU, 0x3f3083333ebd7069U, 0xbbd06ef83f1aecefU, 0xbdc5a9f2beab4bb9U,
    0x3f8bb3ed3f358b9bU, 0xbf2bb7013c03e2c2U, 0x3d863f12bf0c8296U, 0xbf4d4d793f4a7acaU,
    0xbe0776debea77b03U, 0x3e3d7800beb9d765U, 0x3fae3c4b3ea1b42aU, 0xbeb6c4f53f729be2U,
    0xbee01f79bfd0bc32U, 0xbf162e843f5a148cU, 0xbf3231ba3d09a193U, 0x3b1549c93f3ceb71U,
    0x3f4b2122bf96ce10U, 0x3f42359b3ece23f8U, 0xbf518610bf11618dU, 0xbf1980943ca3a0f0U,
    0xbf647e11bf25b041U, 0x3f2275193ec167f4U, 0xbfb7a12a3f9e2238U, 0xbf4044223e926c03U,
    0xbea023383f8984a5U, 0x3f02f477bf1e87f8U, 0xbea52ff23d5930d9U, 0x3ef0444b3f309defU,
    0xbf59b8c3bf21c5d1U, 0xbed22631be9322feU, 0x3d9562363e16970eU, 0xbe1ec8b5bf8fc06aU,
    0x3e7bf21bbf5c0e05U, 0x3db76ce43ed1e6f1U, 0x3e8833af3e8fea4dU, 0xbeeecd12beebfc88U,
    0x3e56c6703ea46b5bU, 0xbe3b8098bf35fb89U, 0xbee5be07bd0b7eb7U, 0xbeafea8f3e2f1847U,
    0x3db5c879bf8a5c51U, 0xbfadd0e23f886be1U, 0x3f5549563e8e0301U, 0x3e278c9dbeea88ccU,
    0xbeac6ebe3db67458U, 0x3f29620c3f1560b9U, 0x3e0145383f0619feU, 0xbe809e74be6ab3e1U,
    0xbf5b4c12bee641cfU, 0x3f9df57bbdece36eU, 0x3f35f4ff3db2a0c2U, 0x3e2c1458bf106bd8U,
    0x3f360029bdb3ccedU, 0x3f4d868ebf0d3a6cU, 0xbc36a1bebf64a9d6U, 0xbf6ff22c3e0ad386U,
    0x3df679bdbefdf5b9U, 0xbf211227bf074ea6U, 0x401f684fbeed5b2aU, 0xbf4bd3ef3eb7e885U,
    0xbe2fd4d7bf4c46e7U, 0xbd5fae883f9f20baU, 0x3ec5a7e6bed2fb90U, 0x3ea06c973f3551d1U,
    0x3e9d8fa03f4df0efU, 0xbf6fb2413da42b64U, 0xbfbbb799bf265930U, 0x3f0d8632bd51953dU,
    0xbeb84060bd863179U, 0x3f0f83233f335122U, 0x3eff7b943ecf72e7U, 0x3ea99bfc3e492a18U,
    0xbe6947a13f3141cbU, 0x3f2f2ccf3e5e36bdU, 0x3f4e9817bf0283cfU, 0x3ebc9d0dbdb494c1U,
    0x3ee4ce10bf660e6cU, 0xbf5d18463e8ec25bU, 0x3e3130083f079ff2U, 0xbf4a97debf822844U,
    0xbe675f8dbd9e9c67U, 0xbf407a7fbf3378d2U, 0xbeafc984bf0602a7U, 0xbf0c7ff73e9f841cU,
    0x3e6b870bbe9b1cefU, 0xbeebe3c43e7b3312U, 0xbd96004bbe15bf23U, 0x3f13ec7f3fa10e1bU,
    0xbf3be394beddb54fU, 0xbf38c558bd366435U, 0xbf62d8aabe0a7979U, 0xbf31fcbb3f4241a2U,
    0xbcca913dbdfa9c04U, 0x3f30a954bda81f6cU, 0x3eb73b74bd28bbbeU, 0x3edf84753f164564U,
    0x3ddc9d803db216a6U, 0x3f72c3f2bf0a792eU, 0x3e0faf5abecd5d91U, 0xbf572582bf3f22c5U,
    0x3e614a1cbe609777U, 0x3e915f373ec7922cU, 0xbbfbaafd3cf2aff8U, 0xbeaf1aaabe9517feU,
    0xbdd5815d3e92430aU, 0xbe392bb5bdb07bc8U, 0x3e386c26be6efe33U, 0xbde000ecbe3f1025U,
    0xbdab94043e58df2aU, 0xbebbc9df3ecf7c23U, 0x3e530a9b3e559706U, 0xbe4eb450be66df02U,
    0x3e24bb15be70fff4U, 0x3dff6f32bdcfba10U, 0xbe8b09ebbd32c030U, 0xbe8a8744be1f28e7U,
    0x3e9d1bbfbe83ee87U, 0xbd6555a83e9d0d11U, 0x3eb99638bedcafffU, 0x3e32d741beaf969cU,
    0xbe4d2efc3e9c81a0U, 0xbddd4a51be20c1afU, 0xbecb1eb23e253f90U, 0x3ddc42613dbaa311U,
    0x3dbc0638be987b60U, 0xbe53abdb3e3ce578U, 0xbe0ab7143e937f52U, 0xbdca2baabe414717U,
    0xbd761ee4bc1099a2U, 0xbd3b1aea3db8523eU, 0xbdcfd8c53e287019U, 0x3d7b308d3c8c3549U,
    0xbe83ee263d5bc753U, 0x3e2f1c713e8e104fU, 0xbdb73eb93e97225bU, 0xbed488e8be3aa02fU,
    0x3e8c2cb23e7d8d5fU, 0x3d1e03123e342d47U, 0x3eaaf9a0bdf13fb3U, 0xbe1f82f4bd38d4f2U,
    0xbe3dc5743db7dbc0U, 0x3e1fdaef3e59c18dU, 0xbeb56f39bdc6d586U, 0xbd8e91e3bd565851U,
    0xbd634959bdd2d3daU, 0x3da206533e7e6631U, 0x3e733b1dbe970af8U, 0xbe3e97103e9f7cbeU,
    0xbe5114c53d9e7a47U, 0x3e4481d1be3736d3U, 0xbe0337fbbdab9a5fU, 0x3e63d1893e054075U,
    0x3e8312bbbe333236U, 0x3e8feed0be8d5e59U, 0xbdd12dec3e307827U, 0x3e82d958be199a69U,
    0x3e52aafd3ccc024dU, 0xbe9d00d0bea0cffcU, 0xbe515cd33e88d90cU, 0xbdffd7173d51eaffU,
    0x3e93355abe22f16cU, 0x3dcc3c1dbe8e006bU, 0xbe6c6c87bd8c38c2U, 0x3e73969d3d6c81c8U,
    0xbdc98c0d3e012dc6U, 0xbe94d3973b0dff0eU, 0x3d833471be97fd89U, 0x3e0a81003ec813fbU,
    0xbc30ea2dbcd78575U, 0xbe817d6e3e7826baU, 0xbdc07b853e14530bU, 0xbd07f00dbc061a69U,
    0x3dd14e61be148094U, 0xbe36f578be0bf7aeU, 0xbe9e9b233db62a52U, 0x3d927b583d50f4fbU,
    0xbe902aa83ebed46cU, 0xbe46f00e3e73b106U, 0xbd9d2755bdb37369U, 0x3e59d3f33e8366cbU,
    0xbe0851883ea492f1U, 0x3ebbde80bde1e839U, 0x3dd0deb83da37a90U, 0x3e960c793b943f30U,
    0x3e434ebc3dae6011U, 0xbbebdb443e5e6030U, 0xbd8fb6793eb7e08fU, 0x3da886e23e965651U,
    0xbe6d27aabea17df6U, 0xbe7b85ccbe8ed6e4U, 0xb933fb6e3e5e9aa2U, 0xbda1fe7f3e398c5aU,
    0xbea6109e3e4e79dcU, 0x3ec402c73e6aab02U, 0xbde85f8f3d430c88U, 0x3e61bfb03e68d74bU,
    0x3e1fbc6cbec94e41U, 0x3e516d5abcc9308eU, 0xbbff8f173e49acdcU, 0x3deb242b3db7a6fbU,
    0xbddb5a9c3cd4952aU, 0xbcb94b9a3d9d3f91U, 0xbe8cc8ae3e96b326U, 0xbb5956a03d96accaU,
    0x3eec19cbbe9976faU, 0xbe2778d03db39415U, 0xbd103a15bec16625U, 0x3c2b5d8dbeb26198U,
    0xbde53fbfbdeddcbdU, 0xbd5558b03e01212aU, 0x3d2827403e892304U, 0xbc096b513e10030bU,
    0xbe34f9c03e1b742cU, 0x3d1adadd3eb45165U, 0x3e0c76e03d4037d2U, 0xbe0b81463e1873fbU,
    0xbcc16e1d3deeb44aU, 0xbe99faf23dd0b543U, 0x3eb64e26be4e7a09U, 0xbeb82d07bddd8d87U,
    0x3e3fa4babdea4561U, 0x3e668822bdf419feU, 0x3d837999bddf6a27U, 0x3dc4a1d3beb0f241U,
    0xbda5c35e3baa11e1U, 0x3d01fb433dad261bU, 0xbc859a8b3dd58e28U, 0x3e71232dbe1bd270U,
    0xbe9574163e806f9cU, 0xbe0580483e9c554fU, 0x3e67686d3dc88fe7U, 0xbe8e966d3db765d7U,
    0xbe0b5b9f3daae9c1U, 0x3ebe9e4f3e9155ceU, 0x3dd0343f3e4dcd16U, 0xbe8f8d26bd0b59b8U,
    0x3d06ba9f3e65c983U, 0x3e0845d3bd991535U, 0xbd03acc23ee82778U, 0xbe6a1f3d3e6d1dd7U,
    0x3eb09e22be28f9e1U, 0x3e08f6ad3e802e26U, 0xbd863dd63e06ad21U, 0x3e3e0b823e7b6c35U,
    0x3ec516ebbda90268U, 0xbe590aa8be366d5eU, 0x3e75c8703e0c1e61U, 0x3ea497ae3d926199U,
    0x3ea12cd53e7480c6U, 0xbd0f5c05be884348U, 0xbccc70223e0b24ceU, 0xbc1a3857be88601cU,
    0x3e2b7082bde1e41cU, 0x3d28b62a3e60cf4cU, 0xbd693319be848d21U, 0xbe55a58fbeb70912U,
    0xbbca7c9e3e753363U, 0xbe50aa903e8b4039U, 0xbe8fb0b8bdeb1140U, 0x3e105254beb0549bU,
    0x3e3a8e2fbe83c096U, 0xbd80062a3ec473b2U, 0xbd27b8e73ed9c2e3U, 0xbdfaa0bfbe1a91b0U,
    0x3e1e859d3e6b5b7dU, 0x3cbcb9773e1dfb39U, 0xbd9b1f0e3e7861cbU, 0x3e11bd413dd5b7bcU,
    0x3e6e568fbe33e088U, 0xbd9bb69ebeaa65e4U, 0x3e21a610be852beaU, 0x3e2dd094be989500U,
    0x3d2014a0bd8d6b04U, 0xbe94c2fdbcc4f0b0U, 0x3dd9f4343e7cf3f3U, 0x3dd24c0fbdebbe86U,
    0xbe5ab8a1be1b8707U, 0x3e7083f7bd679c0aU, 0x3e34c4233ec74451U, 0xbe858966bdd60a0bU,
    0x3da40c2dbeb27f3fU, 0x3e4b1281bc0a31deU, 0xbd06637f3e44b877U, 0xbe1169a13da6548eU,
    0xbe38c8aebd1406b7U, 0x3eb17e243e676bb5U, 0xbe7528173e8be1d0U, 0xbea2a87dbed56348U,
    0x3e77c4ca3e5dc382U, 0x3da6dbdf3e433751U, 0x3da4ff7ebe91885dU, 0x3e8b212f3d18615aU,
    0xbe33a94c3f26c56dU, 0xbf6ff8b1bd37f1ebU, 0xbf816c443e039630U, 0xbdcde214bea282f8U,
    0x3de3a03c3db105c3U, 0xbe55892ebd533862U, 0xbed7e45d3eb426e7U, 0xbdd1cab93ea577b3U,
    0x3e76db3c3ed12360U, 0x3e31c17ebe72fd51U, 0x3e782f2d3e206502U, 0xbe9d97073da97c68U,
    0x3edfe5e03ead063dU, 0x3e30e40fbdc27ffcU, 0x3e09606abe00c2c5U, 0x3da195233e96ba00U,
    0x3e0163e13e27a45bU, 0xbe0965e8be0c739aU, 0x3e7d2dbdbd3c3bb4U, 0x3deedb20be9c9288U,
    0xbd64a7c93e46f94dU, 0x3e0b79443e050b3cU, 0xbe464944bcfd6fb3U, 0x3e439bf13e6f6f81U,
    0xbe94e8edbdee3eeaU, 0xbb7d08aabecc6ce9U, 0x3e9d09b53e35fa2eU, 0xbc991c3e3d84b784U,
    0xbe8088f7be3db7b8U, 0xbea845983e87ba00U, 0xbd6d3ac53e073297U, 0xbcf9148b3d7dfc49U,
    0xbee83ce83e5801b0U, 0x3e8f2113be5a69adU, 0xbea4c2c93eec5bacU, 0xbca2a09cbea6c0d7U,
    0xbe0cc702bd87e072U, 0xbe7c6e84bee3b058U, 0xbe3b3c0d3e1cf6caU, 0x3f07fc81bd1dada6U,
    0xbe9808833dde15f0U, 0xbd401f60be9fbd4eU, 0xbdab28063e9828ebU, 0xbdaf2224bd81f3b6U,
    0xbce617e73e99b2e0U, 0xbce998523ea034c0U, 0x3eb92fc4bdeb96e5U, 0x3ede28a5be9d9bf6U,
    0xbdcc2cec3f0ab8beU, 0xbd4ba0cebe371798U, 0xbde4bf363e81d166U, 0x3df57197b97e68beU,
    0x3e039359be678963U, 0x3e8fae223f0343c4U, 0x3e41177cbd2d698cU, 0x3e3e646fbe1f0b86U,
    0x3e648c78be85a6e1U, 0x3e8b6c263d932714U, 0xbd3879243f04d9eaU, 0x3e0d5de23f0e95edU,
    0xbeb42f26bc263061U, 0xbdeeb972be6ec285U, 0xbe227e2cbe7904caU, 0xbe96e1c5becbebc6U,
    0x3db7aba9bc41e4b9U, 0x3e837320be86f57eU, 0x3e6e9d7cbe66eba6U, 0xbdb1d63bbdafd56cU,
    0x3d965c793e7c2cacU, 0xbe63d7aabe352c1cU, 0x3e78eb4f3e9c3d38U, 0x3e2c532d3eaed591U,
    0x3df73897be93bac6U, 0x3e9964e8bf0b2450U, 0xbe883b3f3e0ac5adU, 0x3e3adc8b3e30311cU,
    0x3d41393fbe613c80U, 0xbecf67d73d525348U, 0x3df25e55be36cad2U, 0x3ebdab39be81aa06U,
    0x3d147faf3eadaedaU, 0x3eb3c9db3e269e95U, 0x3e6d4e623c1cd32cU, 0xbed0b931bda08a0aU,
    0x3d001dfdbdea02f3U, 0x3e43bd5d3e3f2f5aU, 0xbebe55f7be73fbeaU, 0x3d9c34063dbd0f8dU,
    0x3e6302323e48d812U, 0x3ef4df72bd59450fU, 0xbee5c0dc3e8c5468U, 0xbe64973d3d3451dcU,
    0x3d8fec70be393ed5U, 0xbe90667fbea0a5b1U, 0xbdfa558d3cdc5fe0U, 0xbc2c2c0dbe9c1881U,
    0x3da17650be6f297eU, 0x3ec111c83e5ade6eU, 0x3e312d18be5c1394U, 0xbd4b0d7dbe2e6c48U,
    0xbe9b52f53ec04decU, 0xbe88e90bbcd04c56U, 0x3d82b0d5be4c54f6U, 0x3ec480e3bec0428fU,
    0x3ee7d4463d2a62b4U, 0xbe86d69cbe380d74U, 0x3d86b76d3e8644c1U, 0x3dd7ca713f00b545U,
    0x3e8981903e10c81eU, 0x3e165397bd4f8862U, 0x3eb9747a3dac437fU, 0x3be333e9be569b33U,
    0x3d909f5a3e04bc48U, 0xbeaa48d03dfafd7dU, 0x3e92aacabe83a866U, 0xbef7b9dbbe34b127U,
    0x3d779dac3ea41b7dU, 0x3e7933123e110f95U, 0xbe8fc4e9beb41802U, 0xbe343182be0a3f09U,
    0xbe13bacbbe980349U, 0xbe896634bd019adbU, 0xbe370797be247bacU, 0xbeb9bd30be8ffec3U,
    0x3e1e76953e7ddf95U, 0x3e8377f23da5603cU, 0xbee317733e07f3cdU, 0x3ea7992ebe84571eU,
    0x3e95ccbebeb066dbU, 0xbd353e0e3ea0cacdU, 0xbe0a5a933f122578U, 0xbebbfc77be901987U,
    0x3dec686ebe4e78daU, 0x3e99ddaebe0b3efcU, 0x3e98e4d23e8c72d8U, 0xbe1eb3abbd365f88U,
    0x3eb8e6b53e076c93U, 0xbe328f54be54604cU, 0x3e550a483e80bcb9U, 0xbe9779653dd16e2bU,
    0x3def9233be9ed12eU, 0x3ee881803e1f9945U, 0x3e1e7e743e95f344U, 0xbe6e5c47bee191e3U,
    0x3e6a49bdbee66111U, 0x3e9fd2e43e1b1ec8U, 0x3e9e48b63cb18e98U, 0xbd66867a3e8102d2U,
    0x3e8c32673e750ec6U, 0xbe5463b23ebbe6a8U, 0xbe90ad163e64ad90U, 0x3ea6a6a6bea14075U,
    0xbd7d722fbe1445c1U, 0x3c4004debebb0583U, 0xbe84d2bc3e12dd8eU, 0xbbfc82d1bef11ea7U,
    0x3e4641e3be58bcddU, 0x3e6b5286be1f2230U, 0x3e3fe494be0e90d9U, 0xbd868bc6be2641a5U,
    0xbec6dde63daa722cU, 0xbdd42c96bd8eab81U, 0x3ee0c1ce3dcd6d08U, 0x3f21ba6f3dfcbecbU,
    0xbe92e84f3e989a32U, 0x3e988b5b3e9183e0U, 0x3d48f1a13e64e3a2U, 0xbe848878bd8c8774U,
    0xbe36594cbea31252U, 0xbe4e5a0c3efdeabcU, 0x3ee5c54a3d2adef5U, 0x3e1b7cfe3dc8c079U,
    0xbeaea5c93eb24235U, 0xbe3e4be83db79ed9U, 0x3f1f6ad43cef8e89U, 0xbe31c9ed3c8fecd2U,
    0xbeb8b116bd7b69d9U, 0xbe0550423eaeac9dU, 0xbe088579bd29094fU, 0x3e47e08abd50cbf5U,
    0x3e6c671cbeb83cc3U, 0xbd0e81f2be59d630U, 0xbe75cf7ebe692fd4U, 0x3e8164bd3eed772fU,
    0x3e8fcae2be78c65cU, 0x3e809139be9e6856U, 0x3cc96ec7be965628U, 0x3cee83203e0ae15eU,
    0x3e8424ee3e6d2a14U, 0xbe2f150d3ec051a7U, 0x3efd7a4dbd770755U, 0xbeb945fe3e928a4aU,
    0x3e1b65ffbe95b20eU, 0x3e1c0982bea7ef30U, 0x3e7c77b43d920ca2U, 0x3e8f5ab03e1c4c53U,
    0xbd1fbb53bd232ea0U, 0x3e4a287d3d875290U, 0x3d2879cf3e4724a1U, 0xbd3984543d2ac444U,
    0xbe0dd04a3d760763U, 0xbd8169443e25f1e4U, 0x3ca19a4e3dd2859fU, 0x3d574dcbbe3dee44U,
    0xbb2eb8603d7f274aU, 0xbe1030b0bc1a1728U, 0x3d5022a73d64d5d3U, 0x3e2adb163cd7b4deU,
    0x3dd1d3223c9c326bU, 0xbe37e8e63d479c62U, 0x3d6b26163d231665U, 0x3c26308b3db66fd2U,
    0xbd9054803d6e3320U, 0x3bc77cb03b9bf6bcU, 0xbd8f26b93dfa3ce6U, 0x3e1ca506bdbdeed5U,
    0x3e034f5dbd1861a8U, 0x3c7e887cbca8f5a6U, 0xbc95753d3dda00c0U, 0x3dbe2fd03db5e455U,
    0xbec48a2cbe546837U, 0xbef4c00dbdeeca5eU, 0xbe767d23be94e08eU, 0xbee3cce0bf069ad3U,
    0x3f4e68d2bde1bd83U, 0xbf4438cb3d60afc4U, 0x3f1074dbbe35387dU, 0xbee152cebec0fd0bU,
    0x3cc4b84e3ebffe9bU, 0x3ed070ec3e971f5eU, 0x3f2822d7bf00f7eeU, 0x3e44a3253eda4462U,
    0xbe6805ec3ef8f483U, 0xbf587d0abf224200U, 0xbfd8124abe9182d4U, 0x3f09625f3f43c9daU,
    0xbe5e5de53f4b2098U, 0x3f34b9603de7606bU, 0xbc11ad91bf8aefd6U, 0xbf60c1ba3ea7cb1aU,
    0x3f4181263f9a927cU, 0x3f196a70bea83d0aU, 0xbea132b8bec441cfU, 0xbe0fa216bf917cb2U,
    0xbf048205bec0fb98U, 0xbeccb5ca3e52c82fU, 0x3f1614a1be0b9bc5U, 0x3f00ea363eef6b47U,
    0x3e63bc673e8b8c8dU, 0xbe8bd4103f1032faU, 0x3dc02d1b3eb78817U, 0x3f03c7683ed5d485U,
    0x3d14df47bf596fbdU, 0x3e3a951c3f274d46U, 0xbf219038bf3c9063U, 0x3f3052983f2a3863U,
    0xbf28bec83e27fd1bU, 0xbf887b153e398adaU, 0x3f7808a83e8d3d4cU, 0x3f027554bee40b29U,
    0x3e5d59a93e503552U, 0xbf5c0accbee1910bU, 0xbf4be78e3f74445cU, 0x3e80ab51bf12e230U,
    0xbed4932a3ebcf168U, 0x3db210113eb7e3baU, 0xbda66a2b3f99899cU, 0x3e5401053e4f76a8U,
    0xbe3e5a49beea5375U, 0x3f206f453daae7d6U, 0x3eee62cdbef9863dU, 0x3e98df31bea1d3bbU,
    0xbdeda666bee28489U, 0x3f0500863f94f154U, 0xbdfe454ebf504f83U, 0xbeea44183f0c2d6fU,
    0x3f6de917ba892170U, 0x3e4b736fbd8a3560U, 0xbdcaec1bbce64973U, 0xbe3d04d5bd87a8daU,
    0xbece6a4bbd673d22U, 0xbe83d92cbf0121f5U, 0xbc330811bf1a1aa8U, 0x3f4e78093fde0f5eU,
    0x3eb211d9be440085U, 0xbdf6782ebf3d085fU, 0x3f1a431abe13a2eaU, 0xbf433e4e3d9cf653U,
    0x3eae5f303e5f92c3U, 0x3e8ea343be94a77bU, 0xbea52c8f3f2a75c1U, 0x3e9286e63dd580feU,
    0x3ed4a43a3f63bd3eU, 0x3c6adc083e364390U, 0x3e99a8d23efd9857U, 0xbf206030be3335bbU,
    0xbf7682a7bdda4ec8U, 0xbe2830b93f145ed7U, 0x3e8af8f23e65ba7fU, 0x3f8d44c5be4e98eeU,
    0xbdd7a99cbf03ac44U, 0x3e259a9b3eb16b01U, 0x3f85ce553ed8204bU, 0x3c8fa6403e2b2591U,
    0x3ef679fb3eb5186eU, 0xbdfe4a523ed905ddU, 0x3e7778183e8eb525U, 0x3e662cfe3f165da1U,
    0xbef6225d3f31a2b1U, 0x3e15eab43f36cba2U, 0x3c3e3e92bf076a5cU, 0xbedfe2853d3da8c3U,
    0x3e9c6c28be5f4eecU, 0xbe0994e5bd2649d3U, 0x3f43535fbf565fa5U, 0xbd5058a63e9687b9U,
    0x3d4d11ee3e9746feU, 0xbe589bd93f3ce2e0U, 0x3f0028a9befe41f7U, 0x3e3afd95bdfa06acU,
    0x3eefe0a93dc5d2f7U, 0x3ea071633f129400U, 0x3ef5c0753f130782U, 0x3ec285023f0c5514U,
    0x3e50ef963f7ae9e8U, 0x3e515dec3eec3412U, 0x3cdce7aabf1a597eU, 0x3b606682be777a47U,
    0xbb92e9fd3f165fbcU, 0x3f952adabdf0294bU, 0xbe3ea02e3dca3a9bU, 0xbe81099f3f34ed7dU,
    0xbe5cf861bebf9f5aU, 0x3e0318df3f81cd74U, 0x3e0eb6f73f202c7dU, 0x3e780b7cbe27b1c1U,
    0x3eef8101be0175bcU, 0x3d83f668bf0a7846U, 0x3ed2d9fa3ebdc2abU, 0xbe6308363e7dcf95U,
    0x3e58b1563f82d434U, 0xbf0d0af2be5c359aU, 0x3f9077913f15f97dU, 0x3f1d59963f6d285eU,
    0xbe876e08bea9ddc3U, 0x3e8ef407bf8feeecU, 0xbfac87f0be9f165cU, 0x3a7347773e7caf41U,
    0x3efa5c773e81e236U, 0x3f2a4ef4bf99cf49U, 0xbe2e5a6cbe3c567eU, 0x3f1a5b05bf20ee18U,
    0xbf7a7ff4bdf9054fU, 0xbe503b1dbe7fb154U, 0xbeb33be2bf02d3eeU, 0x3f2160573f02df59U,
    0x3f483121bee86995U, 0xbe258d1c3fa7090bU, 0xbe98f703bef84dd2U, 0xbf25267fbe32c312U,
    0x3d2a853fbf06531aU, 0xbdfe7da5bed8289aU, 0xbe9d23d03e345121U, 0xbcf276e1be867615U,
    0xbf0c6dc4beb72543U, 0x3d333885bf4fc8a3U, 0xbd72cf7d3e9266bbU, 0xbdc72383bea821f3U,
    0x3f6f633abeea4be8U, 0xbc7603133edd0a2cU, 0x3db3ac6e3f47684fU, 0xbe5c75f6becbc2eeU,
    0xbe6189e63e463726U, 0xbda545ac3e8fc3c4U, 0x3e96ea3a3ddcc4ccU, 0xbf2eb407bf19eaeaU,
    0xbea220363d234a57U, 0xbeb5bdc9bef720ffU, 0xbf2e13573f03f7b6U, 0x3e91929ebe8c4e28U,
    0x3d0fb4fabf2b3cc5U, 0xbe7dba51be2ca48dU, 0xbefb8ad4bf1e0277U, 0xbec341873f3338b1U,
    0x3efb9e91bf27b50bU, 0x3f3b7c0ebf40fb9cU, 0x3f243f43bf46186cU, 0x3ea18c1bbfb5fe2bU,
    0xbf6c28a1be19ed19U, 0x3e0b60103d58456bU, 0x3daa9d9abec0e1f4U, 0x3ea0a0cf3f38eaa9U,
    0xbb4ff2733ee7f9b1U, 0xbf3dc0f13ef61292U, 0x3f0ede5dbf2ff28cU, 0xbeeacd613f0c87d0U,
    0xbebeb81fbebb42d4U, 0xbf062348bef01af1U, 0xbcde8b5ebf2402f7U, 0xbeae576a3db69f3fU,
    0xbe410d573f1e6624U, 0x3e09b1453f3a8ed8U, 0x3eae7519bf3e24a0U, 0x3dea66a03e1b3a12U,
    0xbcd353343ef5059cU, 0xbe518b0cbee19174U, 0x3ec583a53e7bc946U, 0xbf826317bf1e438cU,
    0x3f1724c93f63a646U, 0xbe90a699bea9a365U, 0xbf089d78be91b38cU, 0x3d047968bee9e5c3U,
    0xbe3aba073e8b1cd7U, 0xbe844af3bef63c5fU, 0xbd5815c73ee38b61U, 0x3d0e26043f299371U,
    0xbe9a8230be69a011U, 0xbf4e10cdbf8e94a9U, 0xbee414003f0b50c2U, 0xbed50e423f37901aU,
    0x3f86da493e8ae653U, 0xbbf108b43e04e159U, 0xbf0884c13d93ecdaU, 0x3ea2a3fa3dea9c77U,
    0x3e9d6ffbbf0dbb7dU, 0xbf113d6fbeaa2e52U, 0xbebf3680bc44c604U, 0xbecb4eecbefaf6b4U,
    0xbf235ec5be9d4f0bU, 0xbf0553c53e911bc3U, 0xbed5af6a3ce894b6U, 0x3d083f533e6fcab4U,
    0x3d8d38d43e61b558U, 0x3f5707383eb656bbU, 0x3e757cbf3ebf8f03U, 0xbd534d063eae78faU,
    0xbd911dbb3f978490U, 0x3a9f12c7beb0a58eU, 0x3f61b872bd243612U, 0xbe1087f2bf7607ccU,
    0x3e9f7c74bdd4a70eU, 0xbf27b298bf0ff1f0U, 0x3f8b876dbe25fb5aU, 0xbd33d882bf2dae7eU,
    0xbe0d17d0beffa213U, 0xbf22196fbf8fe579U, 0xbf367e553f50b5e3U, 0xbef3f9ddbf9da306U,
    0xbf26b5a4bf00f6ecU, 0xbeb49d75bf0f562bU, 0x3f92ae413ee3272cU, 0x3f64ed20bf1eaad3U,
    0xbf09c3813f46cbbcU, 0x3ef6bf0a3f24b2e5U, 0x3f26ec4d3f2d611cU, 0x3fb0ab14bf14571fU,
    0x3c993164bf12458dU, 0x3f0b5c1d3f70baa3U, 0x3f1bdcd0bf48a01eU, 0xbf652c933f7e7a0cU,
    0xbe3fd563be08daf7U, 0x3ded10113d09df3dU, 0x3e3bfca63e0cf291U, 0xbe757771bda27bc0U,
    0x3e561c873dc89af9U, 0xbe4eace03e1565cfU, 0xbe6794813eb6c679U, 0x3e8ca31b3d35550fU,
    0x3d9a2360bd1373d8U, 0x3e4f5d133e6a943bU, 0xbe59b8243d9a14baU, 0xbd135cbc3e186694U,
    0x3d5ca56c3e8aa5e8U, 0xbebe129a3e155fe0U, 0x3ea7b336bc2c5b69U, 0x3ed9b9ab3e163846U,
    0xbeb5f7ba3d55b458U, 0xbe8716ad3da72d2bU, 0xbe20b3d43dbbd5a9U, 0xbd1d7727bdfef6e3U,
    0x3e14f4df3d7122b6U, 0x3e7bcb3f3e9f2af0U, 0xbe764ae53e8341e3U, 0xbd87dab9be9ef26eU,
    0x3e04439f3e2ce945U, 0xbe1c6c113e6996edU, 0x3e377897bda9808eU, 0xbe8b50c63e361034U,
    0x3e6875c6be27bd29U, 0x3e87104e3e989be2U, 0xbca7fd58bd73fbb2U, 0x3e51aa373e3657b3U,
    0xbe502363be9a4f48U, 0x3ea3ee803e7c97cdU, 0x3d62ed01be9903c2U, 0x3e92370e3ead74beU,
    0x3e47f0b9bd3db45dU, 0xbe8641153ea181abU, 0xbe0a624abe202c6cU, 0xbe644e3d3e2f89e8U,
    0x3ea46f41be9af1b7U, 0x3e71caa73de11154U, 0x3e89572ebe97192eU, 0x3da10f91be800d3dU,
    0xbd91c7b13e60c166U, 0xbe41f0303cd35c2fU, 0x3d1998fb3d95a114U, 0xbe93e21abdb54038U,
    0xbe1c6a6cbd4af1b5U, 0x3b1d09283db3b04bU, 0x3e8be2f7be1896daU, 0xbe16a4443e28c1faU,
    0x3e1be6cebdf8f92cU, 0xbe2a0eb4be81830fU, 0xbe16ffc83e63c0ceU, 0x3e8ace09bd9a57efU,
    0xbc4f3917be318fbaU, 0x3db4370e3e175dfdU, 0xbe80ebb8bebde3b4U, 0xbe35dc023e5f2949U,
    0xbd37dee9bcfe4860U, 0x3e2becdfbe708122U, 0xbede7b94bea3a00aU, 0x3e4ce64f3e61a2dfU,
    0x3e451c673eadb577U, 0x3e0007ebbe880427U, 0x3db9a174bdeb988aU, 0x3e9256a2be807339U,
    0x3dcdc9e8bde0582bU, 0x3e75c8543da40222U, 0xbe18cf0c3d374e85U, 0xbe6e59bebc030733U,
    0x3ec2ce4abe326728U, 0xbd69476a3eb425ebU, 0xbd04c3503e6f70e9U, 0xbd3ca0b1bd7c8f36U,
    0x3e89d5f73e6daa02U, 0xbe610556bc3c845bU, 0xbe43a8ea3e40d950U, 0x3e0b16dfbd99268eU,
    0xbe086b1d3dde0779U, 0x3e0110403e1b0dd5U, 0xbd99aceb3dfd5571U, 0xbe7d821dbe49693bU,
    0xbe19c06d3e11cbaeU, 0x3df3bbf5bd212498U, 0xbd9e185b3d1e3800U, 0xbeae391fbe224196U,
    0x3e7bff74be21d48dU, 0x3daf10ab3e5c5b2aU, 0x3e6f9e88be180ad2U, 0x3dd8dd19be14fd3aU,
    0x3ea7787abc8fead1U, 0x3de6be203d967f3aU, 0x3c9a19063e083b6cU, 0x3da214a0bec0878cU,
    0xbe697bdd3e9849b6U, 0xbddcdac73db714c2U, 0xbe3ac678be3a3e47U, 0xbe2e62e53dd638c3U,
    0xbe2caac33eadfdfaU, 0xbe104fba3dc6c3fcU, 0x3e9bdb863d772a1dU, 0xbe532a893ed344ddU,
    0x3e5b064dbe7c41f9U, 0xbe245180bd7aff55U, 0x3d4b3d643e94f507U, 0x3e5a4d10bdcf167fU,
    0x3d7a74edbe4ded6aU, 0xbcdb9ebabe7ddc47U, 0xbe06f8753e946271U, 0xbdc72062be9a656cU,
    0xbd7996debdc133afU, 0x3d1323ae3bc04a06U, 0xbe669b603e5488a9U, 0x3e21ba0b3e634a2dU,
    0xbec7e44b3e601480U, 0x3c40fbb93e7c4891U, 0x3e95c7823e9a4d6eU, 0x3e81ef4b3e9db65eU,
    0x3df0e6893e054226U, 0x3c0cc659bdd39e08U, 0x3e867ece3e807ad3U, 0xbbd5f091be462fdeU,
    0x3bc849693e2cf1b1U, 0x3dcecee5be453da3U, 0x3e1db4bcbcc529e4U, 0x3da6a8233e403ceeU,
    0xbd8a7b923e46701cU, 0x3ea56c67bd7d487fU, 0x3e998dbabe2fabdbU, 0x3d5b75263dacae89U,
    0x3ea53d833ca1a449U, 0x3e3872243e5fddc6U, 0x3cc9459ebe0cb490U, 0x3dfcb9023d39e6f0U,
    0x3e79dc66be9cefabU, 0x3e32def4be0f95b0U, 0x3e0afc773e6b4c37U, 0xbd6a0891be6b5bd4U,
    0xb9ff72dc3e4b6e0eU, 0xbd86be1bbe93008bU, 0x3d81c1c73d6d5440U, 0xbdaf3edabe839037U,
    0xbe1377973ea58779U, 0x3d472b0a3d95515eU, 0xbd3eec4bbdedb857U, 0xbd752208be4fac00U,
    0x3e8d2f2b3ea6582fU, 0x3e9e4d083e9f2ce7U, 0xbe8085b13e9837d2U, 0xbe01710fbe595b7eU,
    0xbdb5fb6a3d5e4c4fU, 0x3db70a78bd4c306bU, 0xbe9c9323be2b143bU, 0x3e8841cf3da88182U,
    0x3e583b26beb574efU, 0x3e30d1ac3e996c76U, 0xbe809ea53d0edba9U, 0x3df68c08be4d7bf8U,
    0xbcd648ab3d8d081aU, 0xbdd99638be602cffU, 0x3e93b4ad3d8b21a3U, 0xbd93f0153e41057aU,
    0x3e1fcff13cd568cbU, 0x3e243147bda64bcbU, 0xbe89f1ddbbfb4d25U, 0x3d7e8cb93e99228aU,
    0x3e30a8a5be743743U, 0x3e0004353e09b566U, 0xbe5481acbe759a4fU, 0x3d8372e53ca93e56U,
    0x3d890ef5bd47f227U, 0x3e2a14153e4bb7ebU, 0xbe887a0bbd0d362aU, 0x3e5d610f3dfe91c9U,
    0x3d46f00c3e46e3b7U, 0xbe76297bbe84e9d8U, 0x3e8155ad3ec17cadU, 0xbdb251babe3143a8U,
    0x3e3ee641be8f80bcU, 0x3e979baa3c131fa0U, 0xbea77e653d82175eU, 0xbdadb3b9bdd159daU,
    0xbe954d533c841453U, 0xbe82a96abe4b7320U, 0xbe7a4ef63e8bd1e3U, 0xbe094200be93ca8dU,
    0x3ecb2cba3d0890d2U, 0xbc8fcc843c9e6a34U, 0x3e6c61f43d89e5c0U, 0xbe243fccbe8c21dcU,
    0x3e2cd483be4c3e07U, 0xbe07b8303e66e983U, 0xbe1b8b853e69680bU, 0x3de2b2473cab57abU,
    0xbe31a2423dd96175U, 0xbe3f6bc53de4066cU, 0xbe533ddc3e553e0cU, 0x3e2cd543be693393U,
    0x3cc1c902bd21713bU, 0xbe2b6032be44df6cU, 0x3e660b2b3a4f4e32U, 0x3d365d8fbccb121aU,
    0x3e7b5d21bde15ec9U, 0x3c8a82cdbe539153U, 0x3ea61f75be3dd02dU, 0xbe8bab19beac6bf1U,
    0x3dd9fe473e14cf50U, 0x3e1bd9b23dee62efU, 0x3e34d0b03b4d4dceU, 0xbe55e7c5bdf0adb7U,
    0x3db6ca69be50e4c4U, 0x3eba768dbe7b0420U, 0xbdc932593db4ea44U, 0xbd89d98e3da6f23eU,
    0x3da9ed713dfbe931U, 0xbe77a727bdfcb92aU, 0xbe65016bbddb336fU, 0xbdb77901bc84f8dcU,
    0xbe023a69be8c8a05U, 0x3d41f2b0be757bedU, 0x3e89c08bbe996d86U, 0xbe9bafd7be0ae907U,
    0xbe82a122be0fc96eU, 0x3e3c2fce3e47ffc9U, 0x3bfdb4903e20fea8U, 0xbe64c5a43d49e6bfU,
    0xbe9b7bc83cd7b4f9U, 0xbe67b8be3e20e276U, 0x3e05dcf9bda4b188U, 0x3cb5b4453e18fed2U,
    0xbd3b8496be1d91feU, 0x3c75ec473d546cb1U, 0xbe9023c2bde91933U, 0x3e8c5979bddf415eU,
    0x3c974df53d422034U, 0x3e1c61353e313b0dU, 0x3d0666e43e128118U, 0xbe6012d13e185137U,
    0x3e1dcca93e3a5251U, 0x3e5bed3a3e0a57d1U, 0xbdd18e44bc59dfacU, 0xbe4cbcf03e770930U,
    0xbe6824e2be527eacU, 0xbe553dd33e361fc2U, 0x3d7006df3d6fef9dU, 0xbd97836b3d9b14bcU,
    0xbda84d053dc5d06eU, 0x3da8ff613e5ac9e6U, 0x3d83fa3b3e36d0cbU, 0x3af8afad3e4e26e8U,
    0x3e0dffcebdcc3886U, 0x3d6785d63cfe14dfU, 0xbe0a7f4d3e4c92e1U, 0xbea49f2dbca826e7U,
    0x3e8e3d933e486b3dU, 0x3d7bb8c2be868178U, 0x3dd22f553defedccU, 0xbdc5c8993e46b91cU,
    0x3e647c8a3d6c3a0cU, 0x3e20ff023d7b5215U, 0x3df5cb0dbe77f9a5U, 0x3e05f02cbd6170f4U,
    0xbf064b10bf284d64U, 0xbe55e09f3ebe125bU, 0xbf364a02bf31efc7U, 0x3f11d643bef611a7U,
    0x3ef832c83df7784eU, 0x3ee40356bf3802a6U, 0xbd7fa98fbde5ad11U, 0xbdcc6c52bed3a94bU,
    0xbe2aa1c1be75241dU, 0x3d20c4f93eba280cU, 0xbf1a9446beb2cd8fU, 0x3ce3ff5ebecd858eU,
    0x3d0e24c0bba2fc07U, 0x3e6966d7be195924U, 0x3d355bcbbdd523d8U, 0xbf027e1e3e973ab9U,
    0xbe9ca108bedbe2c7U, 0x3e3f30adbe360970U, 0xbe8cd3873e3c26a1U, 0x3df1dd643e0df1b1U,
    0x3edb5b57bee4c283U, 0xbef789e83e5f0778U, 0xbe9ec1e83f2e9236U, 0x3e36ecdbbf1ebb8bU,
    0x3e4a068a3ee1321eU, 0x3e13ec50be5abbe5U, 0xbed2336cbefbb420U, 0x3ea176b3bee59bfeU,
    0x3e91612abe65a2a9U, 0x3d1c05503cda16d1U, 0xbe2708ccbc761d2aU, 0xbe2f8c27bdd56de9U,
    0xbe3b92243e9e6286U, 0x3eeb7da03efc05acU, 0xbe01d5903ec035a8U, 0xbe86effe3f088eb1U,
    0x3eb7b32b3d9af27dU, 0xbeedb49cbda5b52dU, 0x3cffbcb9beab1a19U, 0x3ed7d94f3ee36d74U,
    0xbe1debac3eb9a52bU, 0x3eabdc203da99119U, 0xbd0433ccbcec27a3U, 0x3ddbf1c3bf06be88U,
    0x3e55ed5f3daecf7fU, 0x3dd2e86d3e5ea5fcU, 0xbe989e733ee8c532U, 0xbe03b72d3e940bbaU,
    0x3e4cac82be87ec24U, 0x3dda199cbe9c3134U, 0x3eaa95d2bec1b449U, 0x3e75724d3ee1fa51U,
    0x3ed172673d57f845U, 0x3f026c533d9f6a3bU, 0xbf02e4e83f02c57cU, 0xbd43799ebed6cca5U,
    0xbeadd9d73ed92f89U, 0x3e4de9633ecd475aU, 0xbe3de8f6be0aa648U, 0x3ed5eea53d7d9d12U,
    0xbeaae6febd1af403U, 0xbe5aec9abf0624a7U, 0xbeb7c617bc92b68bU, 0x3ce2fb8b3e27adecU,
    0x3e3a8d7bbe11382dU, 0xbb8f23a2bf01b8cbU, 0xbe8809553f29f6c7U, 0xbea81d0bbef20bcbU,
    0xbf04724ebef7ecbbU, 0x3e8b1f88bb0194b8U, 0xbdd14094be909e66U, 0xbe9d92843d1d23a4U,
    0xbe303dd9bea61ea5U, 0xbf0b334c3c7a93f2U, 0xbe1efe89bb98b740U, 0xbdac51023da3ce97U,
    0x3e2d9232bdf69590U, 0xbc63faf73f106f6bU, 0xbe79e55b3d6312b2U, 0x3f0ca68ebcddcaddU,
    0xbeb8451ebec71888U, 0xbd9999823ef15228U, 0xbe24344dbeb39494U, 0x3e17610cbdc38235U,
    0xbefcbda0be7e5c73U, 0x3e1a6b21bed1b2bdU, 0x3e86a6b8bc93f805U, 0xbe9847fb3e06fc93U,
    0xbe94ce27be8b09bdU, 0x3f0b66a73e89d9caU, 0x3d9dc8bc3d000327U, 0x3e5532bd3e35aa83U,
    0x3e980a473ee5e05eU, 0xb9dbfecebf20332bU, 0x3dc9d3a83e458c8fU, 0x3e63df83bf052303U,
    0xbea0205a3eb82594U, 0xbeb1d78c3ca33715U, 0xbe043f5d3e4d8098U, 0x3e6af618beb40d79U,
    0x3e3345de3e17082dU, 0xbf19b6cebe9555cbU, 0xbee721e0beca8844U, 0xbf0756c0bed5c82dU,
    0xbd58058f3ee8d5e0U, 0xbeaa32bc3c87eb1bU, 0xbd9161883d4bd52dU, 0x3e476118bda1267dU,
    0x3e8bfb07be9b5cb9U, 0x3c179b65bf17a6beU, 0x3e6fc2abbecd25f2U, 0x3d371c313ee42ff4U,
    0x3ef42204be1c256bU, 0x3e4c852fbe932a92U, 0x3e2d0cecbdc234a4U, 0xbe3fce78bd6a9e87U,
    0x3c8ce2493e3155d2U, 0xbe890105bba2194eU, 0xbf7248e43d6c6f24U, 0xbebb6c4e3dd56835U,
    0xbe360c18be68f4e6U, 0x3dab2962be8d6354U, 0xbc36f0f6be7e1779U, 0xbf0d327bbe3d5553U,
    0x3d998eaebe32aec9U, 0xbed88506bf381c9aU, 0x3d8b4d0f3f262aa5U, 0x3e7d8efabe84ce8eU,
    0xbe86f8893e2c8a10U, 0x3e86588abe3a60bdU, 0x3ec6458c3e570347U, 0xbed0ae02befcbdcfU,
    0xbe1351f33e186d4aU, 0x3ece04adbd114dbaU, 0x3e62e630beac72aaU, 0xbd8a7ebdbe3d5193U,
    0xbe7ac3203e9efa81U, 0x3f2068c0be95f270U, 0xbc227bfe3eb4a184U, 0x3e108375bf01045dU,
    0x3f2095c43eac2757U, 0xbe22f28b3d3350f3U, 0xbe8aaaaabe54bab6U, 0x3e4228083e5a26dfU,
    0xbeb68841be0780afU, 0x3e3c81edbe8a1d10U, 0xbe17000bbe8a317fU, 0x3e88d2f2be8af37dU,
    0xbe259da5bebaf651U, 0x3d9e1c253c9edcdeU, 0x3e88d4aabe045e05U, 0xbeb228b6bd4168a4U,
    0xbe7ec23ebd5fed97U, 0x3e2ffdeb3ec53a6eU, 0xbed73e513e92035eU, 0xbd3288183e0d6741U,
    0xbea85ff73e10b449U, 0xbeab4d613e123c9eU, 0x3dc2568a3d850a80U, 0x3d976358bd94d5adU,
    0xbe8c2f5abe4ff36dU, 0x3f1e5b68bb361622U, 0x3e8bfbbbbe1e5405U, 0xbdefe9b1bebd5a83U,
    0xbe177204beae8317U, 0x3d8c4cda3edb6575U, 0x3eb33190be2d343bU, 0xbdb0b31f3edc9358U,
    0xbf0b00153ece9b97U, 0xbe5cafb7bdaf46a9U, 0x3ea4eaf8be9b458eU, 0x3e9e5bd5be9c8560U,
    0xbe93f5373e491932U, 0xbee612e3be805ac4U, 0xbe9ab8e83e341f0aU, 0x3e35b0913e61d95cU,
    0xbe07ae873e36586dU, 0x3e7bce17bf1c31acU, 0xbed21f4ebe71fb23U, 0xbedf4e773decba62U,
    0xbed8be7f3dae5579U, 0x3dc2751fbf039602U, 0xbe45e620bec5d4aaU, 0xbec914b23da28b1eU,
    0xbde24a2f3e925d24U, 0xbe4a21733f0d94caU, 0xbd3fdae13e58c4b0U, 0xbcd9f9773ee3f559U,
    0xbe99d6253e10934aU, 0xbe9164733d821c29U, 0xbe6f8fb0be11f82dU, 0xbd4fe8973e89548dU,
    0xbf0f3164bed624ffU, 0xbe532017be836101U, 0x3ee726883e7d56beU, 0x3e8600b63ea71f21U,
    0xbf1501d8be2d97d3U, 0x3e42d6153e8d7098U, 0x3e2b96e8be81ffcfU, 0xbdd839df3f0eeb10U,
    0xbf131f55be993d64U, 0x3ea1eb7abe8c6cfcU, 0xbe0d7d3f3dbed5f3U, 0xbe3088dd3de3210aU,
    0xbe8b0b763ec6b767U, 0xbf158c693e82a01fU, 0xbe74001cbdd46cdfU, 0xbe9537afbda28a0fU,
    0xbe348f703f163debU, 0x3dfa3bbc3cb12ecbU, 0x3c89133ebefb6affU, 0xbeaa6586be4c4049U,
    0x3eeda8583db1f8aeU, 0x3e448f923f04317cU, 0xbe0d5c133f232168U, 0xbee26c2dbdee2cc2U,
    0x3e1622a9bf01ed4bU, 0x3ebcbce4be2f0cb5U, 0xbed0e74c3e5fececU, 0xbeb177983bf71c3fU,
    0xbe8019c3be105c97U, 0xbea9275ebd8dd8acU, 0x3f25a1d53f0f48f7U, 0x3dc10ecfbe0cd91dU,
    0x3ee90dbbbf0528cbU, 0xbe139da53ebe29ecU, 0xbe971e613dff0539U, 0x3eb71075bd918ebeU,
    0x3e97532bbee26389U, 0xbe94313a3c8c2979U, 0xbcc6ea693e8b120eU, 0xbe61301cbea5cc99U,
    0xbe9ec28abe997215U, 0x3e4278dcbe5ce3b4U, 0x3e54e6adbef173bcU, 0x3e321f593d2e960cU,
    0xbf0fafeabea24c07U, 0xbe701b6b3e6f890eU, 0x3e480089bea32780U, 0x3c382c37bdba7ca5U,
    0x3e9c3ea6bea88df5U, 0xbeb78a9b3ece6356U, 0x3e8d2c443db00e02U, 0x3c9e1c9e3e84f5caU,
    0xbe5250d43df37656U, 0xbedbde88be8d917bU, 0x3ebe6e0b3d67b66bU, 0x3e117c243e7e32e0U,
    0xbe0d7f53be00e9d0U, 0xbd68d0ddbf041b1eU, 0x3f04e8f2bd31f0f0U, 0xbe583216bea93cf0U,
    0x3f14e2bfbe391aecU, 0x3e059d7bbea1d5c7U, 0x3ca3c34c3eb732c1U, 0x3ecc8767bed2314aU,
    0x3ecc10d73d068847U, 0x3cd20992bdcae556U, 0xbe760cdcbdcf600eU, 0x3ebd610dbe86d58cU,
    0xbeb62cdfbeb8b0d3U, 0xbede6465be814c43U, 0xbc517fe83de19054U, 0xbe6048c6be8d8458U,
    0xbf1754883f01a1b3U, 0x3f49aa293ec329feU, 0x3f1f46c63e5bd56dU, 0xbef31a30bdecead3U,
    0xbf28949dbf515b64U, 0xbe66d431bf07aaa0U, 0x3eabdf8fbe87ca56U, 0xbd8243463e2b4248U,
    0xbe9ef545bddcbb11U, 0x3e839036be08183cU, 0xbeb3aa823e0ae0b2U, 0x3c082bbfbdd7bb7cU,
    0x3e6a6307bedb0481U, 0xbed77d55be9b3dadU, 0x3e0d657c3e331a2fU, 0xbd3d2aa33ee5e29bU,
    0xbc90b7eb3e142351U, 0xbe4c64b6be5aa4c8U, 0xbededec53e308d61U, 0xbececa72bed2a160U,
    0xbe05cf543e0da709U, 0xbda51a3a3e9bea56U, 0xbe9edf313eb16ab2U, 0xbe72030fbe2222f3U,
    0xbef577cb3e892098U, 0x3ba778e43e623359U, 0xbe5e95483e915033U, 0xbf550a94bed6db63U,
    0x3edfa6c03f0474d5U, 0xbeb28bebbe89ae4aU, 0x3e2247e7be9609e3U, 0x3dc4101b3d79cd5cU,
    0xbe3153083cc4d022U, 0xbd135a7dbdaf2bcbU, 0xbea1a6703ecab04fU, 0x3f199010beddb279U,
    0xbd90689fbe8c9a3aU, 0xbeea03273e9c9582U, 0xbf0992db3d2119e5U, 0xbe0e810c3d648ee4U,
    0xbed33f80befff5bfU, 0xbed18f203eafb4d8U, 0x3e7401aebf0fe653U, 0xbf378d8ebf0ce544U,
    0x3dfbbd693d38d268U, 0x3e105b3cbdf0940bU, 0x3e55d9043e7027e4U, 0x3e00d1743dc8c839U,
    0xbe84a4f13e0257dcU, 0x3e308fe03da47b92U, 0xbe9986fa3e69e5a1U, 0xbdeee7d43ec51ac6U,
    0xbe950f50bd1e8613U, 0x3eb91aa03cccc696U, 0x3e308a58be8346f5U, 0x3cb67beb3e8800f6U,
    0xbee689043ea3e418U, 0xbed2771ebe6aaabcU, 0xbe93634a3dca56f6U, 0xbe7b81b33eaa93c4U,
    0x3e99ae38bec9ae24U, 0x3c43eb72bf0fd6a8U, 0x3e4002ffbd2973a7U, 0x3adb469abe9e27abU,
    0xbec34eed3edfc47bU, 0x3d1ca7783d07b4c0U, 0x3e20abcf3d825488U, 0xbd38a8133db292b1U,
    0xbddafd983e928844U, 0x3ed515813e2b4becU, 0xbed2b72a3e5aacf8U, 0xbeb412b83e96850cU,
    0x3ef0d6acbe67ebb6U, 0x3e13eb22ba4bf386U, 0x3e8e903fbe951c75U, 0x3eaaa9df3ee55949U,
    0xbe951da5be89ae6aU, 0xbea229e63e255d2bU, 0x3dd176dd3ec6e30dU, 0xbe7778d93dffa2c4U,
    0xbea29c71bec45f65U, 0x3d8657723c4cc7bfU, 0x3efa3b073ea2caaaU, 0x3e461c1abefb0806U,
    0xbf01e2613edf107fU, 0x3e8acd623ec5bdd6U, 0xbef632ed3dd10308U, 0x3e38b7ea3e807280U,
    0x3f07f56c3ea854ffU, 0x3dfcb4673dfc04d2U, 0x3dccf85abde13566U, 0x3e49e30d3e8a9ac4U,
    0xbe34fb5f3d1326bbU, 0x3edd0d47be2098b3U, 0xbe9d4da7bd22828dU, 0xbd0b99abbdd95aabU,
    0xbee5cb9d3ebfc0c1U, 0x3e1ad1dc3bd54660U, 0xbed67ea63edc6427U, 0x3e422dcbbe4d8a14U,
    0xbed536c1bf24be08U, 0x3ea858a13e4fb370U, 0xbd09497e3eab1e3cU, 0xbe1a13babed8d11dU,
    0xbd1563acbec39791U, 0x3e776d87bcddcd6eU, 0x3e2dff123d3c21e7U, 0x3bc31c703dabc82dU,
    0x3e09a8973e28dd34U, 0x3da10786bd9bcc4aU, 0x3e9794e23d3be4ebU, 0xbe6dbe1f3e3d2784U,
    0x3d532f943cbac2b0U, 0x3e2043a23c2812a1U, 0xbdb67102bcdffe46U, 0xbd009586bcdf3c83U,
    0x3daf07153db62b6cU, 0x3d13d8e83d819e0cU, 0x3dd349dc3e4638f0U, 0x3d0307693dee2d1fU,
    0x3d8cd4543e42a76cU, 0x3d62d9423dead322U, 0xbca9768d3ccb4ab4U, 0xbe4197823caee6d3U,
    0x3da0282dbd81a0aaU, 0xbe46a5d6bcac1a48U, 0x3dc68ba63dc0e44bU, 0xbc9b106ebe07e829U,
    0xbc6f5b283dbbec16U, 0x3dc30fab3dba92e4U, 0x3b8820103d945861U, 0x3d04fee53d40ab7aU,
    0x3de98ce43e34d0efU, 0xbc94ab243e4cee80U, 0x3b9d6760bdf6cac8U, 0xbc133134bde3e002U,
    0x3da69bf2bdd95de2U, 0x3eaf9b683da014d5U, 0xbe0535ac3f8ef0f8U, 0x3f321c75bf060b6dU,
    0x3d11dda03ea1ce86U, 0x3ec772453e855ea8U, 0x3f3d3318be23e845U, 0x3f030c0bbe0a29b9U,
    0x3db188e93eac780aU, 0x3edef6de3e89ca9dU, 0x3e93d0183e0e3f78U, 0x3ed76027be5203ffU,
    0xbe7a4c32be2d0392U, 0xbee59d7abf78efdbU, 0xbf9abd0cbef4665dU, 0x3ead67e3bf15a908U,
    0xbc41b5d03f0e42bbU, 0xbeb92276be823744U, 0xbf48f70cbebd3d56U, 0xbf85ddad3fa49669U,
    0xbf6911653e962fadU, 0xbe8fa443bf639f3fU, 0xbc919ddb3d4d309dU, 0xbecebf173ee10a04U,
    0x3e5b965f3f98d5eeU, 0xbf431ddabf365bc4U, 0x3f4c9645bedfbeffU, 0x3eccf5d0bf26a250U,
    0xbee729efbe7f02a8U, 0xbf22fb603f1450deU, 0x3e469544becb813eU, 0xbeb4a44c3ecb1070U,
    0x3e3ed856bf08854bU, 0x3cc83b7c3f646d85U, 0x3f38ccc53f0926ebU, 0xbfe5376dbf4bf4d8U,
    0xbee6e7713ecf67f8U, 0xbd8149423f5cb68cU, 0xbf670575be2a5f50U, 0x3f6437af3ec8d658U,
    0x3f3534b0bf1911abU, 0x3f5cbffcbeba68a0U, 0x3f8bf582bd877696U, 0xbf5b09b93f88d14bU,
    0x3e7acbae3ea810cfU, 0xbf295f43be94a16bU, 0xbe95149f3bed2823U, 0xbd8a99a4bf6f5648U,
    0xbf065073be59bc71U, 0x3da4e1b6be45751cU, 0x3e1d414cbc5d0878U, 0xbf600017bf955c36U,
    0x3de4077bbe9ae92bU, 0x3d7a3d1dbd364f79U, 0xbefe266bbccbe392U, 0x3ee6c00d3d23b90dU,
    0xbe80f8ee3f685a12U, 0xbd4ceb72bf9dea1eU, 0x3d2f892a3d9e0e5cU, 0x3e291edabf75a0f7U,
    0xbe8989bbbf0c2cb8U, 0xbdb84fc7bc31d5e1U, 0xbdf577b03e1a4f7cU, 0xbf080716bf1ba994U,
    0xbf7f1314bf1afdbdU, 0x3f9ad0183fa3320aU, 0xbf680f273f03269cU, 0x3eebb637bfc59347U,
    0xbcdc4f6f3f17d799U, 0x3e417288be3e76acU, 0xbf2b37243f485a24U, 0x3eaaf3ebbec05480U,
    0x3f82121f3f3e3fa7U, 0x3f7cd0f1bfaba3aaU, 0xbf016ddebf7243b8U, 0xbe3a4aa33e0091ecU,
    0x3f84cc5dbf6e0961U, 0x3ebb09823d336e70U, 0x3f7377b63e6a53e0U, 0xbf003052beab9092U,
    0x3e8d873abfb972ecU, 0xbe4ef8a53f8b6559U, 0xbe8129333ea73925U, 0x3c9e67b23f850931U,
    0x3ede52efbb72db0cU, 0xbdfd251cbf016c2fU, 0xbf1a33763d49bc2bU, 0xbf0d44433f845b7dU,
    0xbd7df2d43e96f337U, 0xbf96c0013e53c95bU, 0x3de880c1be7cb14cU, 0x3eb23b203f4b318dU,
    0xbf9bc530bea19f00U, 0x3fa262f23e4dd6ecU, 0xbf3f6f76bd84ce3aU, 0x3f1a43dabef71f77U,
    0x3f47b13a3f2113edU, 0x3e9c8a42bf0e9d23U, 0x3e9306183da2c5c5U, 0x3e51857ebfb6bfd5U,
    0xbf2dd6b43e4c3fd8U, 0xbee7261d3e705289U, 0xbe253e07be59d2ceU, 0xbf762755bed9b926U,
    0xbd9beab53e06f626U, 0xbf009205bf53e92bU, 0xbf2533b1bdcfc3c3U, 0xbd8dbbd4be2e499aU,
    0x3f0084323e5c557dU, 0x3db2831c3f21c937U, 0x3e37b1e63dff68d5U, 0x3f1849fc3f21f807U,
    0x3dc15b22bf07e5beU, 0xbf22bee23e5e8df0U, 0x3cdd95903e14548cU, 0x3f483897bd395d2fU,
    0x3f741b923f44ddffU, 0x3d8dbe66bf546e93U, 0xbec5e6903ea8d58eU, 0x3eee4eb4be5b7605U,
    0xbd080a5dbf2fe39aU, 0xbcb96b233ea21ea6U, 0x3fc73b16bf28aad6U, 0x3ecdc26d3e749f2dU,
    0x3f81d6063de14238U, 0xbf154c2e3e222165U, 0xbf4903003fa4c015U, 0xbd749e563eab6ea4U,
    0x3ed747ddbed64fbcU, 0xbd1a7b75be2ca586U, 0xbf4c109bbf07ae1eU, 0xbf1eedd1bee5bf63U,
    0x3ec4ad6abe8d973dU, 0xbf54ee64bf33915fU, 0xbf2f34e93d819c39U, 0x3b80f919be98de23U,
    0xbf5c61463cd447d6U, 0x3fafd5793f15f80bU, 0xbe818b333f28dd9aU, 0x3f57b03cbfab0c18U,
    0xbe875ac8be4282efU, 0x3ed2e4413f201df9U, 0x3f06eafd3f75fe5dU, 0xbeab63b7be2597e5U,
    0xbd508baebe60ae77U, 0x3e989b0e3f08dcb5U, 0x3f3e62ea3e70de7eU, 0xbfb132143df57d40U,
    0x3e8142f03d82f512U, 0xbef33d5b3f45203dU, 0x3f90e0483f969a42U, 0xbf31a517be2f9929U,
    0xbfdf863dbc9350eaU, 0x3e42f5a9bd67dfdaU, 0xbf10b4f63d6d97c3U, 0x3ea472c3bf7f00ceU,
    0x3c9aff47be967d09U, 0x3f17870f3f861ffaU, 0xbd0ed5c83e39bd1cU, 0xbf25da4cbf047cacU,
    0x3e9ff179bf07a0c7U, 0x3ece5e34bf630142U, 0xbf2472df3efc73feU, 0xbf969121bf3846a5U,
    0x3f398331bf0d2be3U, 0x3ec286943c3a7cb0U, 0xbf17700cbd55067dU, 0xbebb057d3e006d32U,
    0x3c054749bf322a2eU, 0xbe9395483e72c4f5U, 0xbf0562df3ab2fc5cU, 0x3e998782bf322e90U,
    0x3f4715c6bee920cfU, 0x3f99d044bfa6b89cU, 0xbcb3cba13f373cd1U, 0xbee67971bec7e04fU,
    0xbf7470953f268260U, 0x3d3397133f50664dU, 0xbe9a06a53f955fd8U, 0xbf8d07ab3ed83a7aU,
    0xbf2bc6543ed5e276U, 0x3f067420bdc529e9U, 0xbf2c1a293dd8b11eU, 0x3f5a64d4bf3c05edU,
    0x3dfb016abe7b3511U, 0x3f485f283f7353f4U, 0x3e2870f13e1817a3U, 0xbe8136833fbe419eU,
    0xbf39b8563f10fc7aU, 0x3cfcc52bbea9bbb3U, 0xbfc186193ef890f6U, 0x3ff55da4be73f8fbU,
    0x3cfecfa4bf897e59U, 0x3fda864bbde3b62bU, 0xbec786fe3d4fd8f6U, 0xbd4a75da3f5fe2b9U,
    0x3f81b77c3dad2097U, 0xbe9c8c8e3e8cea7aU, 0x3e21c7d83e3ce0d5U, 0xbf02e406bd1d992dU,
    0x3e8808283e5fa672U, 0xbe38f97c3f47b972U, 0x3f618203bf272c47U, 0x3dc7232fbed96a56U,
    0x3e54353fbebb4f8fU, 0x3f04b48abf78ecafU, 0x3f5f34c3bec3eb06U, 0xbf54dc59bed91cbdU,
    0xbf0ce9c23f16e6b7U, 0xbfa8db093f521694U, 0xbcbbb1c9bf6476e0U, 0xbf2078abbf0b184aU,
    0xbececa583f0b2284U, 0x3d1dbaa8bf36cd23U, 0xbe991b403e053eb7U, 0x3f0078fb3f3fa381U,
    0x3ea7bab8bed20e89U, 0xbe50f69abe083e4fU, 0x3eb7ddd5bdef427eU, 0xbea09b023e58a648U,
    0xbf84c2cf3fba9fa1U, 0x3f1c9ca83f6bcdeeU, 0x3d7716de3fa80973U, 0xbf17d5083d956cfbU,
    0x3e6300b2bf23b6c7U, 0xbf469358bc80fce0U, 0xbe6634743e1e2c24U, 0xbf6b1e5fbf868f7dU,
    0xbe44133c3f374519U, 0x3f50835b3f1e6befU, 0xbf546da53ecc1747U, 0x3f6bcd083edff724U,
    0x3f0b7058bf5be23cU, 0x3f4c43ff3e968e41U, 0xbf40791abee8d679U, 0x3df1f0b3bf872c88U,
    0x3f9485cf3e83eb7bU, 0xbef7d0cf3ec6457dU, 0x3f76b07ebf229e90U, 0x3e300c263e0611e2U,
    0x3e2f94f93d9bde1dU, 0xbf41877fbd05e545U, 0xbe34b07dbeb5ddffU, 0xbda38bf2be88deb7U,
    0xbd0862e3bf252544U, 0xbd9091253f6395b8U, 0xbf1866a8bee79d09U, 0xbf24f3cc3f0a158cU,
    0xbef51e57becc1ee8U, 0xbe9613d6be5b55f5U, 0x3e76c510be978ee5U, 0xbf0a41c23e8131c6U,
    0xbcf4b1993fa38172U, 0xbf2abbbebea3235aU, 0x3e5422853ef756b9U, 0x3e849a99bf060232U,
    0xbeae179dbe880d70U, 0xbf15fb86beff32c7U, 0x3dba1f5cbf4558e4U, 0xbe9aa8c6bee30eeaU,
    0x3daac0a63f44af0aU, 0xbeeaabb8bf96e95aU, 0x3eb59536bf1905c5U, 0x3f5609bc3e1e9296U,
    0xbf195b32bfc7d101U, 0xbee20b323f6a1d7eU, 0xbf5b4af63f6d1956U, 0xbe5be482bf712f48U,
    0x3e5796b7bf3f219eU, 0x3d74d3c2bebe9028U, 0xbee10c373e163cccU, 0x3f93bda7be1ccee3U,
    0x3e192f153f87be7cU, 0x3d471d66bf4b1c41U, 0x3dbb58733ed0077eU, 0x3dabb3fbbf5dd4b7U,
    0x3f22503a3e5e7696U, 0xbf27079dbf2e754aU, 0xbf5fa93e3fa36d27U, 0x3f422753bf32a8f7U,
    0x3f150afcbfa3bf81U, 0x3f0d8c713f0ab5ceU, 0x3edf9e1fbe0bb08aU, 0xbf85fcd8bce0f105U,
    0x3e7a2b413e89ca81U, 0xbf194b063eb4969cU, 0x3f2b2f18bc6dd325U, 0x3e8ee3cb3e5a37acU,
    0xbf0443993f598cb2U, 0xbe8e380c3e4ec285U, 0x3fafbeb9bf618032U, 0xbe3aea6c3dfea4d1U,
    0x3f1c3744be7cdba9U, 0xbd91c14cbeb9dc1bU, 0xbe89087ebf87ef52U, 0x3d3ffd20be605c88U,
    0xbe24d7cebf2df2c1U, 0x3e5ebff6be983eeeU, 0xbf6ca5c93dc0c0d3U, 0x3f9de754bf5fbeccU,
    0x3f7011a5bd6d0774U, 0x3ea4de2f3d430fa0U, 0xbe8af46cbc634f54U, 0x3f6e387abe6f152cU,
    0x3e9f08383f658d0aU, 0xbe8546003f81c681U, 0x3da3d588be2e7a3fU, 0xbdb2d6c9bdd30570U,
    0x3e179158bdd7fe53U, 0x3f904514be84dd75U, 0xbec45bcd3f18807bU, 0xbe67c866bf650f02U,
    0x3f7d78c1bf5591baU, 0xbd5b6a9a3f56e49cU, 0xbe373628bf602a41U, 0xbdf168fcbc15ef32U,
    0x3f1e8f8e3f899e48U, 0xbd2db1253f6ba550U, 0xbf1f2d27be2072d4U, 0xbd2f9aa3bf0bcf62U,
    0xbdd12adcbf4d7fa3U, 0x3f8495f23bafb820U, 0xbf316cddbdb87bd4U, 0x3df6932ebd33b23cU,
    0xbf4e01493dc305fcU, 0x3edfb0c23f3b6c5aU, 0x3f5e23633db0f1c8U, 0x3c00f3003f9c0ed6U,
    0xbed442123f2d7d33U, 0xbee963163f23c224U, 0x3cacad54bef0f0d1U, 0xbd7cd2363f85029eU,
    0xbe2f202f3d863214U, 0x3d825a3e3ea7019cU, 0x3de7f5c03dc2536cU, 0x3d083eee3e3c27e8U,
    0xbe317ba33e4aa2cbU, 0xbec6d0ed3cc91c14U, 0xbdac7852bec92945U, 0x3e358b8f3ea7e3d3U,
    0xbe88e97b3d8acb97U, 0x3e6c4a203e1bc8beU, 0xbed74f53bc5a0c33U, 0xbe1b715c3dde5302U,
    0x3dbfe726be3064beU, 0xbea6fdf43dcb89a6U, 0x3f151619be5ed68eU, 0xbec4040c3beae669U,
    0x3d4658613eb40d42U, 0x3d672b6ebdce0ba1U, 0x3e95af3cbe9728b5U, 0x3d01a426bd2fde39U,
    0x3e27ca4bbe0f35e4U, 0xbe267b35be4dedfbU, 0xbe40b2553e9f573cU, 0xbcc8c9bb3d17cd71U,
    0xbce249553ec71e50U, 0x3d4962dbbe4d3888U, 0x3d841a073df6de26U, 0xbe9ea48b3e473d78U,
    0x3e26826cbedfd16dU, 0x3e7b4564be388132U, 0xbe9c398dbe19fee5U, 0x3eb3d3e9be8d27deU,
    0xbe9d874bbe9ac9abU, 0xbeb9b1b2be6d946bU, 0x3e83a1f43ea6ec0aU, 0x3e86d9c4be998809U,
    0x3d8bc5ab3e2f166bU, 0xbe87bd363e68cb13U, 0xbd837c463e6f45eeU, 0xbe553d6bbeac32daU,
    0xbe8295503cf74c3eU, 0xbd8385fbbe65526dU, 0xbe4067b03caaee98U, 0x3e94a72abe873564U,
    0xbe0dacab3e8c3bc0U, 0x3e2c0bc1be8c4a66U, 0x3e15d858bdf9471cU, 0xbe9f68cd3e4f1485U,
    0xbc7bb86abe821095U, 0xbd50e9fb3e8c5a76U, 0x3dfd251dbe5a98c2U, 0xbe3e4f0a3d3ea0a7U,
    0x3e0fa1b13e073607U, 0x3e0617f4bdba3d0bU, 0xbd6a6977beaa075eU, 0x3ec59dcdbe2b59beU,
    0x3eaa2ed33e950841U, 0x3e05cbd33e9abe69U, 0x3c8a4c59bea919e8U, 0x3ec8618fbe964988U,
    0xbe2f2865bc1e79aaU, 0xbd83daf93e706f8eU, 0xbe9dfe29bdb4a25dU, 0xbdd45a37be4b9d2eU,
    0x3e19b69c3e7573cdU, 0xbe6585ab3e15b46eU, 0x3eb6222cbe15d7ccU, 0xbddaeb91bea33696U,
    0xbebf2b0ebe6f7d88U, 0xbe3002aabda0349dU, 0x3e8e0ff73e4bc9f3U, 0xbddefb063d0c5977U,
    0xbd023c6b3e07a83aU, 0xbe3f90943c43bfebU, 0x3e02df9bbd60204eU, 0xbd879b803c86ac15U,
    0xbc10dad9bc6f9f26U, 0x3ea7ff80be88808dU, 0x3e9a00abbe04b255U, 0x3e1a12af3df6e39eU,
    0xbca0dd18be3aeef0U, 0xbd097092bde37d64U, 0x3d234fa03e18428fU, 0x3e0ef7d7bde6fa9eU,
    0xbe9af43dbe049d75U, 0x3d4328cbbe820fc1U, 0xbe9aa6ddbe1a0a4eU, 0xbe543fbebe1591afU,
    0x3e836ae83d1f6441U, 0x3db105d5be1ba766U, 0xbe81d00b3db3489aU, 0xbdd109943d9413e0U,
    0xbab6899c3e9819ffU, 0xbbff93453e7afdddU, 0xbd96a1443d9a6678U, 0xbe881da53de03602U,
    0xbe5db6a2be30f26eU, 0xbebaffd9bda9682aU, 0x3eaf9262be236068U, 0x3e8a44cf3ea9ccf2U,
    0xbe8b5f073df06375U, 0x3e894aee3e39d53dU, 0x3e02d5d23e9970d3U, 0xbed174c03d9cac0dU,
    0x3ea01c46be32df8aU, 0x3e07cc8ebea9def2U, 0x3e8d73d43ddbbebeU, 0xbba629f6bea81c0cU,
    0x3eab124e3d700580U, 0x3e2026503e5d56d8U, 0x3e58f7a1be8f4a9cU, 0x3e7d04a9be97881cU,
    0xbe86c3db3ed639eaU, 0xbdd36b1ebea3d1f0U, 0x3c2e1358be69483dU, 0x3ec5e8cebd1479f2U,
    0xbdae4d8bbe909a4eU, 0x3e3a9091be47c20aU, 0x3e64c6903dc7534eU, 0xbd90f3303e6272f0U,
    0x3e8d5b9f3c89263bU, 0xbe81e8e33ec8f684U, 0xbc1c6dddbe8a8f17U, 0xbe7ca1303aaba468U,
    0xbd1992f13d696b1fU, 0x3e8cee70be732e3eU, 0xbeb12776be4c4ebfU, 0x3efad6afbe654eaaU,
    0x3edf81343dd5bc58U, 0xbeaab6dcbe073e30U, 0xbec0eff5be32c20fU, 0xbe0bd78fbec00388U,
    0xbe00c5ba3d91f40bU, 0x3d90db1e3eb59c67U, 0xbd2a1f253e3307b3U, 0xbd96c4f3bd808c5aU,
    0x3e27935bbe5e1b10U, 0xbeac33c9bb81ad34U, 0x3e488eedbb4e84b1U, 0xbea4e9e73ddbc0a4U,
    0xbe8156f53ddb65f5U, 0x3dabe689be0b2778U, 0x3ec814dbbd97f78aU, 0xbdb5dd6b3f0059aeU,
    0xbe46d7603e5133ecU, 0x3e4072113e1124dfU, 0xbdea27f1be55c47eU, 0xbe4b524dbc88a64eU,
    0x3e7600d4bccc8958U, 0x3e9054ffbe7e9bc2U, 0x3e98e0c73ebd172cU, 0xbe3b73b23da71675U,
    0xbd19dbf1be263e71U, 0xbcc9526d3e863dc7U, 0xbe62c27abe412719U, 0xbcbb47003d696339U,
    0x3e085858bd4952e0U, 0x3e8fb729be45e809U, 0x3dab992abd8f1cd6U, 0x3dc3f55c3e465b17U,
    0x3ddda083bd9d3ff2U, 0xbd6e23d0bdf8409dU, 0xbec1b5aa3e6faa35U, 0x3e8ac17abe22430bU,
    0x3e25e4f83e760d6eU, 0x3d1bd2a0be52492eU, 0x3e2f825dbd5253a7U, 0x3e2a3fb0be7562b2U,
    0xbdcc60153ec62a67U, 0x3e7384edbe87a317U, 0xbe9800213e800f7fU, 0xbd9c7483be7148f5U,
    0x3dd19cd3be867961U, 0x3eaeec5ebdf07d8eU, 0x3e34cee43e21e2cfU, 0x3e1f51c3be90452aU,
    0x3e8afaf73d89da7dU, 0x3ddca67fbe926fb3U, 0xbe9750383eb80649U, 0x3e06eb50beac00e9U,
    0xbe3996e53e9b0335U, 0x3e0a62353e8667f6U, 0xbd8130103e811297U, 0xbda3b6563d84be52U,
    0xbdb8c2b73c012a54U, 0xbcf95fbc3d2fb993U, 0xbe1b3b1e3dceb9b6U, 0x3d6401cd3d237b18U,
    0xbe7a91d23e09719dU, 0xbe5567bbbd2376efU, 0x3c88014d3e0c7d03U, 0x3c8403bbbe7024ecU,
    0x3e4209383d6c4b69U, 0xbdfcc9013cb260a9U, 0x3d7250413e9d8af6U, 0xbe48b2d13e563ac2U,
    0xbea6b773be846f45U, 0xbd88ae993ed8ae71U, 0xbe0e1fa7be10d5f4U, 0x3e1bb64fbe15c5aaU,
    0xbe072c673d02be27U, 0xbe3f70653cc3852aU, 0xbca61ebdbe1935d5U, 0xbd9491cbbe984245U,
    0xbe0b0178beae0d46U, 0x3d6b7fe7be078a4dU, 0xbec8ee7abe6ab830U, 0xbe51f96d3e79d57cU,
    0x3d965c87bdb66c70U, 0x3e9b87c4be1d94f3U, 0x3dd9f29f3e8d505aU, 0xbea78ab23ebc0145U,
    0xbd84c789bcfbf1d6U, 0x3e4e0b983d574323U, 0xbe5bbfb03e34b77eU, 0x3e2e262ebeaf2b41U,
    0x3eabf85c3c4db90fU, 0xbe0d4bdc3c43471bU, 0x3c90dbbf3e945e6aU, 0x3ef4abf23e347c01U,
    0xbe8014e3bee442f7U, 0x3e0fd406bcc59e95U, 0x3d3bd050bea348d3U, 0xbdcf8a553de0cf6aU,
    0x3e38df8e3ebac4d5U, 0x3e4766aebe354ce8U, 0xbca9f51bbe8df7e3U, 0xbc610cb9be6f450bU,
    0xbe120c2ebdd76359U, 0xbdaae96abdb7b402U, 0x3c338b7bbc8208caU, 0xb9a8da1d3d556771U,
    0x3de4d3483c937baeU, 0x3e3a3b24bd92cee0U, 0xbe734f21be4bfec8U, 0xbe73ef20be83f6eeU,
    0x3e4932f23bccce74U, 0x3e2e0d11bd8f9051U, 0xbe42cf80be2d80cbU, 0x3e1a73233d412d9aU,
    0x3e7285edbe430306U, 0x3ec8bf07bd36687eU, 0x3d0d760bbd5e043bU, 0xbe1facd3bda768baU,
    0xbe17c4f23c575108U, 0x3e857bb03dc0df28U, 0xbe1cbc6dbe60561eU, 0xbdde7638bea65bb1U,
    0x3ea67147be491db3U, 0x3df590473e38f9e2U, 0x3ea04712be711bb4U, 0x3e7bfceb3e2f59efU,
    0xbe46e437bdf5258cU, 0xbdc2be6f3e5fdfe5U, 0xbe147a73be2ebf30U, 0x3cc66dcb3e7575acU,
    0xbeb34d853e6ef0b1U, 0x3e0ed8b8be12bb58U, 0x3e41bd9abe8a165dU, 0xbe5162cd3df48416U,
    0xbe16c4b33e19b366U, 0x3da081d43cbd6b7aU, 0xbe8a3628be500067U, 0x3e81b55f3eb221b7U,
    0x3d81ca3f3cf6c22aU, 0xbb9ad06ebd6a6ac4U, 0xbe984c64bdcf31d0U, 0xbe4d4801be51a9a4U,
    0xbe4ed75bbe27bd1aU, 0xbded445abe25fbe2U, 0xbde760d03dd43cf1U, 0xbd9d7de2bed32c3eU,
    0xbe12eeb0be62e9b0U, 0xbe94a20abcbba0b6U, 0xbd90480f3e273e23U, 0xbd17d66cbe1f2b27U,
    0xbd387fdcbd25f5deU, 0xbea153773e0c98e6U, 0x3d3289d7bdd6ef3eU, 0xbde2f6583dade61bU,
    0x3d9ad990be98c3a3U, 0xbdb17ff33ce87912U, 0xbe73aab53ec6c97eU, 0x3e95f45dbe399d49U,
    0xbddc38cf3e54b6b3U, 0x3ea6237bbdfa56b3U, 0x3e5f91d43e27f0a0U, 0x3e5640b03ea46ae9U,
    0xbed9d68db9b74402U, 0x3e091b6cbe990105U, 0x3e97f8c0be465426U, 0xbebb18823eca09c7U,
    0x3db28da73ce3532aU, 0xbb816a603cddbb0dU, 0xbd8ac28ebe94c3d7U, 0x3e30949b3e14618fU,
    0x3da3ff1fbeac86bbU, 0x3dd1d467be17616fU, 0x3e85ee43bdaae1b8U, 0x3e5999d2be8a807dU,
    0xbe8c07f1be16ee71U, 0x3e3383453c8da605U, 0xbe617e5c3e580ce8U, 0x3df6dcac3ea1cf73U,
    0xbeb57ac8be9808a4U, 0xbe2883493dd56d80U, 0xbc5620cebe79570bU, 0x3dceaa20bceb58c7U,
    0xbe78fbfa3e8abbe0U, 0xbeadc437be79c4eeU, 0xbd2a0f1a3d3ce647U, 0x3e1d9f4b3e6d10b1U,
    0x3e4b6bbebdce866eU, 0xbea2a658bda6d48bU, 0x3e4cabcf3c65ed42U, 0xbdfaf2b33e406accU,
    0x3d81dab0bdec8861U, 0x3e5d57123cba3b9dU, 0x3cc7c1963eaa5ce9U, 0xbd000bd03dc21e33U,
    0xbd78812f3cae418dU, 0xbe8758753de8692fU, 0x3daae629be436336U, 0x3e2dd2ecbb86b654U,
    0xbe6c9164be351bb1U, 0xbe8152ad3e7ba32dU, 0x3db472d23e9f696bU, 0xbdcd02eb3e857203U,
    0xbe0d0d8fbe0666ffU, 0xbe1590cc3d734540U, 0x3e896ed73d26fe78U, 0xbe0af21a3d449cc5U,
    0xbeb08ae7be73ee78U, 0x3e636f733eb0531fU, 0xbeaf216e3e043bafU, 0x3dc440f23e21a217U,
    0x3e1ee197bec0115aU, 0xbe8b2ef1bd15ac9dU, 0xbdaccb473e76d203U, 0xbe1451233ea40fcaU,
    0x3c78795bbe8346a6U, 0xbd74d3203e6052d7U, 0x3e036154bdf37b2fU, 0xbdbdbcdfbe3829cdU,
    0x3eb146c43e5ef868U, 0x3e6b3a93be0c8302U, 0x3d20bacf3d735b27U, 0xbe503eb4bdc762dcU,
    0x3e895505be98319dU, 0xbd7a8a273efee63eU, 0x3e7756163eafaf46U, 0x3dd37a2bbc312131U,
    0xbe07a87ebcbca6a2U, 0xbe53f26ebce14ad4U, 0xbeaa6ef03e975728U, 0x3e2933823e8c5a9aU,
    0x3daee219be3fb18cU, 0xbec5e4533e796194U, 0xbe4a7602be0dadd9U, 0x3e9bcd793dd73758U,
    0x3e7d430bbe930d01U, 0xbd37fa6bbe287b5bU, 0x3f06055d3e3636e4U, 0x3f55ef3a3e85dd43U,
    0xbf16f9423d39f2ceU, 0x3f050d10befda710U, 0x3f706d873e88286eU, 0xbe1f1f96bd8d405eU,
    0xbd5bdd42be33dfb7U, 0xbe18e0d03e070702U, 0xbda73a6f3daeced8U, 0x3ccb53b13c2a6784U,
    0x3d884773be4aca63U, 0xbdd8bb3bbdd1e5c8U, 0x3e5f16213dda7f84U, 0x3d1ba179be67f035U,
    0xbe235bc73d850587U, 0xbd507fa43daf0fb4U, 0xbdc928eb3e351d05U, 0x3b8bc3443ea1c2deU,
    0xbdb03df0bea5b0d6U, 0x3a739d5d3d1031daU, 0x3db94a2abdaee469U, 0xbdc6b94e3e4e2f67U,
    0x3f02c5283e4ca1adU, 0x3d50835d3cf59e7aU, 0x3dbf359cbe3ed200U, 0x3e9901ef3dbdffedU,
    0xbe9c99c03e63af1eU, 0x3e822d233dd5e5a1U, 0xbeb8ef8cbe61a23cU, 0x3e9c1bea3e9f448fU,
    0x3e607201bda844eeU, 0x3e0951ef3dbdd66cU, 0x3e8e0f7a3d054878U, 0xbcb6e7ba3e235091U,
    0xbe1a5711be874b40U, 0x3e7bfda03e61a64fU, 0x3de2726abe5e5440U, 0xbe3cad8f3d85bdcfU,
    0xbe72860f3e07cc6dU, 0xbe31c4de3e6312ceU, 0x3d8717e83eb912ebU, 0xbe9cfe86bd1ba89dU,
    0xbd959277be0fb2a3U, 0x3dbdc679be1a49b8U, 0x3e40c2183eb622a0U, 0xbe84b1563ddc9c9eU,
    0xbe4e2acbbd270cd8U, 0x3e286c34be4ad311U, 0x3e447b5f3d8758b5U, 0x3e5cbcbf3e386cd0U,
    0xbdfa410f3dfedeabU, 0x3e938168bd98c0c0U, 0xbd6f9948bc6f2d91U, 0xbcf288a63c5dc78cU,
    0xbdfe0a9a3d753936U, 0x3e3c50ae3d3af24fU, 0x3e7d64073e497e56U, 0xbdeb21fcbd884bd8U,
    0xbe9ce6ddbe4a0f2dU, 0xbe8fdbcbbdbcb67cU, 0x3e6645c0bd13ca8dU, 0xbe8213d53e67863bU,
    0x3c87cf50be307b52U, 0x3dac59323e3ab603U, 0xbe8fa8af3c4648a1U, 0xbd77e114be0c66e5U,
    0xbb6ca6e13d4c6f8aU, 0xbe2ff32c3e347681U, 0xbe688743bdd2ae86U, 0xbc783e413e1196dcU,
    0x3d9808f4bc2d6e46U, 0x3dc02825be1f11c1U, 0x3e1ad1d5be7a446eU, 0xbe487a943e4dc540U,
    0x3e5f33cfbe6673e3U, 0xbe68c0253df88089U, 0xbd26506f3e9eb4c2U, 0x3ebd9ab43e594c4fU,
    0x3df195d63e01fc5bU, 0x3e5a5f49be0c58abU, 0xbb9723f03ea35c97U, 0x3d0f454e3ee68303U,
    0xbd1022833e244a48U, 0x3ef53744be76eb23U, 0xbdae39f4be47008cU, 0x3e2e199f3e7653b6U,
    0x3e38af6e3d775920U, 0x3e58db8a3e465f99U, 0x3ea510ec3e3dfdc9U, 0x3e3c2528bde90a6aU,
    0x3b9327bd3ecdab09U, 0xbe880e65bc7a4764U, 0xbe29c11a3e3564ccU, 0xbe7ade04be25140bU,
    0xbdb6d7523d491b9cU, 0xbe428d45bdb3f20fU, 0xbdac7370bdc8397bU, 0xbea8cb02be49b6b4U,
    0x3e3a7c7cbe05ce7aU, 0xbe106892be2a5709U, 0x3d4cea363e040ef3U, 0x3cb24d803ebea9d6U,
    0x3e139ab83e4a37b9U, 0x3e40135ebc060ff5U, 0xbd9b0692be0c1eb3U, 0x3d87e9543dce0f84U,
    0x3cb344c33e00d628U, 0x3d2c9f1a3e682000U, 0x3e8780493e8376c8U, 0x3e390d93be327c1aU,
    0x3e2e278d3eafb8d3U, 0xbdc143e03d7f6103U, 0x3ea19df3bd41ff91U, 0xbc8a36a73ea05a96U,
    0x3cd1d71b3cfa63cdU, 0x3e6bb342be6d50b4U, 0xbe019dc13d43e765U, 0x3e0b20e1be3a8ca2U,
    0xbd67bc76bd8bcb24U, 0x3e087957bd85ea07U, 0xbdadd5773da28e5dU, 0xbeb760843e07739bU,
    0xbd868101bd88c034U, 0x3e72842f3e0326c4U, 0xbdb4a6d8be8d40edU, 0x3da0020d3e67b124U,
    0x3cbbc1d0beb26b2dU, 0xbdb3e3f4be282204U, 0x3e1fcc463e9d0f85U, 0x3e5a22393eb4c1f2U,
    0x3d20356dbcce87fcU, 0xbc437486be5cb993U, 0xbe08e164be063002U, 0xbd53e1ff3e044e3cU,
    0x3e361289be6384e6U, 0xbe17b3e2bd1bd92aU, 0x3e2ebcbf3e7d6445U, 0xbe3d62383d844313U,
    0xbc805f68bcfff9ecU, 0x3e1af904be94dd7eU, 0x3de29ab13b2ba43aU, 0x3d6147f9be5567f4U,
    0xbe16fb3c3d4055d2U, 0xbe7728b23e12a776U, 0xbd6fdd39be578471U, 0xbdd1db57bdbe1f6aU,
    0x3e61b2b4be9660abU, 0xbe563ea7bdf7a198U, 0x3d083df33df5fce8U, 0xbe955451be63612eU,
    0xbe8e0379be85ffdeU, 0x3d27cdf5bcbfe169U, 0xbdf34e66beab5dd4U, 0xbea804f7bd2e76d7U,
    0x3d3a7294be543b3bU, 0xbe97eef6beb87d1bU, 0xbb59fa29be8820b4U, 0x3ea1d0fb3de31e54U,
    0x3e132020be33dd66U, 0x3e459965bd80920eU, 0xbe569ef63e310897U, 0xbe051cd2bd8af93dU,
    0xbdb0c06c3d51d3d2U, 0xbe4a5dae3d0853c5U, 0x3e55f4a53e83a81dU, 0x3f0f041bbeb345e6U,
    0xbdbbc4f13d096c6dU, 0x3c53135d3d14dda4U, 0xbe1ce7a6bd0fe9c5U, 0xbe8b25503e6f93e8U,
    0xbe7cd5a53d06d930U, 0xbe499e2a3ca39180U, 0x3db02370bd715a40U, 0x3ecde89abe9febf8U,
    0x3e5304af3e46c744U, 0x3eb1db153a3d89ccU, 0xbd98e808bd96725cU, 0xbd7274d73eac543eU,
    0xbe5297ec3d4d29dfU, 0xbeb5d585bc089210U, 0xbd2d1e543ea90f97U, 0xbd7c81183e5a4ca9U,
    0xbe269d753e2c74aaU, 0x3eb528a43e555d74U, 0xbedae33c3de7b312U, 0xbea54006be681205U,
    0x3e0ed8533e0efc6fU, 0xbec3f34b3e2c5884U, 0x3dd79654bcb9c6d4U, 0xbb2f6c74be937298U,
    0xbd6b2aefbe3b0c4fU, 0xbd6fdf03bd0adfa1U, 0x3e2e976d3d5fca0bU, 0xbe588c1d3d54f84eU,
    0x3dda6f6ebb87bac1U, 0x3e308796bcc83cebU, 0x3e5213debb50d6caU, 0xbdcffde5bd6beffdU,
    0x3dff49c33eae0883U, 0xbed7a7103e88829dU, 0xbdda882e3c681bf9U, 0x3cc75c04bd423c28U,
    0xbe898828be470e9aU, 0x3e47e60bbda25987U, 0xbdb3152fbe97e898U, 0x3eead5d8be2f11caU,
    0xbdb7e4d5bdc5d1d2U, 0x3d9a8e8dbdc564e2U, 0xbd7358373d801684U, 0x3d598319beebc949U,
    0x3e586462be09f2bdU, 0x3e884f3dbd2922dbU, 0x3e978b31be91ce6dU, 0x3d6b7c62be229544U,
    0xbe0fdeadbdef9f07U, 0xbd9160ccbdb94a12U, 0x3e1d67993c2eb526U, 0xbbb4e542be2fb50cU,
    0x3de760d73d35e5f3U, 0xbe10bed63e46896cU, 0xbe742eed3dde5ad8U, 0x3c9576b33e8c00f3U,
    0xbe7de769bc5c66acU, 0x3d6e6545be24aa59U, 0xbe8f34eb3d878f28U, 0xbe59f17a3e6797f3U,
    0xbda0f291bd814f0eU, 0xbe7497f8be81603fU, 0xbd8b36d3bd95b972U, 0xbe2ee9bebc8e91f8U,
    0x3e5fb5e1be4ff30fU, 0x3d31ab62be241c9fU, 0x3e2997343c24005fU, 0x3e1c6823bc249829U,
    0xbb9f40cd3ca18c55U, 0xbcac99963e1239f6U, 0xbe322d113e981816U, 0x3e0ab315be256d39U,
    0xbe6133943d332234U, 0xbcdb86043e347b25U, 0x3e1ae48dbe4a8daeU, 0x3e300c3c3dfb0271U,
    0xbea17e67bdd168aaU, 0xbe0ee1aa3ede3e6bU, 0x3eafdbc9be375638U, 0x3e5e5a213e3c85d4U,
    0x3d88fae23ec77f23U, 0xbe966df0be5c861bU, 0x3e5829153ecfeedbU, 0x3d4adf4f3ec49d5bU,
    0xbd849ca1be930dc1U, 0x3e6f13313e54e3c6U, 0x3e9702603e04d70aU, 0x3e3b891bbe7ddcadU,
    0x3d653482bed7badbU, 0x3e61f99e3d8afb68U, 0x3ec5f7603d721f8aU, 0xbb331cbbbd220d2cU,
    0xbcd8f7693c1c3168U, 0xbe300b9e3e8ae4f5U, 0x3d8107203e65e24cU, 0x3eaeb47a3dcc6a85U,
    0xbe353fc3bc844247U, 0xbe4d99fc3c005262U, 0xbd5a51733e6ce154U, 0xbe551c3fbea8734cU,
    0xbe0b6665bc99a7adU, 0xbe9f1799be884791U, 0xbda676bd3e46bcefU, 0xbcd68fafbe598a14U,
    0xbe69fd45be47c0c0U, 0x3d9e87523db548c2U, 0x3cd43d7b3bc7b66cU, 0x3c267914be84c668U,
    0xbdb7a0fabe4948e8U, 0xbe8ed16abe87ee07U, 0xbe957285be9f42c1U, 0x3ce43b623e7f3d9dU,
    0x3dd1e54cbe7eba93U, 0xbe290d053d43b1dcU, 0xbe8197043e7e7d42U, 0xbed661993def3cc9U,
    0xbe0d31f73bfa3f14U, 0x3df34709bee18bfaU, 0x3cb7c9ac3d816b6cU, 0xbe1b9383be7e147aU,
    0xbe48914fbeeadbc0U, 0xbeb91eee3e298886U, 0x3e0348273ebfc3daU, 0xbe6993cebe7ca89eU,
    0x3c9823ea3d7602c9U, 0x3ea602ff3e8ea614U, 0x3e75dc4bbd474018U, 0xbeac9e6c3c69200fU,
    0x3e7a41d53d0a265aU, 0xbe348ffc3d4b409eU, 0xbe2e449dbec7d0dfU, 0x3e3c0b3fbda46319U,
    0xbe81655c3e8022adU, 0x3c183ae33eb682aaU, 0xbc2765eb3e000050U, 0xbe9257f3bd12772bU,
    0xbe94f5e1bdcf7cf7U, 0xbda71f3dbcb7666fU, 0x3dfd2bc1bea8c55fU, 0x3da01f873e08a7b9U,
    0x3e7abfe03dc137ecU, 0xbe47371a3e0c76d9U, 0x3d866321bdbfd616U, 0xbdb7707abbd65b3dU,
    0xbe4788f43da0e1f3U, 0x3e60bb4a3df8389cU, 0xbcd435c63d9e15a5U, 0xbd8f0377be8ed23dU,
    0x3dc7e3053ddc6839U, 0xbea163a4be689952U, 0xbe9d74043de941beU, 0xbe66fd513c01a29eU,
    0xbe0420173e70c0c3U, 0xbd0c9c4ebec84c20U, 0x3e040de0be02d00eU, 0xbe22258cbe798396U,
    0xbe1db2f1be6ac06eU, 0x3eb04938be8e0869U, 0xbe1074dd398c28a4U, 0xbd3ab272bc860de5U,
    0x3e99795dbe592f57U, 0x3e8c7eea3e750d1eU, 0xbeb116b0bf0a8f00U, 0x3e100b6b3d4d37d7U,
    0x3e2f21bbbe8a445fU, 0x3e813ca5bd4df615U, 0xbe9c12993d12f9edU, 0x3d890e88bd44bf63U,
    0x3cd70a6a3e969aefU, 0x3d923f66be6989cbU, 0xbe656177be415bdeU, 0x3d5ad374beaaf1d5U,
    0x3c9b70353defa012U, 0x3e9167503d3dad29U, 0xbe95d546beb291c6U, 0x3e0003503df9cdadU,
    0x3e2a6289bc488bc0U, 0xbc9e2c6f3b91d356U, 0x3db2168ebe39b1e7U, 0xbdbc1fb8be72ffd9U,
    0xbe41ca5f3e3779adU, 0x3d0375aabdac2d01U, 0xbe50a9253d823cd8U, 0xbdb00b283e1371fcU,
    0xbd004bb63ce32333U, 0xbc91d53cbe31b7fdU, 0x3eb281773dc29b89U, 0xbcdf2ca2bdbf9474U,
    0x3ead2a90bde709d3U, 0xbba7a6ce3dddc6f9U, 0xbe2806d2bd027590U, 0x3e7512923e3a2bfaU,
    0x3de820733d6b4252U, 0xbd982aadbd179c60U, 0x3ede58db3e887a7bU, 0xbdce6996bd63668eU,
    0x3d9c7d733d28b869U, 0xbc8347d7be9f203cU, 0xbda645533e7c251aU, 0x3e1e9c383e7a463aU,
    0xbd69185b3e966ad3U, 0x3d2c179fbd752f25U, 0xbe1469e7be560e7eU, 0xbddc3d333d1427feU,
    0x3c810b2c3de8b11aU, 0x3db0cddb3c8410ccU, 0x3e9a66f83d082473U, 0x3e23eebc3e750178U,
    0x3e38b49e3e9ff1d0U, 0x3d9c67913c0bcdcfU, 0x3dfc60b1bdc87a33U, 0x3cc176503e37029aU,
    0xbe0eafe23e0170eeU, 0xbe7847883e64b55dU, 0x3d5497bebdad16d2U, 0x3e2425493d896086U,
    0x3e2035813dab6649U, 0x3d88e49e3db58fbcU, 0xbd4d258c3d576d38U, 0xbdfa1f053e3d7682U,
    0xbd65c2ea3df62a26U, 0x3d8df894bda47e8eU, 0x3d2b1e603e4234bdU, 0xbd46f3713e57ffe5U,
    0xbe5367adbd349fccU, 0x3e0bda1abd2b6ba2U, 0x3e01eeae3e0968b1U, 0xbda7bcf63e2147b1U,
    0xbdf7297a3d564152U, 0x3e02800cbd478165U, 0x3dd10d0abd827d2fU, 0x3e683cec3d8d4232U,
    0xbd70d7bf3d3a3f36U, 0x3e2f2ea8bd920ae4U, 0x3d25238b3e2ec994U, 0x3e5eef283e5b7212U,
    0x3f25ebffbf202da2U, 0xbfa6bf843ec2313fU, 0x3e86cd69bdb304bfU, 0x3ef2a762bf3e5d7bU,
    0xbf988a473f55cee6U, 0x3e8a4c09bf8c3209U, 0x3e1072ca3e46fff7U, 0x3f3309f23f1ea17dU,
    0xbd3370a63f851694U, 0xbf621d283f124a26U, 0x3e18ebae3e54eb02U, 0xbf696285bedfafc3U,
    0xbe0112dc3ee39ef9U, 0x3f16fd97bb242d62U, 0xbf8cd3cb3ecfc630U, 0x3e687796be9e3207U,
    0xbf38b1523f3412ecU, 0x3dd341f1bf38432fU, 0x3da26a073f1aa6f3U, 0x3f12b989bf360fc4U,
    0xbf10f9073f24a0c6U, 0xbe7d6f93bf29d529U, 0x3fb4cafebf35b0f8U, 0x3fb977a43d933c97U,
    0xbe47d729bf11888bU, 0xbe9daeaebf4c1c4cU, 0xbe2ae89dbdf7d5e9U, 0xbe4e758b3ee1aa9cU,
    0xbd8ed043be282098U, 0x3be8fa463f0c52d9U, 0xbde52cdf3fd39045U, 0x3d1415d33e5dab3eU,
    0x3f7ed9d63ebdae27U, 0x3e06efaf3e24bb5eU, 0x3d4ca4073d5139f7U, 0x3f1ed431bce59913U,
    0x3d6882a23f83abe7U, 0x3ea6e378bea3056bU, 0x3e19cd9b3e2fde22U, 0x3f2495c1bd8eb2b9U,
    0x3f02fda3be105963U, 0x3f201c6a3f203937U, 0x3f33f43e3efafc8dU, 0xbee709633e79e4a7U,
    0xbf01d557be998263U, 0xbd9a989cbf942d0bU, 0xbf196fafbe3eb6feU, 0x3e46b560bda5e270U,
    0xbea00e03be4dae04U, 0xbee461abbe07b904U, 0xbdb3de203eadd946U, 0xbd0fa71c3eb36c88U,
    0x3d16cf953eec4c77U, 0x3f4961ab3f10ca79U, 0xbe75d5cc3f838505U, 0x3f06224f3c86b0a5U,
    0xbed4b999be4c343cU, 0x3e8425b83ea42688U, 0x3ed955e1be549c58U, 0xbf301a56bf0640dbU,
    0x3c9842ffbdc25c7cU, 0x3f9ee2e9be651659U, 0xbf3a88683e210c13U, 0xbf179a5e3f2864d1U,
    0xbde525c9bf42d38fU, 0x3f6b5b663eb46997U, 0xbe0e68abbf95e348U, 0xbd4d98543f4fa06aU,
    0x3f4fab083ead0579U, 0xbeb5054abf0b1767U, 0x3f3eb0ea3efb0525U, 0xbf00c52abf387519U,
    0x3f209b1b3dd69836U, 0xbf00cfdfbc532c2eU, 0x3f8079fd3f350e70U, 0x3ed751043f2b8846U,
    0x3ee64320bf703c98U, 0xbf1c5ae2bf088e29U, 0x3d2a3123bead2677U, 0xbf69fcdcbe24fd52U,
    0xbe313eb4be01f547U, 0xbf2da5e5bf1c86f5U, 0xbf8f39873f029f54U, 0x3db5bc76be97c2c0U,
    0xbe91c12ebdca13e2U, 0x3f8ff5013efdf513U, 0x3e3d2bf9bcab96a5U, 0x3ee22b353f10adb8U,
    0x3e443d4e3e83016cU, 0xbe86e68bbe981d6cU, 0xbf6827013ea1d06eU, 0xbed592c53e2baa59U,
    0x3f25ad7dbf9f6adbU, 0xbe8fe7e4bf2646caU, 0xbf205e833f279a7fU, 0xbd2f28023ef9cf24U,
    0x3ec4f991bf5cdf26U, 0xbf3dc99e3f06600cU, 0xbfa96c1b3c320920U, 0xbf8593a63d94ddc5U,
    0x3d725952bf2e470bU, 0xbeee9fd83f11c948U, 0x3b8c1aee3fba6476U, 0xbf8326133ecb52dbU,
    0x3ec8a085bf1bdde0U, 0x3ec742ffbf868f22U, 0x3ea677793f4ecad2U, 0x3d55d74cbed1e170U,
    0xbed839093ec6fffeU, 0x3ee6d7453e5774a6U, 0xbe09b5533eada3fdU, 0x3f3e12bebb49c557U,
    0x3f1cef863e5e70ccU, 0x3f28f06d3da514f6U, 0x3ec1a76fbfd0512dU, 0xbe8115fe3f288570U,
    0xbbdcfdec3da528cbU, 0xbebc7b71becb364eU, 0x3f3d1eb23e3a0d69U, 0xbe2247583f068fb4U,
    0x3f113da0bf1afb06U, 0x3efec85d3f6bc97eU, 0x3ea85f1dbe0baa99U, 0xbf161ba0bf2ef132U,
    0xbe6c60a9be60d168U, 0xbe476a89bf208d6bU, 0xbe459338be0fe828U, 0xbe710f2e3f044721U,
    0x3f69b7d5bbf2d7eaU, 0x3f0061e43ee4ee3fU, 0xbd03128d3f0b79e0U, 0xbe1102843d6d268cU,
    0xbde3892abf0770e3U, 0xbebf1658bf50658eU, 0xbf55d65fbc88880dU, 0x3e4f686ebf0aa35dU,
    0x3ef103c3bdcf58b5U, 0x3cd7133abf41feffU, 0x3ec5d2523f38e2c8U, 0xbd3d7d25bf43d6b3U,
    0x3c10e0a0bed19f9dU, 0xbe4e921dbea40a7dU, 0xbf5487bbbef3e398U, 0xbf536fbf3d11bd34U,
    0xbeecab533d072a4dU, 0xbf73322fbf292938U, 0x3e0837e5bf4ea1a5U, 0xbdb9a5fbbdbda440U,
    0x3e2e30b93dc4aeedU, 0xbeb4bb44bdf7ddf8U, 0x3eb45f503f8a6264U, 0x3f02c2b33f824fbfU,
    0xbed17881bf1113f9U, 0x3d51641d3efe123bU, 0xbefa5196be3a1cafU, 0xbf88aaafbde1129dU,
    0xbe6b0218be7fac64U, 0xbef6b9d2beb129d4U, 0x3f64201dbdac4e59U, 0x3f67663cbeb12096U,
    0xbf5422873eee4d1aU, 0xbe490504be8cec91U, 0xbe88fa8fbf62e7d2U, 0xbd8549ab3f1e1131U,
    0xbe380aabbe1b04fdU, 0xbf0b4208be4c4ca8U, 0x3f0b2966befffea9U, 0x3f24012bbcbf47c2U,
    0x3ea598473f11a3b1U, 0x3e152be73e347294U, 0x3eb9a4373e91d54eU, 0x3e6c6bf1be931351U,
    0xbea225a53f674976U, 0x3db105113f0b5420U, 0xbf5ae91abf2f38daU, 0x3ef9043a3ef40fe9U,
    0xbf1048ca3c72a188U, 0x3f0ec37d3f499775U, 0x3e0b4331bec4b4c4U, 0xbf63db503eedd420U,
    0xbce337903ed37bb8U, 0x3f3711943d4a5d37U, 0xbf83cb95bdcd920fU, 0x3efe5dd93f4fd3baU,
    0xbf43a40ebf5b8b1eU, 0x3db70c6a3dc5839eU, 0x3f57dbbc3df7b82cU, 0x3fb7f195be8bbfb3U,
    0x3edc5b82bd425136U, 0xbf5026b4be8f4b38U, 0xbdcb9378bedc9820U, 0xbdcf6e72beadb4afU,
    0x3d7f54f3bf38dd44U, 0x3ea749fb3ebc55d3U, 0xbeede87a3dc8de9dU, 0xbcb90aaa3f8e1c7fU,
    0x3e8f352dbeec3344U, 0x3d373ecbbf1eaa9fU, 0xbf98f9ec3f4ca2b9U, 0xbe5f4c033f3663cbU,
    0xbfc464ff3f0bf510U, 0x3ee2ca18bdea8507U, 0xbdea95623e1226b7U, 0x3e27194c3f9cf524U,
    0x3e53a1503e49e7f0U, 0xbe392fd43ea1e3e7U, 0xbf1b102dbf697a8cU, 0x3ebfa708bf575f52U,
    0xbc5ae1ba3ea086cbU, 0xbe04228a3f538242U, 0xbf27a56a3f17c9aeU, 0xbe17bd263ee845b8U,
    0xbf02fac8bf6c244cU, 0xbe78f6aa3f180bb2U, 0x3efaaee5bf379891U, 0x3e5b3a503e87199dU,
    0x3eaedd1d3e469154U, 0xbf4d21aa3f02b7d5U, 0xbf140fa33e056c85U, 0x3f6c852d3e94d365U,
    0x3efe6af93f7babecU, 0xbd928c4b3f6ee724U, 0x3d1455da3e0facedU, 0xbce170bd3f3c4480U,
    0x3f761c253dc10451U, 0x3f06de81bd203643U, 0xbf5958273e13eaafU, 0x3f3d87913f0a088aU,
    0xbefa8ab9bef96896U, 0xbef195c23e648969U, 0xbecd4a74bf02280cU, 0x3e94abb2bf07d509U,
    0xbf2af92ebc8d97aeU, 0xbe924a39be03920dU, 0x3f025ab53eed681bU, 0x3f20d14d3f95f7a6U,
    0xbfaab9f7be59fdd1U, 0xbf775ce73c43613bU, 0x3f257ce73f2647beU, 0xbf2cec3e3f02bf45U,
    0x3ebe5d4c3d25a789U, 0xbf49bc03be85384dU, 0x3e7bc5563f08c4a7U, 0xbe948f5fbe3168d8U,
    0x3e22a09cbef951cfU, 0xbf70b559be862815U, 0x3e2153243e6b511aU, 0x3ec1e70abe733639U,
    0xbeefdf573f37545bU, 0xbc818b5f3f147b3cU, 0x3e93bf36bf2b15bbU, 0xbdc99a0e3d40b1fbU,
    0x3dfc1e253e092e2bU, 0xbe6b20f6bf1fd4ecU, 0xbf3851aa3e033ccbU, 0xbec9131fbe0d3bd7U,
    0x3ef65d2abf56638fU, 0xbeb2faa7bd72109dU, 0xbf5b54c33f819513U, 0x3dbe0757bdee50ccU,
    0xbed47285beb671bdU, 0xbea91d2e3f3176c6U, 0xbf160b5fbf95b41fU, 0x3d5b068a3f36e104U,
    0xbda6a3643dae89dcU, 0x3f55d1cc3f463e18U, 0x3f37b515bd5dc789U, 0x3e08d9afbf898e9fU,
    0x3dba5e8cbe987375U, 0x3f0bb6f4bf72da04U, 0x3d05d9b7bf2a87a6U, 0xbe384a51bf4e5053U,
    0xbd51804cbf45a9c7U, 0x3dc88efc3d912a5dU, 0xbda51e91be2c1967U, 0xbf5bf8cbbd8f3878U,
    0x3f0ecd313f25b302U, 0xbf4a69aebfc3c2a7U, 0x3ee77e55bf3bdc1fU, 0xbde8c1acbf1cca2cU,
    0xbed75f3fbeccf8b3U, 0xbf58beb7bf255ef1U, 0x3f1c247b3f550ceaU, 0xbe9766583c9a345aU,
    0xbf89a3563f09c962U, 0xbef7c1523bbf3fabU, 0x3f500b153f3fe6eaU, 0x3f19a3b93f48aa7eU,
    0x3ebe2dc63f198017U, 0x3ed4e7de3f852604U, 0x3ec70f7cbda197d2U, 0xbdd444d6bf04a5ecU,
    0xbf1e9d8d3e67500cU, 0x3e60ef18bd3c60ceU, 0xbfac53febe976c7aU, 0x3e3480e3bdc7f9d5U,
    0xbe8617683d432232U, 0x3e44f6643e54a381U, 0x3e2b9f263eee0f3aU, 0xbe6481c53dbdb765U,
    0xbf6ffeb0bf3d62f7U, 0xbf3ae307bf670c32U, 0xbf2cb7ea3f83c316U, 0x3e0b2dc6bf05a0b5U,
    0xbe79ec9e3dd24767U, 0x3f772215bf7c1a6eU, 0xbf3db8cc3f717374U, 0x3efd91f63f348386U,
    0x3f4be090bd719036U, 0xbe790b0ebf3df175U, 0x3f4b4324bebe8fbeU, 0x3f7b55a9bf6dcc46U,
    0x3f897080bde83c46U, 0xbf2481773f965082U, 0xbdadb2883f765bc8U, 0xbf8fd8533f86a78cU,
    0xbf0ffc79bc999414U, 0xbf2e58a0be98b5b9U, 0xbecba8303f931b50U, 0xbe656f25be054302U,
    0x3f23b0d3bf159dbcU, 0xbf9429a2bf25cf3aU, 0x3f68e4b33d3676faU, 0xbe911b4abed83bbeU,
    0xbece4d723f5b7ab2U, 0x3d5a38283f814686U, 0x3d8b02c6bdd65889U, 0x3f38ef573f68d171U,
    0xbee39c3b3f2da2f3U, 0x3f8326c6bf78dcbdU, 0xbe8e97d8bdb4d225U, 0x3df903ecbe22f672U,
    0xbd4b7da5bee8f9c7U, 0x3e0234683e866711U, 0xbe6d9398bd3b905cU, 0xbc2ecdb5be9bb1e5U,
    0xbde9cf273e82ace6U, 0x3d75fcf9bdc51ff6U, 0x3e5e41663dc69699U, 0x3e86f34a3e51d0d4U,
    0xbe6667db3cf2904dU, 0x3e5b7a17be9f7e51U, 0xbe80a79ebe9a6abcU, 0xbe9528533d93753cU,
    0xbd0ab542be4bca72U, 0xbe4dd2c83e152411U, 0xbe8847563d90b91aU, 0x3dae4442be5a7f6eU,
    0x3e9eb1e93e24f93fU, 0xbeb1f29dbe670010U, 0x3e47859ebd12fddbU, 0xbd87f2b83d7889d9U,
    0xbdf5a675bde7cd3fU, 0xbd3b7dcdbe261543U, 0x3e17f6a9be4380d4U, 0xbda535a7bd2c440fU,
    0xbe517b3ebde3c1b7U, 0xbe618f22bde57221U, 0x3e3b123e3e1d46e9U, 0x3ecd84383ed9b1b6U,
    0x3dfc738e3b517864U, 0x3e929293bebc03e1U, 0xbe7198eebe8ea0d8U, 0xbd5f32383ed9684aU,
    0xbe225705bdd9c7c3U, 0xbde6f2b5bf046cddU, 0xbc73bf703d6d0c36U, 0xbecff9173e98d924U,
    0x3d4566753eadfde1U, 0xbe0986153f02d27cU, 0xbd6d6d48be902091U, 0xbeac8b0c3d8dc521U,
    0x3e3f31463e436295U, 0x3ea925ab3e6cc21eU, 0xbec02ef3be22cc16U, 0xbe65130bbe5eb4bfU,
    0x3d85c58f3d79d07bU, 0x3e382fac3d3b4130U, 0xbe6cbc88be96be65U, 0x3e88036d3e6d9a9eU,
    0x3ee9b6923c2aa47aU, 0xba7280243eb95bebU, 0x3c8dfee8be7a72b3U, 0x3e6bf0863eef093dU,
    0x3d7223ac3bdb240cU, 0xbea84d603e2dc150U, 0x3e6618d63da4f97eU, 0xbe0131b83e5c8f15U,
    0x3eb39d263e8fdd8aU, 0x3e210e70be8a0b39U, 0x3e4280513bf7ccacU, 0x3e8900503ed35ef1U,
    0xbe5fad1c3d5250d2U, 0x3eb57e40bc031daeU, 0x3e066582beac69dbU, 0xbe00ea19be965edaU,
    0xbe57a36a3e47c1abU, 0xbde03cefbe824c20U, 0xbe84bb363dd42ef4U, 0x3e96b0d3bd4f0846U,
    0xbd64891b3e9a2dfdU, 0xbdbc3b3fbe685805U, 0xbc56b07ebe30048bU, 0xbcef81cfbe75309aU,
    0xbcd15f8dbe9c25b5U, 0x3df560bfbdd551fdU, 0xbe0428623e995bd1U, 0x3d972bb2be964412U,
    0xbd6dfb4bbdec92fbU, 0x3ea5ea903e757169U, 0x3b1a07ecbe04c4ceU, 0x3db795973e4b3014U,
    0xbed81cdebe6c1ee7U, 0x3e1e0276be47fcbaU, 0x3e39089dbdcfd8ceU, 0x3e713420bdf4d1f0U,
    0x3db6c8a1bda5a8a6U, 0x3eb3ff5a3d49d550U, 0x3e573bbbbdebfb88U, 0xbd92b7b83dfd228cU,
    0xbd1e594fbe098024U, 0x3e67c35ebe250594U, 0x3e4b2ccb3e930f2fU, 0x3dc4abfe3dd1d02eU,
    0x3e3fca0b3e1b8936U, 0x3e1e436b3e92c28eU, 0x3d47c29f3dc7338bU, 0xbdf3b1ad3e2c4852U,
    0x3d8b772bbe38fa9bU, 0xbc03488b3e7d3c8bU, 0xbe05ee2b3cb49bb8U, 0xbeab1943bde6711bU,
    0xbe8263fcbe517ab3U, 0xbd288513be48f772U, 0xbe54be4bbe9b5586U, 0x3e854a5d3e106e4cU,
    0xbed73286bdc86f81U, 0xbe50b1443e647e78U, 0xbde236273b169557U, 0xbdf7295bbdb100b6U,
    0x3d2319d1bdc3d364U, 0xbe338daf3e7ee32cU, 0xbd7a3d93be09e8deU, 0x3e16f2f8be8f94a0U,
    0x3d059b073daf018bU, 0x3e9c5a71be02bb9dU, 0xbc21933f3e02362cU, 0xbdc19a87be859da7U,
    0x3e41936a3e8c03bdU, 0xbc8b040b3e8332e8U, 0xbe8879debe74b82aU, 0x3e7c7553be7cd473U,
    0x3e54c10e3df2d6ddU, 0xbdbd7d2c3d90bdd8U, 0x3c28c74d3e86baddU, 0xbe3ae744be747d54U,
    0x3e7d68c63e9b3c21U, 0xbe8a70a93eeb11f0U, 0xbdf13bb4be40684aU, 0x3e7a05103e8a5378U,
    0xbe8e2c9cbe45881eU, 0xbe03e344be52b6b9U, 0xbd66dea1beca5216U, 0x3e267e4c3dc92d2fU,
    0x3c9b8edc3e12b5c6U, 0xbe79ac11be65ab9fU, 0xbddfdd7bbe837eeeU, 0xbe359c4c3d6a48f2U,
    0xbdc81098be25fa1aU, 0xbc56270b3dda0aebU, 0x3e1839643e8d02acU, 0x3dadd103bd2a52edU,
    0x3e0108fb3e1cd301U, 0xbea1d324be5370bdU, 0xbe8eef3bbdcab368U, 0xbd33f76f3e4d3309U,
    0xba2ac9b7be8422e3U, 0x3eabcd3d3d48b2a1U, 0xbe4dd4803e0fa461U, 0x3dfccf413bc4b0e6U,
    0x3ec4030f3e792bd4U, 0xbc75e9bdbdff9a7cU, 0xbe8a883b3e65ecbeU, 0xbdb17fdbbdf88667U,
    0xbe503a373d3b60d8U, 0x3ec11b1dbe185251U, 0xbe8278cc3e84ba46U, 0x3dac92623df8511bU,
    0x3e7066cbbd882aafU, 0xbe6d0e593d6ef0c9U, 0xbe02541dbe64a71cU, 0x3db5d3e93da0e365U,
    0x3e33489fbe373cd4U, 0xbe0130243dfef459U, 0x3e0401723d0ac07cU, 0x3ea229673d61ed31U,
    0xbda6970abe344ba8U, 0x3d04577abe0c3664U, 0xbe3769b53dfa0d8fU, 0x3e2bb2463e3bb5daU,
    0xbe9db7f43e688cd3U, 0x3e1141e9bc829551U, 0xbe1512f4bde280daU, 0x3e7cea1ebe08de61U,
    0x3e1bfaa03dd422e6U, 0x3ea3f25f3c937727U, 0x3df28f73bddc2ecfU, 0x3da26a6ebe19fb24U,
    0x3e0fa676bd88b843U, 0x3e9caff4bd7071ccU, 0xbe39d4afbeb355c4U, 0xbe2513cdbebf2016U,
    0xbd538d963ccce7e4U, 0xbe8a2f4e3eb51982U, 0x3d91bd94bd8b2cf2U, 0x3e0f79253da3535fU,
    0x3e0cb0d83cfe81cfU, 0x3e22527dbe726750U, 0x3e12ec9d3e9aaca6U, 0xbea2348bbdf07242U,
    0xbe8665c93e6be43dU, 0x3e1405bb3db0363bU, 0x3edf4575be0f6e7bU, 0xbebfc46d3ea08e3cU,
    0xbe0706a3be086bdfU, 0xbe52faed3ea8f049U, 0xbe7fb9363e67b175U, 0x3dd39536beb6b54cU,
    0x3e8e35fbbd1396c9U, 0x3d9c19c53e9b848bU, 0x3c56f9a6bd89858eU, 0x3e0c78663e4348e0U,
    0x3e3b32fa3eb98914U, 0xbc9154bfbcba0678U, 0xbdecc895bdbe8160U, 0x3d28ed15be06846dU,
    0x3ecb8da13c947641U, 0xba1406b03d72c285U, 0x3e4019c73b7735fdU, 0xbd2988813ea70cefU,
    0x3ecd59883e562427U, 0x3ea4c6ad3dc18e3fU, 0xbcf4ae0dbda3d7e0U, 0xbea70b4b3e3a8711U,
    0x3ebd7dd8be7aa48aU, 0x3ead5dbcbed50abaU, 0x3e21fffa3ea1a073U, 0x3eaab1f33ea0bfdeU,
    0xbe2da9613d75b9d5U, 0xbea67b4d3ea46229U, 0x3c8829fd3e5e5f41U, 0x3d531a78bd001e8dU,
    0x3d3f2c173db29146U, 0x3ca861fa3eb13387U, 0x3ec744b4be0f9c86U, 0x3e2455ecbed22daeU,
    0x3d836de3be88a8d5U, 0x3e25eee63d01b894U, 0xbeb7c53cbdfcf77bU, 0xbd27ffd53e35d7f4U,
    0x3f02ce98bea72d30U, 0x3e9fb7463e325536U, 0xbda586e23e3fead5U, 0x3da03740bd2a8268U,
    0xbe9722c53d8e3638U, 0xbe2455333e45af50U, 0xbe71df063d9e8cdeU, 0xb9ba2a523e06510cU,
    0xbd27ef87be2bcd4bU, 0xbcdfbc33bb156a77U, 0xbe0cc45e3e136150U, 0xbd6e21a23e10a4d7U,
    0x3e031c913d236567U, 0x3db8b367bd2ff240U, 0x3e9e9f66bc77b01aU, 0x3cfceaf73dae8233U,
    0xbdb6d3653d380a40U, 0x3e341979bd3a3943U, 0xbdd2dc8e3e621cccU, 0x3e2afed5bdf847f0U,
    0xbda891bbbdc85060U, 0xbdff0f043d87cbddU, 0xbdd0b15cbdc891c1U, 0x3e880a593e11017fU,
    0xbc4db34b3dbcfa23U, 0xbc589bbd3b539cf0U, 0xbdd83df7bd8e78f3U, 0xbdc8cc9ebd65a030U,
    0x3e4ed8313e46ee28U, 0xbd1347b83e89033fU, 0xbde81029bcd0a466U, 0xbc60b86d3e12b195U,
    0xbe62a89c3db04f06U, 0x3e2a7ff7be8d173eU, 0xbe82feec3da1c4aeU, 0xbe5c50483e559e9fU,
    0xbe88ab873e1c4bacU, 0x3d34bf11bdde3350U, 0x3e2358123e32a850U, 0xbe2ad9523db9936bU,
    0x3a953020bd8d7626U, 0x3d581884bde97988U, 0xbe7b3e1d3e4ba265U, 0xbddb56473e979d94U,
    0x3ba1fa01be66d963U, 0x3e52cd94bda6b186U, 0x3d58f2703d76a9a5U, 0xbdc98efe3d1620b5U,
    0xbc95b6983db41b9bU, 0x3e59d8463e15f881U, 0x3e838e3fbdfcfed0U, 0x3e3a60923d7fa51fU,
    0x3e9c24cb3dd94937U, 0xbe9447b0be820319U, 0xbe9407a9be1ed3bfU, 0xbc6a854b3e434f38U,
    0xbe4160d63e6503a3U, 0x3e85d799be945f45U, 0x3e2405e6be15e1a8U, 0x3c1540c2bd8987b7U,
    0x3c151434bd552211U, 0x3dc003553e73fc23U, 0x3e439a1fbe10a6e5U, 0xbd95bac23e89b248U,
    0xbe8d64bc3dbe8545U, 0xbdc10757be9025b3U, 0xbe964bb13e0ffa9aU, 0xbea5e2e53e3af8bbU,
    0xbd8df6febe556521U, 0x3d45929abd67ff68U, 0x3dd41ba03c591813U, 0xbe1f088d3e3019cbU,
    0xbe1881b3bd93e7e6U, 0x3da4ac833e71c327U, 0x3e4e59a73d7eb228U, 0xbdcac609bd4845c3U,
    0x3db17405be24d7a9U, 0x3e88c55b3e015ad2U, 0x3e5d000bbd7b0092U, 0x3d4295eb3e51f181U,
    0xbc9fe4ac3e6c674dU, 0x3d5f57e53d1f5d57U, 0x3dfce4b33c92c566U, 0xbe58dac7bcbcc25aU,
    0xbe0dae48be96774aU, 0x3e3bbaf83d6dbbfdU, 0xbe1a0f89be01ac9cU, 0x3ce2a3293e309205U,
    0xbe673e0a3dac5d75U, 0x3e00af513e9d5895U, 0xbe017fa33d6e5c7bU, 0xbd6f2133be39e13cU,
    0x3e7244a63e938d36U, 0xbd411ff33e58237dU, 0x3e10c117be382a99U, 0x3e65ed603d8a1d88U,
    0x3db182aa3e104dfaU, 0xbdb86ef7be2f843cU, 0xbe85a3c7be245b70U, 0xbe01124dbb2e1a7aU,
    0x3e418261be154f7cU, 0xbe2c16d63ca019a3U, 0xbce59791be88c68cU, 0xbe39b6e73e7f55e3U,
    0x3e3c29fe3e5cb771U, 0x3d40ed1e3debf5ccU, 0x3e0191f3be2b9b9dU, 0xbe2d4a31bea66e4aU,
    0x3e5be3523d64817cU, 0x3e983acfbe42e7b1U, 0x3e5266e6bdc64b10U, 0xbe23bc05bdbf96dbU,
    0xbe0d73eb3e3a2710U, 0x3e2e4802be635245U, 0x3e190276bdb5eec1U, 0xbe7016f73e4829e8U,
    0x3e2f62933e2684c7U, 0x3dbf1eb83e9394fbU, 0x3d7d548c3eb006b4U, 0x3e7b0760be550febU,
    0xbde1456f3c745c80U, 0x3d81eb29beaf2d00U, 0xbe0f2d12bdcac6e3U, 0x3dfa21de3e715af5U,
    0x3e53472ebe326ceeU, 0x3e21bd163c32790aU, 0xbdc76f3abe47e218U, 0xbdc6627bbd8ef5baU,
    0xbe04e2203ea0c281U, 0x3e155d31bd93e246U, 0xbd67ab053e8c2d3fU, 0xbdce4a0e3e2b2fffU,
    0x3d6558b13e7c655bU, 0xbec68abb3e0d32d0U, 0xbde8eb4a3e9c0ad1U, 0xbe49217ebea23ca7U,
    0xbdf5464e3e49b161U, 0xbd7c5d5c3d03d82fU, 0xbd1a5a64bd3ab8eaU, 0xbe810895be966311U,
    0x3e5ce8c7bd8b71ceU, 0x3dad169a3e044b4bU, 0x3e9767acbbe0e36bU, 0x3e009c31be9e8619U,
    0xbe38780bbdf29a0dU, 0xbe1d6605be4ce3b8U, 0xbea51bfc3dc2e88eU, 0x3e406b71be173adeU,
    0x3e093d343e8c6b44U, 0xbd8a6ece3e095188U, 0x3e9d9a01bd1b1e66U, 0xbc8c237a3d168568U,
    0xbc6c2b09be4e55d0U, 0xbe85e3f4be7d78a7U, 0xbe29e2a1baf6928aU, 0x3e5b0dca3d4f564dU,
    0x3e8bd4253e335a18U, 0xbd2f2a5b3de17738U, 0xbd541f26be30edffU, 0xbd82a8d23e80f906U,
    0x3e68c4eebddcfae1U, 0xbdc99262be1eff3cU, 0x3e4c7e3fbdcdf247U, 0x3e0228b03d7e3425U,
    0xbdebc224be13f379U, 0x3e648f2f3d66662dU, 0x3ca93bddbd4a4569U, 0xbe855fcc3e95c379U,
    0xbdbc8a73be82ed3bU, 0xbdea4e06bc95ca5fU, 0x3e63e49a3da7eb8eU, 0x3eac64cfbd5c208bU,
    0x3e81c85abe0cd880U, 0xbec4a818be17f988U, 0xbe3baeb23c8d6ebcU, 0x3e7c55023e43669cU,
    0xbcf3923b3e825b51U, 0xbe1893ac3eb90f37U, 0x3c9ad25abea5ec0bU, 0xbd30a83a3cc9832cU,
    0x3e9201703e59421eU, 0xbef25db93ebfbad1U, 0x3e44743cbe4777fdU, 0xbe35a21b3eaba281U,
    0xbe9662ac3d1143fcU, 0x3d6724783ec59eddU, 0xbea970363eb559baU, 0xbc928a9e3d04a8c1U,
    0x3ec6e40d3ccf98f1U, 0x3e9752b9bd474b50U, 0xbe99cd57be2c74acU, 0x3eb59a063d03ec94U,
    0x3d54a7b53d529d0cU, 0x3eaafb063e260074U, 0x3db7fa953de41907U, 0xbe3eb32abee1577aU,
    0x3ea7657ebe426252U, 0xbe93f6ab3e7b00e6U, 0xbeb6cbbe3cc619d6U, 0xbe7eb4d9bd99bbb2U,
    0xbe8f41df3de70f4bU, 0x3e0f65c0be3ea9efU, 0x3e76f9373e4f859bU, 0xbe82cf293d803f72U,
    0x3dfa7a46bdcb1352U, 0xbde097573e2da9e6U, 0xbbe8e7c0be8be937U, 0xbef9632a3e4f5540U,
    0xbe9fc6643dc25432U, 0x3e2832dbbe891e40U, 0xbe1889cf3e8a104fU, 0xbe7ca9923e93b5e8U,
    0xbe287267be03d557U, 0x3dad765ebef76655U, 0xbcb90f363e18849aU, 0x3d13029fbc943c4fU,
    0xbd9f54a83d419211U, 0x3db61ceebe477cf6U, 0xbcadb367bdb04b89U, 0xbe1946a4be927cfaU,
    0x3e34cf5fbea208bfU, 0xbd8555a0bd689245U, 0x3eb5bed1be80535eU, 0x3eac576b3eab3059U,
    0xbe19b749bd2a2a64U, 0xbe47e29fbe03061aU, 0xbecf3d223ea01fdcU, 0x3dea4909be12c624U,
    0x3bceb00abe36e5cfU, 0xbe9dbc2dbcd5365aU, 0x3da3e3d93e2dd2eaU, 0x3d582b693e8ce69cU,
    0xbe7623e93c8e8f9dU, 0xbdf6c84cbdb95569U, 0xbdd48f783e8c56e8U, 0xbde70108bd91374bU,
    0xbd7e8304be39eed8U, 0x3e047c583ec50b3bU, 0x3debe7623cf25eb6U, 0x3e900e83be00ac92U,
    0xbd4aab62bc78fb0cU, 0xbba477613e148ac1U, 0xbd066cd7bd54e0edU, 0xbe8e06e6bbcbbe1aU,
    0x3e0c8931bdd60b0cU, 0x3e421a79bc55ca34U, 0x3e77a738bdb03c90U, 0xbe34c8e73e4eda72U,
    0xbdfc4c643dc04086U, 0x3d70d391be9a2cb2U, 0x3ddba8a73e12090bU, 0x3d8bb6523e9f91f5U,
    0x3dba643c3db789d3U, 0x3ea989f7beced0eaU, 0x3ebeb865be495480U, 0xbdaa19c5bea5f920U,
    0x3e6bfa87be90fd32U, 0xbdd7fbd33e844a46U, 0xbde178adbcc85a40U, 0xbc3329833ce3ad97U,
    0x3e111bc13e13ef6dU, 0xbd5a836d3e1de0deU, 0xbd18d98cbdf64cf9U, 0xbe2d6024bd84a2f5U,
    0x3eae546a3e0633d3U, 0x3d5f8b7d3e8a4122U, 0xbe55e2823e1357baU, 0xbe78663f3e80b3faU,
    0x3d128a4e3dca4a41U, 0x3eb3dc04be001305U, 0xbe0fa1f73ea30893U, 0x3da568e6bc139740U,
    0x3e8f5de9be33fdf6U, 0xbe287f58be6817e9U, 0x3db805debe5b1911U, 0xbe0652a4be5fcc1eU,
    0xbea927cb3dfd89f8U, 0xbdd599a6be2255f9U, 0x3e3100a1bd4f1217U, 0xbd918b7a3d2bfc47U,
    0xbe5164ae3df3d83aU, 0x3e38a1ffbe514c6dU, 0x3cc3f3de3e7be369U, 0xbe18646c3e27c8f5U,
    0x3ee5a11e3e5c83d1U, 0xbcaa16973d938de3U, 0xbdf5f5973cd1625bU, 0x3dca01acbc44e87bU,
    0xbda171793ddabb79U, 0x3e053ce2bdb47e07U, 0xbc7215b63ded1572U, 0xbe2015a73e878973U,
    0xbe65cb803d90cfa2U, 0xbeabd07cbe38c442U, 0x3e3d391d3e8e28b6U, 0xbe285bb83d602bd3U,
    0xbdc3e995be3afef1U, 0x3d1b182fbe213ec4U, 0x3e712617be7ed92aU, 0xbe4e53b73e250543U,
    0x3daf4911be6656aaU, 0xbe00bfecbd5b9808U, 0xbe264fbc3e47c2e8U, 0xbe5cc40fbd849532U,
    0xbe120966bdc6230bU, 0xbdd6877a3dc2334cU, 0xbe411afa3e2625bfU, 0x3e24e4a7be99cb87U,
    0xbe5627583d74e1b6U, 0x3e9efd223e74252eU, 0x3d234097bd44114fU, 0xbe42333e3c45dd07U,
    0x3ec3decabe7dd60cU, 0xbdcd53813e6836fbU, 0xbd87295b3ea5397fU, 0xbc93c2e4bddcdbe7U,
    0x3e957cb33e6cc004U, 0x3bc93c4cbebd8bcbU, 0x3e6f5c6d3e2904dfU, 0xbd1225c9be1c378aU,
    0xbe6fde94be8bc9fdU, 0xbe936caa3e1978f7U, 0xbd8f66553dcbbaddU, 0x3eadc8a2bc722fedU,
    0xbe989cd83e630786U, 0x3dedd282be07a969U, 0xbe700c47bbce07eeU, 0xbe0291293e8531afU,
    0x3e7ded1c3e997091U, 0xbe110cb4be583d73U, 0x3e7c90d5be82f523U, 0x3da93549bdad741bU,
    0x3b84f013be9ede72U, 0x3d2366febd9db683U, 0xbdc71c5b3d2f5da2U, 0x3d3e6348bea522f5U,
    0xbe0efe81bdedd1b4U, 0xbe37b2e6be58386aU, 0x3b5b6e44be9c066aU, 0x3df91491be800730U,
    0xbe2922a2be318ff7U, 0xbdd7326e3dac4a70U, 0xbe74ce713e102506U, 0xbda5d5e9be6451e8U,
    0xbe371544bd0201f7U, 0x3eba54b03da38143U, 0x3e9065f43e8f3a41U, 0xbddcf9c53e0dcee2U,
    0x3da912c53e8e7fddU, 0xbb88cba53e5fec6fU, 0x3c9b31603e27c5e6U, 0x3dffb6943d68c205U,
    0xbe8c24663e247359U, 0xbb638f38be329281U, 0xbe3a4f6bbda9453dU, 0x3e24da4dbe756890U,
    0xbe66e62fbec4c4a9U, 0xbb195e8fbe378315U, 0x3d76151f3d7866efU, 0xbe2b514bbeaca7e4U,
    0x3e34394b3c2fc61cU, 0x3e86c6dcbd17f5bdU, 0xbe901b9b3d6f2d12U, 0x3e563b1cbe6af1c8U,
    0xbdb6ccd8be6e3d52U, 0xbe0f62873e5c3d50U, 0xbe4f5dfc3d232660U, 0x3d14e3f0be2573efU,
    0x3d6d4c18bbee0a97U, 0x3e7699e23e09b1c9U, 0x3d8cb661be3868d2U, 0xbd9cfd5bbeac33d4U,
    0xbd5e6ce9bd8f4962U, 0xbd9f65283cb9968bU, 0x3e559bbb3bec6a87U, 0xbc9cea49be5ddaccU,
    0x3daeb2453ddebf3dU, 0xbe6d6d113e331cecU, 0xbd4c295fbe1cb7bcU, 0xbeac5e31be48f597U,
    0x3dabdc2cbd6b9f9eU, 0xbd7b3046be24bf1fU, 0x3ddd0bdb3e9a5025U, 0xbdbce9353e08a19aU,
    0xbe21f45b3e9fdbf5U, 0xbeb8fecd3cfcb932U, 0xbe973a64bdc94a83U, 0xbe574218bd8b07c7U,
    0xbe88032abe4e6434U, 0xbe753f45beb3124eU, 0xbe6201f33e213896U, 0x3c537c13bd850393U,
    0x3cd5bd183ebace70U, 0xbe412b053cac5345U, 0xbed764d7be045d54U, 0xbd9308aa3e3e58d8U,
    0x3dbce1a4be97d49cU, 0xbe540a04bd6c2fadU, 0xbe8b0ee93e7de06bU, 0x3dfa9d633e084fd3U,
    0xbe7c4a1fbd7158c4U, 0x3d220382be71007aU, 0xbe38597a3e1635e8U, 0x3e3e1a623ddd2698U,
    0x3e9a1ff5bd8c713bU, 0x3cf152adbd0ed5deU, 0xbd268471be4f0507U, 0x3df7d8403ea3edabU,
    0x3ce6cfde3db86965U, 0xbdfa7ea0be2ce3c3U, 0xbe10e55bbe246503U, 0xbdb4271f3d4f0e4fU,
    0xbdb6a32dbde168f2U, 0x3e4c3c78bda3e1fcU, 0x3e6135b43e0e4237U, 0xbe1b90f03e78151cU,
    0x3e33670cbd5381b9U, 0xbd5047f23e335b68U, 0x3e5f0feebe18fd11U, 0xbccb393bbe65ae1bU,
    0xbe48820dbe04b1a1U, 0xbd59367bbe920ec9U, 0xbd0cf9f83e03b651U, 0x3d335e21be534c2aU,
    0x3d9386633e3f9deaU, 0x3d253d60bd315727U, 0xbd992e7dbe2fc527U, 0x3e34a4773d77d40aU,
    0xbd687991bdd4e5c4U, 0xbcabc90dbe211453U, 0xbdebbd9c3d3f9b81U, 0x3d3889eabd41e688U,
    0x3e64b7c4be083724U, 0xbd4297273eb444deU, 0x3e1c16183e5b5009U, 0xbe115779bde655f2U,
    0xbe064b14be9763adU, 0x3cf6234f3dafa0f5U, 0xbe87f2ff3e945d39U, 0x3d99453bbdbebdc5U,
    0xbd6d395b3e412a01U, 0x3cdb970cbe2c4893U, 0xbe7fb4703e013c8fU, 0x3e3bda7f3c9650aaU,
    0xbe2793aabe8749d9U, 0xbe25b42e3c72cc1cU, 0x3f00f792be137375U, 0x39f2448bbeb618c0U,
    0xbdc0b0a2be1d3af1U, 0x3dea3a093e7a2537U, 0xbcdf60fbbd803f99U, 0xbd78c8d2bed9b884U,
    0xbd413f313d05af65U, 0x3e3d7392bcbf87a6U, 0xbe27d1f7bd95e57eU, 0x3e2fabc63cefe444U,
    0xbb40faf33ed1f984U, 0x3df55a543cde384aU, 0x3ce043b93de5bef1U, 0xbe2a8d15bcb41251U,
    0x3e146c0a3e9f5096U, 0x3da7e9dbbec9edb2U, 0xbd3684e53e9853adU, 0xbe3750c4bee9f817U,
    0x3e2511f23e5e383eU, 0xbd33ac273ea818d7U, 0xbd00ed1ebd593e81U, 0xbe1211133e77c9e0U,
    0xbe3e7fb93d53e77aU, 0xbcb9b9803e4feebfU, 0x3e7a59fc3ea94674U, 0x3ecd769c3c9fc97fU,
    0x3ea873e13e57dc48U, 0xbe9176073e1e21bdU, 0xbe39209d3da2f84aU, 0xbeae7cccbe8c0dadU,
    0x3ea2d243be9692ffU, 0x3e78611fbcb96a45U, 0x3e4506cb3e9d0eb1U, 0x3e88c6123e8388ebU,
    0xbe6b21683e137d70U, 0xbe20cc22be6e702aU, 0xbe95871b3ccc00dcU, 0x3e12ff8dbe2d8762U,
    0x3dd285df3e00fad8U, 0x3d320d1cbe0606bcU, 0xbecd1193be8793c1U, 0xbdf987adbe5fb8bbU,
    0x3e1d71cf3df5eed6U, 0xbe2b7f4fbd9efde8U, 0xbbdc09a6bee5e1f8U, 0xbcc91fbebe7a283fU,
    0xbda0d91f3e0b2306U, 0xbd05bf1bbde82375U, 0xbd8bca2bbdba1841U, 0xbc7c5b9a3b0491c2U,
    0xbf62bbfb3f6e9df2U, 0x3f14c407be7ebcd7U, 0xbe41863c3d9ad582U, 0xbeeb3bc9bfde1041U,
    0xbe5b5098bd331ae7U, 0x3e91f67abf263134U, 0x3f42e6c8bf0eaef3U, 0xbdaa48bdbe904249U,
    0x3f669f4f3de0ae3cU, 0x3e83b3f03f9f79e3U, 0x3ea777aebe10e58aU, 0x3dd3104b3da4c352U,
    0xbe2e98493e3747fdU, 0x3d8094d93e01172bU, 0xbeaf5eb3be96e670U, 0xbe87d162beb509a8U,
    0xbe15e3663e40a872U, 0xbe359fc53e802c6cU, 0x3e6922aa3e258612U, 0xbdc8ba6a3df32109U,
    0xbde7c607bdccbb2eU, 0xbec00bc83d054242U, 0x3e262255bcf2f97bU, 0xbe638e46bde5fccaU,
    0xbe74f8623e1abed1U, 0x3d3dd84d3d8056f6U, 0x3c4e6d18be5fe5e8U, 0x3d477959bea0c70eU,
    0xbd8b9491bd9b9e88U, 0xbee91f763de3901cU, 0x3dcb2b4c3dfb8945U, 0xbe5e781fbe27104cU,
    0x3e1d0e37bdf87c30U, 0xbea17905bcbb21b3U, 0x3ed287393d813e51U, 0x3ef32c273cf48474U,
    0x3eb7f741be034941U, 0x3dde26ae3e42ac1bU, 0xbdbbaae2be2aa4b1U, 0xbe8148443dcae28aU,
    0xbe3c93fa3e9e6cd3U, 0xbdd2dddebe814160U, 0xbcabd838bc4eac64U, 0xbdc4544e3eabfa60U,
    0x3d88b62cbe5fceb6U, 0x3e6b11793df8342aU, 0xbd01cf633de6a2dfU, 0x3df436a83db4ff74U,
    0xbc9530ee3e36a63dU, 0x3e3e02c23e92ed43U, 0xbdf411bbbcd31b7cU, 0xbe5f22ebbe67f2f0U,
    0x3e991eb43e1fa1dbU, 0xbda282cfbc244c77U, 0x3db0cbf03e880cd8U, 0xbd845c533d4f284fU,
    0x3e2ced00bc00028aU, 0x3e9b046fbe5912f5U, 0x3ecc4845be425eb0U, 0xbe0cc685bdcc7fcfU,
    0x3e23bcd33ea336ecU, 0x3e2a708abe0ee4deU, 0x3e49cdcbbe852519U, 0xbe9b17a23da7906dU,
