/**
  ******************************************************************************
  * @file    mobilenet_horse_fp32_data_params.c
  * @author  AST Embedded Analytics Research Platform
  * @date    2026-04-11T13:37:14+0200
  * @brief   AI Tool Automatic Code Generator for Embedded NN computing
  ******************************************************************************
  * Copyright (c) 2026 STMicroelectronics.
  * All rights reserved.
  *
  * This software is licensed under terms that can be found in the LICENSE file
  * in the root directory of this software component.
  * If no LICENSE file comes with this software, it is provided AS-IS.
  ******************************************************************************
  */

#include "mobilenet_horse_fp32_data_params.h"


/**  Activations Section  ****************************************************/
ai_handle g_mobilenet_horse_fp32_activations_table[1 + 2] = {
  AI_HANDLE_PTR(AI_MAGIC_MARKER),
  AI_HANDLE_PTR(NULL),
  AI_HANDLE_PTR(AI_MAGIC_MARKER),
};




/**  Weights Section  ********************************************************/
AI_ALIGNED(32)
const ai_u64 s_mobilenet_horse_fp32_weights_array_u64[10908] = {
  0xbf3f0c22beb78ecaU, 0xbf0a679bbf7337ebU, 0xbf2b0d47bf8081acU, 0xbf25b1733f3f865eU,
  0x3f9d73e13ef00b55U, 0xbf3f995d3f041baaU, 0x3ee722213e0d84d7U, 0xbeff2e303fcbe85cU,
  0x3f5b82723e842f1fU, 0x3f072dcf3e1ad636U, 0xbf6ff893bf8fbbddU, 0xbf94440f3e208552U,
  0xbf8f0d16bcd65a93U, 0xbef9d4633e8f5d10U, 0xbf39043abe94e57cU, 0x3e6fdf6fbf82fdfdU,
  0xbfa0f147be788f52U, 0xbf1c8ef03ebfdcb2U, 0xbed8e6b84007c43fU, 0xbf395121c00d7d3bU,
  0x3fc130e83f34cb22U, 0xc014c5c83f03c3d4U, 0xbf44d8fabfc5a271U, 0xbeb322d2bf55750aU,
  0xbe322adabf531d9cU, 0x3ef2a7c0bea54fc5U, 0xbf1207f8bda49b67U, 0x3fb4f0623ff91c97U,
  0x3dfe20a13f53de90U, 0xbf08e9413f8468d3U, 0x3efbc563be7988d9U, 0x3ed87068bf181c08U,
  0x3f4806b93e88365aU, 0x3f8d4d523e85bf0fU, 0xbf2145823f9c8a0aU, 0x3c4b1abf3ecb9deeU,
  0xc04744db402acec6U, 0x3fd09f933fef35a8U, 0x3ecaebc3bf1ab44cU, 0xbe6bf63b3f200fc8U,
  0x3fa64cd53da02375U, 0x3fb4bd9cbc489c9cU, 0x3fade4edbf6215e0U, 0x3e12caf73f9682eaU,
  0x3d426eadbe37c175U, 0x3f387c95beb3ccdfU, 0x3fa953f5bf66cbd2U, 0x3f1600073f3e0afcU,
  0x3f994c623f7af46aU, 0x3ff9995bbe369aa0U, 0x3fd793d9bfdac7bfU, 0x3fa5d15d4002b990U,
  0xc00b70ef3fe95d47U, 0xbfc5933fbfe730dfU, 0xbffdb260c008ce17U, 0xbf8254933fa225b3U,
  0x3fafcf7bbfcae472U, 0x3f5885abbf6a3350U, 0xbf1fef403f9071d8U, 0xbefe7db0bdb88fecU,
  0x3f25c4d13f44fdc8U, 0x3e9f3c48be9b616fU, 0xbd8b5877bf1cc7feU, 0x3f4789b33f27bd8fU,
  0x3f953c253fc05e5aU, 0x3ed129f6bf46a0ebU, 0xbf47d57dbee22366U, 0xbfaa7a2d3e94b2e5U,
  0xbfb7b33ebf037109U, 0x3e533ab73f2e75a9U, 0x400cf0503fcd408bU, 0xbfd4105fbf2ab688U,
  0x3f197809beeb4c58U, 0x3e68423d3e9a4800U, 0x3f0d21633e8204d9U, 0x3f190ab43f2a73c6U,
  0xbe5107713eba2984U, 0xc01e0a87bf6c6b26U, 0xbf1b4fc23fc87eb6U, 0xbf9f4aa2bf1c5972U,
  0x3f4dd7be40042a64U, 0x3f2a0c93bf1a5d58U, 0xbfa7d2353d2659aaU, 0xbd39b1be3e7b5c25U,
  0xbf5717033f93f553U, 0x3e4c7fd140012241U, 0x3fb7a957bea7a9e3U, 0x3f6602453edfb942U,
  0xbf885ff3bef9a33eU, 0x3e19b9263f6f9f82U, 0xbfaa157ebf602914U, 0x3d7d9dc83dcaccc3U,
  0xbf11133bbecdb2f1U, 0xbf2076013dbb341bU, 0xbe599d313edf18dcU, 0x3e73d828bf48faa6U,
  0xbd7f504dbf3b951cU, 0x3eaf59233eaa47b8U, 0xbeba51aabea6c4f3U, 0xbf2f4f86bf0206afU,
  0x3e93f7d73d711973U, 0xbeb54d65bf31e1eaU, 0xbeb8a3de3ec79f3eU, 0xbf0596d3bd115b80U,
  0x3b659740bf217cd3U, 0x3e6038e4bf1dbec8U, 0xbf211648bef38843U, 0xbec07f583ea34e7cU,
  0x3f22b753bd678141U, 0x3f51380a3f43f838U, 0xbe47316e3f42790aU, 0x3e1e70b8bf0343f1U,
  0x3f115d72bd454c42U, 0x3f5a02d73f4766f2U, 0xbe213a99bf4653a4U, 0x3f39d2ccbdb31062U,
  0x3dfadbfe3e80e5a8U, 0xbe73b5e3beeae02cU, 0xbe94c91dbedc9eadU, 0xbe83408b3eed3060U,
  0xbf22b63abe757b67U, 0x3f33862cbf5773d8U, 0xbed435dcbf178082U, 0x3d806d973a090f76U,
  0xbf03f872bf31960fU, 0x3e78d5663e56bdf5U, 0x3d7050efbf0f1a53U, 0xbed4ef26bea8354bU,
  0xbe15e8d53eb03330U, 0x3f3776963f1c17e6U, 0xbe899ea3bf28db1cU, 0xbeb8252fbef02f0eU,
  0x3e6031ba3eb1152aU, 0xbe8d8acc3e6ad7d9U, 0xbeaa1cc8beb92189U, 0xbec40e993f08afeaU,
  0xbe7585513f1536f1U, 0xbf0645f9bf2714b9U, 0x3f36c4803f00b663U, 0x3c3aee203ea42976U,
  0xbe87009f3e91af1bU, 0xbeace1f6befd8804U, 0xbe505f11bf032a82U, 0x3f30d4a0bee10758U,
  0xbe09f9ccbe4c23b9U, 0xbf6b240e3e39f338U, 0xbf220ede3f2c15a1U, 0xbeaa35ac3fa67b5dU,
  0xbd81af583ef8fd53U, 0x3f364d8ebf0bf343U, 0x3ec9f3dbbe2cf331U, 0xbf5366f0be7131ecU,
  0xbf3bd1c03e94e65bU, 0xbec59ee0be5d5f9eU, 0xbe69b4943d94248bU, 0x3ea0c3463e16ea98U,
  0x3f18d3b5bf798afdU, 0x3e6288debee3c285U, 0x3f63dc28bef7195cU, 0x3ed241cebde4371eU,
  0x3ed43d6c3edcc374U, 0xbc839d46bf023ae4U, 0x3f3bb89abe37990eU, 0xbe7e2f72be4165a1U,
  0x3e23572dbe0204bfU, 0xbf34dfdf3f26c2dfU, 0x3dbe77d5be334e89U, 0xbe592590be7b83d1U,
  0x3f424be53f42ae35U, 0xbec247bf3e5972adU, 0x3f431fb63e876dddU, 0x3d83ae42bf096ad8U,
  0x3ee162f9be564107U, 0x3e87e1b7beced732U, 0xbd0adff43f392fa5U, 0xbe4f5c5fbe9edcd5U,
  0xbdb143653f237decU, 0x3edd34b13e33e34eU, 0xbf0949033e8cda49U, 0xbd81d991bdb5b0ebU,
  0xbf50119b3df85c6dU, 0xbda3cb3d3efce61bU, 0x3e87378fbedc495eU, 0xbe74e6873e963df5U,
  0xbeab943ebf35ffe6U, 0x3eefd6b9bc7cc0b2U, 0x3f0bb1ce3f348e9eU, 0x3e66729e3e957626U,
  0xbf200825bedf2ce7U, 0xbebe029f3f279951U, 0xbecba4a8bf49e052U, 0x3e8ec4fa3e6a3c23U,
  0xbe270b963f30c28bU, 0xbf62f4bf3e468a53U, 0x3f14fb343d914b35U, 0x3d9b18793f307701U,
  0xbe93d2413f047e9fU, 0xbee8ad283f182a5fU, 0x3f2c9c2fbe1ebfb0U, 0xbe2397283e6d34ebU,
  0xbf442c7a3e81e0e4U, 0x3cf7f06c3f26eda8U, 0xbeeade35bd816015U, 0x3eac6febbeb5f2f1U,
  0x3dc891293efaa6a0U, 0xbee04f1dbef51cd5U, 0xbe41a383be7a5bd8U, 0x3e3bef34beb20650U,
  0xbf3dd7893f32a50dU, 0xbe865fc03f28d979U, 0x3e1b2c393ecc57f2U, 0x3f44752d3f161c8fU,
  0x3d1063883dfc346fU, 0x3ed6b45dbe9fed09U, 0xbf079ad5bf11ee76U, 0x3d7bc0183ab27980U,
  0x3e5569a23e87223aU, 0x3d07c7e43e37ab67U, 0x3e8b3f66be5e7e1dU, 0x3e61b6cd3d9e206dU,
  0xbdc31555bdbd5f78U, 0xbd8abb9ebc580280U, 0xbb9fc7e03e518d35U, 0x3bf450f03c7d8562U,
  0xbe3f2a8b3dcd19c7U, 0xbc6f65083dd25bfeU, 0x3df4311b3e09f954U, 0x3c0a94103e0083b4U,
  0xbdfc416c3a5ff580U, 0x3dcb41063d239ffbU, 0xbe7908183d084664U, 0x3e3562febea4b994U,
  0xbf4d758cbe0537ccU, 0xbde643e2bde19fdeU, 0x3f7c250cbf41e9f5U, 0x3f04b498c035ad0eU,
  0x3dbdcb81bebb07e5U, 0xbf13c7b53e9fc448U, 0xbf0d99da3eb29fc5U, 0x3e70a44c3deeb299U,
  0x3e3eb3173eac6838U, 0x3efefa743e04a869U, 0x3cefc8183eb7d92aU, 0xbef91bb13e579100U,
  0xbd655615becd0806U, 0x3ca8ac21bf1d72c5U, 0x3f0ad37c3f9eab8eU, 0x3f3bc086bd33cce5U,
  0x3e1a7d61be720849U, 0x3e05eb783eff8793U, 0x3e750c693eaafaf2U, 0x3f091be53e47d799U,
  0xbecbe6ea3e680dadU, 0x3f93a2ee3f004f0aU, 0x3d3571d5beecd018U, 0x3e5b3f163f898eebU,
  0x3e8a30cfbf55a93aU, 0x3e82feb33e9b3daaU, 0xbe8787a83ee26812U, 0x3ea4b39d3dc807dfU,
  0x3d8fbba9be01e87bU, 0x3f3f05533e8a2b47U, 0x3e8fe476be5bb697U, 0x3f805852bebd0be0U,
  0xbf92e5f93f79e755U, 0xbe8bd5e03f7f9b1eU, 0x3f18f913be8f93fbU, 0x3f0ae72f3c954b38U,
  0xbea403913f0bb8cfU, 0xbeabd6f1bf838c6fU, 0x3ec65368beb0c1f3U, 0x3e866f2a3e3ac63dU,
  0x3ef4cf323e25eafaU, 0xbe7875c33e0da2a2U, 0x3ea39c8dbd4f0667U, 0x3e64fd0c3d0ed806U,
  0xbf8a7b28bed55893U, 0x3f0123893f672708U, 0x3f3312e6bda56bc6U, 0x3eaeb962be906095U,
  0x3f00a4bbbd119c74U, 0x3f09661a3eca3f10U, 0x3e96fc073f238acdU, 0x3ea795c73ee28b49U,
  0x3e4006b33f2e174eU, 0x3e34a978bf2e8da5U, 0xbe5d4a483e1489caU, 0x3ebb02d1be172425U,
  0x3e15802dbd945df5U, 0xbf27fcb83eff6e35U, 0x3dd527963ec141c3U, 0x3e3cca10bebb5b3bU,
  0x3e21c55f3f155fe5U, 0x3f6a80943fae404fU, 0xbf2999623ea6d243U, 0xbc551c12bfcdf492U,
  0x3ef128303c99eb09U, 0x3f35f0ecbf9a4aaaU, 0xbf567aa9be8253a4U, 0xbf3d1883bd5f7491U,
  0xbe89d30dbecf7422U, 0x3f2894c63bb67007U, 0x3f66e5f53f063709U, 0x3ec818ccbeb98aacU,
  0xbecd37b9bdd75e50U, 0x3d80ff763efb5fcdU, 0xbf355b9b3f26bbf9U, 0x3edc98f8bf2f4212U,
  0xbf40670a3f529363U, 0x3eb7af543f98bd7bU, 0xbf4ee47b3f0324e1U, 0x3ee6fe9ebeff37f4U,
  0xbd9da25d3d8e447fU, 0xbd59fff53f509f96U, 0x3f5822b93d3a0305U, 0xbe8645273c05c0cfU,
  0x3f11ab9a3ed7470dU, 0xbf33b6f43eeac9b8U, 0xbef5f2f63eecdb49U, 0x3ed83e703e3060e4U,
  0x3e01f22cbf2a7087U, 0xbf9dd836bd2bce08U, 0xbe80b98abe8ec7fcU, 0xbf6be901bed6a213U,
  0xbedfd55dbeb5b927U, 0x3e1a20c3bef199cdU, 0x3e717b6fbe44610eU, 0xbf0892b13eb5f3ddU,
  0x3e9b73533d1abda8U, 0xbf146e21bdc06a58U, 0x3f1fb0373cadb5afU, 0x3d8512003f125867U,
  0x3e61acccbfda17d6U, 0x3eb57f77bf35b6a8U, 0x3f2bf3c2bf8c0059U, 0xbf931f75bf5b0099U,
  0xbf5d88793f3cc26cU, 0x3f132fa1be06ad47U, 0x3d171bdc3f2665afU, 0x3f5844fd3deba9d7U,
  0x3e0f3d253f0d2629U, 0x3f3016c83cd63ccfU, 0xbf8449a5bebe1d73U, 0xbec3cbeebfe8fe76U,
  0xbe29af47400d9e4fU, 0xbf56a3103d132dfcU, 0x3fb2d22e3e9389c2U, 0xbcb4731e3e0e4fb5U,
  0xbe9f5446bee76fa6U, 0x3f06bf12bd2329feU, 0x3ed9a4b73ee13463U, 0x3efee4fa3fa32361U,
  0x3f3437023ea97985U, 0x3eeecd63bec17dccU, 0xbdbaa3d6be124744U, 0xbf8592b4bee38159U,
  0xbef8750b3f19c80cU, 0xbdef92c3bf7cd361U, 0xbec7c9bdbf0c0b62U, 0x3f09b6d13d845b87U,
  0x3e9c670bbd7b4e7aU, 0x3ddabc553d42e8c0U, 0x3eb545f53fc1c6b0U, 0xbeaa9ac93e7a8d5eU,
  0xbe3fe7213d9494c1U, 0x3f3f15b73f4d589fU, 0xbec21217bf2f5b1fU, 0xbf076a65bf2e3c81U,
  0xbf460c41bef3cb26U, 0xbf3d461e3d61726aU, 0xbf45a6acbe1e81aeU, 0xbea36942be0028c4U,
  0x3eea7625bd3b61a2U, 0xbe3669e4bf2310d4U, 0xbe83baacbf236769U, 0x3e59b1803fc22309U,
  0x3f5d2a1f3f02ae3eU, 0xbbbc7f60bf6970a8U, 0x3d3f1c26bf35b2d7U, 0xbf5315d13f36fba0U,
  0x3d58c212bd4e9273U, 0x3ea747503d8e12b6U, 0xbe5ab6f33f14f48cU, 0xbb99163bbd868216U,
  0x3d55ee53bed8242eU, 0xbee64e573de3ac73U, 0x3f01bad53e77bf5fU, 0xbce689f3bde6ada2U,
  0x3e6547c63e90ae32U, 0x3c112a063da526a1U, 0xbe82ff9c3d6a25e4U, 0x3ede50eebec932e5U,
  0x3c8e7c71beb94471U, 0x3dc67d413dc296f8U, 0xbe5b1ff73d70874bU, 0x3de3f2d1bdbeb2b1U,
  0x3eb821eebc36d7b9U, 0x3e1a6d55be5ed228U, 0x3e117e11be2c6afbU, 0xbe6dfd71be322758U,
  0x3e258351bdd63ddaU, 0x3eb3a70e3df80448U, 0x3eafbcd43e39852cU, 0xbe9e97323e7abc7dU,
  0x3e8a421d3da6304fU, 0x3e88d5d1be39fcc7U, 0xbe13d17c3c5dc8b1U, 0x3e01410d3da79126U,
  0xbe532c063e4cd66dU, 0xbe28b9efbde9addfU, 0xbeb67e6abd7154ffU, 0xbd8ed4853e765d47U,
  0x3e93f47ebdd39614U, 0x3e0fd96cbe937ba5U, 0xbe5cd5833df183c6U, 0x3ec0c4173e738036U,
  0x3e411980bda31be5U, 0xbd66cb3a3e77812dU, 0x3e3d68adbe7dfa0dU, 0xbe3423db3eb8481eU,
  0x3deb8377bd6af71fU, 0xbe0865ab3a4d2a6bU, 0x3e7a22913c76e90eU, 0x3e710c5f3e2bc115U,
  0xbe4f9635bebf6b69U, 0xbd8ee849be9cb540U, 0xbdded7f93ce8e914U, 0x3ead1ced3df2693bU,
  0x3e83e6a53ec63e74U, 0xbe2a8d263b43d268U, 0x3ecfe5d8be9a2dbbU, 0xbea3ecc53eb72e2bU,
  0xbe0dc60fbe7d48a8U, 0x3e912c683e7a2476U, 0xbee1e6193e923063U, 0x3e04b9803e23aa02U,
  0xbe168f05bea9b661U, 0xbebea9b73ecb7568U, 0xbea7b695bcb9ff8bU, 0x3e24f953bea19e13U,
  0x3d1b8e0b3db8b7aeU, 0xbe8bd0523e9e0b4bU, 0xbe6bb4c23d8b9c3dU, 0xbe7210353e633c2dU,
  0x3ec42d0a3e6511d3U, 0xbea0a5763ec90245U, 0xbdcb7a633e78a13fU, 0xbea607703e9ae3e9U,
  0x3d4c0c3d3e0a5bb9U, 0x3e6a79713e5f63beU, 0xbe3176f53e1b3d9eU, 0x3dedd7f6be2f8d70U,
  0x3e27f177bebea99aU, 0xbd2e3eee3d98bb6cU, 0x3d134102be3265d3U, 0x3ec41cebbe746712U,
  0x3e9299853cd2c0b6U, 0xbd8280e6beb20e5dU, 0xbd5d115d3eb67714U, 0xbe9a0d713ec9642eU,
  0x3d94e41e3e77a6c6U, 0xbe87c9233e34ff8bU, 0x3c0164ca3d6abd98U, 0x3e858f7e3ecad8fbU,
  0xbc8fb181bd69b8cfU, 0x3ea9f9cabf0a5aa8U, 0xbe1979423e2371feU, 0x3e94baacbd473ec9U,
  0x3ef8ce143c1fa9c4U, 0x3f05f0e43caf16a4U, 0x3e712ae83e70daf5U, 0x3d0f319d3e196047U,
  0xbe1d73dfbd024cedU, 0xbdb4c45fbe33094fU, 0x3e20cf25bceec200U, 0x3e7b9a57be4fdc42U,
  0x3d9ec7323d71df87U, 0xbe848644bca19641U, 0x3b419b06be859de2U, 0x3da400b23d905927U,
  0x3df7589bbe74acbdU, 0x3e4476353e5d8afaU, 0x3ccf4b43be49abfcU, 0x3e85763dbe61c565U,
  0xbde87edabeacf0b1U, 0x3eb427d63e5f4b4fU, 0xbe5edc183eb1d5ecU, 0xbea519dcbe70f5e0U,
  0x3b2904f2beabb2aaU, 0x3e4c74d9be8b5eeaU, 0xbe3f6e05be4ebebbU, 0x3dae3320bdcfdc27U,
  0x3ebe2ba4be86949eU, 0xbe247e94be0f5baeU, 0xbeda7a0a3e0a952aU, 0x3c876190bcd9074cU,
  0x3d483d94bbf10275U, 0x3e44475abe38f63bU, 0xbdadabf63e8154b7U, 0x3db2beef3ea2f8d7U,
  0xbee21b38be8cabbdU, 0xbe1d8a8cbe41eedeU, 0xbf468a2ebe3e678dU, 0x3ce57a543e16599eU,
  0xbd3a0be4bea09878U, 0xbea083393ebba34cU, 0x3d8493d8bead010fU, 0x3ed548733dce7a91U,
  0x3e43ca1fbd157a5eU, 0xbd6f74503f3517bdU, 0x3c93f339bf043c06U, 0x3e8dbc9dbe46890cU,
  0x3f476a683ef498ecU, 0xbe3916733f03ff89U, 0x3e8a76823d1c51fcU, 0xbd0b0e97bf2c3ef8U,
  0x3e93c4713dc0382bU, 0xbf03502f3e9a0435U, 0xbe9a306e3e8dfeffU, 0x3ceea7483ebeadaaU,
  0x3ee69986be874470U, 0x3e2228e73d87f61cU, 0xbebd84fdbec21cebU, 0xbebe688f3f08816cU,
  0xbeb75202bddb7dcdU, 0xbd1caf5cbefdbe0dU, 0x3d8991bf3e756370U, 0xbe8f6d7e3d2ec25bU,
  0xbe7888adbeed2db1U, 0xbe85dce3be0362a9U, 0x3f1512b63e91c086U, 0x3e7420883f27631eU,
  0x3da6b7803ed7d099U, 0xbed533cabe669963U, 0xbe4b2edb3d570e37U, 0xbeb745ff3e4c9129U,
  0xbec7b05cbbd5911cU, 0xbe002d6f3f9006f8U, 0xbe5b8866bf5361adU, 0xbf00b473bdc9f4c1U,
  0xbf0d77863f141b2bU, 0x3e9dd0343eadcbd6U, 0xbedb6e15bee35d32U, 0xbf23eed13ea5f72aU,
  0xbd2aca62bef8770dU, 0xbe7ecf99be557ab3U, 0xbe17bff4bf049b6bU, 0xbe75324ebeb660bdU,
  0xbf186a7cbf124482U, 0xbddd287ebed7c884U, 0x3e1a4ac43ebc7cf3U, 0xbe1e68393dc711f9U,
  0x3d6bb70fbc1b86f7U, 0xbf7bb7913e9ba283U, 0x3e734bd6bf0a38abU, 0xbe6d1b60beaa354aU,
  0x3e24e08c3d90c279U, 0x3e6731833cfab4a1U, 0x3e0229aabebce2efU, 0x3c30dddabf206ea3U,
  0x3ece6d3a3e16e38fU, 0xbe29f6b63e9d5e6dU, 0xbe4a1146bee7ce8eU, 0x3e7ace25bea8d7e4U,
  0xbe1327583eadbdb2U, 0x3cc9c0123eb2d28aU, 0xbeda77d83ee6cc89U, 0x3d2286a13e213aaaU,
  0xbf2531663f0b4a16U, 0x3ea46d27bed2403aU, 0xbc836dd4bd672901U, 0x3ebe0ce93db7e0c5U,
  0xbe07e261bf40c1c6U, 0x3ea4cf1fbea992d6U, 0x3e92c02dbe600975U, 0x3db4f8343e25dc21U,
  0xbe053ea43d967f03U, 0x3eccc5493ef81687U, 0x3e1b8c5fbe81c98dU, 0xbd931ee13f02cdf8U,
  0xbe8430ac3da5e5ffU, 0xbeceec90bd4aa9cdU, 0xbf3432bb3e9d7c07U, 0x3e21cd6abd82aab4U,
  0xbe86046fbf0f8091U, 0x3ebb59a43eb66538U, 0x3ed162a8bebaed80U, 0x3dee6f0ebdcf8cb8U,
  0x3eb9ce12be72f78cU, 0xbe9330e9bdd7df52U, 0x3eb7133bbd3d7c0bU, 0xbe0b6dc8befc5b45U,
  0xbea22ca3be978fd6U, 0xbdc9cd48bef056cfU, 0xbf5594abbf1fba61U, 0xbf12d5c23f0080beU,
  0x3e917ebcbe0c8d9fU, 0x3e0220c8be685a6eU, 0xbe56489abeb26bb3U, 0x3eac4266bea160d6U,
  0xbf193e54be9e3d91U, 0xbf27abba3e1eba43U, 0xbed3f6ecbf138638U, 0xbe58f85d3ea99eefU,
  0x3e2554d33f4e1dd5U, 0x3e8967f3be5e7d9bU, 0x3e6d8569be82aa7cU, 0x3e938b7c3f33c663U,
  0xbcc43fc43e3d3cf8U, 0xbda78e5e3ea7d018U, 0xbf257ccd3e67ea85U, 0x3eb349bebe16afacU,
  0x3effb62abeb8813cU, 0xbe3d2bbebf2e6f04U, 0xbe9976e73e879d7cU, 0x3ea7bcb5bf1c43afU,
  0xbea9c703be393328U, 0xbeaefc2dbe90c277U, 0xbf5888a7bcf315b3U, 0x3de1d0b93e1dd839U,
  0x3f139a19be71dfdcU, 0xbf24fa39bf12e8e8U, 0x3f037149be668efdU, 0xbe6a89d83eba2f25U,
  0x3da55e18beff8b4eU, 0x3dcaaf3f3f1f2fa3U, 0xbf0d3c383ef9f388U, 0xbe3daf73bf2cc562U,
  0x3ecd01a83e3a3e20U, 0x3e98b4f33f0b2c7bU, 0x3b3abb7f3ec98cabU, 0xbee379e33ec2e466U,
  0x3ebb27d93da935d0U, 0x3e6977debdd461f9U, 0x3b8a20e93ed869f4U, 0xbf0b6fe4bef4a3f2U,
  0x3e0500ef3d18f80cU, 0x3e8aa64dbf2a19b8U, 0xbf042fd9bef1d066U, 0xbec26a813e2de0e6U,
  0x3e8b2716beeaf9d4U, 0x3f2c5e08be86076cU, 0xbe78207e3f0ad3c6U, 0xbe278d043f3a716cU,
  0x3f00b9933d9499c6U, 0x3db8f7893e4de958U, 0x3ed1bc18bf06532dU, 0x3e62c3ad3eb236ccU,
  0xbd1866fbba013f98U, 0xbdc5b2cd3e87a61aU, 0xbf007d36bf76886dU, 0xbf5ca570be840d8fU,
  0xbe91802f3e951c6fU, 0xbe5f15f3bd9ceeceU, 0x3ee35567bea9f20dU, 0xbebc6f12be95876bU,
  0x3ea76d313f317495U, 0xbea66e97bd49a326U, 0xbee6b41bbe2a6405U, 0xbed6fe893ee37aceU,
  0x3d4c2a3f3ea51921U, 0x3efcedc33de724c3U, 0xbdfffba3bedf8a02U, 0xbf008af8be89b176U,
  0xbd9fe94bbdc8cf0cU, 0xbe54137b3ec2e1e3U, 0xbf0afe71be4adde2U, 0x3e3b57793eb2d9e4U,
  0xbf0148043f366914U, 0x3e848cbc3eb2ce74U, 0xbf19563b3e7d4013U, 0xbe931f1abd42d154U,
  0xbc9c9c783da3cd3dU, 0x3ebeb825befa688eU, 0x3e23859fbf1bac56U, 0x3d8c87abbe54a98bU,
  0xbe07d797bed35081U, 0xbef1da1cbe77dbb9U, 0xbd4f9f123e16b963U, 0x3e747cda3f1de0abU,
  0x3de5f17fbf0160efU, 0xbeb856643ed3991dU, 0xbed58c913ea50e35U, 0x3e2e2579bec244baU,
  0xbe634b34bef8f4b3U, 0x3ebb035dbecab779U, 0xbeecf537be2c9b47U, 0x3e3f6bb5beda22b8U,
  0x3ca6615a3e98b420U, 0xbc91b2453ebd6ea2U, 0xbeb41698bf089728U, 0x3de392f7bf5e0ffcU,
  0xbe0d337fbeb11585U, 0xbdfb953d3e8f2fe8U, 0xbed4b0993e416787U, 0x3e61a8c83e80fde8U,
  0x3e03fdf03e08111dU, 0xbc34696a3d3d4140U, 0xbe1682123c9bcc30U, 0x3d67fb1e3be73d83U,
  0xba511d603d7bfbd6U, 0xbc2f09acbd3788acU, 0x3db8a9d43d23aec5U, 0x3b26b7783d93cc12U,
  0x3d3e2c48bc0061acU, 0x3e0893fe3e1caf02U, 0x3e1257b13db4a47eU, 0x3ddaaf5f3d2c62b0U,
  0xbc56a1843dec8ce5U, 0xbdb8b3b63d51dce8U, 0xbd27e10cbd660b2dU, 0x3d990bba3dda32dfU,
  0xbdec2e5cbc85f9caU, 0x3e297cd13e21b812U, 0xbd04ad83bdf95a7cU, 0xbd40e004bd15e851U,
  0x3d0186163bf5a9acU, 0x3d5ccd363ca9a2bcU, 0x3e1b3eb43d72738fU, 0x3c8805343d137da7U,
  0xbd8a33b8bd673f7bU, 0xbe63e576be491fc4U, 0x3f2711fc3f4fe55fU, 0x3f9366d23f274465U,
  0x3f424d93bea7ee49U, 0x3f7f38ffbfc8ce83U, 0xbe51eaf4bf103af1U, 0xbf128c89be9813e7U,
  0xbf6f0b6e3fb9ec3aU, 0xbed1cc193f28299fU, 0xbe8743febf14bc2cU, 0x3eb886fe3f75b7a3U,
  0xbf81c5c23f1d46f6U, 0x3d1833fbbe243a1dU, 0x3eba681ebd0dad1cU, 0x3e1bf9eb3f72482dU,
  0xbdc6332e3ec9fa0bU, 0x3e598d8e3f04f444U, 0xbf35d8cc3de6d5c9U, 0xbef5b5f6bf7aa341U,
  0x3f43ebd53f28c891U, 0xbf555a233e99943bU, 0x3ed6ec56bf19e825U, 0xbe970a22bf6798dfU,
  0x3e0435bdbf9a58acU, 0xbd6e07d83f4e6a61U, 0x3f3ecc18bf3d2b0dU, 0x3edae56b3ef94198U,
  0x3f2978b73dbc0defU, 0x3e9374513e61c9d0U, 0x3e37c1f73ed25807U, 0x3ec3875d3ee77190U,
  0xbd9b1ac13f4da94fU, 0xbf03bef13edd3a9bU, 0x3f20ff0c3f0480d2U, 0xbf1f40c43eb62a20U,
  0x3f2f4df7bd5685b9U, 0xbed25a1ebe9264f2U, 0xbf07ab9c3f9999e5U, 0x3ea5fa4dbedc1888U,
  0xbeb425de3d10a84bU, 0x3f8b42d0bc83e946U, 0xbe046a16be92bc06U, 0x3d716a98bd749460U,
  0xbc377ad43f317154U, 0xbe98075c3f34d85fU, 0x3e89315bbf012e39U, 0xbed4417f3f568ae1U,
  0xbe7d335a3fb7ae1bU, 0x3f6d19623e0489aeU, 0x3d91987c3f2bcb39U, 0xbf175c843edb8746U,
  0xbdbfd5ae3eedcd0eU, 0x3e8d9b1e3ed82924U, 0x3ef03a323f75f008U, 0x3ecbc2623e9e12f1U,
  0xbec755493dab00d4U, 0xbf1ea2ce3f4b38bfU, 0x3ee97b2abf71ad11U, 0xbf144978bc3f96c4U,
  0x3f62fd00bcf07e0aU, 0xbf0718453eaa2e5cU, 0x3f5fcb283bf384e0U, 0x3f5d2232bf13d904U,
  0xbf236ea2bf3e0518U, 0xbf9d42aebdbbf0e1U, 0x3f4059c3bd981b7bU, 0x3ebf03043ead6367U,
  0x3f4167373e2ae339U, 0x3e457d95befee9a6U, 0xbf845ed83f434a8fU, 0x3cc8e0893e4c254aU,
  0x3f5960903f1c581dU, 0xbe292824bf4828cdU, 0xbd9332e53d265bf3U, 0x3f1b54bd3cb90933U,
  0x3ee906a8bed3ae03U, 0x3e86eb57bebac16eU, 0x3f3a064a3e8e322cU, 0xbf66421ebde236d1U,
  0xbf4ae8a5bf408f12U, 0x3eb6f4823f002ab0U, 0x3eb00c8bbf6887e3U, 0xbda94547be8de0a5U,
  0xbf18093d3f2f8361U, 0x3eae464ebf2ee2a1U, 0xbf0094f53f64893dU, 0x3d87d4373f889a39U,
  0x3f12e0a2be1b74e4U, 0xbee5f8cbbde8ceddU, 0xbe8f7dd83fa914b0U, 0x3f476447be37e8b3U,
  0xbf3945d3bd98d47dU, 0x3e5dc7553d638d64U, 0x3f677250be67cae1U, 0x3e4c2950bfb47f6eU,
  0x3f8b3991bea8cc07U, 0xbf69a486bf3a72a4U, 0x3f39d1b43ecd4ffbU, 0xbeb8d23fbf771208U,
  0xbef5be1abf33e1f3U, 0x3cdf20273e52e9c9U, 0xbcc829623d166fbfU, 0xbf6aca1dbf1838e0U,
  0xbfb56349bc8658e2U, 0x3f0e744c3c59f9b8U, 0x3f51ee12bed6f230U, 0xbf1460a23f1353e7U,
  0xbf414fe33fc44841U, 0x3e9c40d1beb4db70U, 0xbea36eb6bf0ec174U, 0x3d878f423f1332c7U,
  0x3e0734593f975cacU, 0x3f00808bbe4a30b3U, 0xbeded0543ee318fbU, 0x3efac4df3ef6f756U,
  0x3e85eb5b3dc54498U, 0x3f96bb80bf88b8b8U, 0x3fa0f9313e30a229U, 0xbf49473bbf101704U,
  0xbfac3bac3e6d5d7dU, 0x3fb9f8c63fa7a126U, 0xbeab04ea3f6b2dfbU, 0xbe3c489a3e7b3fe1U,
  0xbf0de9213f8cbd12U, 0xbe4d44b4be8e98ebU, 0x3f8171033cf79127U, 0xbe8a604cbf809b1eU,
  0x3f5c9c5a3f58b621U, 0xbf57c673bf7c51a8U, 0x3ea88b6e3f41fcb3U, 0x3f049c90bec34c6cU,
  0xbe156a663edf9d85U, 0x3d9d02273f756826U, 0x3f0c37333ea21f2eU, 0xbf7d17bfbf3b665eU,
  0xbcbf3b2bbf7be357U, 0xbf17a2423db45494U, 0x3efa66943e08b596U, 0x3e2917803ea1bbe7U,
  0x3e8db53bbe5b9a86U, 0x3f3cbef43ec7e45cU, 0x3d21a0b03f2f5bffU, 0xbd588ca7be957f6aU,
  0x3f84ad1f3f424e19U, 0xbf0a7010bd183d73U, 0x3d8e428cbef14da9U, 0xbf3b84f33f67da75U,
  0xbeafc95ebe902cbdU, 0x3da9f16cbed9bd8bU, 0x3f9009eb3e225d7cU, 0xbeb96ba73f347bbbU,
  0xbf0b81a3bfcb258aU, 0xbf04562e3f5950d2U, 0xbf1a11e03ca3aa18U, 0x3cbd54603f3d7b64U,
  0x3f44be10bf86d4c4U, 0x3f2fe3da3ecc7d09U, 0xbf614fa7bee4ba9aU, 0xbf21f9f1bd8a0182U,
  0xbf6f49bcbf30741dU, 0x3f3aabf53ed00497U, 0xbfac1cf43f903223U, 0xbf3fbcc93e5fa67fU,
  0xbea546d53f7235cfU, 0x3ecd3a74bf2e7744U, 0xbe65c0923d6382d0U, 0x3f0ab9cf3f691182U,
  0xbf5c701fbf1c216aU, 0xbedf8779be97c507U, 0x3d5991323e11c51aU, 0xbe3194c1bf9265f4U,
  0x3e882432bf4d8e1cU, 0x3e3910983eba2cb9U, 0x3e6962623e917181U, 0xbeecae27bee6c07cU,
  0x3e7fcb4a3eb85805U, 0xbe1840aabf3398e4U, 0xbee33bf9bae5baadU, 0xbebe3bd13e6e65b7U,
  0x3e091398bf869422U, 0xbfb230483f8c47ccU, 0x3f61dad83e9eb57dU, 0x3e4dfb2cbeeb7bc9U,
  0xbeb30ff93ded8674U, 0x3f2db6953f1f7af9U, 0x3e2325c93ef115a6U, 0xbe899b3abe1aa422U,
  0xbf507a4abee0c699U, 0x3fa2c349be240a71U, 0x3f330b773e1d1a42U, 0x3dd28629bf0f4615U,
  0x3f4ff0e1be3a8016U, 0x3f44e93dbf030aebU, 0xbcdd318bbf76793eU, 0xbf7d8a983deac438U,
  0x3e144589bf079a4dU, 0xbf208404bf032df8U, 0x401faaf9beef71ddU, 0xbf25cb883eaf9e05U,
  0xbe90183bbf427a81U, 0xbda1c6db3f6f44d5U, 0x3e9db821bf099bdfU, 0x3ccaac4d3ef7fa5eU,
  0x3e6cdc233f3b26c2U, 0xbf4ea82fbdc2bf30U, 0xbfb2dab2bf278b04U, 0x3f0841eabdb36969U,
  0xbec265d3bdaf6689U, 0x3f0b69023f387ea6U, 0x3efc39733ed90264U, 0x3f0489423e63fb2dU,
  0xbe4eb1f43f7bd4a2U, 0x3f363f023e0c4d2fU, 0x3f350e0bbf22628eU, 0x3ebd5b2cbea64998U,
  0x3eace713bf53ad0dU, 0xbf696f793c1d5e04U, 0x3e9065cd3f10fcf9U, 0xbf3c9ab3bf902bbcU,
  0xbea9c271be8d6b6bU, 0xbf44b8f4bf27a99bU, 0xbf01ca12be990b41U, 0xbf07b2153ec7812aU,
  0x3eab148cbe77fb60U, 0xbf17bbc83e21d271U, 0xbbb78490be6b8861U, 0x3f0847003f9b3cf7U,
  0xbf32d78dbf1d4d2dU, 0xbf503717be50d808U, 0xbf6bbbd0be2b5cb0U, 0xbf33937a3f643c98U,
  0x3e98852cbe73b49aU, 0x3f3e463fbea0cd33U, 0x3e6b9eb33de5360dU, 0x3ec4c7183f010f70U,
  0x3ce66da23ce9d3dcU, 0x3f82cb88bf0bd706U, 0x3ef7536ebe9eaf38U, 0xbf5ba4f3bf4a1348U,
  0x3e6d0a8ebe57f639U, 0x3e8fd3833ebb6c78U, 0xbc2bcde63d19cffeU, 0xbeaa3abdbe93a96fU,
  0xbde1f93e3e915aa6U, 0xbe2d69afbda0113eU, 0x3e2e16fdbe52f03eU, 0xbdeee9e9be42094dU,
  0xbdaef57a3e48f73fU, 0xbeb304d63ec447cdU, 0x3e4ebb3e3e48a21cU, 0xbe4d3d2ebe6d8e4cU,
  0x3e18b46fbe59dab1U, 0x3deb875cbdddd67bU, 0xbe8ac10bbd12eeddU, 0xbe872184be1493a2U,
  0x3e9673d6be830e4bU, 0xbce2ebfa3e9751adU, 0x3ec26ab2becf179fU, 0x3e33c84dbea50d25U,
  0xbe471fcc3e8f7877U, 0xbdd83495be2d696eU, 0xbed0ee543e11937dU, 0x3db08fd43dca86b4U,
  0x3dc76179be96b578U, 0xbe5004b43e362844U, 0xbe0e77a03e8ecd8dU, 0xbda9ac97be3f56d3U,
  0xbd80f0f73b8433cfU, 0xbd28168e3dc79656U, 0xbde1a6983e25673cU, 0x3d8f67363cd20960U,
  0xbe800cb03d88f3f1U, 0x3e3daff33e914856U, 0xbda217193ea0d4d4U, 0xbecbfc11be51e453U,
  0x3e8f3a2e3e86c5d1U, 0x3c2296483e2a3a1fU, 0x3eafd56ebdf14d8cU, 0xbe21115abd0b7ff5U,
  0xbe3ff0363d98aab6U, 0x3e3dd83a3e55c72dU, 0xbeba5ef2bdcc19f4U, 0xbdc15911bda1eeb9U,
  0xbcc302d6bdf02f76U, 0x3db179453e701de6U, 0x3e817421be9e2940U, 0xbe3a86fd3e97a77aU,
  0xbe5075773d843bb9U, 0x3e3394f7be3491e6U, 0xbde14a49bda6651aU, 0x3e73daef3dfe35a8U,
  0x3e8ce9bdbe2109b6U, 0x3e90a587be972855U, 0xbdd55caf3e318540U, 0x3e883f77be0f43a2U,
  0x3e60a9563d00de4dU, 0xbe9d75a8bea8390fU, 0xbe478d9a3e8b7c0fU, 0xbdfbaf413d67ee97U,
  0x3e9a79e2be220a87U, 0x3ddb1335be829bbbU, 0xbe6bb3f4bd953571U, 0x3e808b963d6fe155U,
  0xbdc4c7c53e0782c6U, 0xbe9aa6f23c70887fU, 0x3d70dae0be9b3253U, 0x3dfc7a7f3ecae559U,
  0xbc3153efbc96f468U, 0xbe707b3b3e86fe84U, 0xbdb4eec53e1a9c38U, 0xbd1a44bc3b45cbe4U,
  0x3dd874c5be18d1faU, 0xbe4e107cbe29425fU, 0xbeaa93643dc84b07U, 0x3d83d7d13d8b8913U,
  0xbe9849333ecfd704U, 0xbe4cd3953e77a458U, 0xbdc9f404bdd26f47U, 0x3e5519f53e8ce8deU,
  0xbe15f2443ea3cd8aU, 0x3ecb54e1bdf95ffcU, 0x3dc8902f3d9831f1U, 0x3e9e6ac3baf3ceafU,
  0x3e3eb75f3de0f388U, 0xbcdc0d213e6d74dcU, 0xbd9fe6c83ebb21c2U, 0x3d8906eb3ea19202U,
  0xbe80aaf9bead4b4fU, 0xbe7a6792be8a6848U, 0x3cfa30fe3e5ff119U, 0xbd9223883e3e6267U,
  0xbea9eb7c3e3e2454U, 0x3ec47da23e690c2cU, 0xbe04d4253d381c51U, 0x3e5db6313e62baa0U,
  0x3e074863bebf88a8U, 0x3e6c879bbca73a34U, 0x3c080fbd3e48c883U, 0x3deb37483dd8c41dU,
  0xbdea73ad3cb2ab21U, 0x3af0a8ce3dbf15fcU, 0xbe90b93e3ea12c09U, 0x3b558af63d913528U,
  0x3edd521fbe9562edU, 0xbe30f0663d8a7c28U, 0xbd4b9bbebecda698U, 0x3d03b6d8beb77213U,
  0xbdc1042fbdee2fe4U, 0xbd90da8c3def696cU, 0x3d4997083e8a9c49U, 0xba46941a3e20acafU,
  0xbe40f1473e30a05bU, 0x3d41d9f03eb43e52U, 0x3e285caf3d52ee28U, 0xbe19fc723e038ebbU,
  0xbcfb6dd83dd91234U, 0xbea131d03dc3b968U, 0x3eaf657bbe53e34eU, 0xbebb159dbe07d40dU,
  0x3e3df8d3bdf4084eU, 0x3e664353be125ff0U, 0x3dad609bbde8f191U, 0x3dac7b57beb79caeU,
  0xbda595823c5c5769U, 0x3ce30e693db5f136U, 0xbcb5168d3db041e6U, 0x3e700f02be223d11U,
  0xbe97b1e53e7468abU, 0xbe0b1f6d3e9be5a3U, 0x3e7b41963de037f8U, 0xbe9230b43daeed16U,
  0xbe0e6bbc3dd9f94aU, 0x3ec4e4243e9b6d0aU, 0x3ddcd0603e38958cU, 0xbe954f3fbd4e7159U,
  0x3cde6be63e4e83e3U, 0x3e0e4233bdaea1d3U, 0xbcf8b8fd3ee313f6U, 0xbe7d03733e6e997fU,
  0x3eb3a54fbe3d0f76U, 0x3e1a08833e7a788bU, 0xbd81ad8a3def86b4U, 0x3e465b0d3e82ca2aU,
  0x3eb561eebd8db9feU, 0xbe42556bbe343f66U, 0x3e6918863e011b3bU, 0x3e9759d53d9f3c75U,
  0x3e96329d3e6060f5U, 0xbca3d772be7f91a6U, 0xbcb4d3fe3df89200U, 0xbb91f129be77f64dU,
  0x3e182502bdd386b6U, 0x3d078f663e38f251U, 0xbd44f36ebe7f1c59U, 0xbe4f1009bea40c64U,
  0xbc3b7e5d3e6c3e6dU, 0xbe4a11423e74bee5U, 0xbe8329ebbe06c8faU, 0x3e075bf4beab639cU,
  0x3e241a8cbe7e181eU, 0xbd823d7b3eb9f7ffU, 0xbcab687b3eca210bU, 0xbdec34fbbe0bff1eU,
  0x3e1ba8de3e5401f9U, 0x3cdc99843e0b3089U, 0xbda1591a3e6d1089U, 0x3e0b33c43dbe8778U,
  0x3e67275ebe398561U, 0xbd939a64beacac1bU, 0x3e1b8296be8434d6U, 0x3e28cee2be9549e4U,
  0x3d10f7adbd9ebb17U, 0xbe8d87d6bce05d8cU, 0x3dc89bc63e808364U, 0x3dfd7619bdf06addU,
  0xbe6a425abe1b7b85U, 0x3e71a241bd54a001U, 0x3e37003c3ebe34a9U, 0xbe84f297bdc86051U,
  0x3d9c32cebea9e370U, 0x3e379f22bb0b65bdU, 0xbd54c0c23e6116baU, 0xbe07d6063d518e47U,
  0xbe3004bbbd03c1edU, 0x3eaee2ed3e6a26e4U, 0xbe6837f83e8310e9U, 0xbe9c50f5becb7630U,
  0x3e720d5c3e524b9aU, 0x3dc661d03e3900aeU, 0x3d2e3d91be91eeb6U, 0x3e88297e3d3263e2U,
  0xbe32de153f2a57deU, 0xbf5c1123bd84ac94U, 0xbf74763c3e24f294U, 0xbe04602cbe85c9c4U,
  0x3dd05ae03db83e34U, 0xbe53dff2bd481743U, 0xbed5907b3eb6ec3cU, 0xbdeaa14e3e9f7b10U,
  0x3e7e24ad3ed9c34aU, 0x3e4c4f6fbe836c48U, 0x3e88a3cd3e21dec6U, 0xbe9d39953dfc9f21U,
  0x3eedce693eac9c4fU, 0x3e16bb03be09df29U, 0x3e1933babdfb5bb6U, 0x3dbd3fd93e8cdff1U,
  0x3dccfe8b3e28dc51U, 0xbe075893be0f0b89U, 0x3e74bef8bd255149U, 0x3dea9b46be96cd3eU,
  0xbd8b35973e52e7e2U, 0x3e12451a3e007a48U, 0xbe43c329bce819ceU, 0x3e3d3ecb3e7e5ff6U,
  0xbea823f7be141d1cU, 0xbd0baf54bed2fdf3U, 0x3eae43ce3e3b8c24U, 0xbcc7ba073da37e51U,
  0xbe807526be4e99c9U, 0xbea86bce3e886034U, 0xbd64819f3e043fc2U, 0xbcdff49b3d865a71U,
  0xbee165bc3e65b020U, 0x3e8d7564be581dd0U, 0xbe9e73df3eefc2c1U, 0xbc755e17be97c383U,
  0xbe1bcc7abd203c18U, 0xbe820f34bed59a26U, 0xbe52dc6d3e196097U, 0x3f04c96cbd872fd0U,
  0xbea6057d3dc2afa0U, 0xbd8a6cd4be961c8eU, 0xbdc3856f3ea3d5b8U, 0xbd9d1a55bd856a54U,
  0xbcc4870c3e8ca2b0U, 0xbcfdc7ad3ea311f7U, 0x3eb4dffabdf14234U, 0x3ee6a135be971788U,
  0xbda71f313f13737cU, 0xbddd8ac9be0ffd5aU, 0xbe10b6c53e838dd7U, 0x3ddc2524bc6fca1dU,
  0x3df7ada8be618c97U, 0x3e98ee303f1084bfU, 0x3e34a64abd567d04U, 0x3e5ae872bdff00ffU,
  0x3e563e46be7fb7d6U, 0x3e8f02333d993f11U, 0xbd1ca84c3ef52932U, 0x3dff37a73f028a08U,
  0xbea2c43e3c76af3dU, 0xbe0c1830be5e3340U, 0xbe1a4ff5be7f005dU, 0xbe8fa7babec357cdU,
  0x3dae6571bb762a92U, 0x3e83dfefbe84253dU, 0x3e6a9edfbe69ba6cU, 0xbdada492bd9a821cU,
  0x3d9393cc3e800cc7U, 0xbe61a979be36019cU, 0x3e7aaa4e3ead4e42U, 0x3e243cd63ea46bbcU,
  0x3dbfdbb5be88e3dfU, 0x3e9383efbf0ccef7U, 0xbe929a9d3e11028bU, 0x3e26d8f63e2fb1f2U,
  0x3d89faddbe668c8cU, 0xbec54b163d90fec4U, 0x3e0ab6bebe426ae5U, 0x3ed377a1be82a250U,
  0x3d49d63f3eb2ddf5U, 0x3ec08a413e3d0b7bU, 0x3e67804eb996df19U, 0xbedeae28bd6eba93U,
  0x3d254338bddff624U, 0x3e493f103e4c1f8dU, 0xbec04705be66de49U, 0x3db87f863de0ce14U,
  0x3e685e623e477f21U, 0x3efe1ed5bd993780U, 0xbedd9d923e8ec6c3U, 0xbe81d3373cd786e4U,
  0x3daa4517be42efcfU, 0xbe90542fbeace26dU, 0xbdecfe893d2a1833U, 0x3b1477a6be995d5aU,
  0x3dbf806dbe710720U, 0x3ed2999a3e57fdcdU, 0x3e2d5a9fbe5d293eU, 0xbd40340fbe2d6a73U,
  0xbea639993ebd9779U, 0xbe8cd59ebcff1cf1U, 0x3d5c3e1dbe554866U, 0x3ec0e045bec1545dU,
  0x3ef6afd23d882057U, 0xbe877adcbe57d6f2U, 0x3d9ed82b3e717a34U, 0x3deafa783f0235a4U,
  0x3e8006a43e0aeefcU, 0x3e1102c0bd940ac1U, 0x3eaf2d0a3dabd1daU, 0x3cbb41f4be511347U,
  0x3d8b11123dd77189U, 0xbe9ff0823df56ab3U, 0x3e91db16be70df79U, 0xbedf5bfebe3e5c99U,
  0x3d683beb3eb3c5f9U, 0x3e83a1123dfe6a9fU, 0xbe9fa8a1beaf60e4U, 0xbe46cda5be0047f9U,
  0xbe289995be90b27bU, 0xbe983a11bcb70ee4U, 0xbe45cc26be21e6c5U, 0xbec207d9be946532U,
  0x3e08f1f73e84f03eU, 0x3e8f69c23da7a96eU, 0xbf00d7ca3e2177deU, 0x3eba8ebbbe92db9eU,
  0x3e9e41d3bea0baf1U, 0xbd1c01023eab312cU, 0xbe1694e83f183669U, 0xbeb90d97be8c783dU,
  0x3e03eb48be4aadffU, 0x3e9f8f57be549c42U, 0x3e8f59933e80ab81U, 0xbe078f43bd4c06c9U,
  0x3ecd405a3e1986d2U, 0xbe3e5eadbe5c31c0U, 0x3e7313763e836509U, 0xbe95b7723e0544eeU,
  0x3dfd47c7beb1324dU, 0x3ef23fe83e1d497dU, 0x3e1c80d73e94a1c3U, 0xbe77d0e7bee31e77U,
  0x3e6be9ecbf033288U, 0x3eaab0e43e30c2f8U, 0x3ea18f133c9afdc1U, 0xbd4197443e8c6558U,
  0x3e8555e23e6c5c7bU, 0xbe6bb0043ec9e0e7U, 0xbe98e4793e80bf26U, 0x3e9d826dbea17b95U,
  0xbd8ba441be2668f4U, 0x3cdaf2d4beb7cc4fU, 0xbe92c7ea3e16ccfeU, 0xbcc4845ebeecc2b0U,
  0x3e3b1391be6876d7U, 0x3e6b5893be2700d8U, 0x3e30ce12be114892U, 0xbd8c894dbe33ce05U,
  0xbeb94bbd3da2efd3U, 0xbd701e77bd8aa7dcU, 0x3ed3e42e3da3e231U, 0x3f1d8ab93ded5f83U,
  0xbe929f3a3e9b95e8U, 0x3e9e997d3e95ffbaU, 0x3d5aa1373e60b14bU, 0xbe94e861bd953ecbU,
  0xbe4b8255be9b45aeU, 0xbe58bc7b3ef79639U, 0x3efc57b23d50ccc5U, 0x3e0015de3dcb0fd9U,
  0xbe9ad8393ec49b2eU, 0xbe2e1bf73d7e404aU, 0x3f243a3f3d186139U, 0xbe245967bc5a5636U,
  0xbec74869bd9dd044U, 0xbe13bc843eb3e0abU, 0xbde87334bcab4c3fU, 0x3e46dc9dbd76017dU,
  0x3e6453edbeb28edfU, 0xbd26b9afbe550273U, 0xbe7bfec5be7a8167U, 0x3e7d1e1d3ee554ceU,
  0x3e8c9e3abe820400U, 0x3e80b8bfbe9b620fU, 0x3ccd57d0be862163U, 0x3c750b803dd8c254U,
  0x3e82625b3e80071eU, 0xbe264d223ebfb1f7U, 0x3ef712e4bda4fb24U, 0xbeace1dd3e8add76U,
  0x3e1df3d2be95b922U, 0x3e1a2fd2beb612daU, 0x3e6bbce43d502c65U, 0x3e989a683e12f7dcU,
  0xbda2d6ddbd5331cbU, 0x3e545dac3d26680eU, 0x3c9efa403e3d4189U, 0xbd707c383d7701e9U,
  0xbe0785783db7a19bU, 0xbd94c3b23e3da33dU, 0xbc5773553e0a2d26U, 0x3d523cf2be2db200U,
  0xbc03ef843d404a18U, 0xbe203ac03d0941e9U, 0x3ca122423d3e4f45U, 0x3e258b023d397feaU,
  0x3dc346743d68ef08U, 0xbe2af7e43d41f65aU, 0x3da00b423d11f96eU, 0x3c13db603dd96398U,
  0xbdcae2e23d1c47e8U, 0xbb1c1418ba8d72a4U, 0xbd648bfd3e12a9c7U, 0x3e3805a4bdc9834dU,
  0x3e00079ebd47880aU, 0x3d3d00dcbc8c58feU, 0xbd11159a3dead636U, 0x3dd5523b3d88196fU,
  0xbed6e5e2be3720e5U, 0xbf10a7b5bdb603b2U, 0xbe6ff04abe8dec9aU, 0xbed06a1abf133255U,
  0x3f51fe91bdbc9528U, 0xbf3cb75a3cb5404aU, 0x3f1dcbecbe459d93U, 0xbef61814bea56fa0U,
  0x3bd136373edeece8U, 0x3ee0383d3eb377ecU, 0x3f36e94bbee15905U, 0x3e8af5733eea94f5U,
  0xbe4f312b3eec327eU, 0xbf608a82bf00ddd2U, 0xbfe80ffcbe875b0eU, 0x3f0813ee3f4aab92U,
  0xbe8d1bef3f3adca1U, 0x3f1722003dfa1c2dU, 0x3a8864c7bf7fd257U, 0xbf69f22b3ec57498U,
  0x3f2749953f892b53U, 0x3f01de54beb68d2bU, 0xbe98c001bede6ca5U, 0xbddfdf24bf98408bU,
  0xbf0f147bbe810164U, 0xbed4d6763e697ce5U, 0x3f125ac3be4988e4U, 0x3f055eaa3ee91aa4U,
  0x3e5dd8a73e8ff221U, 0xbeacc3e03f0230caU, 0x3d7f73783eaf0803U, 0x3ef951b83eb165fcU,
  0xbdc2d875bf64a01eU, 0x3e1d4b613f270f02U, 0xbf1bd56dbf2a6c63U, 0x3f406cc83f1b0148U,
  0xbf2164e03c24645cU, 0xbf8d89c93e592dc0U, 0x3f793d073e74ce88U, 0x3f0622ebbeb165cbU,
  0x3e0cc5bd3e57f4deU, 0xbf5ccc8bbeec66d9U, 0xbf41b1103f4a35a4U, 0x3e35382bbf120a02U,
  0xbedf1f4f3e95e6eaU, 0x3e1a1d973ece7e23U, 0xbc7438963f8b3e96U, 0x3e8d7e4f3e47acfcU,
  0xbe3a3439bed383f9U, 0x3f2255093d8fd41bU, 0x3f15198bbf16a99cU, 0x3e3fd5a2be6118acU,
  0xbe0f73acbea1f922U, 0x3f0e1a5d3f90d64bU, 0xbe0bd3b5bf58e3b6U, 0xbef293f13f1cc0b3U,
  0x3f7a1d93bca2ee82U, 0x3e736736bd8bd9a4U, 0xbdb19110bd7a1f59U, 0xbe564b9bbdc02a3aU,
  0xbed014a7bd676272U, 0xbea2d16abf069efbU, 0x3c0baee0bf05308dU, 0x3f39b9203ff14104U,
  0x3e924d69be333bd8U, 0xbdbf55dfbf86c612U, 0x3f20e04dbe27c7d2U, 0xbf3f9a5d3d059fafU,
  0x3ec065e63eb93dc0U, 0x3eb85f2cbe83ea59U, 0xbeb0a6eb3f3e1c35U, 0x3e7646763d4b321aU,
  0x3ec39d1e3f64043aU, 0x3d14206e3de8e98aU, 0x3ea87fe53f060ecaU, 0xbf461791be935ddfU,
  0xbf868c9bbe5f9b18U, 0xbe84aaae3ef04b16U, 0x3e250a8c3e55e977U, 0x3f8b77cbbe8f438dU,
  0xbde1cbcfbef1a2fbU, 0x3e84b6343ea13116U, 0x3f72e2d93ee67ff5U, 0x3d146c773e589b7eU,
  0x3eeb5f633ec1ae5bU, 0xbd9b41a53eca2b42U, 0x3e83d5893eb21f12U, 0x3e2892eb3f1a8ea4U,
  0xbee8d3d33f323a64U, 0x3e0605e03f124fddU, 0xbda71a6abf0a4e03U, 0xbea1a197bc618a2eU,
  0x3e4d3376be8f8776U, 0xbe40e9e73cb67607U, 0x3f30696bbf4df3a0U, 0xbde085453e9c4b6fU,
  0x3d9e205c3ec01366U, 0xbe6c36a93f2f6aacU, 0x3ef581f1bf094ffbU, 0x3d03920cbe8f61c3U,
  0x3f0304433de56f92U, 0x3ecb94693f190a80U, 0x3edab6133f1c98b2U, 0x3ede2db33f176e9cU,
  0x3e9188943f82dbd8U, 0x3da50a7f3f0e0230U, 0x3c582724bf394de4U, 0x3dd4ab4ebee1a514U,
  0xbd0a7afd3ee2de14U, 0x3f9a10b0bcbb10afU, 0xbe4de5853d935072U, 0xbe747eb63f3db624U,
  0xbdd5262dbea2efc5U, 0x3e98b5d33f5dab94U, 0x3e35241d3f118abdU, 0x3e85b98ebc9ec0e0U,
  0x3ed90e46bdb64774U, 0xbd0d208ebf293bd3U, 0x3f0bdf363ed5adffU, 0xbe94c49a3e4722dfU,
  0x3e43d2ac3f976458U, 0xbf01dac3bec36c64U, 0x3f8445663f0b44bcU, 0x3f4741443f5e3a19U,
  0xbeb36802be852882U, 0x3e93c3b7bf8bad7cU, 0xbfb29c9fbdd75df2U, 0x3dec8ec53e4e71a9U,
  0x3ee068bd3e57d37aU, 0x3f13cc2fbf916432U, 0xbeb30550be0c0d03U, 0x3f15496abf2cd467U,
  0xbf77f992be388cc2U, 0xbe1684d3bea99468U, 0xbe9e44d8bf10c224U, 0x3f0eb2f43ef9bbf0U,
  0x3f2137e4beebb932U, 0xbe609fec3f96e88fU, 0xbe668aa3bee0da12U, 0xbf18c035be314600U,
  0xbbedc00cbf0af23cU, 0xbe03b337becc79ffU, 0xbe8103b43e13dc4fU, 0xbd0bd0cbbe7a5f1bU,
  0xbf1ff3acbea8afddU, 0x3d17ce63bf591536U, 0xbd840dae3eb4b45dU, 0xbd496f82be8f255dU,
  0x3f62a0a6beee53f2U, 0x3d044b9e3ea021b8U, 0x3da017193f307113U, 0xbdcdf510be828e29U,
  0xbdacbe6a3e594eafU, 0xbd65f27d3e653222U, 0x3e81eda93d635b84U, 0xbf2d5097bf18adccU,
  0xbeaddeee3d838736U, 0xbead3d54bef60835U, 0xbf226d0b3f11d801U, 0x3eb79fe8be859e27U,
  0x3d4bfc12bf2844edU, 0xbe17091fbdd44bbcU, 0xbec82360bf29308eU, 0xbed9b6393f12a405U,
  0x3ec8316ebf1197eeU, 0x3f373a13bf259c59U, 0x3f409c79bf395dd7U, 0x3ed15bddbfa81cd4U,
  0xbf502525be0964a0U, 0x3dd089383dc05439U, 0x3e0b13d5beb4602cU, 0x3e7a62683f429360U,
  0x3cdde06d3ecea4d0U, 0xbf54cbb83ef04e75U, 0x3f2b445fbf2dc682U, 0xbec405733f18dba9U,
  0xbecb1f01bea4ad41U, 0xbf05b1a3bf016998U, 0x3b667308bf4c468dU, 0xbecffcae3dacfd4eU,
  0xbe5d7d093f2ce4f9U, 0x3e7a1acd3f3712b2U, 0x3e63ba58bf54628bU, 0x3d88e2b63e6c5c89U,
  0xbd419ef03ed2be67U, 0xbd12a1f8bed9a617U, 0x3ef7d6603ea04488U, 0xbf694bf5bf07658dU,
  0x3f1bc1e23f5d91c1U, 0xbe7db2a9be8f8280U, 0xbf13aa6fbe8b39f1U, 0xbc216acbbf03c30bU,
  0xbe81cf043e456318U, 0xbe993ce6bf0ac6f7U, 0x3c6aa2f23f167623U, 0x3dd8b50e3f6d0452U,
  0xbebd0833be65273dU, 0xbf780b35bfa80926U, 0xbec94c513f058a7cU, 0xbea3c72d3f3f4cddU,
  0x3f83ebbd3ea92824U, 0xbd3973af3dd55af5U, 0xbf1726103de8458aU, 0x3eb47cdc3dc0f065U,
  0x3e9a4cd9bf0dc3c7U, 0xbf1c65d4bec2e1acU, 0xbed778b2bbff333cU, 0xbef3a3a2bf0a5421U,
  0xbf151911beb99e38U, 0xbf14dee83e910b8fU, 0xbee2ed8b3dd9f6d9U, 0xbcdc98143e881f1dU,
  0x3d1eec003e9596c1U, 0x3f6723b03ecf1388U, 0x3e8506d03eb000b4U, 0xbddfb1903ed1b8b2U,
  0xbda8c4123f956ddeU, 0x3e82c0f6bf016a3cU, 0x3f5f04b7bb5d9980U, 0xbda620aebf68ededU,
  0x3ed2e231bd3104daU, 0xbf31f3d7bf1b7d32U, 0x3f8a1329be5177a0U, 0xbe315570bf1e27f7U,
  0x3cc10c4abea2ca18U, 0xbf2b08cabf93c102U, 0xbf2da1a53f50dbd8U, 0xbed5696ebf9bc07dU,
  0xbf4cdba4bf0f694cU, 0xbebcff87beed2b61U, 0x3f9f9a503ee8c149U, 0x3f6c3646bf16e263U,
  0xbf1ecac93f5605adU, 0x3eb113663f361e6bU, 0x3f0a7da93f28aaecU, 0x3fb7dc27bf0e3759U,
  0xbe5539b4bf140457U, 0x3eda0dc13f904cbaU, 0x3f156166bf4c4643U, 0xbf78d0f93f87afccU,
  0xbe3ac5b1be03e477U, 0x3dd48c643d0003ecU, 0x3e40e4843e07ca27U, 0xbe7ae28abda1cffeU,
  0x3e5eaefc3daa57d1U, 0xbe507c523e0ca00eU, 0xbe6369693eaed5c5U, 0x3e879f7d3d18ae1bU,
  0x3d9bd8b0bd2ac8d3U, 0x3e471c3c3e5feb04U, 0xbe4b9fbf3d802dd0U, 0xbcbc42433e0b0275U,
  0x3d556f243e8573a4U, 0xbebc216c3e0bb0a4U, 0x3ea63d3ebc738735U, 0x3edda40f3e221225U,
  0xbeb40bca3d6dddc0U, 0xbe8139303dadab4aU, 0xbe1d86743da4ceeaU, 0xbcf510d7bdfb122dU,
  0x3e0ad9ea3d55f456U, 0x3e6b66783e9f8fb8U, 0xbe60b97e3e862ac7U, 0xbd824c64be98a1c8U,
  0x3dfba6bf3e055be2U, 0xbe03b5883e5afbdfU, 0x3e17927dbd416916U, 0xbe8411543e1c4d5dU,
  0x3e3cd953be0881ceU, 0x3e7838513e83ad8dU, 0xbd1bf905bd15c257U, 0x3e40f4843e0dd669U,
  0xbe3515f2be7fa7cdU, 0x3e94a7f83e58c27fU, 0x3d811066be84864aU, 0x3e7707623e94d77aU,
  0x3e44d650bd20a44fU, 0xbe60099b3e94f423U, 0xbde3a094be0219e0U, 0xbe4abb543e18b90cU,
  0x3e966995be8a4c58U, 0x3e5237203dca5f5dU, 0x3e84580fbe82f906U, 0x3d63d789be634915U,
  0xbd7d10433e31a042U, 0xbe24635c3c6a8afbU, 0x3d096e633da41ab5U, 0xbe7c6170bdb6d950U,
  0xbe1d0a52bd408a12U, 0xbc78fe143da767a5U, 0x3e8e30e2be104162U, 0xbe2b807a3e420f58U,
  0x3e1ab21dbe117730U, 0xbe474dfebe7c9a4aU, 0xbe33bc2f3e847cf6U, 0x3e9578bfbdc62213U,
  0x3c53790fbe38402bU, 0x3dca2e703e2ab4b4U, 0xbe921111bec8c50aU, 0xbe4ac0d53e648f24U,
  0xbd224d3fbd3759d7U, 0x3e44bcd7be7fa7fdU, 0xbef55898bea77f49U, 0x3e4c6a643e7019f7U,
  0x3e6615bf3ebc0436U, 0x3e14d2d3be948b54U, 0x3dc5746cbe02b9a5U, 0x3e93ff78be86fee9U,
  0x3de1bcebbdff43c0U, 0x3e8569933d933929U, 0xbe12c29a3d00fd3eU, 0xbe81c5e9bcf6fc7aU,
  0x3ebb09c0be1fd1f1U, 0xbd80d5163eae1bffU, 0xbca8b33d3e5e641fU, 0xbd7033debd6c2f3fU,
  0x3e7c90693e6212e3U, 0xbe53b5dabc53b696U, 0xbe3a5db83e40b92fU, 0x3e075c4ebda072cdU,
  0xbdfea6233de212c0U, 0x3e09f1f23e104f72U, 0xbd96413a3de5c79cU, 0xbe666b45be514f16U,
  0xbe0d310a3e19c2ebU, 0x3ddee955bd070738U, 0xbd82683e3d15b937U, 0xbea07170be0be494U,
  0x3e686082be0e19ecU, 0x3dcaf9d33e4b2883U, 0x3e68788cbe1efe51U, 0x3da37a06be032923U,
  0x3e9a04e6bb59e2daU, 0x3ded3c673d7a97afU, 0x3cb5c38e3e08015eU, 0x3da1fd87bec17588U,
  0xbe6471413e975253U, 0xbde0ecfc3debdf04U, 0xbe47b0a9be3ca274U, 0xbe3288bf3dc75334U,
  0xbe274be13ea966f3U, 0xbe06282a3dd909deU, 0x3e97aa353d84d6a9U, 0xbe54eacb3ec7b621U,
  0x3e4c0b44be85c66dU, 0xbe2a0f1abd8dee98U, 0x3d0de80e3e8e5afdU, 0x3e647475bdea7db4U,
  0x3d6fe841be5d41b0U, 0xbd0e7124be73ab8fU, 0xbe10647e3e8f0156U, 0xbdb510dfbe964bffU,
  0xbd606d40bd91145fU, 0x3d27c30b3cbefd9bU, 0xbe661ce03e438290U, 0x3e1fff1b3e624625U,
  0xbed232463e3e7addU, 0x3bdfc7473e7b0b06U, 0x3e97fb773ea06cadU, 0x3e8022573e933cf2U,
  0x3de88c7c3de8b3f4U, 0xb99d1b42bdb3a8f1U, 0x3e715f6b3e68af68U, 0xbc1bdf60be3b50d1U,
  0x3a317d103e249258U, 0x3db149b2be2701d0U, 0x3e054c47bc109d2dU, 0x3db31d5b3e1d5617U,
  0xbd903a033e454f22U, 0x3e97f91bbd4ec130U, 0x3e8d9159be1716c6U, 0x3d2c702c3d8f51d4U,
  0x3e9da0013d1d623bU, 0x3e31f5273e4a531eU, 0x3cd99c6abe000119U, 0x3df228a73d2b53b9U,
  0x3e71da2ebe9202d8U, 0x3e196551be082b94U, 0x3de928723e528900U, 0xbd83edfabe5248fdU,
  0x3c1fd2fc3e282da8U, 0xbd909a47be8d886aU, 0x3d6c77f13d515edfU, 0xbd8b3a80be80e0a1U,
  0xbe1bc6f83ebc66b2U, 0x3d74c2283d95c6f7U, 0xbd4e8caebdf02162U, 0xbd97e2ffbe603195U,
  0x3e92aa033eb3ecf9U, 0x3eaee0c13ea6ba77U, 0xbe86ebeb3ea0b151U, 0xbe1ab29dbe608f78U,
  0xbda423c63d568d85U, 0x3d992a3dbd2a6d21U, 0xbe9fbfa2be38db11U, 0x3e9452183dc0b1beU,
  0x3e776d2ebebda20bU, 0x3e283f923ea26948U, 0xbe86756e3cbc04d9U, 0x3e163a54be558666U,
  0xbd71a6ef3da4cd64U, 0xbe07a6cebe86a5c2U, 0x3eab72af3d815249U, 0xbd9865533e4c268eU,
  0x3e371a4c3cc4df1bU, 0x3e424a74bd8b908dU, 0xbe985460bbe6ee9eU, 0x3d87b6ab3eb44d9aU,
  0x3e2c4f23be6c8ab5U, 0x3ddc773d3deca45bU, 0xbe457faabe86f777U, 0x3d8480653d089338U,
  0x3d87bff4bd8b9b3bU, 0x3e1e7f5f3e545160U, 0xbe89fc9fbcc02f4fU, 0x3e559bbe3e143c4eU,
  0x3cf5585b3e56ccd0U, 0xbe7289f9be8c6ba7U, 0x3e7b984a3ebf20bcU, 0xbda7656ebe4494f9U,
  0x3e2837a2be8d0076U, 0x3e9f985dbbae8801U, 0xbeaaff5d3d58b027U, 0xbdc1d89cbdcf9371U,
  0xbe90fa723c438b6bU, 0xbe866681be4f6bd7U, 0xbe66b79f3e8adc6aU, 0xbdf58be5be92d866U,
  0x3ed2b61b3d4233efU, 0xbd57cd283bf146d1U, 0x3e763c5d3d66a11cU, 0xbe3189efbe999059U,
  0x3e2c6c59be402784U, 0xbdf414693e6df000U, 0xbe2d02423e654ec0U, 0x3dc682d63cc525caU,
  0xbe38c4d93dd3c9a2U, 0xbe3df42e3dbd7084U, 0xbe5a0f4b3e4b9f35U, 0x3e25763abe6beb0aU,
  0x3cad9a5bbcbbe0edU, 0xbe22f890be287cedU, 0x3e590b193c62e60bU, 0x3d0a237dbcc8ec3aU,
  0x3e8d627abdbac5a9U, 0x3c85174dbe30c017U, 0x3ea5db71be3bde02U, 0xbe896fa8beafdf96U,
  0x3ddcaff73e0cee41U, 0x3e19544e3db6f984U, 0x3e2d8f743c4b34b0U, 0xbe5f2830bdca7dc9U,
  0x3da0a11fbe5641c4U, 0x3ebe6d99be807088U, 0xbdb5b43d3da762a1U, 0xbd354e5b3d997923U,
  0x3da39cfc3de2ac87U, 0xbe75df84be01c232U, 0xbe6d9da9bdc48dd5U, 0xbdd249b9bc6d5144U,
  0xbe16dff0be8bff51U, 0x3d30581bbe71eb92U, 0x3e8524ecbea20a76U, 0xbe9e159dbe08b2feU,
  0xbe846667be1224d4U, 0x3e4a0df03e30e1cdU, 0x3c0f0b1b3e19f9b1U, 0xbe72b4da3d25d137U,
  0xbea3cef73c4427c6U, 0xbe75865e3e195db9U, 0x3e05d6eebd99f7a6U, 0x3ce808903e02199eU,
  0xbd65c14cbe118482U, 0x3d0f24813d81f653U, 0xbe8bd302bdfb266dU, 0x3e894b0cbdd8e3acU,
  0x3cb2b7733d23d457U, 0x3e21daac3e31168fU, 0x3d11c11a3e19fb27U, 0xbe628fc43e144506U,
  0x3e3298fd3e32855dU, 0x3e4ad4433e11ab88U, 0xbdcc09443b47c0f2U, 0xbe4106563e6b0b3eU,
  0xbe603800be4546a7U, 0xbe44f63b3e34b3a2U, 0x3d45b6a93d506057U, 0xbd9483983d74b64cU,
  0xbda7087a3dc52ec4U, 0x3dcea0a93e4c5448U, 0x3d8b68123e2e1346U, 0xbaf476c03e3562aeU,
  0x3e10c58ebdd1d722U, 0x3d4206b83cfb4cfbU, 0xbdf74ebf3e53b3a5U, 0xbe9be46abbd22ec8U,
  0x3e90a8bf3e43299cU, 0x3d882539be7398d2U, 0x3deb2df03ddfdd25U, 0xbdd61d4f3e4e9c50U,
  0x3e53e0df3d755cd4U, 0x3e18ff3e3d6c6b63U, 0x3dde2730be62f8d2U, 0x3e0d78d1bd959716U,
  0xbeff3abcbf27596eU, 0xbe56ead43ec622d5U, 0xbf2212a4bf2ac74cU, 0x3f2354fcbf040ac1U,
  0x3f0c0bcc3d24bb48U, 0x3ed0d364bf34c420U, 0xbd3b9156bda0b553U, 0xbda75b11bec88f92U,
  0xbe26be89be64b875U, 0x3c311da23ea897acU, 0xbf0f6bd6be9f721dU, 0x3ba20fd9bee5cff3U,
  0xbc6f8b683c10fed6U, 0x3e768bcfbe3ad30dU, 0x3da77455be2eac99U, 0xbf0267b53e9e1d25U,
  0xbeb55c77bef85807U, 0x3e8054f5be5e4c98U, 0xbe9583e73e45b51fU, 0x3dd5a15e3e01ad9bU,
  0x3eeacc6abeff961dU, 0xbf0bfdd43e8a182cU, 0xbe9f41d83f2c15e3U, 0x3e0e6558bf0e52f9U,
  0x3e2473dc3ee2b265U, 0x3df5fbf8be4a79f5U, 0xbebd2b09bf0310d3U, 0x3ea7617fbee85f76U,
  0x3e852aa8be4b0001U, 0x3cec94443d331a83U, 0xbe1d8b22bc5fdff3U, 0xbe2d3deebdfd7298U,
  0xbe25d0613e97a700U, 0x3ef3b10e3ed98dd4U, 0xbe0774103ec84ba6U, 0xbe88bbb53f094234U,
  0x3ed05f9c3d8bac18U, 0xbef0aea9bd6f03a3U, 0x3d2218aebeb43abeU, 0x3eb7389a3ebc07bbU,
  0xbdfdf1bf3e9bac91U, 0x3e99b9723d91b159U, 0xbcb5464dbccbcb32U, 0x3db7b3e2beed3891U,
  0x3e48d10d3dc29b2eU, 0x3dbb48ae3e52efe3U, 0xbe9e7ac53edeaa5bU, 0xbe010bd33e8ffa93U,
  0x3e529b7ebe81eab4U, 0x3db9bb2fbe973654U, 0x3ea7c165bedd7a84U, 0x3e9102f53ee7b64aU,
  0x3ee68a233d54ede9U, 0x3f0a1eca3d8fa70cU, 0xbf0580523f0a40ecU, 0xbd8b68bbbef7be95U,
  0xbebd6ec13eefcef1U, 0x3e6624993ee204c3U, 0xbe4dbc90be1b39c7U, 0x3ef5913f3dab3972U,
  0xbed5f04dbd48f3cfU, 0xbe805d51bf1fbabcU, 0xbee25e9dbcd0983bU, 0x3d04b2133e406ec8U,
  0x3e14608dbe402c34U, 0x39be92bdbf15a7a2U, 0xbe88a2763f0ed4eeU, 0xbea40ba8bed7c0dcU,
  0xbefa8f26bed3c895U, 0x3e77d2eabce76a5eU, 0xbd8dda71be8c8f69U, 0xbeb49ce33cc69895U,
  0xbe1f01c8beb15f5cU, 0xbf11ef2d3a0f4797U, 0xbe33f390bd1e1d3fU, 0xbde81c813dddbb6bU,
  0x3e31f92fbdb57c82U, 0xbd0d7c773f05135fU, 0xbe85b3533d5b680dU, 0x3f159236bcf66cfeU,
  0xbead1bc8bed3fc21U, 0xbd9192263efdaf35U, 0xbe3f9c12bec48ffbU, 0x3e122659bdaa3b96U,
  0xbf02b81cbe8ac113U, 0x3e35aaf9bed93647U, 0x3e8bdc30bc36e84aU, 0xbe9da9903e07beaaU,
  0xbebee119be8c74dbU, 0x3f21e3bb3ea02436U, 0x3d90c8533d91e24bU, 0x3e564be53e59a119U,
  0x3eaa4ede3f07557dU, 0x3c75d224bf33dbe7U, 0x3dc5fcbe3e3251b9U, 0x3e621e72bf0ec394U,
  0xbeb6e6e43ebc89e5U, 0xbeab580f3cdb0703U, 0xbe1d0ca33e66d26bU, 0x3e65ff7cbeb6b789U,
  0x3e2150a83e19cc1dU, 0xbf20a677be9faf03U, 0xbf03ddbabee4856dU, 0xbf0f4e96bef691d0U,
  0xbb8fbb453eee9607U, 0xbeb9042f3bc6d82aU, 0xbdab1fe13d91eefeU, 0x3e519978bdb6effaU,
  0x3e99d422bea867f3U, 0xbcb4cc96bf195da7U, 0x3e607bd9bed50ccbU, 0x3d7480573ee12e43U,
  0x3efaa331be47dbb5U, 0x3e61585fbea59980U, 0x3e440babbdaafd6cU, 0xbe412231bda9731cU,
  0x3d5c8cd03e0c67b3U, 0xbe7b2bb9bcd7b852U, 0xbf754ada3cc965ceU, 0xbec6e51c3dcad6eeU,
  0xbe4ebe05be607e19U, 0x3d6d1d0cbeb39650U, 0xbd9f5ef0be62ba63U, 0xbf1b8b9bbe2f8195U,
  0x3de9c307be7ea985U, 0xbeca9befbf4fb8c2U, 0x3d8677823f1e2cd6U, 0x3e7d43b0be912ef1U,
  0xbe8ad40f3e32f405U, 0x3e8098e5be19b92aU, 0x3ecb8e163e5c4014U, 0xbec60104bf03f19bU,
  0xbe0ba9d13e2a7923U, 0x3ed0f88ebc2b6841U, 0x3e6332b2becd5c60U, 0xbdb5a900be4bafdeU,
  0xbe7b2e753ea558deU, 0x3f23c78ebeab6250U, 0xbcd7cb1b3ea97c9bU, 0x3e48323ebf0aa9a0U,
  0x3f2650843e99af4aU, 0xbe4b59563ce5b3f9U, 0xbe8df485be47591fU, 0x3e460f943e577179U,
  0xbeca77cabe0412b2U, 0x3e449d5abe8310caU, 0xbdfb7755be8fa6ceU, 0x3e82c13bbe85c910U,
  0xbe3395e3beccf807U, 0x3db317323c888a1aU, 0x3e871d20be0e3ef6U, 0xbec18e1cbd27fd9cU,
  0xbe80d90dbd397dd1U, 0x3e1fe48a3ed3a0a6U, 0xbebee7713e85f7deU, 0xbd58206f3e0f4351U,
  0xbea178873e062e61U, 0xbe991b0f3deebfd6U, 0x3dc3e8173d744431U, 0x3d8dfbe3bd95b64dU,
  0xbe8137cbbe4a9499U, 0x3f1d35f1bc35758aU, 0x3e8469a9be224a49U, 0xbdfd2e3abeb65ac7U,
  0xbe1746a0bea148ddU, 0x3dc2cc303ecc4490U, 0x3eb31508be2abea8U, 0xbd9ff1783eda8792U,
  0xbf06c85c3ed15deaU, 0xbe641cdfbda5f5fdU, 0x3e8b7147be96dd6bU, 0x3e9a7938be8e825dU,
  0xbe70eeaa3e29c1daU, 0xbed51fdfbe7abc9fU, 0xbe8e30843e1bc4bbU, 0x3e005ffe3e3d7506U,
  0xbe16716a3e805d37U, 0x3e76e4d0bf2f3c3dU, 0xbed7c16ebe910bfcU, 0xbef70ac73dcafeb4U,
  0xbee844313deccf6cU, 0x3dbda6e1bf1a8ee0U, 0xbe5c1e05bedad895U, 0xbec1a4f23dc0b1a8U,
  0xbdf736f53ea41a4eU, 0xbe4b23173f235cddU, 0xbd13c7ef3e5840edU, 0xbd3d189c3eda518bU,
  0xbe9cac9e3e0dce3eU, 0xbe8dde773d4f7443U, 0xbe619c9abe05b1b7U, 0xbd3204b43e8341ecU,
  0xbf0ba8dfbec7ba0aU, 0xbe4166c7be8396abU, 0x3ee14de43e80e519U, 0x3e849cdf3e9a7439U,
  0xbf0e260fbe4273aeU, 0x3e29f5023e8cb141U, 0x3e0adcf0be82ec19U, 0xbe0efeb93f069954U,
  0xbf13e490be821956U, 0x3e8acc29be918ea5U, 0xbda489063d89c031U, 0xbe32cd3d3d94a7dfU,
  0xbe8447243ed2bf07U, 0xbf1810bc3e91d1a9U, 0xbe8a1a78bdc412f4U, 0xbea7e850bdca4b2aU,
  0xbe3d92ea3f2bcc5aU, 0x3df3f2763c72b164U, 0x3cc4c6f1bf03aa4dU, 0xbea44b7ebe3e33ddU,
  0x3ed73d673d5e4690U, 0x3e59b7813eff1347U, 0xbdf7dff73f257638U, 0xbeb94983be010abeU,
  0x3e0825b9beda5a3cU, 0x3e98762dbe2b0997U, 0xbeab08b03e46843eU, 0xbea162f63bc94d3cU,
  0xbe9303c7be058f65U, 0xbeb13bb6bdb8b9b6U, 0x3f29410d3f0cfa21U, 0x3dab8ba7be199df0U,
  0x3ef4e265bf095a26U, 0xbe0e01673eb3e7ecU, 0xbe925aaa3e07062dU, 0x3ebb29c1bd9a09cbU,
  0x3e914ff7bed8ba60U, 0xbe9716093c3ec967U, 0xbcb15bcc3e868ad1U, 0xbe5cf834beb2a7f6U,
  0xbea34b1ebe9250ebU, 0x3e417bcdbe5542f1U, 0x3e4494efbef319aaU, 0x3e40edbb3cca9d6dU,
  0xbf1c3495bea71060U, 0xbe8168a83e66231fU, 0x3e82e237beae1b7dU, 0x3c547ae0bdcf8265U,
  0x3eac0620beba3477U, 0xbec11a413ed2a210U, 0x3e9c4f523d3e0515U, 0x3c67e96a3ea990b1U,
  0xbe85a4373e237eb1U, 0xbedfebf1beadf503U, 0x3eda5dfc3de57c02U, 0x3e8525ca3e8dbc9eU,
  0xbe0c0064be2bb15fU, 0xbdada8bdbf15f527U, 0x3f08ca21bdc35148U, 0xbe77f117bed8035cU,
  0x3f155267be1e4e6dU, 0x3dd5dbfabe8c250bU, 0x3d3f4c5b3eadda89U, 0x3ec7418abed32803U,
  0x3ebf8e9d3ceb7eb4U, 0x3c6dea23bddad773U, 0xbe81e546bd91ed3cU, 0x3ebdfe82be7e3fc6U,
  0xbea9c38cbeb5f616U, 0xbed8eab4be80697eU, 0xbcc14c5c3dd466a1U, 0xbe4482bbbe848a16U,
  0xbf1b19803f088e26U, 0x3f47d3813ec4f24dU, 0x3f1170543e413686U, 0xbeed1f80bdb7e688U,
  0xbf24445ebf4bf267U, 0xbe6ac950bf080db3U, 0x3eb2e47ebe901188U, 0xbd68fbfd3e4c7084U,
  0xbeabe4a7bdec1405U, 0x3e9942aabe0d1fbbU, 0xbebe13933e16396cU, 0xbcba74dbbdab8c63U,
  0x3e6fd252bef30b3eU, 0xbefeaea2bea3c52fU, 0x3e21396b3e75fbb6U, 0xbd8aa10f3eeb0af9U,
  0xbcf1fbfa3e436a39U, 0xbe39fa3fbe4f5f60U, 0xbec7f29f3e230234U, 0xbebe2c1abeca4ebaU,
  0xbe05ad733e04c21dU, 0xbd6fa4173e8a05beU, 0xbe92226b3e92422bU, 0xbe5d2380bdebd99cU,
  0xbee8ee263e8a8075U, 0xbbe25a603e38403cU, 0xbe336af33e7047bdU, 0xbf68f5edbebde65dU,
  0x3efc22b93f0b097fU, 0xbeb4af58be98cd79U, 0x3e2bf0f0be977f7aU, 0x3dd9a6743dc747a4U,
  0xbe363e2c3d167183U, 0xbd1fa3f8bd7ec60eU, 0xbe8f47253ebfe2aeU, 0x3f07e59fbed7852dU,
  0xbdb9c563be7441f6U, 0xbee433de3e99eebeU, 0xbf1d24743ccc369aU, 0xbe2528533d3edcadU,
  0xbef3b9c3bef7e218U, 0xbeefc09b3ec743a8U, 0x3e895eeebf1d8578U, 0xbf428f7dbf16511aU,
  0x3df5c22c3d1890e9U, 0x3e0eb4b0bde8c6dcU, 0x3e65ea7c3e7551aaU, 0x3e08039c3daf6be8U,
  0xbe86c0bd3e06eb6cU, 0x3e4a0fe83d9ab653U, 0xbe9a36923e6893f9U, 0xbdbc6d423ec480b3U,
  0xbe971c47bcf25a2aU, 0x3ea65bdabc8cb2a7U, 0x3e1d5025be68c9e3U, 0x3c7637743e7e3c58U,
  0xbeebced13ea629bfU, 0xbed20eabbe60c15eU, 0xbe91964e3dc4cfc6U, 0xbe7458c53ea21b85U,
  0x3e85d7fdbec51532U, 0x3c7aa7e7bf03feeeU, 0x3e3d06eebd1d3be6U, 0x3c1b054ebe85a15bU,
  0xbec7f9f53ed68691U, 0x3d32ef373cf0235dU, 0x3e1810e43d9a2b03U, 0xbd06e5e73db741e8U,
  0xbdb58df53e8845dbU, 0x3ed7e4663e1b12a9U, 0xbecdf0533e71cc4cU, 0xbec8486c3e7ed182U,
  0x3ef7200ebe70081dU, 0x3e31c106bd201276U, 0x3e87e980bea6ae83U, 0x3e91b7f93ed7aec9U,
  0xbe94ebf3be6bf3a6U, 0xbeb006b73e2ff592U, 0x3de2b9ef3ec63dc4U, 0xbe9166943e1c6135U,
  0xbeb5d72ebec018deU, 0x3d9cccb73cdaf6e3U, 0x3f0b8b103ea81c75U, 0x3e252d17bf131665U,
  0xbf1192f63ee017b1U, 0x3e62eb683ee0c36fU, 0xbf0a75343dbc20bbU, 0x3e289b7c3e9ebcbcU,
  0x3eece83c3e9ec8a0U, 0x3deeb44e3dea6298U, 0x3dddac42bddbdd85U, 0x3e537e8f3e8822c2U,
  0xbe4601b83d6f4378U, 0x3ed891b9be0a268bU, 0xbe9a6833bd82d788U, 0xbcf5dea5bde7050aU,
  0xbeec511e3ebe7e4dU, 0x3e27bcdc3cb0abc7U, 0xbecf53933ed61663U, 0x3e451507be51261bU,
  0xbed5b507bf14a1f4U, 0x3e9b3b703e53e77aU, 0xbd1422d73e9589e0U, 0xbdfcb308bed72ba7U,
  0xbd4e23aebebd623eU, 0x3e93764cbca2cf37U, 0x3e369f6f3d3b85fcU, 0x3bc9e2c43d8ad1e4U,
  0x3e12365d3e215089U, 0x3dc139e2bd69e942U, 0x3e8a7afa3cb63bbbU, 0xbe6d8c6f3e6e765dU,
  0x3d48cf353ca0c6aaU, 0x3e39149e3cedb6c6U, 0xbd8d193ebb22c640U, 0xbd67ec26bd9518baU,
  0x3da4a89a3dc18396U, 0x3cfced7e3d986455U, 0x3dcb29373e472528U, 0x3c3575003dd7fc34U,
  0x3cc585a83e472504U, 0x3d1216c23e0ff2c0U, 0xbd0853923d4b4f00U, 0xbe5cc6763c82a58fU,
  0x3d77927fbd8b6cd0U, 0xbe212a4cbc47d048U, 0x3df17fbd3e0a80d1U, 0xbc791a68be0f5a29U,
  0x39d241d03d9ccdedU, 0x3dddc3d73dcf5b9eU, 0x3c9085a43d698ff8U, 0x3d9ca29e3db76f01U,
  0x3df424b33e2aeb71U, 0xbd2d06943e67985eU, 0x3c945638be12bb34U, 0xbd109a7dbd99af53U,
  0x3db3b45abdb536ecU, 0x3f01603c3da960eaU, 0xbe1df3453f8e9334U, 0x3f66db4ebf02dc15U,
  0x3d8e06693e992a53U, 0x3ebf01863ecd2f02U, 0x3f514593bdbc5a43U, 0x3f022faabe104314U,
  0xbd195a0b3e865db7U, 0x3f0a9c663e8174deU, 0x3e917eca3d2a7bd1U, 0x3ef6ddbebeb58de0U,
  0xbe882004be2d892eU, 0xbee24b18bf6ca76fU, 0xbfa6afa6bee2308aU, 0x3ed54d43bf14c191U,
  0xbdd85afd3f1ee8c3U, 0xbee638c8bee53331U, 0xbf863679bf0643b8U, 0xbf8be1e83f97943fU,
  0xbf4928cd3e4f9cf6U, 0xbebc00b2bf49b110U, 0x3e237b993e160082U, 0xbe86cc353f106379U,
  0x3ebb03393f90dbbfU, 0xbf319165bf2a3febU, 0x3f3b966fbeaf45eaU, 0x3e8fa732bf2dc081U,
  0xbeaf00e9bea7dbaaU, 0xbf1437a53f392076U, 0x3e8d0f25bebabdf7U, 0xbe943cb53f18b735U,
  0x3ec9ff9ebef6bf63U, 0xbd10fcf83f57daf6U, 0x3f41880f3eef74c8U, 0xbfd7b7b5bf6a5cc7U,
  0xbf1656123ecdd995U, 0x3cb703843f560ab8U, 0xbf57ae7dbe5c1f56U, 0x3f6b8a0b3ebb0c01U,
  0x3f35d9c5bf177958U, 0x3f8396b3bec6530dU, 0x3f88dcf93bfe9547U, 0xbf36865e3f8f81fcU,
  0x3e92f6e43e98e715U, 0xbf26cb18be3d33acU, 0xbec43a45bc074b63U, 0xbd9fa91ebf8433b0U,
  0xbee57c4bbe254122U, 0x3e39657abe1434e6U, 0x3e5337753d1999c3U, 0xbf874ffebfb09001U,
  0x3e7cf413be8a54faU, 0x3e1cdad4bcafdf4dU, 0xbf1b909e39a8e8b0U, 0x3f0348603c859cc6U,
  0xbe7bb04c3f785972U, 0x3b038803bf87d6caU, 0xbd9d381b3e5ea723U, 0x3e26e7a8bf582590U,
  0xbe49d481bf107e6fU, 0xbe04d0b7bbfad2d3U, 0xbe3453203e3bbb41U, 0xbeff2edcbf247749U,
  0xbf7c9877bf3cddcbU, 0x3fa0cb803faeb23bU, 0xbf1f1c7c3e96c9f7U, 0x3ed63c1fbfb50364U,
  0x3e66c62f3f4ad127U, 0x3ccbac97be755320U, 0xbf2f9ba13f3a54e3U, 0x3ea7863fbee870caU,
  0x3f8816633f326b0dU, 0x3f86eca5bfade17dU, 0xbed98340bf518c26U, 0x3b9bd2823e7d9aa6U,
  0x3f94105dbf5799aeU, 0x3ed147543e3706b7U, 0x3f59a4b23d068172U, 0xbee279c9becd1371U,
  0x3ebba962bf980cb4U, 0xbdac1eb83f7f7159U, 0xbe2b81813eda7dd9U, 0x3ddcd0b03f8c71eaU,
  0x3efde54f3d311caaU, 0xbc2cbe8ebee57747U, 0xbf05f1cd3dcdcb21U, 0xbefa37973f563570U,
  0xbdce797e3e7d31eaU, 0xbf9cfca53eac1636U, 0x3e10c257be988cc7U, 0x3e2e08d03f32e065U,
  0xbf987787bec80558U, 0x3f900c153e8060bbU, 0xbf2253da3c8b51ceU, 0x3f1dac22be8ebf0aU,
  0x3f5d68513f03e9eaU, 0x3e9b15fdbf1c33a9U, 0x3ed2550b3e5297d2U, 0x3ef135ccbfba34d8U,
  0xbf5370cb3e9f9c83U, 0xbf1fe3bd3ed38942U, 0xbd381c56be63d7f6U, 0xbf72786dbed4fee5U,
  0xbc8e097a3e884d85U, 0xbef5b099bf613912U, 0xbf1ec0ecbdf4537aU, 0xbd4c30e3be033d16U,
  0x3f06d5c63e83d1beU, 0x3dd8cef83f1a6385U, 0x3e8cd11a3e351ac5U, 0x3f17c5693f33c4dfU,
  0x3db6709fbf060d63U, 0xbf3568393e8a03e2U, 0x3e36016d3d0f7bfcU, 0x3f354ca2bd26eb2aU,
  0x3f7d88b63f62849fU, 0x3d16d697bf6254faU, 0xbed0dd433e71f3caU, 0x3eaa3130bead45afU,
  0xbddbee4bbf4b7258U, 0xbe611b1c3e771ee9U, 0x3fb4432cbf5b5700U, 0x3eb63ef63e7d0659U,
  0x3f7945583d0e61abU, 0xbf296b2e3e13986fU, 0xbf4636323fb7da62U, 0xbcc167363e74effeU,
  0x3f0679a3bf0bd4f4U, 0x3da7b331bdd09a1eU, 0xbf5413cbbf09d2c3U, 0xbf3e8f10bf00fef2U,
  0x3ee1c80ebea27434U, 0xbf60d77bbf2afbe0U, 0xbf2bd4943e1104faU, 0x3d9ed2fbbe987ea8U,
  0xbf0a04523d8769e7U, 0x3fbaff863f36f1d8U, 0xbe2ddfc23f5703e4U, 0x3f89c277bf97f972U,
  0xbd58cacebd3db41fU, 0x3ea3c7c13f307038U, 0x3f1411a93f6cbbb3U, 0xbeaea380be30800eU,
  0xbc84bdecbe6fee5bU, 0x3e845b1e3f03220dU, 0x3f4b09883ec7041bU, 0xbf9f95b73cf1918eU,
  0x3e14df7b3e02fb5bU, 0xbeb0112a3f392435U, 0x3f7dd6853f885330U, 0xbf53fd2fbe530554U,
  0xbfece64dbe80a55eU, 0x3e2127373c85b7cfU, 0xbf04375e3e4257c1U, 0x3ebdf199bf7b74ebU,
  0x3d98fc50beb7b8acU, 0x3f3b526a3f856db5U, 0xbdec1d3a3e679edbU, 0xbf145a5cbf23ead3U,
  0x3e237d48bed52402U, 0x3e783f7dbf5cb05fU, 0xbf1351c13ebc065cU, 0xbf9943f5bf1c17acU,
  0x3f211d94bf094665U, 0x3ea795e1bde892ebU, 0xbf0ef5c13ca79528U, 0xbe64a1d73e29f7c2U,
  0x3b4427c5bf39757eU, 0xbe77578e3e246243U, 0xbf10e4cabb84aed4U, 0x3eabfe12bf125e58U,
  0x3f3ca4d5bed4c446U, 0x3fa5439abfced656U, 0xbd823b3f3f25d6b1U, 0xbf095e12bf1eaa72U,
  0xbfa059c03f2c0392U, 0xbd72a1323f5b322cU, 0xbeb248a03fa2be43U, 0xbf97f42e3ee85d83U,
  0xbf3318a73f14330cU, 0x3f1b2342bdaef65fU, 0xbed9890f3e3641e0U, 0x3f59675bbf504645U,
  0x3e50df47be4fe328U, 0x3f44f4a53f5edfc2U, 0x3e78e5ac3e2fb496U, 0xbe867e4b3fa9ae41U,
  0xbf2b0e373f2e5044U, 0x3dcee72bbef8fdeeU, 0xbfb7e6443f27fd09U, 0x3fda88edbe2e45d3U,
  0x3d235567bf833d46U, 0x3fd109e2be49beffU, 0xbe4535b53d2c3291U, 0xbc41effc3f5a437bU,
  0x3f978f58bd661b86U, 0xbed854c93ebb8e5dU, 0x3e3c94ae3e68a38fU, 0xbf38ee96be25c0c3U,
  0x3e5775a13d609882U, 0xbe9596453f3c5cceU, 0x3f5e137abf564b5dU, 0x3dfe785abefae8dfU,
  0x3e941098be8c3624U, 0x3ee0d677bf783b9cU, 0x3f48b5eabec4222aU, 0xbf55fe4fbeeb7aefU,
  0xbf07c7eb3ed6107bU, 0xbf94870d3f18e9fdU, 0xbe188535bf67b0d0U, 0xbf14c3b4bf12cfebU,
  0xbeb4fc0c3ea6dd14U, 0x3e521ec4bf2ddb1bU, 0xbea814f83e784eb1U, 0x3f0d0af13f505e1bU,
  0x3e873c22becabaefU, 0xbe1cb4d3bdd06bceU, 0x3f079f933d12d11cU, 0xbecd5c933e099b65U,
  0xbf813a873fb37b28U, 0x3f1c91aa3f5d9d7eU, 0x3e5e07303fa54066U, 0xbea7e8943e51355cU,
  0x3e3142ebbf050126U, 0xbf35a8be3d93ad46U, 0xbefc06273e4d3a2aU, 0xbf821b74bf81bdeaU,
  0xbe8633a33f31e3f3U, 0x3f5406523f07a28aU, 0xbf1dc32a3ee9aaabU, 0x3f656b8b3e83d998U,
  0x3ee23b39bf7d9727U, 0x3f4761173eaa54f0U, 0xbf43765fbf0f5048U, 0xbd557bcebfa8c6a9U,
  0x3f4e4ef53de165abU, 0xbecdc73a3eb57ad5U, 0x3f8cc658bf367b37U, 0x3e28f5103e7c35e9U,
  0x3d84773c3b0e1512U, 0xbf2deaccbd987c74U, 0xbe2f0e61beb19805U, 0xbdb793f3be65a1e6U,
  0xbcaa4988bf0570f3U, 0xbdb8b16c3f569df1U, 0xbec7551abea68ff3U, 0xbf2249693ef45dd5U,
  0xbf081d5dbec2aa00U, 0xbde2cb5cbd557aa4U, 0x3e957747bdb15dceU, 0xbe9708c83ebd86e0U,
  0x3e252ea13f9a1fafU, 0xbf3c3a2ebd698d9dU, 0x3dcb06113ebacb35U, 0x3e665f74bf0daa03U,
  0xbe97c7ccbe7935edU, 0xbed2251bbed653c2U, 0x3e22f632bf20e9b8U, 0xbea027a4be50902cU,
  0x3e52d5c63f3c51a4U, 0xbf073873bfa3cc36U, 0x3ee49704bf13f7f8U, 0x3f4458143ebe9425U,
  0xbf05cc4cbfe199c8U, 0xbf2359cd3f6a5b20U, 0xbf8b6b413f8c796aU, 0xbe4c88f4bf65fcf6U,
  0x3e7acba3bf23b793U, 0x3e1d45b7beaf9c2bU, 0xbf0b53133e5ea3afU, 0x3f8e18e6bdf17d15U,
  0x3d988b9a3f8fcd6eU, 0xbd4d6c05bf76a9d8U, 0xbe0139243e88400bU, 0xbae34f2abf5ccae0U,
  0x3f052dc43daa0c03U, 0xbf07c9a5bf50488eU, 0xbf5bcd663fb15e44U, 0x3f657b60bf15c55eU,
  0x3f21cae5bfa90553U, 0x3ef49ee23f29d4a3U, 0x3f13b8a9bdc7b76dU, 0xbf748b54bd1c1692U,
  0x3eb0428c3e807bffU, 0xbeeb3e893e96d98fU, 0x3f221e153e0853ecU, 0x3e9cd0ee3e91797aU,
  0xbeaeb4c33f454225U, 0xbe45a0843e9f1aabU, 0x3fba4d2bbf407fccU, 0xbe46d58b3e4185f5U,
  0x3f109b63be42ded9U, 0xbd4c4fb8becb7658U, 0xbeaccd70bf9846cfU, 0x3dcbd41dbe472223U,
  0xbe150a19bf4c3b97U, 0x3e10c500be71d653U, 0xbf819ecf3dac67d9U, 0x3fac7d25bf5aa2c8U,
  0x3f6a4ba43e6b6945U, 0xbd53c8163c7e2048U, 0xbeca56123d2f2a8dU, 0x3f60329abeb0332aU,
  0x3e20462e3f6f0917U, 0xbe9fa1553f867f54U, 0xbeb8e1e6bd40effdU, 0xbea241dabdd5967cU,
  0x3e1e8738bcd604d4U, 0x3f72323fbedec292U, 0xbf0802683ef8f088U, 0x3e35a102bf66d1e7U,
  0x3f827536bf45c8e7U, 0xbf33e6103f4d33bbU, 0xbe7048cbbf63a945U, 0xbe37a2db3e9359b8U,
  0x3f3144f23f935181U, 0x3e5e0a3d3f60cb63U, 0xbf55af32be837f2cU, 0xbdfe4836bf1c5c84U,
  0x3e303f59bf4cfa1bU, 0x3f9dfd903dbbc590U, 0xbf367e9dbe826d0eU, 0x3e8a08ecbec1a578U,
  0xbf1e48cd3e9de54fU, 0x3ec90b0d3f43dde6U, 0x3f6956efbedccc24U, 0x3ba41b003f8d26fcU,
  0xbdcb853d3f199c01U, 0xbf1028f93ee037ccU, 0xbcdfeec8bf2717eeU, 0xbdd7f50a3f931e72U,
  0xbe48afc23d8de0faU, 0x3d706f1b3ead8a46U, 0x3ddc14d43db3354bU, 0x3cbb0b1a3e3c4e73U,
  0xbe30e0d23e7291abU, 0xbed11fd03d5f8e37U, 0xbdd19999bece9369U, 0x3e2fb7713eafcd13U,
  0xbe8c0cf63d5e8696U, 0x3e8011b33e1ae023U, 0xbed85bbebc6f60deU, 0xbe3884ef3ded2aebU,
  0x3de4b13ebe2b9d05U, 0xbead42043e0cc8b0U, 0x3f168bb8be5c7325U, 0xbed1cadbbd029808U,
  0x3d0514073eb1f6adU, 0x3d977783be01e1b4U, 0x3e8ece41be977006U, 0x3cfa0602bd42fe19U,
  0x3e27b20dbe248de3U, 0xbe31b076be45e321U, 0xbe61476f3e98150cU, 0xbb8a79463c63de6bU,
  0xbccdfa7a3ed0acb0U, 0x3d9e9084be67b33cU, 0x3d4cd4e13e0aada6U, 0xbea2ecab3e4a3e4bU,
  0x3e24796cbeef4bc9U, 0x3e85b630be2774f2U, 0xbea6718bbe1d5a3cU, 0x3eb479a1be968b09U,
  0xbe9185d8be9c99b4U, 0xbec0b02fbe4aca65U, 0x3e7c719c3ea26209U, 0x3e859c86be9359c7U,
  0x3d8b2d093e31d514U, 0xbe87b2d43e431ce0U, 0xbd96ee323e504b2eU, 0xbe4e3068beacb983U,
  0xbe6149c73d1dc6b2U, 0xbd12b30bbe50068fU, 0xbe4388e13c6ae6fbU, 0x3e82fc40be834f65U,
  0xbdf0d5fd3e772419U, 0x3e2f05e3be8a45bdU, 0x3e1ec60abe08ef3aU, 0xbe92a4b53e2b346cU,
  0xbc9dc004be604489U, 0xbd12751e3e85c69cU, 0x3ded3a99be39e3a2U, 0xbe234ba63cf9f85cU,
  0x3de10ce03e0b2e73U, 0x3dfa4f9dbdc53063U, 0xbd374323bea3289bU, 0x3ebadd17be0e1eafU,
  0x3ea83c813e8a4d09U, 0x3dc9cb033e92410dU, 0x3d061175be979f05U, 0x3ec03ef6be92b12fU,
  0xbe2bbe253c871dd7U, 0xbd95ffb33e56dc96U, 0xbe9632ebbdb16516U, 0xbda754ecbe691242U,
  0x3e1322e93e7cbef3U, 0xbe74c76f3e0142d4U, 0x3ec4c7bcbe145037U, 0xbdd62ecfbeb9818fU,
  0xbec931a5be74102cU, 0xbe448596bd9a0f29U, 0x3e9184ff3e3095dbU, 0xbdee0e053d0ad163U,
  0xbd5b60a63e06c6daU, 0xbe2b71cb3cd20cc9U, 0x3e35daf8bd80c559U, 0xbd5b12c83ca07464U,
  0xbc6bcf54bc24a1d0U, 0x3ebcf37ebe8a8206U, 0x3e9d458abe20841dU, 0x3e1baef33de0b22bU,
  0xbd1486b1be5bffe6U, 0xbd071ec9bdf29570U, 0x3d5046253e225e4cU, 0x3e305642bdd31ce6U,
  0xbea17f0ebe118e57U, 0x3ce2a825be85e0c3U, 0xbeaae8dabe1297d4U, 0xbe5e4b8dbe273a1dU,
  0x3e921d1c3d3cbf22U, 0x3d98befbbe311bc2U, 0xbe8f4c973daaa158U, 0xbdbb31be3dc5bf0aU,
  0xbb4964463e9f3cd0U, 0xb758657d3e8cc822U, 0xbdb07aeb3d9da013U, 0xbe9679773dc80554U,
  0xbe6c51d4be558ac6U, 0xbebe5395bd9d320fU, 0x3ea98cfbbe2fdec3U, 0x3e8c41643ea282ebU,
  0xbe881f893e005627U, 0x3e7f7bfd3e40a747U, 0x3e002c683e9b48e9U, 0xbec973e03dbad926U,
  0x3eb86034be2a2a94U, 0x3e070cc9bea6a540U, 0x3e7d5cb33dfac008U, 0xbcde12debeb54a86U,
  0x3eb0c3753d6b4ea7U, 0x3e2d13ff3e5c8647U, 0x3e3b9640be814268U, 0x3e5e231cbe8d10afU,
  0xbe83788c3ed43fabU, 0xbe00ebfdbe9aea16U, 0x3c2ac870be7a44bbU, 0x3eb3cf1bbd242077U,
  0xbd9dab78be995bfbU, 0x3e1dc7b2be3b1581U, 0x3e621faf3dcc3d9dU, 0xbd6d048c3e64a5dfU,
  0x3e8934053c8ab676U, 0xbe766a1e3ebdfcebU, 0xbcc43b8bbe946adcU, 0xbe7ef0c63c071252U,
  0xbd18631e3d5dbdc1U, 0x3e7f442fbe6ea158U, 0xbeae7f31be5809acU, 0x3efd223ebe557d0aU,
  0x3eed9d9c3de604dcU, 0xbeaacc0bbdcf21b6U, 0xbec2f724be377039U, 0xbe129aa9beb9f5bfU,
  0xbe11acac3d803a12U, 0x3d5b8eba3eb747aaU, 0xbcf82e6a3e3d2efcU, 0xbd933d0dbd7dd3deU,
  0x3e5ccbdbbe828f89U, 0xbec864333cbec6eaU, 0x3e4a34ca3cfdbc0cU, 0xbea56c6a3db3948cU,
  0xbe86e12b3dea95e2U, 0x3dbb372bbe18f447U, 0x3ec78dd2bda36906U, 0xbd904c523f086c74U,
  0xbe3713c63e4b77a9U, 0x3e6f5e9f3e08bbccU, 0xbe192f69be492041U, 0xbe749dcfbceedbffU,
  0x3e8d6d23bcb6c1ceU, 0x3e9e482cbe894126U, 0x3e9925a93ec1d4a9U, 0xbe485f9a3d82bad0U,
  0xbd59b9d3be464edeU, 0xbd6af1f23e8c5c2dU, 0xbe79b86fbe660e82U, 0xbb6202fc3d29dcc6U,
  0x3e25332abd111be3U, 0x3e9ead36be4c0138U, 0x3d915689bdb1858cU, 0x3dcfc17c3e6f20e9U,
  0x3dbaade9bdbf2135U, 0xbda2195fbe005b78U, 0xbeda85173e792b5eU, 0x3e8c0636be137a43U,
  0x3e2b71be3e92074fU, 0x3ca0588fbe553088U, 0x3e3f331fbd9f6b9fU, 0x3e48a52abe7c5230U,
  0xbdd2f88b3ed22b0eU, 0x3e786960bea08c2aU, 0xbeaa651b3e817585U, 0xbdbe8c06be7440e5U,
  0x3dfdd7ccbe775216U, 0x3eb598b4be0728d5U, 0x3e4a1ea73e093265U, 0x3e0539f1be8e9e33U,
  0x3e96ebda3d93c538U, 0x3dd06e86bea17d78U, 0xbe8a31733eb05283U, 0x3df21c69beb70e91U,
  0xbe35b94b3eab935eU, 0x3e06d7c73e8a8d39U, 0xbd8ae0123e8a5ac8U, 0xbd6ff3143d09d404U,
  0xbe0435adbc163e7bU, 0xbd41b45d3c9df2b4U, 0xbe3448f13dbad818U, 0x3d303a523d5e9d2bU,
  0xbe76422c3e181431U, 0xbe32df42bd42667aU, 0x3d0b276a3e053f6fU, 0xbb601a5abe88becdU,
  0x3e40afd33da4898eU, 0xbe0fefb7bbc910d4U, 0x3d3e6f873e9a719aU, 0xbe47881b3e631c13U,
  0xbea43629be82ee6cU, 0xbd9113a23ee00304U, 0xbe0c6279be16803fU, 0x3e0ad517bdfda94dU,
  0xbe070cf93c976269U, 0xbe33dca93cd75df5U, 0xbb6d9745bdf2ec3dU, 0xbd8ad845be84d2dfU,
  0xbe06902ebe977ff7U, 0x3d582c6ebe0672a8U, 0xbecbbdbdbe75b10bU, 0xbe3290073e60e8c1U,
  0x3daeec6dbdce9819U, 0x3e867bbebde0ec03U, 0x3d7481823e8b32daU, 0xbe96464d3eb312a6U,
  0xbd837a713a900843U, 0x3e3428ad3cc70c48U, 0xbe65500d3e1fee04U, 0x3e17116abeae1991U,
  0x3e9b073c3ca75909U, 0xbe0cf0d93c882bceU, 0xbbd76ddf3e89a34fU, 0x3ee2323a3e36eba2U,
  0xbe7929a6bed21fdeU, 0x3e056d1bbcd8d6b4U, 0x3d1a41c9bea348e5U, 0xbdaea1043dcaef4aU,
  0x3e1e1c713eaf839dU, 0x3e47b398be470831U, 0xbc894a05be84831aU, 0xbcb5f3ddbe5385b8U,
  0xbe1e3b24bd9c6f08U, 0xbdc43cc1bdd5f02cU, 0x3bf1d2a33b193980U, 0xbcce76923cfb743cU,
  0x3dc3f9893cb4a245U, 0x3e3ec069bdbdc9f9U, 0xbe73791ebe3a9633U, 0xbe68383fbe74c77dU,
  0x3e3da8783af0c17fU, 0x3e334a9abd5a4fffU, 0xbe2a1521be3bc58fU, 0x3e3190b13d27781cU,
  0x3e7f4ffcbe4efd15U, 0x3ec3e83abce1f6d3U, 0x3cf94ba9bd4a9e8bU, 0xbdfcc1a8bd9d1cd6U,
  0xbe16c137bad549f6U, 0x3e7356b33dd783a7U, 0xbe3ac359be75dc11U, 0xbde1bee7bead4305U,
  0x3eae38d3be715f2eU, 0x3defdbdf3e3b8f6cU, 0x3e9bda5bbe645546U, 0x3e8835073e1f3b2fU,
  0xbe2ee6bfbdf18cddU, 0xbe0002323e6553bcU, 0xbde38a09be2a837fU, 0x3c87e8e43e6bf273U,
  0xbeae85913e44713eU, 0x3e0af1babe073d6eU, 0x3e4fdbe5be7d4ee9U, 0xbe5c4a903dbe192bU,
  0xbe1172223e275d90U, 0x3d7880d83c630365U, 0xbe90df58be4a1750U, 0x3e8284703eb97794U,
  0x3d6907663d5662edU, 0xbcbcf28bbd8814b0U, 0xbea54d0dbdb191d4U, 0xbe5c3128be52584dU,
  0xbe59db64be06da87U, 0xbda90ebcbe2b9768U, 0xbdd8939a3dc5d68dU, 0xbdc0bb1abebbf0b3U,
  0xbe2ccb2cbe4e5d82U, 0xbe92680abc777b8fU, 0xbd8350743e261b02U, 0xbcc6d0bfbe227696U,
  0xbcf761813ad924d9U, 0xbe9c234b3e0b1717U, 0x3d096702be090ef8U, 0xbda8a0873dc457b0U,
  0x3d70b44abe93c1a4U, 0xbde617ec3c2d9e8dU, 0xbe59f9e53ec0244fU, 0x3e91030bbe2d4860U,
  0xbda5fc273e62895bU, 0x3e9c21febdcfaee0U, 0x3e6007d03e25fce4U, 0x3e5650b33e951afcU,
  0xbee41c5bbc9e90c3U, 0x3e17d08dbe920c03U, 0x3e9c9d93be33b2e0U, 0xbeb8ccfd3ec3415aU,
  0x3de1bd163d5af127U, 0x3cecb1df3c7f76eeU, 0xbd579952be8e523aU, 0x3e24d6c73e0f09e2U,
  0x3db45053bea941d7U, 0x3dd7ba2fbe236655U, 0x3e9270b2bdac89b8U, 0x3e8cdc02be944248U,
  0xbe91549abe172bbbU, 0x3e3d6b5d3ad39cdbU, 0xbe73ba0f3e7d82c9U, 0x3e0357383eafe5caU,
  0xbeb8b312bea0a763U, 0xbe2679f73dee077eU, 0xbd060f5bbe8367e5U, 0x3dcc99e3bc933196U,
  0xbe868f883e97be20U, 0xbebdff56be9026dcU, 0xbd0da39b3d60dea8U, 0x3e3710ea3e80d9bcU,
  0x3e495fb8be0f6a98U, 0xbeb00793bdbb76a4U, 0x3e790eff3b8bcd3bU, 0xbe0192a23e5b09abU,
  0x3d8389babdec0f06U, 0x3e48f9d63cd7fdf3U, 0x3c7268873eb31890U, 0xbd142f333de0ad25U,
  0xbd94fc2b3cebc113U, 0xbea2bd693e00be97U, 0x3de089dabe5ab00eU, 0x3e3b4ce0bc8bdcd9U,
  0xbe783b90be4ea7d2U, 0xbe946dfd3e81f9cdU, 0x3e11f8213eaa247bU, 0xbdf663893e8af9e8U,
  0xbe0c06adbe0cd568U, 0xbe2b7e573da4d63bU, 0x3e7343c13d820994U, 0xbdfcba143d8eeb5fU,
  0xbea53934be6ac327U, 0x3e6c39533ea7b27bU, 0xbeb1a46a3dfb68f4U, 0x3dfddde23e2189e9U,
  0x3e069551beb775b2U, 0xbe7a0fe3bd05c987U, 0xbd5c6d303e6d5223U, 0xbe09a1be3e983f13U,
  0x3d1b3b10be824c9aU, 0xbd80e1543e4d7b9eU, 0x3de8dddfbde23966U, 0xbdbd398fbe1d8631U,
  0x3e9e6a783e3ad968U, 0x3e660db8bdfe8435U, 0x3cd2a82a3d2a41faU, 0xbe65db71bdce8cebU,
  0x3e6a0046be83c453U, 0xbd9913c53ef692aaU, 0x3e7e780a3eadf9b0U, 0x3ddcc7c53c28edf5U,
  0xbe1360b8bc8bc5a7U, 0xbe4a84acbd5d0406U, 0xbea8d54b3e93665dU, 0x3e1ee1413e708329U,
  0x3d9622fdbe37640bU, 0xbeba2a3d3e6d0392U, 0xbe37a01bbe02bbdaU, 0x3e96b0113dae15c2U,
  0x3e6f87edbe8b89ffU, 0xbd6a0549be17411dU, 0x3f148a683e341a77U, 0x3f64967d3e857448U,
  0xbf12aed13d39c73aU, 0x3f178813becefe12U, 0x3f4ff5d63eae8afeU, 0xbe1e7dabbc94b066U,
  0xbd78aa96be2a6be5U, 0xbe25e73f3e0d04f7U, 0xbd9d96fd3dc4a987U, 0x3d0101f23c37048aU,
  0x3d916af3be5cae0aU, 0xbe139e11bdfecfb3U, 0x3e8898233e1de83fU, 0x3d5e66e1bea14962U,
  0xbe59dd8d3da58cdaU, 0xbd3d65e83dc7eabdU, 0xbdf8525b3e589453U, 0x3cfcac833e9a878aU,
  0xbd545c60bea30c4aU, 0x3a3433173ce07144U, 0x3db2ff7fbdd8d9f7U, 0xbe016fd83e674e44U,
  0x3f05e6ea3e67b83bU, 0x3d63b4403d0e8d39U, 0x3dea473dbe414b9fU, 0x3e9a37333dbf2a8eU,
  0xbe9fdc6f3e5e2b32U, 0x3e8aa4283df6ed8dU, 0xbebff491be62f09fU, 0x3e9c06cc3ea30803U,
  0x3e5c0d83bd9edba4U, 0x3e03f7f73dcfd4bbU, 0x3e8ddada3cd6e138U, 0xbcc900443e14efb2U,
  0xbe01e17ebe54981aU, 0x3e40e8363e3631cfU, 0x3d93efa6be2d6468U, 0xbe0cbab73d8b44a1U,
  0xbe416b783dbfdb2bU, 0xbe27471f3e576983U, 0x3d6cab1e3eb8078eU, 0xbe936d89bcd6a60aU,
  0xbdb11d2bbdf803d2U, 0x3dbbfd42be0ca422U, 0x3e5619173eb30aa7U, 0xbe88dde83e0c2f49U,
  0xbe5ff0ffbd1ff601U, 0x3e38ac3dbe61c7bfU, 0x3e46c2af3d9794d9U, 0x3e5c71093e5704e0U,
  0xbe3b7e863e4a1ea1U, 0x3ebbe16ebde948cfU, 0xbdcc6df4bc5ade7aU, 0xbda4a9c33d231656U,
  0xbe161d0b3e0d2d18U, 0x3e5f88033d50c29dU, 0x3e6fb6cb3e6870cbU, 0xbe286437bd13412cU,
  0xbea90053be39b7c5U, 0xbe88c97abdc223abU, 0x3e8740f6bd652d04U, 0xbe8828563e4d22bbU,
  0x3c3052a4be251a2fU, 0x3d986a423e4213d4U, 0xbe95c9ce3b0bb46fU, 0xbd54d1c3be1b101fU,
  0x3bafaab83d43aad0U, 0xbe1dbd573e0421f6U, 0xbe5599cabda129a6U, 0xbbc41b723df84412U,
  0x3d7e835b3b962458U, 0x3db7249bbe08b0e4U, 0x3dccdab0be498978U, 0xbe13682a3e0ccd68U,
  0x3e445304be46b04eU, 0xbe2e68223db42783U, 0xbd62e4173e86cdc6U, 0x3ec19fe13e39eb3bU,
  0x3e0d49713df0de25U, 0x3e73afd7be094efdU, 0x3c09f9823ea2d6c9U, 0x3c9478393ee3863fU,
  0xbd0ad55d3e150c90U, 0x3efa1674be744168U, 0xbdbe41fcbe3e8b34U, 0x3e377bd13e65d44cU,
  0x3e310b4d3d0d945dU, 0x3e5c06913e4bc908U, 0x3e9dec8d3e314affU, 0x3e6d69a8bdddeac9U,
  0x3c338fd43ece8333U, 0xbe9b5a7ebcb3211eU, 0xbe3c943a3e47cc9aU, 0xbe87b808be1cc022U,
  0xbdce2da33d76fb4eU, 0xbe3e4fadbda91602U, 0xbdcb0704bde02123U, 0xbeb420c9be57a25bU,
  0x3e407eadbe005a27U, 0xbe240a67be27f4ceU, 0x3d6fd5a13df671e6U, 0x3d2fcf3f3ec69240U,
  0x3e33a9113e4f22f9U, 0x3e36b408bccc686aU, 0xbdde00bcbe1305baU, 0x3db295833dca8028U,
  0x3c7d52d43e0b0d92U, 0x3d840e793e8832faU, 0x3e9278723e876b96U, 0x3e4aecfbbe3804e4U,
  0x3e1c07013ea24991U, 0xbdcc4c2d3d68d814U, 0x3e89a38abd441108U, 0xbcc87e573e8e4c4cU,
  0x3d588ede3b274a85U, 0x3e5cfe50be656ceeU, 0xbe26c9d33d82003cU, 0x3e270d31be6a95dcU,
  0xbdb2bcf2bdae0d45U, 0x3e2ab8d5bdbcca96U, 0xbde390af3dd4237aU, 0xbebeed4d3e1978ccU,
  0xbd55b8eabd5b170aU, 0x3e6ae4e13e1fa78bU, 0xbdbad54dbe9251cdU, 0x3d6a29473e75c975U,
  0x3d10a159bebf700dU, 0xbddd27c7be310216U, 0x3e3552763eaa0cdeU, 0x3e759ed03eb7de46U,
  0x3cc83cc0bd0daf71U, 0xbce3e0e1be5b116fU, 0xbe086692be04a75dU, 0xbd2a795f3e1cd25eU,
  0x3e445ee5be8190f5U, 0xbe3cbca8bd499bf8U, 0x3e3e08023e72f27cU, 0xbe6e056b3d9d69ddU,
  0xbc27e16dbd04fb15U, 0x3e23a947be9b6021U, 0x3dfe591a3b8de10fU, 0x3d343d15be520facU,
  0xbe1b1db63d343d13U, 0xbe5e15c03e0e37b9U, 0xbd63e812be471d95U, 0xbdad730ebd8a2e92U,
  0x3e427d0dbe8673f1U, 0xbe357cc9bdaab6acU, 0x3cb91eaa3de15331U, 0xbe9a01c2be7de28eU,
  0xbea41cd6be855f78U, 0x3d7739fbbcccc92cU, 0xbdfb00e4bea8ad35U, 0xbeae9b3bbd563424U,
  0x3da46a16be6dc580U, 0xbeae6e70becf6b14U, 0xbc2ba17fbe90ba19U, 0x3eb2bda73dfa6bfcU,
  0x3e0c123bbe38f34cU, 0x3e43a0f4bd7d75a2U, 0xbe3142d93e2b2becU, 0xbde56f20bd75e4c5U,
  0xbda521b13d7fdbb9U, 0xbe3c128d3ce597c7U, 0x3e3fba043e705bcaU, 0x3f0059f4be9976ddU,
  0xbd83c90e3c23e61dU, 0x3c291ad63c959be9U, 0xbdf7366ebd2d3ee9U, 0xbe80ad013e501308U,
  0xbe834d813d24486cU, 0xbe3bd8cfbb741ac9U, 0x3da66345bd9416e8U, 0x3edccc79bea991abU,
  0x3e6cfaf43e2d33a3U, 0x3ebe4e483c0ace84U, 0xbd90ef58bda129a0U, 0xbd8c462c3eb5966bU,
  0xbe5d44223d7c8844U, 0xbec09e97bb8a76beU, 0xbcd50dd43ea2cad5U, 0xbd45d4093e4fc6d7U,
  0xbe08029d3e17ef11U, 0x3ea0f92e3e36842eU, 0xbed078783dc9aaabU, 0xbe90024abe53fcb5U,
  0x3e061cda3e05c314U, 0xbeec03db3e2201dcU, 0x3de38238bd38aa6eU, 0xbc77c41abea5127dU,
  0xbd94e9cabe5bbba9U, 0xbd735066bc8a94c0U, 0x3e563fa43d4b4aeaU, 0xbe8a940a3daff853U,
  0x3dfcf6bbbc06617bU, 0x3e5f91afbcd03566U, 0x3e69af883cdf9843U, 0xbe02047fbd946c1bU,
  0x3deed6133ebf3a38U, 0xbeb450f83e88cc6bU, 0xbddced5d3cabfc4dU, 0x3cff4c2ebb2f9981U,
  0xbe6027ccbe3da737U, 0x3e32d3a2bdcb7403U, 0xbddeba21beb4055fU, 0x3f010235be3f8ad9U,
  0xbe0dfaccbdd2da9aU, 0x3dd7eb1ebdbeaaa9U, 0xbd6689ca3d65e7c3U, 0x3d285ef9bf075b4aU,
  0x3e502e61bdeb99e6U, 0x3e76e35dbd37346bU, 0x3e89cb82be854f44U, 0x3d430714be104718U,
  0xbe0c65debdd170f1U, 0xbdb70935bddce6ddU, 0x3e356c443c7f0400U, 0xbc70eb7dbe5503c9U,
  0x3e0c84bb3d1b596dU, 0xbe13674d3e52f02aU, 0xbe8fb5c93df6ecf1U, 0x3d116ab63ea6fea4U,
  0xbe8cba74bd3b0d9dU, 0x3da80846be3808b3U, 0xbe92b6343d85d20dU, 0xbe7d9b1d3e831377U,
  0xbdaa691fbd583629U, 0xbe64bc52be7aaa58U, 0xbd959228bd89a1a3U, 0xbe310aeabc2af493U,
  0x3e5a2117be421a29U, 0x3d3ff861be0e56a8U, 0x3e2f2e273d0ffc76U, 0x3e14866ebc852832U,
  0xbc37e8fc3c0f1293U, 0xbcbecf733e0972f2U, 0xbe2229b03e9da5b4U, 0x3e02bccbbe33218fU,
  0xbe809b5e3d98f7eaU, 0xbd51d8873e46ead1U, 0x3e4676d5be6e9688U, 0x3e74072b3e1f5433U,
  0xbe929535be084c5aU, 0xbe08ffa03ef60befU, 0x3eacd09dbe431974U, 0x3e74a4c63e2ddeb1U,
  0x3db9a74b3ec5a8dfU, 0xbea00725be538858U, 0x3e4b62a43ed029e5U, 0x3d94642f3eb3b72aU,
  0xbd4305a1be9885d3U, 0x3e76f3713e4c630eU, 0x3e8ee12a3e1a7c1dU, 0x3e17ee20be759f47U,
  0x3d430235bec026e8U, 0x3e4f4c5f3d6876d6U, 0x3eaf655e3c5a47aaU, 0xbbe54348bcc61c1dU,
  0xbcb1aab03ca4d114U, 0xbe2378b03e8d669dU, 0x3d8159753e74f7aeU, 0x3eb1bab03df9be33U,
  0xbe549549bca23c46U, 0xbe3c06fa3c1a86ebU, 0xbda78d503e68148fU, 0xbe8671fabec2000aU,
  0xbe349b0bbc75598aU, 0xbeb62c59be910ce1U, 0xbdbe23853e76907dU, 0xbd412713be8c3014U,
  0xbe537a04be4ca73eU, 0x3d79b8e63dc7a2c3U, 0x3cf45a943c510dd0U, 0x3af5a6b9be81946eU,
  0xbda8f169be48802aU, 0xbe4c9b07be8b9b45U, 0xbe670108be7a2a9dU, 0x3cbd11523e3f5d97U,
  0x3db5dec2be3bbae3U, 0xbdf233323d0d379fU, 0xbe5160603e4230e5U, 0xbed8b49f3e0c07caU,
  0xbdec3fd7bc714ab3U, 0x3dc4042fbee174a2U, 0x3c6ef24b3d98bdd3U, 0xbe1852fbbe631220U,
  0xbe3f75d3bed50c3eU, 0xbea18c523e336d96U, 0x3dc9510d3e9b8d83U, 0xbe56f75abe5ed053U,
  0x3c1b6a173d8cfc72U, 0x3e9617493e7dcf3bU, 0x3e89e651bd852cc3U, 0xbec80eb03cf2b083U,
  0x3e8f13613d4b0ab8U, 0xbe2a2de63ce6f299U, 0xbe2ba21abedbd42fU, 0x3e3dfc3bbded1878U,
  0xbe81f2b33e627383U, 0xba4de1e33eab771eU, 0xbcd435143df4dea1U, 0xbe8bf88bbc15031cU,
  0xbe8e1854bdd1587fU, 0xbd8a56ecbd216c38U, 0x3e1ebc06becc89c3U, 0x3dc1b4983e157a25U,
  0x3e807bf93de7cbb7U, 0xbe8086793e3cd83fU, 0x3dc8ccc6bdbfc414U, 0xbe132376bcea120aU,
  0xbe5fafc93d8c2044U, 0x3e88ed8b3e0aeaecU, 0xbcc2d8cb3dd0c061U, 0xbda6e592be9af5cbU,
  0x3dda0a763dd48211U, 0xbeaa000fbe52c5b3U, 0xbea4e4ec3ddd0fd9U, 0xbe63aca0bca4289eU,
  0xbdfad37e3e742f71U, 0xbd4d4f8ebec973cbU, 0x3e0a932bbe0d0b19U, 0xbe1f4596be7bc1f5U,
  0xbe02700abe5e4331U, 0x3ea057a4be6d8bcfU, 0xbe232bf43c2b2cc7U, 0xbd2d1b0ebb6d4389U,
  0x3e914228be44407fU, 0x3e8526443e885562U, 0xbeb3a7ccbf10a4e1U, 0x3e1185323d18866eU,
  0x3e3b1599be91c618U, 0x3ea08cd7bd1a00daU, 0xbe9d88d83d75fb0aU, 0x3d948712bd4f972cU,
  0x3d1943843e903990U, 0x3dbd5723be80e36dU, 0xbe7321eabe3d652fU, 0x3dab0c6abec14653U,
  0x3cbb10033dbe6a89U, 0x3e8fd84f3d342b58U, 0xbeafe2e6beb275e8U, 0x3e07c51f3e11d33fU,
  0x3e1ad5debcfab642U, 0xbc9261c2ba5a2ec6U, 0x3dcd5bd1be2a8ce8U, 0xbdc48642be7f8f4cU,
  0xbe5806733e296124U, 0x3d8cafd8bdfb613bU, 0xbe84a4963d82bfd6U, 0xbdbfca713e378258U,
  0xbd4d2a873d1b95d3U, 0xbd167754be4f8828U, 0x3eac46bd3e127168U, 0xbbf6a7e0bdd1b3d7U,
  0x3eb5768cbddeb273U, 0xbc351a3a3dddee7dU, 0xbe3b90e63b911e79U, 0x3e532be73e4cbc04U,
  0x3dfee6973d98ccc8U, 0xbda7cf74bc9ce8ddU, 0x3ee8b0a93e84cd4eU, 0xbd7e9892bd969c2dU,
  0x3d8abe613d468bc3U, 0xbc460727beb6f730U, 0xbd9cc0f63e55842bU, 0x3e034fa43e589a70U,
  0xbd4ea45c3e821029U, 0x3cb4e662bd5a3200U, 0xbe01555bbe3ccd9bU, 0xbe0a3ecd3b3a6ce0U,
  0xbcbefdc63defa7bcU, 0x3d95520a3a5acc00U, 0x3e95b4a13d270456U, 0x3e4646123e8ab250U,
  0x3e44856a3e9e7a39U, 0x3d759a083d6872bcU, 0x3dba8ae6bd8db15eU, 0x3cd3409a3e502731U,
  0xbde291ee3dec3fdaU, 0xbe89dfcb3e533a55U, 0x3d4d726ebdb0a3aeU, 0x3e0752c73d9cea07U,
  0x3e048ef63d75c701U, 0x3d6e80bb3dbc6e3fU, 0xbd7f2754ba8d6d80U, 0xbe16da543e61b5ddU,
  0xbd4dc8063dd61befU, 0x3d934b16bddb2d48U, 0x3c8104803e3fe73fU, 0xbd4350063e4df89fU,
  0xbe5c27fabd4003a0U, 0x3ddae3b8bd26b7b5U, 0x3d9106ef3e1e4b8cU, 0xbda2fb453e211c0aU,
  0xbe21c5a03cd219daU, 0x3de7df3ebd4a14c0U, 0x3ddd157abdbdbdbeU, 0x3e8339ae3dc50aceU,
  0xbd71e51e3d9f19ddU, 0x3e39b4c0be11e69fU, 0x3ce01fcc3e2ef8e3U, 0x3e6c147c3e5dd4d4U,
  0x3f133787bf112a12U, 0xbfb8d0563eb8745aU, 0x3e6a96f4be6cc2ecU, 0x3eab7533bf4ae121U,
  0xbf87372b3f549b45U, 0x3de5526fbf6e061eU, 0x3dfdf5fb3da9b082U, 0x3ef8b1843ed3a5e4U,
  0xbe1415ee3f4dd851U, 0xbf62d3603f31cfe7U, 0x3e49be713e9eb338U, 0xbf708d1fbebe22cfU,
  0xbd8433103f0735d5U, 0x3f02b9293d8a7e90U, 0xbf9b6b1f3eb63b85U, 0x3e76483ebe40c1aeU,
  0xbf4263473f26b499U, 0xbbdaf026bf5cf1c0U, 0x3c889b4a3efaaf5cU, 0x3f10b760bf2c7266U,
  0xbef85f0b3f3701a2U, 0xbe91fab6bf465c88U, 0x3fccd21fbf581e85U, 0x3f9fb7033cff2e19U,
  0xbe0f0c63bf0742b2U, 0xbe9305acbf6b56a1U, 0xbe9c6a31be2ae7e2U, 0xbeae92e93eac661dU,
  0xbe1dea54be50d5bcU, 0xbd66312c3edd8588U, 0xbe7e60583fe369e3U, 0xbc50ac6c3db9e3afU,
  0x3f81dc613eb4a373U, 0x3db40ccf3e0f60b4U, 0x3c00d3953e10b23bU, 0x3f375208bd935be5U,
  0x3e12c19e3f896db3U, 0x3e80cedebe4abf66U, 0x3e80535f3e605a12U, 0x3f35c715bd58370cU,
  0x3ee55a723c63e1bbU, 0x3f10c6fd3f2ad1c9U, 0x3f1f77963ec562dcU, 0xbf2837773d6b903fU,
  0xbf40bc30beef58a2U, 0xbd0b6de9bfa78439U, 0xbf2b6b85bd68b60cU, 0x3e5f1584bd9f84a2U,
  0xbe866791be34d846U, 0xbef7e6b8bd50a5ddU, 0xbde85a863e89be38U, 0xbdf4ae663eb3f804U,
  0x3e0db81b3ec5931fU, 0x3f6008123f0f7611U, 0xbe3948b43f69552eU, 0x3eebb1413d6208b9U,
  0xbe191ed4be231db0U, 0x3eb953c63e9f0518U, 0x3eba18ec3d91c988U, 0xbf38db0fbf025a88U,
  0x3cf5391ebdada70bU, 0x3fab3ff5be375d89U, 0xbf11d49f3e16e936U, 0xbed608413f0c1afcU,
  0xbe198279bf07154cU, 0x3f4bb08e3eb44e54U, 0xbc8e9dc9bf812845U, 0xbca26daa3f55446eU,
  0x3f6256473eb7058bU, 0xbeaa5b63bef93bcaU, 0x3f31363a3f129db5U, 0xbef81390bf2f00c4U,
  0x3f1a28f53e1b99c2U, 0xbf185cb3bdd680e1U, 0x3f866e2a3f3f8ac0U, 0x3ee3ea9a3f3fb030U,
  0x3f273883bf8f44d1U, 0xbf3d9cd6bef257d7U, 0x3dfdb8efbe96c0b3U, 0xbf81030bbc82af62U,
  0xbe34ef003d37892aU, 0xbf40b41dbf3eda12U, 0xbf950ae63eb4014aU, 0x3c82b5cabe95073aU,
  0xbe3fb599bdf04098U, 0x3f75cf463f0a2705U, 0x3e4bee00bc1ba1b8U, 0x3eab00f33f1b7866U,
  0x3ebc8bc63e4e9d04U, 0xbdebdd7abe11ca1aU, 0xbf3729fd3ef5d6bcU, 0xbee8e5103eb39353U,
  0x3f5cd3d1bfb35e99U, 0xbd803bf0bf0dc265U, 0xbf05d9e93f616349U, 0xbda7392e3ef68daeU,
  0x3ebb0ee8bf6fb03bU, 0xbf3911e23ebf6893U, 0xbfa331913b4c8db2U, 0xbf718a4abdc6a578U,
  0xbdfbe23fbf2b3a3bU, 0xbf0484563ec7ce6cU, 0xbcdbb0133f974cbaU, 0xbf80c6c53ebc4d85U,
  0x3eb38d8bbf33a94dU, 0x3ea1ab90bf803033U, 0x3f04e7f13f51db6dU, 0x3e1e0d1abf033ddeU,
  0xbf04546a3ee4c77dU, 0x3ed8ea9d3e8515f4U, 0xbe3d5d7f3ec880f6U, 0x3f5340f5bdef38b8U,
  0x3f445a9d3e00dd0eU, 0x3f3cdd4f3e36436fU, 0x3e9f19a8bfe4b9f6U, 0xbec1e3223f2c24d2U,
  0xbe66e5893dce84f9U, 0xbec92ca8bedfcf5eU, 0x3f3bf4e93d9e8920U, 0xbe4807453f0e409fU,
  0x3f2374a6bf12b579U, 0x3f1b7c563f581e41U, 0x3e3ab5eabe81ba87U, 0xbf12512bbf1532b7U,
  0xbdc985c7be79ef9bU, 0xbe940ce3bf38acb1U, 0xbbf4b1e2bce57c8eU, 0xbe23d9373f158752U,
  0x3f82ebc83befb251U, 0x3edad7d23eb3f087U, 0xbd67e9573f02651fU, 0xbe3fa8a3bc929ddeU,
  0xbe16afb8bf07f8f6U, 0xbec55e7abf6f095dU, 0xbf5307d1bd61ef9fU, 0x3da34c6cbef2f8d8U,
  0x3ed4610f3e01e0b7U, 0x3d58e95cbf4af6bcU, 0x3ea671623f4011e7U, 0x3d704763bf4c60c8U,
  0x3d7d1b8cbe85a3fbU, 0xbe66d9b4be999697U, 0xbf31265fbeac1343U, 0xbf4778953d3842a9U,
  0xbe98a1d73c2c8f0bU, 0xbf95a996bf3ada1cU, 0x3de926d8bf3dce30U, 0x3d4df10f3c1eaabfU,
  0x3d7882513e11287cU, 0xbeaf6e19be4b497cU, 0x3e9d51283f34b110U, 0x3eae0c063f68ada3U,
  0xbead3af9befc3972U, 0x3c2df5113f04a07dU, 0xbeda7589be536c34U, 0xbf8b49efbdf7af29U,
  0xbe7b155cbe2c551fU, 0xbeeccb79be9beaa9U, 0x3f3cdff8bc3d7dc4U, 0x3f5865fbbea46425U,
  0xbf67a4203ef604bdU, 0xbe0bece9be8aa0a4U, 0xbe8d579cbf80f040U, 0xbc59cf933f3691c1U,
  0xbdfbc3a0be4d1daaU, 0xbf2c88a9be75b75aU, 0x3ee1e967bee745f0U, 0x3f1e7e0d3b33d7deU,
  0x3ebca76d3f1518dbU, 0x3e25b5f33e406933U, 0x3ec57fac3e9b6350U, 0x3e838571be5fe1d3U,
  0xbe860aa83f712c59U, 0x3d3928593ef319eeU, 0xbf400380bf1a07aaU, 0x3ee0b8623e9ed6edU,
  0xbf2d18a13da64446U, 0x3f351be43f504e09U, 0xbd3763eebeb978a8U, 0xbf8a3e303ec5ecc9U,
  0xbe53f2ad3ed6cc6aU, 0x3f329515bcc04d0aU, 0xbf94f920be347b2aU, 0x3ee067f13f54389dU,
  0xbf93a4f1bf752242U, 0xbe1bfb6c3da28974U, 0x3f685d6dbe48a67eU, 0x3fb0ada2bf210196U,
  0x3e7331dabdf82cedU, 0xbf6e1d2ebe781328U, 0xbe18d9babeda705aU, 0xbe81e6c4bee437c8U,
  0x3dd89bfdbf603a76U, 0x3eb82df73eec2f79U, 0xbed35a343d8f4a26U, 0x3d9227353f83b96dU,
  0x3eaac0fcbecef679U, 0xbe0ad4fcbf16729cU, 0xbf96443a3f704edaU, 0xbe2aa35c3f1f0bc7U,
  0xbfbee5943ec1c238U, 0x3efd22ddbd4c25efU, 0xbdf045f43dd83ecdU, 0x3e67f5203f9e0b93U,
  0x3ea636853e89ae53U, 0xbcac039f3ee5fc54U, 0xbee9f6efbf4d9336U, 0x3e921738bf2feee5U,
  0x3dd8ac813ea674f5U, 0xbe00b80b3f56d433U, 0xbefb2db73f417268U, 0xbdc7ece43ebe7341U,
  0xbed74c8bbf602688U, 0xbe6bd4273f2bdbcdU, 0x3f18cfa2bf3b1954U, 0x3e6924f13e3e1c41U,
  0x3eef76e63e966f79U, 0xbf3ba9aa3f0fed4bU, 0xbf1a23a73e3c04d0U, 0x3f46ad453e4c44efU,
  0x3ecadbae3f3c0cd5U, 0xbd8f8efb3f6a7085U, 0xbc1c04433cbb4eb5U, 0x3dd40a2c3f470d9dU,
  0x3f979d903deb97a5U, 0x3f0d8388bd40761dU, 0xbf81448a3e4e39feU, 0x3f5900983f03bf82U,
  0xbee603b3bef6e0dfU, 0xbef141853e9ede83U, 0xbeadd11fbef2ae3fU, 0x3e6b88b6bee14123U,
  0xbf29fc63bd91ae02U, 0xbe8e2550be75dd82U, 0x3f1a26153ee8e377U, 0x3eb4c0913f6ed117U,
  0xbf825932be2adb7bU, 0xbf12b405bb008359U, 0x3f2745e73f08a84cU, 0xbf1a44653ed68dbcU,
  0x3ee742c7bafc5ce0U, 0xbf31ca75be8f3786U, 0x3e14d9583f0bc8faU, 0xbee8afeabe6b0fe0U,
  0x3dbb08a2bf068195U, 0xbf5f994bbe907a54U, 0x3d486fb83e3ae5dbU, 0x3ee6a189be01c01aU,
  0xbe95ee993f4858adU, 0x3d97ddeb3f1df977U, 0x3e7ebd7fbf100d38U, 0xbc6880ee3de6e0d6U,
  0x3de553793dad882dU, 0xbe387f6cbf385692U, 0xbf5557243e2ecc43U, 0xbea2cae2be05efc8U,
  0x3f1228abbf528f97U, 0xbee0f1f0bd98528bU, 0xbf82209a3f74665aU, 0xbe2b3dbabe923d2dU,
  0xbf01a817bedb8f0dU, 0xbeeeb5953f42cf91U, 0xbeee5c6cbf9aaf94U, 0x3d1109a93f2303a4U,
  0xbe1dea973e4d1d46U, 0x3f24a5893f3648f0U, 0x3f3e38f6bd31e6eaU, 0x3da990f5bf855590U,
  0x3d5c2cdbbe81d49bU, 0x3f1be83cbf4eccacU, 0xbc1a3f5dbf2d0dfbU, 0xbe5bf1aabf4e233aU,
  0xbd35822bbf49bb05U, 0x3bb3ffb83c8fc6d6U, 0x3d64c1f3be2b6e01U, 0xbf6ec103bdd380f2U,
  0x3efc88c63f3e8843U, 0xbf3f65ddbfb87505U, 0x3ee4e7dabf3d5476U, 0x3da630e7bf388a70U,
  0xbed67af3bea11cafU, 0xbf5eff27bed59f99U, 0x3f5cff283f408e25U, 0xbe907f963df19821U,
  0xbf84bf1d3f37e269U, 0xbedbd66a3defaafcU, 0x3f301f2f3f56f5e4U, 0x3f0d72943f4ead6fU,
  0x3ed970743f497305U, 0x3ee46adc3f69fe24U, 0x3e9231fcbdbf74c3U, 0xbc81651dbec433f0U,
  0xbf07e0f03e60bb49U, 0x3dd22140bbf38002U, 0xbf94c583be9f687aU, 0x3db41ee5be10e844U,
  0xbe88561cbca8776fU, 0x3f05c9403ea9274eU, 0x3e8796f03e3c2547U, 0xbe5153ef3d88f254U,
  0xbf6a121ebf0835efU, 0xbeac071ebf86129bU, 0xbf34cfb93f782aabU, 0x3db3465cbf2b16bfU,
  0xbe877728bd257407U, 0x3f4a7035bf6b5000U, 0xbf4559863f97ccdaU, 0x3f0e9cf63e96da0eU,
  0x3f572e973e93d9ebU, 0xbdf7a128bf33bd7dU, 0x3f49c451be77e7bcU, 0x3f8950a2bf82b55bU,
  0x3f641a2d3c98fc60U, 0xbf0052e43f9a4fa6U, 0xbd50e68f3f6eceabU, 0xbf8f59e13f834aebU,
  0xbecdf7cebb7b2140U, 0xbe51a37dbd8f17c4U, 0xbec3d3373fa87bafU, 0xbf0dee6fbdc1b6f5U,
  0x3edf95a4bf456da8U, 0xbf91038cbf26d11fU, 0x3f67e969bd9c8406U, 0xbe8f6c00bf0e4166U,
  0xbf27ea463f71680dU, 0x3eb9b1143f82a070U, 0xbb44a730bd80a086U, 0x3f509a183f7571d0U,
  0xbf176a2b3ee1f80eU, 0x3f930912bf8d6f68U, 0xbe80ec54bdb77ac1U, 0x3e14ae70be35248aU,
  0xbd206cf8bee521d3U, 0x3e378f513e8d76bcU, 0xbe50ab94bc34ca6fU, 0x3cf93063be8e75feU,
  0xbde5bff73e8a97f3U, 0x3db3dba4bd8f4b42U, 0x3e4123ed3dddfa94U, 0x3e8c12ab3e4ec9f3U,
  0xbe76051d3ccd07d9U, 0x3e75c8b8be99cbf0U, 0xbe71dbcdbe8bed9eU, 0xbe8f205b3db58b1fU,
  0xbcad1372be62c357U, 0xbe667e733e18aef9U, 0xbe8fa5793d2d1dfaU, 0x3df4c7b2be60206bU,
  0x3e90f2c83e24efe5U, 0xbeaa1768be3900a0U, 0x3e4ca73dbd3745c9U, 0xbd2ec52f3da95cd5U,
  0xbdbc5005bde070a4U, 0xbcf5bee8be2f7310U, 0x3e129dcabe5d5f44U, 0xbde9ba0dbd0ce97eU,
  0xbe49b71abe04dfaeU, 0xbe4a5689be0210ffU, 0x3e2812cb3e2fbefbU, 0x3edd02df3ed86ab8U,
  0x3e13a528bbba8ceeU, 0x3e991a69bea50e5bU, 0xbe8965cabe9c1f1dU, 0xbd35e9a73ec8cf30U,
  0xbe42d188bd8dc9ebU, 0xbd9fd81cbf0184c0U, 0x3c28e26b3d8c2e7eU, 0xbecfa7893e9a3196U,
  0x3d8aa5d63e9ce187U, 0xbde8b6b03f099478U, 0xbd4bb1babe762cd9U, 0xbeabe9383d4ead2fU,
  0x3e5b3f853e3965faU, 0x3ea00ed03e64b2d7U, 0xbeaa803bbe1c12f1U, 0xbe598d9fbe4459c4U,
  0x3da90a663d9a4f67U, 0x3e212b573d1b16d2U, 0xbe7f3c6ebe9557e5U, 0x3e8c1dc23e805e58U,
  0x3eec8809bb800aecU, 0xbba9b1753eb0a956U, 0x3ae8c5b7be716941U, 0x3e5dfe5a3eea6b5cU,
  0x3d1cbb213cb17487U, 0xbe8ad8153e5222c5U, 0x3e775bf03db274aaU, 0xbdbfff4f3e34878aU,
  0x3e9cbe073ea1b3f7U, 0x3e30c328be890b96U, 0x3e49041dbbeda242U, 0x3e91596a3ecb65bdU,
  0xbe6591ef3daf5e9aU, 0x3eb72c7cbcb3de0bU, 0x3e0281fabeb909bdU, 0xbe1a4496be947f7bU,
  0xbe8f329b3e83994cU, 0xbe15cd4dbe96c33fU, 0xbe9e17603e065a37U, 0x3eaa5fa6bd96d7bfU,
  0xbd4b9f233eb34d9cU, 0xbdfc7161be880e8eU, 0xbd14309cbe840f9fU, 0xbd1b542ebea43b62U,
  0xbcc02eb7bebdc7f1U, 0x3dcda227be0a8f9cU, 0xbe01d6c83ebbd370U, 0x3d7d7cd5bec242c1U,
  0xbd8c4b22be275cedU, 0x3ec211363e8c5f28U, 0x3cd84e87be2282bcU, 0x3ddb07e73e87789eU,
  0xbef5eb22be8d881cU, 0x3e2bf9c3be6a6830U, 0x3e61795fbe007b95U, 0x3e976248be2292bcU,
  0x3db64c57bda41ddfU, 0x3edc129e3d2c4266U, 0x3e5eb3b7be197436U, 0xbda4d4bd3df43a06U,
  0xbd4db574be1166b9U, 0x3e911d94be3f4885U, 0x3e570d613ebb633eU, 0x3da746de3e0ddba4U,
  0x3e6a06963e4e6e0aU, 0x3e3548c43ea0ee06U, 0x3d633e753e0714e8U, 0xbe20b0e23e413363U,
  0x3de56d62be59361cU, 0xbcb9cfc43e63ef94U, 0xbdfc74b83cc41702U, 0xbe9e4bb6bdb8fc89U,
  0xbe71afe5be231dbfU, 0xbd3bc884be54d402U, 0xbe577d8ebe90720fU, 0x3e6f27a43df436adU,
  0xbeb88ef4bdafb220U, 0xbe3a164a3e59e23aU, 0xbdbd2ff0bc6d2ac0U, 0xbddcd3dfbd8b2820U,
  0x3c590113bdc2ac47U, 0xbe26cc6b3e55d323U, 0xbd947263be06beebU, 0x3e0fd8d4be899659U,
  0x3d4b50c33d6d460bU, 0x3e956a0dbdffaa43U, 0xbbb5bb173dd13589U, 0xbdb2da0cbe573a91U,
  0x3e3250143e7d0707U, 0xbca139f23e690b3cU, 0xbe72c4c3be65aa3eU, 0x3e621d87be6b7f83U,
  0x3e2ae3a33dfa2d92U, 0xbd8848763db08736U, 0x3ca906373e7e626cU, 0xbe4474b4be5b77d4U,
  0x3e4ca2403e8d9747U, 0xbe7e939a3ed7fa23U, 0xbdc6ece8be40e6c0U, 0x3e611d063e72c841U,
  0xbe7158d2be45f8f0U, 0xbdbb4fa2be2f5383U, 0xbd844cb3bebd6e1bU, 0x3e22558d3dec278eU,
  0xbafbb5f13dfa162dU, 0xbe842567be51cd7fU, 0xbdbf6e1fbe92a366U, 0xbe3861f13d8e32b1U,
  0xbda7516ebde99fe5U, 0xbc3cc38f3dfe0d75U, 0x3e17dd0d3e8f65ecU, 0x3dc76711bd110f91U,
  0x3dfbe3d93e107c01U, 0xbeab42d0be56bad5U, 0xbe8f72d7bdc58f53U, 0xbc6edf2b3e396aceU,
  0x3d272708be91fcdcU, 0x3e9f97833d80e980U, 0xbe3723c53e0f7615U, 0x3ddc3d8dbb50a461U,
  0x3eb2dabc3e763d2dU, 0x3bae58e8be071e72U, 0xbe8877583e5a3e72U, 0xbdb6023ebe10c43aU,
  0xbe6035623d7364f6U, 0x3ec6a059be063f34U, 0xbe81902b3e8d1f24U, 0x3dcde7813de6c722U,
  0x3e6e0828bd3301f1U, 0xbe56ea973d9741c6U, 0xbdee00cfbe46095eU, 0x3d8b7c5f3d2d472fU,
  0x3e392703be23fbf3U, 0xbe1227373dd508c8U, 0x3e1506e33d3bcf29U, 0x3e9740943db81b47U,
  0xbdace284be1aeda8U, 0xbbca17a8be03f096U, 0xbe173e803dd5d827U, 0x3e093cd73e4a373fU,
  0xbe8a40b33e46f3b0U, 0x3dfa22003cb9e477U, 0xbe2baca3bdefe736U, 0x3e6137abbe1c8ce4U,
  0x3e2e45873dc55d82U, 0x3ea262c9bafd90eaU, 0x3e15bf3dbde524e3U, 0x3d5a3c04bde9bc0dU,
  0x3e04c7d2bd4a53beU, 0x3e962a98bd0986b5U, 0xbe2f89c0bea23176U, 0xbe205639beb1495fU,
  0xbd2d61263d5c48abU, 0xbe84c4003ea82cbbU, 0x3d3f4246bd98a0bbU, 0x3df88c3f3d5fa032U,
  0x3dba040b3d34317cU, 0x3df811ebbe7d56f0U, 0x3dff82723e967186U, 0xbea70da7bdef603eU,
  0xbe84c5dd3e515bdcU, 0x3e1f3e8a3da05fd3U, 0x3eda6079be250440U, 0xbec306af3e814cfeU,
  0xbe053501bdb3a00aU, 0xbe49d4943e96b16dU, 0xbe7632a53e66ed61U, 0x3d7ae838beaaab72U,
  0x3e6784d7bd6f9cf8U, 0x3d74091b3e5e2fd8U, 0x3d0326c3bd83518eU, 0x3e1166813e05dfacU,
  0x3e0717ef3eb01d96U, 0x3bd7b571bd1ec107U, 0xbdc6cb80bdb63995U, 0x3d4f4f9fbde84159U,
  0x3eab9fd03c01d823U, 0xbccaa0363d7be8ecU, 0x3e2b0ca7bc9899d1U, 0xbd2a60e23e86b999U,
  0x3eb3d2b53e3916bbU, 0x3e6d60e63de11b92U, 0xbc86b98abd1f3bfdU, 0xbe7c5e2d3e0ec75eU,
  0x3ea076ecbe5a29b0U, 0x3e8dad59beb3e325U, 0x3e256e8b3e8bed5eU, 0x3e891f643e8c08a6U,
  0xbe1f1c4f3d0b8923U, 0xbea029313e9bfd08U, 0x3d3623473e414931U, 0x3c88e8efbbe28be6U,
  0x3d3201453d8ce645U, 0x3c893c6f3e94932cU, 0x3ea58cb6be086c07U, 0x3dece765bebfd8f9U,
  0x3d06cb46be78991cU, 0x3e0ec3a23d47716bU, 0xbe91c7f0bdc9d804U, 0xbc6103623e377de6U,
  0x3ed0d889be883273U, 0x3e9c9a583df96471U, 0xbda33b983e3db2c4U, 0x3db9b79fbc14d9d3U,
  0xbe81a7813d41ea5bU, 0xbe18cc393e5f53b0U, 0xbe545a5f3d8ddf8cU, 0x3beac9233de0da50U,
  0xbc7c003bbe26300fU, 0xbd23dce7bcb5fa12U, 0xbe11ebf53decabb9U, 0xbd89e7123e0656a8U,
  0x3e06dfb93d050dcfU, 0x3dc9ff08bcb0dcacU, 0x3e89bab93c0b2b9dU, 0x3da8ffaf3d8aa8e0U,
  0xbd78f1f23d3c65d6U, 0x3e54d074bd811368U, 0xbe0cb2973e559c9cU, 0x3e1d00e8bdbdfa2cU,
  0xbda990b3bd8b2428U, 0xbe06f58d3d4c1fe5U, 0xbde25c39bda041a5U, 0x3e9444ef3e011e09U,
  0xbcc8862d3dd6209dU, 0xbb6afc7bbccc2567U, 0xbe012bc3bd305c54U, 0xbdf4707abda96206U,
  0x3e44f5b73e27832bU, 0xbd1b58823e834f83U, 0xbd9a4592bc4ef10cU, 0x3c9c90ce3df6d5c8U,
  0xbe50cc6b3de39139U, 0x3e3c0c4bbe94d3d7U, 0xbe7faf1b3d5686bfU, 0xbe6e40b73e487403U,
  0xbe94d87a3e01458bU, 0x3d9682ecbe0f16fdU, 0x3e3eb6253e49b309U, 0xbe1da65f3def2baeU,
  0x3c806f88bd9458a1U, 0x3d8f1644bdb334a2U, 0xbe906c223e45c55bU, 0xbdc227f83ea8b9e3U,
  0xbb1c0080be834361U, 0x3e7b1cbfbd85c563U, 0x3d784f0c3db4e8a4U, 0xbdd0dfea3d764845U,
  0xbd289d753de658feU, 0x3e51c4c83e3ad7f4U, 0x3e82e6c8bdfdf274U, 0x3e4e9b133d379de6U,
  0x3ea83b0b3dd10aa1U, 0xbe9ec3e0be79869dU, 0xbe980290be480069U, 0xbc1a498d3e6da9adU,
  0xbe37cffd3e70c073U, 0x3e95529fbe972504U, 0x3e2a2ac8be33892cU, 0xbbd860fcbd455f92U,
  0x3d1c8321bd851c2eU, 0x3de0df343e6ccaf8U, 0x3e46de32be3656efU, 0xbd87574a3e8edaa5U,
  0xbe95b44c3dac056fU, 0xbdc1e449be96677bU, 0xbea898893e12678bU, 0xbeabfaae3e353e15U,
  0xbda70597be71b7f6U, 0x3d4eb425bd94ac80U, 0x3dd63d1fbaada065U, 0xbe3e0a443e3dac07U,
  0xbe266eb9bdbc50acU, 0x3de2340e3e71e848U, 0x3e51a58a3d888a0dU, 0xbe013850bd6f5347U,
  0x3dde56a4be2ab38bU, 0x3e8ebca03e0ae035U, 0x3e6ac7debd3ba984U, 0x3cb8f8763e54c5d8U,
  0xbd1aff923e87502dU, 0x3cbecb613d7aed35U, 0x3e109d0c3c275fa8U, 0xbe7f7aa1bc30aeaaU,
  0xbdef66abbe9bd0deU, 0x3e50d9063d61fd84U, 0xbe22aecbbde51e1fU, 0x3ceb5aa33e46f42fU,
  0xbe6c39dd3dc24785U, 0x3e085abf3e993d91U, 0xbe1a68633dd4ad0cU, 0xbd97d5dbbe422a84U,
  0x3e804b913e948b40U, 0xbd61361c3e6645e6U, 0x3e1055c0be5f3eb6U, 0x3e628de33d37edf1U,
  0x3dd757ea3e423ba5U, 0xbdbb9f0ebe3c3a76U, 0xbe866861be2cdca0U, 0xbe276d6d3c42e77fU,
  0x3e708fbabe06813fU, 0xbe49d7c33d6068b9U, 0xbd35cc24bea6a0ecU, 0xbe6073e63ea47749U,
  0x3e4603aa3e818de1U, 0x3d5a0ea33e0dd508U, 0x3e3147d6be256af5U, 0xbe4620ebbed7d906U,
  0x3e8060ed3d9c6386U, 0x3ec5caa7be5e7fdfU, 0x3e642d12bdc7a584U, 0xbe337781bdc7d6d8U,
  0xbe3238d03e606599U, 0x3e762e6dbe963569U, 0x3e2d5457bdb1a33eU, 0xbe8ff9b33e5078c1U,
  0x3e3e48fb3e2844f3U, 0x3da87bf23eb73789U, 0x3d8d8f933ed55211U, 0x3e97bdc3be768bf1U,
  0xbde6f2693c2bb5b6U, 0x3df72e1fbed25f05U, 0xbe20a00bbdc5a142U, 0x3ddeb6a93e9d6d09U,
  0x3e8b6489be48e476U, 0x3e458ed13d039780U, 0xbddac8babe75af72U, 0xbdcde389bdbf56e6U,
  0xbe0d85023eb6b822U, 0x3e36dc2fbd9f9ef4U, 0xbd907e4f3ea94449U, 0xbddd71743e49c112U,
  0x3d485e573e9e0cb6U, 0xbec28f503e21971aU, 0xbdf50a863ea04502U, 0xbe493717beac2225U,
  0xbe1a4e933e3ac473U, 0xbd97eb16bbd51eb8U, 0xbd17b1b6bcf4e146U, 0xbe875fd8be996f67U,
  0x3e44e43bbd71f761U, 0x3d82f4083e20f532U, 0x3e8ef5413c7a54f2U, 0x3e08a160be98924cU,
  0xbe41d1e0bdfa6150U, 0xbe1ab7d1be447869U, 0xbe8f9f2d3dbb724dU, 0x3e264ba8be091c87U,
  0x3dcc2cdc3e9903f2U, 0xbdacc2143e246328U, 0x3e8dce7cbd377aa3U, 0xbc6a4c173cb12c69U,
  0x3bc79ff3be4d1c10U, 0xbe6fee93be63ae76U, 0xbe0e5294bcf1fe99U, 0x3e58c3d83d426ed3U,
  0x3e926d893e10b51aU, 0xbd4008aa3e065af1U, 0xbd19e60bbe26af6aU, 0xbd468c853e8b49dcU,
  0x3e5c830ebdb66f90U, 0xbd9b3668be26fb22U, 0x3e254b1bbdba23b4U, 0x3db563563d9577dbU,
  0xbdf53965be18862dU, 0x3e64f0783db1f8d3U, 0x3d25951abd0e8c0fU, 0xbe7025013e907011U,
  0xbd67eac6be5d35c3U, 0xbd9cb10fbbcab974U, 0x3e5e7ed93dc1d0d1U, 0x3ea156e0bd76429eU,
  0x3e75d79abdc07356U, 0xbea78bd8bde9f812U, 0xbe2e5edd3cfc72aeU, 0x3e6fb9fc3e3865f2U,
  0xbd1b5df53e5f4c23U, 0xbddcf0a73ea50e2eU, 0x3d3174cdbe861c17U, 0xbd2a5c8b3d39b86aU,
  0x3e77c2dc3e4c3329U, 0xbed1c9433ea9c78cU, 0x3e26019bbe4faaa9U, 0xbe2736a83e95e826U,
  0xbe8092c73d203f2eU, 0x3d2d9f093eb6ab09U, 0xbe95f71e3e94855aU, 0xbd6802fb3d416e43U,
  0x3ebc0b333ceeb936U, 0x3e88effcbcf14f43U, 0xbe6b1abfbe27f21eU, 0x3e95aeb43d299bc0U,
  0x3d3c98a63c400363U, 0x3e9b55773e062c34U, 0x3d921eec3db9334cU, 0xbe17a9f5bebc95e5U,
  0x3e979707be3335e8U, 0xbe6abe1b3e6caf7bU, 0xbea771d23b9943c4U, 0xbe5dda79bcd7e964U,
  0xbe4244183daf8581U, 0x3dc66e32be1c8aa7U, 0x3e250b403e18cd89U, 0xbe2634e23cdf7b8fU,
  0x3d920faabd6d5d10U, 0xbdf9aa513e16ff18U, 0xbca6b4f6be7bf8c2U, 0xbeb53e403e341499U,
  0xbe8cb1803db01da4U, 0x3dfea8a0be44422dU, 0xbe1c81973e374574U, 0xbe48b0603e49e728U,
  0xbe11e8c0bde2724dU, 0x3d8a3186beb9fd2aU, 0xbb8bfba63dd6ff98U, 0x3caf12f7bd3e50dfU,
  0xbdb13df13d4ffd14U, 0x3d892688be1418ebU, 0x3c0a504ebdb7057aU, 0xbdd20151be5107d7U,
  0x3dfc8bcfbe93cae0U, 0xbd9c4804bd06fcc0U, 0x3e870a47be61e103U, 0x3e7ea02d3e912b4eU,
  0xbdbdc9adbd2cafb0U, 0xbe23f389bd901c6eU, 0xbeaca06b3e8e5fc5U, 0x3dd3cb2abdd10141U,
  0xbc27087abe28d76fU, 0xbe7e998a39618686U, 0x3d98dc743df7b96bU, 0x3da1bd223e68daaaU,
  0xbe7b41a93c685402U, 0xbdeb24d0bd8221beU, 0xbdbfcf833e861d26U, 0xbddb8c3fbda62481U,
  0xbd84a395be2050b3U, 0x3dfbd4d13ec63c20U, 0x3ded9d9b3d13a924U, 0x3e92d061be1822e8U,
  0xbcf24f17bc407ad0U, 0xbc6869753e229526U, 0xbd247baabd2f6564U, 0xbe934267bd1f9684U,
  0x3e194796bdcd95e2U, 0x3e272db4bb8884ffU, 0x3e75aa00bd908b9bU, 0xbe16fa583e4865a7U,
  0xbe06ed4a3dbd01beU, 0x3c7c95a7bea0b17dU, 0x3dc5251d3e0c6270U, 0x3d95a52d3e91bcb3U,
  0x3dbf9fe13d9b6d90U, 0x3eb2bd09bec84f72U, 0x3ebc2ed4be276b03U, 0xbdd4ee3ebe9f4a3cU,
  0x3e740156be91ef4fU, 0xbda6e81c3e953ae1U, 0xbdf98728bd27eeb8U, 0xbac1bea33c8919a6U,
  0x3e1c89523e0fd77fU, 0xbd2a052c3e18f894U, 0xbd16edaabdff0972U, 0xbe26e750bcfefe3eU,
  0x3eac3ea23df5bdd6U, 0x3d3dcc9c3e88019dU, 0xbe474c423e000591U, 0xbe7551113e723baeU,
  0x3c5563b63d9ae7a9U, 0x3ea300fdbe06d5acU, 0xbe2178b83ea36b67U, 0x3d81cce939647ec0U,
  0x3e8394c3be5ac954U, 0xbe16d3a7be725fa2U, 0x3d9f1433be40efc4U, 0xbdd59456be4cfab9U,
  0xbeb057043de7125fU, 0xbddf744ebe483909U, 0x3e16874abd15dda6U, 0xbd909b793da373b8U,
  0xbe343f853dcda59bU, 0x3e3a7e2fbe4b6639U, 0x3c9da6f53e8afb6eU, 0xbdf8f72d3e24f48eU,
  0x3ed56f233e50758eU, 0xbcce110a3d5dc511U, 0xbdffe9443c38e5c0U, 0x3dca314ebbb49607U,
  0xbdc7147e3dc5a09aU, 0x3dd3be36bd95e23dU, 0x3cfe97f63dc302aaU, 0xbe1c3ec13e83453fU,
  0xbe6433e63d832544U, 0xbeab67c6be4fe6eaU, 0x3e41e3533e8fad14U, 0xbe5073f43dadb9c4U,
  0xbdc1f23fbe448bd8U, 0x3d36e25cbe044d9dU, 0x3e63a561be877a0eU, 0xbe7e5ffd3e2a61c1U,
  0x3db8a105be67d340U, 0xbe370cc5bd2d6b3bU, 0xbe25ab983e5aa33eU, 0xbe808ae3bd9c923cU,
  0xbe2a72e4bdbce720U, 0xbe0678563deb9c8cU, 0xbe583c7f3e3510edU, 0x3e2e3b27beb942dcU,
  0xbe5c0d593d8a42aeU, 0x3e9d404a3e848163U, 0x3d0a873abd95c22dU, 0xbe801e11bc3a9c1eU,
  0x3eed1bccbe965dd8U, 0xbdaa76d13e6acb48U, 0xbd601dbb3eaf39c8U, 0xbd1bb165bde84b5eU,
  0x3ea7f6193e92b8e5U, 0xbc1fb20abedfd9bfU, 0x3e6d59373e5a769cU, 0xbd365ddbbe528824U,
  0xbe8f26e9be9fbec9U, 0xbeb617803e2f9247U, 0xbe0060d93e0c93e2U, 0x3ec7076fbd1cea63U,
  0xbeb6edd83e7cd811U, 0x3dc48784be0bcdc1U, 0xbe84d4303bb8e16fU, 0xbe16336f3e8caa4bU,
  0x3e9061d53eb73d40U, 0xbe063fa3be7e3924U, 0x3e92b0e7be902f4bU, 0x3d8d94efbdd394f5U,
  0x3c4603a2be9d42d4U, 0x3cf37cbfbd844927U, 0xbdcab0d13d59d6dbU, 0x3d1b0701bea8e253U,
  0xbdef586fbdcc6c12U, 0xbe26dd38be4c54a0U, 0x3bb1c426be7f70a3U, 0x3de0ee97be7fee1aU,
  0xbe08e343be38770eU, 0xbdb1d3ec3d96368aU, 0xbe786ed23e0967baU, 0xbdb5978cbe4039adU,
  0xbe2109cabd421eb8U, 0x3eb341b43d35339eU, 0x3e74d04f3e804b5fU, 0xbd9fb8243e13ead4U,
  0x3dc608e13e588e44U, 0xbcdf4ae93e52d559U, 0x3c5f44f63e288b62U, 0x3dceee2a3d8e10a0U,
  0xbe75ee9e3e060dd8U, 0xbb0de3eebe2826b7U, 0xbe2b2974bd567e55U, 0x3e0714e5be56bab0U,
  0xbe4f2b73beb98307U, 0x3c1f2fa7be111249U, 0x3d5412283d877fc6U, 0xbe2188d1be92222aU,
  0x3e1eeb2fbc3fc186U, 0x3e848054bd7c0a5aU, 0xbe8d54c03d5a7490U, 0x3e485d53be51b1f9U,
  0xbdb395e3be76a111U, 0xbe1085a23e552ec6U, 0xbe5bc9833d1169f7U, 0x3d901e83bdf762e8U,
  0x3d8b71ddbcb221c7U, 0x3e8237b93e11c3bbU, 0x3d0a0257be223cd4U, 0xbda1fc2abe98067fU,
  0xbd18f302bd941a89U, 0xbda569243ccc1975U, 0x3e638f5b3c750f5bU, 0x3bcb31e4be5b8148U,
  0x3dca65c83dcc2555U, 0xbe5bd0a23e440d51U, 0xbd52a8fcbe351b04U, 0xbea9df2abe62b2f6U,
  0x3db95c25bd6e7579U, 0xbc7af47fbe3130f2U, 0x3de0857c3e9debb7U, 0xbda864f33dfa8c82U,
  0xbe1de72a3ea47a4cU, 0xbec5fd523cf8e675U, 0xbe93de14bdcec59bU, 0xbe533841bd65b434U,
  0xbe838d0cbe59ceb4U, 0xbe736c13bebbf5d4U, 0xbe48c86c3e2bde9cU, 0x3cabb46ebd9b065eU,
  0x3d80770a3eca5ab3U, 0xbe5ce7023c3a98a8U, 0xbedf62bdbe14c201U, 0xbd75ae7f3e37cd4aU,
  0x3dae4ecabe929fe0U, 0xbe5a274cbd8f4e79U, 0xbe9763713e88378eU, 0x3e0ff9a73deffac2U,
  0xbe92d54bbd8903e8U, 0x3d32b95fbe90b63fU, 0xbe54f25d3e0d4595U, 0x3e5fdc893dc3b25eU,
  0x3eaf9aa5bd96a276U, 0x3cc9e94abd90dd65U, 0xbd0376f6be68e9ddU, 0x3e0ff5e13eb4248bU,
  0x3d3885ec3e0f4277U, 0xbe183eaabe350115U, 0xbe1a2643be38b369U, 0xbe1148df3d6111e0U,
  0xbddce2e1be0ecdffU, 0x3e54dee6bd83812aU, 0x3e9322c63e186ba0U, 0xbe32ab2f3e80d700U,
  0x3e30ff93bd10b894U, 0xbd5a46093e5fbef9U, 0x3e799e52be23ad01U, 0xbca0a737be8d12aaU,
  0xbe5c4542be191f9fU, 0xbd802a29bea4f4f5U, 0xbd3eb0bf3e1cd504U, 0x3dac7801be728e4cU,
  0x3d8fbd873e41953dU, 0x3d951ccbbd9a8bc4U, 0xbd8d1f43be318e40U, 0x3e4803d83d418ffcU,
  0xbd76dbf6bddbc656U, 0xbd159f79be386f62U, 0xbe0d512c3cfed46dU, 0x3d13ed95bd812f71U,
  0x3e7234edbe10564eU, 0xbdad6e1c3eb0f52fU, 0x3dfdb9a63e664febU, 0xbe4f0399be1a80b5U,
  0xbddad26ebeac8173U, 0x3cce049a3d7df5a2U, 0xbe854be63e8c7516U, 0x3d973e29bddb8b97U,
  0xbd0a36433e22636eU, 0x3d48bedcbe2fb0dcU, 0xbe94a22d3de6b177U, 0x3e35a3dd3ba78472U,
  0xbe2b16e8be804830U, 0xbe15eaecbc198ecbU, 0x3f0c7833bdef8047U, 0xbc968194bebfe217U,
  0xbdcea062be30405dU, 0x3dcdfece3e89a2faU, 0xbd4eafabbd17ae5fU, 0xbd7bd6b5bee7cf3aU,
  0xbd80af373c94c62cU, 0x3e309769bd6b3484U, 0xbe27fa5dbdaa6e58U, 0x3e55d30a3d1150bcU,
  0x3c13730f3ed33fe7U, 0x3ddc917c3c581b37U, 0x3ccd82403deb366bU, 0xbe4a43a4bcb5a09bU,
  0x3e0d16383e9a697aU, 0x3d854a3dbee4685cU, 0xbd0c20e13e9ba5d2U, 0xbe37863abed4a223U,
  0x3e21f01f3e710b17U, 0xbd4053d93e981bfeU, 0x3c46f3b6bd068f51U, 0xbde527ca3e834973U,
  0xbe18415a3d46fbfcU, 0xbbc17c673e67b413U, 0x3e70c5043eaeafafU, 0x3eb829363ca84cacU,
  0x3ead8c083e5ef757U, 0xbe9206a43df0edadU, 0xbe340d003d7f9e74U, 0xbe982ad6be642de8U,
  0x3ea0e43dbe8223b1U, 0x3e82eef5bd518dfcU, 0x3e1f4b0a3e9e1bd8U, 0x3e7cf7d53e7d86abU,
  0xbe41c5293deca5a3U, 0xbe2a6ea2be51d763U, 0xbe964e483c9a8c84U, 0x3de6a02dbe420bceU,
  0x3dc57e4e3e22e088U, 0x3d423600bde4571dU, 0xbeb7f9e1be6a6170U, 0xbe0de71abe683ca5U,
  0x3de304f93dcf6e96U, 0xbe273db4bd97d9d8U, 0x3c933d1dbed7b16eU, 0xbd073116be59f268U,
  0xbd98b3da3e04ef2bU, 0xbc745ef3bdf5642fU, 0xbda3171dbdc409ebU, 0xbd1b6bcfbca5ddb6U,
  0xbf72c4e73f5c1c9fU, 0x3f080d3ebe5977a5U, 0xbdffadab3d14e10bU, 0xbf0bcea3bfb81b5cU,
  0xbe1f04e0bdf56553U, 0x3e91ab67bf55154aU, 0x3f1b522fbf2ad78fU, 0x3d071a2ebeb1f207U,
  0x3f5f29e13e8e64ccU, 0x3eba32f43f98646aU, 0x3e6733c73db933dbU, 0x3e29a12d3d677da9U,
  0xbe22b1653e1b5cc2U, 0x3da8ce303e0d53f9U, 0xbeaa88b0be97fe03U, 0xbe9642a7bec68813U,
  0xbe3ee03d3e49b521U, 0xbe31b79c3e65622fU, 0x3e8261203e384f6bU, 0xbd91e9a03dffd82cU,
  0xbda75f89bdb19880U, 0xbec180263d139646U, 0x3e46c811bc5e1991U, 0xbe77b766be04e81bU,
  0xbe8499ba3e1cebdaU, 0x3d7473733d8b36bdU, 0x3d1a7927be7c678dU, 0x3d647921beb74030U,
  0xbd983f09bd6e53f3U, 0xbefec2443e12b801U, 0x3da124a23e01830cU, 0xbe655de9be2c51e4U,
  0x3e3f8f36be1e9e49U, 0xbeb0371dbd3ad180U, 0x3ef0e86d3d7655b2U, 0x3efe49973d290f2eU,
  0x3ecf2c55bdf3d83cU, 0x3db9f6ee3e9465e1U, 0xbdd06974be21108aU, 0xbe72e5f43dd55a03U,
  0xbe34a26b3eac59cdU, 0xbddace12be7070e3U, 0xbc21de6c3d054117U, 0xbe042c4f3ec487e5U,
  0x3d2718cdbe6d692aU, 0x3e7b89953de187f5U, 0xbcd429e03df23704U, 0x3de4b9d43da9da6aU,
  0xbd13193e3e21013fU, 0x3e24600d3e879416U, 0xbdd0f136bcf01324U, 0xbe41d333be4d2d71U,
  0x3e9f0cb63e1c5a41U, 0xbd7087233cd87deaU, 0x3d76549b3e8e9f77U, 0xbd75fccf3c77384dU,
  0x3e215f333c0c09b6U, 0x3e8dbfb3be4b73ccU, 0x3ea11060be622141U, 0xbe003947bdc3bf01U,
  0x3dfdfff93e898bf8U, 0x3df45547bdd69822U, 0x3e574cf9be6048bcU, 0xbe94d8603d57b83dU,
  0x3e537280bd83de8cU, 0x3e7ae7a0bebfa589U, 0xbe5d11d03e56448dU, 0xbd2649acbe3da1efU,
  0xbe5191583eca3ecaU, 0xbea737f23e2e4b16U, 0x3aeff96d3d8931abU, 0x3e2447cfbdf2acb5U,
  0x3e86bf61bddbf953U, 0xbecc2405be75b66bU, 0x3e3451003e227e7bU, 0xbd230ffabc8c6e65U,
  0x3e435e85bcc749bfU, 0xbe40de803cac0e4fU, 0x3eaa68833c57b555U, 0x3ce89b803db26c32U,
  0xbcb244f5bc224ee1U, 0x3df01108be5b99fdU, 0x3da827a43e85e647U, 0x3edd0e16bcfa8f42U,
  0x3c5ab3423dcfca01U, 0x3d3ab8633e3a602dU, 0xbd90cd2e3dedb3feU, 0xbe6ed9903e24807bU,
  0xbdcb365dbe37471cU, 0x3d0734eebde0f263U, 0xbc692ff7be34cd23U, 0xbd69b7cf3eba73b1U,
  0x3e2995033ed046f7U, 0x3e0c68f6bdfda9c6U, 0xbd875a28bc632f80U, 0x3dd16152bc6ea771U,
  0xbc659ee5be8d8599U, 0xbe2f127cbe7615e8U, 0x3e2388143e03cecdU, 0xbe751f893e1cfdc0U,
  0xbd72564e3ec5db21U, 0x3e3fa12cbe4eba2cU, 0x3e0a75293eec484bU, 0x3f06ded63cd6f54fU,
  0x3dc287ecbeb212ccU, 0x3e0abfbbbe34cce1U, 0x3eee7d923d78d287U, 0xbe2e34f63ea590a5U,
  0x3e64c79cbe88811bU, 0x3d7fe45c3e6d6bdfU, 0x3ebc6b8c3e54c223U, 0xbdf7ecc63d83b2f8U,
  0xbc8d09d4bc0f2c8bU, 0xbe9850d53e1fe415U, 0xbb5371c43e8df2e0U, 0x3e8719eebe6271deU,
  0xbd86cdfb3d727d50U, 0x3e4302363d9d88f1U, 0x3e7fac0bbe7b3a8bU, 0xbe2a8c993e1e52d5U,
  0x3e9d0432be24676bU, 0x3ee0f1953dbeb132U, 0xbdd483a9bdf5a79cU, 0xbe14f519bdbb914aU,
  0xbe6f11653f0d3ba3U, 0xbe5134223d9fe6b9U, 0xbe97a0583e73905aU, 0xbd4c8ca4be8adab7U,
  0x3f0c1b033e659883U, 0x3ea966a23e4765ecU, 0xbe99b40bbeb41344U, 0x3cff05c63db3c420U,
  0xbd7bcd153e1889ceU, 0xbe50d4bebebb9775U, 0xbe17ff413ea05e8dU, 0x3d6d54d5be0fff45U,
  0x3cbdad0e3cc85c9bU, 0xbe83a8efbe5815d0U, 0x3e93c781becc8022U, 0xbe1d698dbd408171U,
  0x38d82130be1f26e1U, 0x3e8349683ddd2720U, 0xbd5f5b203c0db02dU, 0x3e0558633ea35abcU,
  0xbe065f703e14b84dU, 0x3d3e0de23ed703c2U, 0x3eea86aebd8f8035U, 0xbe97f688be5a8586U,
  0xbd27f06abdf8e1a9U, 0x3d84c3043e913f0cU, 0xbe9c5a183ec60495U, 0x3d9aa1763e5977e7U,
  0x3dd968f83e8c34a6U, 0x3eabd7743e8df13cU, 0x3d20d819be95f8efU, 0xbe58dde83e447803U,
  0x3daf7607bd285d44U, 0xbe867c72be009d86U, 0xbdb2e556becc0a4bU, 0x3e20ff8fbc151fd0U,
  0x3e7acaf2be0d0bcaU, 0x3eaf2d503e1b1b59U, 0xbd3f57613d22522eU, 0x3d20567bbe405733U,
