/**
  ******************************************************************************
  * @file    nn_mnist_data_params.c
  * @author  AST Embedded Analytics Research Platform
  * @date    2026-04-11T14:28:59+0200
  * @brief   AI Tool Automatic Code Generator for Embedded NN computing
  ******************************************************************************
  * Copyright (c) 2026 STMicroelectronics.
  * All rights reserved.
  *
  * This software is licensed under terms that can be found in the LICENSE file
  * in the root directory of this software component.
  * If no LICENSE file comes with this software, it is provided AS-IS.
  ******************************************************************************
  */

#include "nn_mnist_data_params.h"


/**  Activations Section  ****************************************************/
ai_handle g_nn_mnist_activations_table[1 + 2] = {
  AI_HANDLE_PTR(AI_MAGIC_MARKER),
  AI_HANDLE_PTR(NULL),
  AI_HANDLE_PTR(AI_MAGIC_MARKER),
};




/**  Weights Section  ********************************************************/
AI_ALIGNED(32)
const ai_u64 s_nn_mnist_weights_array_u64[54693] = {
  0x3d4564be3d90f373U, 0x3d15d8363cac6ea4U, 0xbda265683d951b33U, 0xbbb4fb703cc5b234U,
  0xbc82f04cbc91a4c4U, 0x3c796960bcdff9f8U, 0xbd50064dbd980457U, 0x3da6c6413d8af9edU,
  0xbd9e3536bd5fda2dU, 0xbd1a13a1bc636b50U, 0x3d69a8923d624ea6U, 0x3c339ef8bd66124cU,
  0x3d1c4374bc97a874U, 0x3ccbba843caad530U, 0x3d288210bcacf3c8U, 0x3d3dfd82bd7b60d4U,
  0xbde6cc89bbb51222U, 0xbda04558bd10a23fU, 0xbe1c1bc6bdbf499bU, 0xbdf4e957bdf73ad8U,
  0x3d141531bdd98be9U, 0xbe4783d83d1fd572U, 0xbe6a6e81be17a450U, 0xbe03ad2cbd69b073U,
  0xbe23c773bda0fbfdU, 0xbd917b7dbe0c3ce9U, 0xbbf3a740bcdcb246U, 0xbda1135ebc00c010U,
  0xbd43ce75babc4680U, 0xbdb6f4ff3b641158U, 0xbd313339be3eb1f1U, 0xbe020e5ebe0ef764U,
  0x3dec8bfd3c12d0eeU, 0xbcfebd043d11b230U, 0xbe3d3becbdbfc461U, 0xbe44eee8be144fb9U,
  0xbdcd1566be8647daU, 0xbe89b6b5be7d5360U, 0xbe8ed5e6be6c9beaU, 0xbe46b03dbe66279bU,
  0xbc62de323bb9781fU, 0xbda2667bbce6f5e4U, 0xbc6360383c9a4288U, 0xbd82fc3d3e282e48U,
  0xbd759ad9bdf026eaU, 0xbd84f114bd93e56bU, 0xbdd61258bd8c369fU, 0x3ab486f7bc78147fU,
  0xbeaa6b6dbdb7a8c5U, 0xbdb7a449be842308U, 0xbe153db6bde61fd7U, 0xbe80e4babdcb90b1U,
  0xbe5a35e0be538c03U, 0xbe025cbfbe3723e4U, 0x3d28dfe03cefac73U, 0xbd9e2a7abe173f47U,
  0x3cd9971c3d551daaU, 0x3e1137a03d0f4cf7U, 0xbdc51783bd93df68U, 0x3dc1a898bdd93a5fU,
  0xbdb20a57bd8d688fU, 0xbc541c3c3d999fccU, 0x3b71e3263dc9e10cU, 0xbd5104abbc346ca7U,
  0xbd66de70bdb6a30eU, 0xbdde3796bcfa81cbU, 0xbe271e0dbe1f893dU, 0xbe224090bc1e7156U,
  0x3d8057163d8198fcU, 0xbdd82334bd07141fU, 0xbd6e9114bb364180U, 0x3ddbb9bfbd58d680U,
  0xbe85e851bd37b6a9U, 0xbd081496bd9ff38fU, 0x3c817b303c1afc20U, 0x3e196c953c869707U,
  0x3e404fc23dd96beaU, 0x3cc70f4e3a35e501U, 0xbdb9e1bbbd0ebeacU, 0xbd2d9546bdec182bU,
  0xbace32e5be1d7050U, 0xbe30ac09bd370899U, 0xbd5938d3be216145U, 0xbdb35cb3bd1006e1U,
  0xbca690ea3d812537U, 0x3c8257c5bce24194U, 0xbe54d52fbc19c569U, 0x3b9581cdbe1a08d9U,
  0x3d66cd8fbd133bcaU, 0x3d3a6cfe3db04b08U, 0x3d9131e93d75bdaeU, 0x3d9d41523e296e88U,
  0x3dc03b883e2b13a9U, 0xbc80f6da3d394721U, 0x3bf515833b9cbfd9U, 0x3d1d5dbabe16c9efU,
  0x3c400f0bbdcffe5fU, 0xbe076e58bdade38bU, 0x3d985f273c26885aU, 0x3ddd3aa43dfa8e7aU,
  0xbe9db6fb3cdf2a12U, 0xbdcbd2b5bbab5d7eU, 0xbbde3462bc8875f6U, 0xbc19b5b3be04323cU,
  0x3da929203ca02cb3U, 0x3e4a551a3da0d7b0U, 0x3db50b003e13da8bU, 0x3de6d0ef3d8f5715U,
  0xbd1c5570bdd72caeU, 0x3d8ac0d4bd47f3dcU, 0xbda667f33dacf91dU, 0xbd50a9e0bdf4fa43U,
  0x3ddc6ca4be0a15b1U, 0xbd1c95c53d1b4cb9U, 0xbdeecd7fbd99e7a7U, 0xbe07b53e3c7c1f1eU,
  0xbe15df5fbd576337U, 0x3cda2aaa3d4116f5U, 0x3daa91383cdacd0dU, 0x3c93a70d3e1376f5U,
  0x3dad24dc3dfb0259U, 0x3d7c50573d765d1fU, 0x3cbe6f76bde324f4U, 0xbca0c170bbc4062dU,
  0x3df47a833d84d7f6U, 0x3e15deaa3d01fa69U, 0xbdaf2f27bd81a748U, 0x3d38ce68bc1c3898U,
  0x3d0919c8bde32c32U, 0xbd794da73d6aec9bU, 0x3d5670d8bd8cdf03U, 0x3e1c609a3d269924U,
  0x3e52aa6e3e12329aU, 0x3e0c97d63e046185U, 0x3e5a4a7c3cfbec59U, 0x3cfa15c53ddc287eU,
  0xbd4ad31ebccc9d67U, 0x3d21b685bd602393U, 0x3cfd6cc0bd4468efU, 0xbd43a6413dc3ad34U,
  0xbd38af2e3d389229U, 0x3ddbfbe4be03b3d4U, 0x3e0771f0bd3b171bU, 0x3d38042a3ddb7788U,
  0x3e0abe623cc7a1aaU, 0xbc2b4c803d9b31e8U, 0x3dd2aebe3d2ee8deU, 0x3c696c1b3ddc0c88U,
  0x3d88b0683e3c1793U, 0x3c34b8db3de8e53dU, 0xbcbe3856bd010f94U, 0x3d2c21d23d831000U,
  0x3e0b36f33d3eb14aU, 0x3d81e9ed3e343376U, 0xbde535ea3c4e5422U, 0x3e4bf7a43c70ceaeU,
  0x3e839bc63dafa097U, 0x3d4f024c3dbb9285U, 0x3e04b3343db51475U, 0x3d23cedd3cb77d99U,
  0xbd9eb6cebd2ec9cbU, 0x3c9a079d3c338efcU, 0x3e1435663c8879c4U, 0x3d9f55893c5d3d12U,
  0x3d8b2b0c3d17235fU, 0x3e1be2a73e255825U, 0x3e783a4f3d67eed4U, 0xbe0af3493e5fe47dU,
  0xbe16bcc8bb17a262U, 0x3e4dc14fbdf89e72U, 0x3e78c2ce3e5c6302U, 0xbce39b733c18cf74U,
  0xbd2462953d8462aeU, 0xbe211704bdd574b7U, 0xbe029ac8bd0d8f98U, 0x3d974297bc40ae6fU,
  0x3db1d99abc50d399U, 0x3e81e1583da3c0d8U, 0x3db4b4963d7fa137U, 0x3d727ed33cec3045U,
  0x3d89bcf33dcdf98dU, 0xbe46cdaf3daf09f6U, 0xbe1863ebbdd21598U, 0x3d6eb871bd300045U,
  0xba8a98203dbb195dU, 0x3ce5e89ebddda347U, 0x3c788c1ebd1f7f45U, 0xbdc49421bda3b1cbU,
  0x3d98491bbc51c0b3U, 0xbb42eec53d646134U, 0x3e17f7f43d86a1f5U, 0x3d732e4b3d3d7987U,
  0x3d46dee83be9aa7cU, 0xbdfcf1bfbd3824a3U, 0xbdd4d112bdc68489U, 0x3dfd31993dd0c3dcU,
  0xbd556c57bda7c077U, 0x3d8e24e3bbf96ed9U, 0xbe0d25eebde62e5eU, 0xbd9aacbbbdb7e9f0U,
  0xbdd0c06abcd8bdccU, 0xbb41e930bdcca455U, 0xbd120f71bd80d409U, 0x3d856cf63d3baecbU,
  0x3e0be391bc9bcaeaU, 0x3c886c9abbe95016U, 0xbd6cb59e3d1b345eU, 0xbe3883b3be0d479eU,
  0x3d818d8abdcf7cb4U, 0x3cde20bf3e92bb29U, 0xbd6aea78bcda2ba7U, 0xbb4acdf6beb46f50U,
  0xbe19e9ad3d2a90cfU, 0xbde057dfbcf7f7cdU, 0xbe1908afbce15e28U, 0xbdc193a7bd8d1be6U,
  0x3d34e66c3ce62457U, 0x3dc2f407bcacc936U, 0x3dc7b9f23df7993cU, 0x3c82ee683d04f614U,
  0xbddfadf2bd5074f9U, 0xbda71b7e3d95c483U, 0x3d942c6b3ba9b31eU, 0x3e55d1bb3e953d79U,
  0x3df9e5413c075d6eU, 0xbc760ae6bd95b483U, 0xbe058005bdd1f83cU, 0xbd2f49ffbabf93f3U,
  0xbcbb7b3d3d1f9c44U, 0xbbb43f233da44118U, 0x3d8fbd4c3de195f5U, 0x3ca78dcf3dade37aU,
  0x3de90c9f3dd8da3fU, 0xbd708f823d074b99U, 0xb9d408e0bda5fd12U, 0x3d794de23d97c523U,
  0x3dd6abc93c7d039fU, 0x3e3008923e7199cbU, 0xbcc6282ebcf786eeU, 0x3de46f59bde0fe3eU,
  0xbd670545bdce3423U, 0x3e129d163dcc8f37U, 0x3d4f2b7b3de13153U, 0xbc74f3953daa416cU,
  0x3e10ce693e126b5bU, 0x3c54c2bd3e1c1a1fU, 0x3d8d9eeb3d85b1c4U, 0xbd17c372bdc6e539U,
  0xbce6550bbd61ab82U, 0xbd4430d8be14da5eU, 0xbd8c9df3bc75724fU, 0x3e65a2653e263945U,
  0xbdbfae973dd248d1U, 0x3caf7568bdd153cfU, 0x3d9a84703d2b9cbfU, 0x3da3fe403e36e77eU,
  0x3bf44b123c4f7a5aU, 0x3e6ea24e3d580b96U, 0x3e461b0f3e274fa6U, 0x3dcc7c613dfacb82U,
  0xbdb55fe23d66fe49U, 0xba7b81aebc013e3bU, 0x3ca50944bda53d45U, 0xbd688cb8bc8967cbU,
  0xbdc0539dbd794fe9U, 0x3d95ac8e3e1ddd05U, 0xbd72e5b13d76e6aeU, 0xbda4cfd7bdd60accU,
  0x3bff8a173d43934fU, 0xbbca756ebb824db9U, 0x3ce7412f3d8a9ee9U, 0x3d4dcc313dbb1d36U,
  0x3d77e7473d10d846U, 0x3ccb5cf8bc56c7ccU, 0xbc60128639786610U, 0x3d8533ab3cf58aa9U,
  0xbc75c596bd45ebc0U, 0x3cb71b3fbdce7332U, 0xbd6c8889bd97fdacU, 0x3cabd8ee3e69b18cU,
  0x3d3edbe83cb7a0c4U, 0x3d944fbb3ca7aca2U, 0xbce59c32bd28bc77U, 0xbd1ba17cbcf54ce8U,
  0xbc80ce583cb9da4eU, 0xbd264d40bd5b3dfcU, 0x3c99a01abde78f9eU, 0xbdfa6bcdbb5a91bcU,
  0xbdf33369bd70dc1eU, 0x3c8c1a46bda0903eU, 0xbd12673fba74cf76U, 0x3e0671fdbd2cdb91U,
  0x3d1a19123e3c23a7U, 0xbd9a76a33e53728dU, 0xbcce7cda3d35f8f8U, 0x3d31803f3d2d1cfbU,
  0xbc96c7c13dabde73U, 0xbde68a68bda5ca4bU, 0x3c8f8c593ca7f959U, 0xbe157b24bd75788dU,
  0xbd1d092cbe1f6accU, 0xbe15ef69bda55fceU, 0x3c9b9a9fbe1529a6U, 0x3c5afddd3c06f6a8U,
  0xbc6b020bbe0db9a2U, 0x3e7fb1c13d71b4a6U, 0xbdfeae6a3dcc739bU, 0xbc8fff69bddc7011U,
  0x39710687bc5edc95U, 0x3e0f570b3e327a2fU, 0xbd3f8d62bd99a8d9U, 0x3cdb6601bc3d6d84U,
  0xbd62ae66bd346444U, 0x3d68473bbd1992baU, 0xbdc55fe7bd7b89ceU, 0xbe03f6d5bb9656bfU,
  0xbda5d178bdfa5c4cU, 0xbbc1a5363cc11a71U, 0x3d8836c13d4b277bU, 0x3e412ff73e42128dU,
  0x3c0709b83e49669cU, 0x3c062a7abdc0334dU, 0xbd7d9571bc52e1c0U, 0xbcc2a9f9bdba3565U,
  0xbe0d5721be21d728U, 0x3dbbef8ebdda087eU, 0x3d32e3283d91b140U, 0x3de658f0bbf4bc2eU,
  0x3c639a88bca407e0U, 0xbe0227c9bd209f00U, 0x3d8b6edfbd56bdceU, 0xbb89d4233e030812U,
  0x3cfc53603d379c90U, 0x3e83f5e03e3b51bdU, 0xbc5576aa3e732629U, 0xbca1a6c4be318cfbU,
  0x3d2b89123c02a7b8U, 0xbdb65c89bd8e0e82U, 0x3d7b50b43dfd08f8U, 0x3e096f493d8aac22U,
  0xbde8b64e3d3c0d4eU, 0x3ce0c3433d3600c7U, 0x3dab7fed3d83b567U, 0xba5601a7bd4763bcU,
  0xbda06dea3cc1c2e6U, 0x3dcaa5efbc547336U, 0x3da33fa73e0103a3U, 0x3e014a2e3dacff3bU,
  0xbd9bb8243c80b138U, 0xbd22d569be05021bU, 0xbd49eca03bab0900U, 0xbe0de9cb3df09151U,
  0x3e6c4b853e008e40U, 0x3d116b1a3dbb115eU, 0x3d2e57683d33373fU, 0x3d102c073db40b97U,
  0x3c2efcebbda9cabaU, 0x3aee28f23e1b5c41U, 0x3d7e32c03dd723fdU, 0x3d3c3a77bda4a734U,
  0xbd0e1c493d960d9dU, 0xbe39400fbdf57bd2U, 0x3c3f21fdbe20f0dfU, 0xbd0e6afbbe140732U,
  0x3d1d06b6bd3965caU, 0x3d2544eb3c9e6f9cU, 0x3e5ae5923e838d11U, 0x3e8d2fc53e9227fcU,
  0x3e64b3de3e45b7b7U, 0x3d8a64d73e387e2cU, 0x3e0f876c3d3f595aU, 0x3b8bcc3e3ea07289U,
  0x3e0df1ee3d115bbaU, 0x3e03f6123e3c88cdU, 0x3daee9e83e5aba81U, 0x3e13280c3be1960bU,
  0x3c820aec3d9d9d6eU, 0x3d97897b3d419d8aU, 0xbd9223f8bd7ba52aU, 0xbd0d80cbbd2d67f9U,
  0xbd9e19acbdd723f5U, 0x3e249e073e06e458U, 0x3c98cb693d94ae9bU, 0x3c494d3a3d2b818cU,
  0x3d3879913d8a76e0U, 0x3d9ff9a03d5e7863U, 0x3d448a513dca73fdU, 0x3dc4a06a3bc3cfb4U,
  0xbde24f4ebd463e2cU, 0xbe09717cbe1b24caU, 0xbd8a500abd82e18cU, 0x3d0338e03d1e22fcU,
  0xbd1199dcbc73b088U, 0xbd1f3afa3ce81b30U, 0xbda421343da12a21U, 0x3d7dbe3e3d8a1293U,
  0x3d7214d2bc8d5650U, 0xbc4a7568bcf35a38U, 0x3d58ba3f3d29cc2eU, 0xbcd65d0e3d954707U,
  0xbd439b713d3cbfb6U, 0x3d3a4a2a3ce8c034U, 0x3d8d5a5dbcb7bbc6U, 0x3d2d352e3c045778U,
  0x3cace5fcbd7024d9U, 0xbc9908983c1f8648U, 0x39a281003d4c099eU, 0xbca8e040bc71b2e8U,
  0x3db82c263d8a64d3U, 0x3dc0c60fbc13b422U, 0x3c14b82f3e1573fdU, 0x3e3a10d13d9d64aaU,
  0x3e0c2f803ea1358dU, 0x3d1a10bbbdb9da64U, 0x3e26317d3dc898a0U, 0x3d7287843e1ceeeeU,
  0x3e074d3d3da16f29U, 0x3c9a101a3d3c3a6bU, 0xbd5dcd9c3c51b200U, 0x3c709f983d38f1e2U,
  0x3ce4f94c3b34e5a0U, 0x3e0b783e3d4b16d2U, 0x3d8a05fe3dd6b00aU, 0x3e291f9ebc49a039U,
  0x3d9e90a43d294ab5U, 0x3dded0e33ca5e348U, 0xbdffcf92bc83246dU, 0xbdd91c66be39c80fU,
  0x3db2673ebd2e64c0U, 0x3d3bd7b0bbaea68eU, 0x3e7e88b7bd4804baU, 0x3e1b3e743e12c571U,
  0x3d64ad483d8f1b39U, 0xbd83e4d43c37c0f8U, 0x3d9602413d0b7416U, 0x3d8b2695bd9ef1ffU,
  0x3dc66c473d2af9daU, 0x3d0dbd433c64dee4U, 0x3e0152a73c54a124U, 0xbd9f9a90bdbccfefU,
  0x3db57e93bddffa09U, 0xbd984e403c362550U, 0x3dbf2a973dc8c138U, 0x3df451223dd93605U,
  0x3db9f3d0bc2f1fe0U, 0x3dfccb883de97812U, 0xbce238d63e091d2dU, 0xbd4ea5d8be0d2bddU,
  0x3af1a6393d9c0481U, 0xbb563ee0be16e9b5U, 0xbd26c55b3cd82cffU, 0xbe3dd988bcf9ea8eU,
  0xbd50ca3ebd9dafa9U, 0xbe441104bdab807cU, 0xbd815f99bd2992b3U, 0xbc2d4f5cbdb9f358U,
  0x3dbc7525bdf442f9U, 0x3e3014aa3de1a0b1U, 0x3c214c893c89b55eU, 0xbdb16efbbd2f1478U,
  0xbe49e9d0be2913e5U, 0x3d9df641bdc17e65U, 0x3d720fdebc80eba8U, 0x3d05e4e5bde27bc0U,
  0xbd98800e3da2b9fdU, 0xbdeec6febe2ba5f0U, 0xbe573edfbe1938faU, 0xbd9e341cbe18c043U,
  0xbc06c832be2dc9cdU, 0x3d7702863cbe9131U, 0x3d1c60ac3da42e2cU, 0x3ded35743d9748bbU,
  0x3cf21a4dbb447543U, 0xbdfc59a2bc541647U, 0xbe8f5eeebe3e5f6fU, 0xbd7972c0be49e173U,
  0xbcca2c8e3b8ea750U, 0x3d3298a73d47982fU, 0xbd35bdb13c98ae87U, 0xbd2d637fbde654c9U,
  0xbe47b6c6bd3ab62bU, 0xbd83e5dbbdba400dU, 0xbca5d135bd29de43U, 0x3def9ce63dcfb11cU,
  0x3d343a0e3dd7825eU, 0xbe0b4e4f3d319d42U, 0xbdb7dcd5be26d33aU, 0xbea6d651be12d1efU,
  0xbe52ca7cbe8a61feU, 0x3c6e1c20be765d8cU, 0xbe19da303d4b2da9U, 0x3e3035833d89ede8U,
  0xbddfc1983d389426U, 0x3cc704283dc7d5ffU, 0xbc93f869bdf45094U, 0x3d9aa397bc4a5f07U,
  0x3d27f8a6bd95b98fU, 0x3d8a6c91bd554a88U, 0xbd44e767bb7dbe96U, 0xbde6d90b3ccf3159U,
  0xbdd69d43be075b31U, 0xbe8370cdbddc866fU, 0xbc684f58be29f829U, 0xbd807b2dbe671cf2U,
  0x3dc5bac33df1a243U, 0x3e55eeb33e37fee5U, 0xbddefae93c850f77U, 0x3c92fe11bd5b50f0U,
  0x3cdf88153ce0d2c2U, 0x3d9ad7663d49c5e3U, 0x3d97f1e73cfa0f0dU, 0xbe0d33013c4f0b86U,
  0xbd0a3674bdb834a1U, 0xbda4a9bfbc982040U, 0xbe4e527bbd754e20U, 0xbe8b8414be46f831U,
  0xbe83b18bbe586624U, 0xbde3a7d9be83e981U, 0xbcf92fe8bcab1ecbU, 0x3e4e1a1c3da3f2bcU,
  0x3be353babc206528U, 0xbd5d07583d9bc3c3U, 0xbcb26f55bc877da9U, 0xbdd37e23bd8407afU,
  0x3d1209713d98a955U, 0xbc9249e23bc1c58dU, 0xbd77b8d6bcc9e6f3U, 0xbd9a3645bd2447fbU,
  0xbdb885883d3eb5bfU, 0xbde61a9abe1d8406U, 0xbdab011dbdbb36feU, 0xbc06a95fbd103190U,
  0xbd26f9de3d24ac2eU, 0x3d93ce683e1aad76U, 0x3e35223ebd37e9cdU, 0xbd32ba1e3de80188U,
  0xbbfffbfabd377e16U, 0xbd36373abdbada00U, 0x3b6ba4e03d528d16U, 0x3dd569773dbdd57dU,
  0x3e52d7ff3e13e70fU, 0x3b83b6e739c5422dU, 0xbbaeab8dbc0dd4d0U, 0x3d3d5ec3bca0ff90U,
  0xbdb6a942bc772c94U, 0x3c84f5d8bd35d817U, 0x3e1dc901bd94275fU, 0x3de13553be20c92aU,
  0x3dd42d933db491c9U, 0x3e2c24393d8e7610U, 0xbdd67b98bd9347e4U, 0xbd131ac73cd194a3U,
  0x3d4dead8bd290f06U, 0xbd032d863cafc627U, 0x3def48673d62a11bU, 0x3da5e5693dc23a9aU,
  0x3df1d9df3e0a07aeU, 0x3d619d7e3cdfe09eU, 0xbd38d0e0bd929dd6U, 0xbcd5aa3abe9200bbU,
  0x3cca01453d472858U, 0x3e97c37b3cccd50cU, 0xbd8e01473dec6a9cU, 0x3def413bbd3dc803U,
  0x3d7631653d2cb58cU, 0xbc8f63babd9c6decU, 0x3cb59e05bb488194U, 0xbe236071bd35493dU,
  0x3e52382e3b9e9ca4U, 0x3d8965333dcc5dbbU, 0x3e1d1a473dbe0f86U, 0x3cf9758d3da94ad1U,
  0x3cf3323e3d1efefcU, 0x3dff53a1bddb1068U, 0x3d7db972bd8149b9U, 0x3e6d6b8d3d3cd930U,
  0x3da9eb843e9f2b69U, 0x3d75d8993d04c2f4U, 0x3b4ebb2c3d88a22cU, 0xba9e05973dcfde00U,
  0xbd3c90603d102281U, 0xbe26903dbd8fbfe0U, 0x3c457a5fbdc36c87U, 0x3c822ed13d8ce5a9U,
  0x3d7807c1bdb781a2U, 0x3da00f503d7b3fa4U, 0x3d898c203e1d951fU, 0x3e3f52fa3d4731fdU,
  0xbe0f55e73d82f749U, 0x3d63cb3cbcd1a0d9U, 0x3d4c78df3d08876fU, 0x3e30fcd23e0a4a70U,
  0x3d0a505ebd40dccdU, 0x3da8dfe93d64bc3bU, 0xbcb4dcaf3d9305e7U, 0xbe5b9f6ebe70c2edU,
  0xbd8be697be14b933U, 0x3d44d84a3cbd31e9U, 0x3e09638dbc4eee84U, 0x3d238fa63e019ac2U,
  0x3e8537b13e3c55a1U, 0x3e0a39433e145120U, 0xbe0bbe8abd8dae8eU, 0x3d0b46dfbe1418c6U,
  0xbc815270be0ff86fU, 0x3e519f463bd419a5U, 0x3ddb99a1bcec7bc9U, 0x3dcf811d3de9cab6U,
  0xbdae45aa3da7969dU, 0xbe5bca27be87da5dU, 0xbc92ce3c3bf9c1f2U, 0x3de07e003c09702fU,
  0x3d5d30463d87573eU, 0xbc8a43b1badf6a80U, 0x3e18443a3e5891ffU, 0x3d461d77bd24492eU,
  0xbe4cd44fbbe8e48eU, 0xbdfd008bbdffc991U, 0x3da06a51bdb5ade6U, 0x3e2894473ddb3f84U,
  0x3d322c483e3a3b2eU, 0x3e27f3053d5dc5d9U, 0xbe5bd11e3b16fdb0U, 0xbd2429f9bdc8fcacU,
  0x3de70c7f3d2565ddU, 0xbc1e8ab83d898478U, 0x3e2af9cd3d9b54a7U, 0x3c8c65423e0d5037U,
  0x3e1dc87e3d893025U, 0x3d9337243e21ff9aU, 0xbd85afedbd70a712U, 0xbe3a54d4ba1b7dd0U,
  0x3da093373d0f3e1aU, 0x3e288c173dfb5c78U, 0x3e6947873db16e56U, 0x3e3196253e81b7bfU,
  0xbdca6133bdbb5b34U, 0x3dab3a08be059b86U, 0x3d12ee683d4b1cadU, 0x3baa83463d40f30bU,
  0x3dd9a6ae3e259a4dU, 0x3d7d82d13d94f713U, 0x3e4bdc013d6e8657U, 0x3e383d5c3dda54dcU,
  0xbb45ab81bd2406adU, 0xbd9ad74a3c7eb151U, 0x3d50f4d83d511afbU, 0x3e61741f3d24ccb3U,
  0x3dbdc6b13e3f276bU, 0x3d58df8b3e2b56f0U, 0xbe0f0db2bd43ddafU, 0x3db12a3cbd83409dU,
  0x3dde97e93d7cfcc3U, 0x3d99ea873dc5e6f6U, 0xbd77cc0e3c232a47U, 0xbcd843703c8a5db2U,
  0x3db5e7b33d1dff51U, 0x3c775df83dd75348U, 0x3e1b3de13d7ff894U, 0x3d40f1743d50766aU,
  0xbcac59ea3e189d17U, 0x3bed2fb83c786991U, 0x3dec93ca3e012af0U, 0x3d8f993f3daac359U,
  0xbdfd1c39bded7699U, 0x3bef612dbcfca4d0U, 0x3d0f6f943d2e3c34U, 0x3ceb789dba5830b6U,
  0x3d943a553c9ceaf5U, 0x3d09c5833ddc8085U, 0xbc768a5d3d1bee4bU, 0x3dbd8a0c3e3e361aU,
  0x3e1e58233cde71e0U, 0x3df3f0a63e2d2d36U, 0x3e0895333e5a831eU, 0x3b3b6339bd17821cU,
  0x3d776f333deb85deU, 0x3bbc59763dd30a7bU, 0xbe00422bbdc27e70U, 0x3cb42982bd9e3701U,
  0xbd6908813c846a31U, 0x3db4e8a4bca2a1f2U, 0x3d60561e3be0262aU, 0x3dcbd9af3e0b6d91U,
  0xbcab2673bd1cef0fU, 0x3ca047fe3e0c9d12U, 0xbc7441673d6db0eaU, 0x3e9c85cd3d56942cU,
  0x3e2ee5603e8017e7U, 0x3de68e263d18b04aU, 0x3cc6681bbd3a055cU, 0xbd37220b3ddff571U,
  0x3ce11fe73aa623b6U, 0x3c99fb7e3d072adeU, 0xbde809ac3d4c3145U, 0xbd4acf0bbe2320e4U,
  0xbb8e276ebc36396cU, 0x3dba48363cff24feU, 0xbd1634e6bd5ba932U, 0xbd5584643e6f7ab3U,
  0x3d510d35bc1b98a8U, 0x3e48dfd33d2ffc51U, 0x3dd8f96d3c93cfd3U, 0x3e2a8a7a3da6eb39U,
  0x3d8f25423dcd29a4U, 0x3d6cf5bc3e2b46e9U, 0xbc6e9c293d24f193U, 0xbbe35541bdf969b0U,
  0xbe09154e3d23f816U, 0xbd4b9a50be22eb75U, 0xbd89e305bd8c5cd2U, 0xbd5e2d55bbae00efU,
  0xbd11943abe001b81U, 0xbaa03746be01fa51U, 0x3c825b58bbe9a860U, 0xbe041f65bde085fdU,
  0x3cd093eabdf5ce2dU, 0xbca6c9fa3dce2023U, 0x3e2fb4133cffdf7aU, 0x3cbcb9573db0e1d1U,
  0xbde96916bdc85c59U, 0xbe1f94bdbd97dbc6U, 0xbd0717a6bd620a03U, 0xbe61dd76be0b4ce8U,
  0xbe54b4f2bea4f4c5U, 0xbe595f9fbe41cff6U, 0xbe0064f6be40e1c1U, 0x3d03c300bced9ed4U,
  0xbc810fb8bd9c7045U, 0xbd86ba3bbc99f267U, 0xbcd5d16dbd1f3d94U, 0xbd96d674bd3fee05U,
  0x3d04d9693d0bbfc9U, 0xbd7a4c98bd167980U, 0xbd383396bcc332efU, 0xbd8795f23c350023U,
  0xbdea94dfbd8127e1U, 0xbe411818be3cff40U, 0xbe7ee3e5be8be781U, 0xbe22510fbe4f3a6cU,
  0x3e108528bc869834U, 0x3d5a95e63e170219U, 0x3d035d02bb948c90U, 0xbdc96bb43c8f1274U,
  0xbd41df613d919308U, 0xbe246ade3c098bfdU, 0xbdab3bf0bdcf9f94U, 0xbe6a25b0be07ba02U,
  0xbe3212a4be9b5f76U, 0xbdf41258be442d57U, 0xbe784b25be5cef21U, 0xbe11d2a5bea42b4cU,
  0xbe1a613bbddf5cb0U, 0xbe337cb7be6aba79U, 0x3d912957bd1d5c28U, 0xbd4a1dec3db3ae7bU,
  0x3d9fe2893bbcf020U, 0x3c70b5d83b4ad6c0U, 0x3d2942463e20f51cU, 0x3e08bb6b3d58fb8aU,
  0xbdb0ed923d214241U, 0xbe58ed07be792d7cU, 0xbd52f59fbdee7fabU, 0xbd77f870be05640bU,
  0xbe042fbb3ce00928U, 0x3d5a55b7bdb52f4cU, 0xbdb35894be181a94U, 0xbe3b8084bd9411b9U,
  0xbc25a493bd52040bU, 0x3cc3a058bd225369U, 0xbd9f7b18bd9d90b6U, 0x3d854721bd2890f2U,
  0xbc8fd71d3cc06cbcU, 0x3dcf417b3c4b32c5U, 0x3dbb8ab7bbc2216aU, 0xbcc22bb43d7a7d61U,
  0xbdfe7314be02d0b2U, 0xbe071b5abd9aff8dU, 0xbe4c25e4be2288acU, 0x3d7969f3bd5a677cU,
  0xbce48bdabcc08a81U, 0xbe443424bc6c47ecU, 0x3c8f4d703d631362U, 0x3d2377e4bcb6e182U,
  0xbd93e0363d9f6fb1U, 0x3da2a0753d3529e2U, 0x3d8008f93d334afeU, 0x3be602803c1230d0U,
  0xbd124d51bd47d24bU, 0xbd5206ca3d95b10fU, 0xbdb2d4acbd9aa8d2U, 0xbd3cb3bc3cd070fcU,
  0xbd1befea3c807158U, 0x3c9a6d1c3cbc915cU, 0x3ba4a7203b427240U, 0x3ba33880bd799321U,
  0xbd4b65da3c926ffcU, 0x3d34078e3c84d774U, 0x3d73cf36bd97c80bU, 0x3c6cbfe03d5ff572U,
  0xbd123f9b3cc20814U, 0xbe026e0fbe17e5efU, 0xbd0bbbacbddb1b9cU, 0xbd8ad2fabde1806fU,
  0xbe7d4cafbe30449fU, 0xbdbd5610bdca32afU, 0xbe2a0f81be1fd22dU, 0xbd9a83b5bde7e892U,
  0xbbeed67dbc882640U, 0xbd02640bbce83d43U, 0x3c2df5b0bda2c052U, 0x3c0cd7f83d6ab386U,
  0xbcc9e1503d91db87U, 0xbdb1fab0bcef9ac2U, 0xbd7fa0c6bcaef7a0U, 0xbe450547bdd07a2cU,
  0xbdbf256cbe204247U, 0xbe89dd1cbe048da6U, 0xbeed3501bedf15c5U, 0xbea301c3bea61d59U,
  0xbe059699bdc30d7eU, 0xbe033277be30e993U, 0xbd2bea24be0e46ceU, 0xbdd37c79bd9d4ca5U,
  0x3d414ec5bd5aa28aU, 0x3d43c0b63d4b3e4eU, 0xbcd9e222bd6d0290U, 0xbc4de462bd3c4b62U,
  0xbd763452bdc7d706U, 0xbe2e41d6be5def41U, 0xbe955100be75d8b3U, 0x3cb46f78be0e85deU,
  0xbe912f1abdb99b1dU, 0xbe44d3b0be8a7069U, 0xbda23be2bdad6677U, 0xbd79a4e0bc686bbdU,
  0x3d15a1f9bdfdf84bU, 0x3cb9e3df3d72e75eU, 0xbd47133b3cbb87e7U, 0x3cc66c283c7fe648U,
  0xbd18b7cabb9e86c0U, 0x3d9b04e7bc944639U, 0xbdef66b43d537a98U, 0xbe5bca3fbe0fc87aU,
  0xbed9f7ecbe8e7c13U, 0xbd4b8dfcbd95182aU, 0xbc9fdd933cb2436bU, 0x3da722edbc946e7eU,
  0xbd24bb3a3d079c29U, 0xbdb79242be33a69aU, 0xbd7146e5bded32c3U, 0x3e938fcf3e524443U,
  0x38a254323e6732f8U, 0xbda980ebbd3aac12U, 0x3cd9a77cbce1027aU, 0xbd6c0bcbbdf1109aU,
  0xbd380771be8c47c5U, 0x3e16dfbc3cfbdb14U, 0x3dd4d8ddbc79475aU, 0x3d88e77c3d681974U,
  0xbe1d32a7bd8bebc9U, 0xbd993431bcc3aeffU, 0x3cdd2a95bd298b9fU, 0xbe44d82abbb77afaU,
  0xbdeb1ba0be2917d4U, 0xbd6beffdbe104aa7U, 0x3d8f98413d35d71aU, 0xbd908e26be355e0cU,
  0xbd8d04aabd72f024U, 0x3e1b37073e036a8cU, 0x3e175bd6bded51d5U, 0x3da2445d3e472598U,
  0x3e0f5d863e02fcdeU, 0x3cce81b53df6c31bU, 0xbe0555d8be228d0eU, 0xbde483e0bdcec57dU,
  0x3d34fa9fbd46eddbU, 0xbdd73a1c3d3eceb5U, 0x3c81bf02bdd7be73U, 0x3dba85a53da68f97U,
  0xbbfd99dfbcd5f15aU, 0xbda94ceabd3ec032U, 0xbc2b2fac3da0a9f1U, 0x3e59736e3dd33493U,
  0x3d453a84bda8b921U, 0x3de9cb483d53d1edU, 0x3dce1dd03d898f49U, 0xbdbdcdf13d0b496eU,
  0x3ce19ef7bd8b768aU, 0xbe0b9c2f3c510c07U, 0x3db3e4aa3cb80abfU, 0xbda4a7c7bd9845efU,
  0x3d0a44133c3a8fdfU, 0x3e221f4d3e0ce6beU, 0x3c8d80813d79201dU, 0xbe11ff843cf26491U,
  0x3d0f9c81bdf7947bU, 0x3dc30555bd49172fU, 0x3d6e4b063d7a3746U, 0x3dbfb2683d507d04U,
  0x3d8eafbb3e11b4d3U, 0x3d0e44b83bdb90afU, 0x3de30d773d86b166U, 0x3deb46293e17247fU,
  0x3d1eb04f3dc92f04U, 0xbe47da99bc63a965U, 0x3d9716053d3f725fU, 0xbcd07e253de85fd3U,
  0x3dc763f7bb1410aaU, 0xbd4a43cfbddecf7cU, 0x3e448c653de37bc9U, 0x3dcf58ad3dd17002U,
  0x3da23ac63e128d55U, 0x3ce3c2ce3d80f2dfU, 0x3e024ccd3d9ec2daU, 0xbb8b46753d8f0ad2U,
  0x3e64476a3dd5541aU, 0x3a2cddb63e0052a3U, 0x3e07a8d13d59d346U, 0xbd22bf403da2f539U,
  0xbcb71801bc9cfcddU, 0xbd5d25fe3d67c48fU, 0xbdf1dfdfbe35d476U, 0x3d4a30fbbdaaa471U,
  0x3ddb97863d8e51ffU, 0x3da7ea073e33ff54U, 0x3d8914d93de2625cU, 0x3c7a3f03bc29a6d9U,
  0x3d93016b3df98025U, 0xbc5ef004bc9bcb6dU, 0x3d99eb803e15780eU, 0xbbb8e34ebd06e48fU,
  0x3cbe21d43c809c6aU, 0xbca968763c2a1215U, 0xbd81f3e43e0800f6U, 0xbe26f42cbda66232U,
  0x3d8aa6e4be59206dU, 0xbb93f9f6bde6defcU, 0xbda9e54e3de75f4bU, 0x3e3255143e94cb16U,
  0xbd73b310bdb7b845U, 0x3cc2f615bdc82621U, 0x3bd1844cbc9e2903U, 0x3d59ad47bcfc9077U,
  0xbdbbb1d13c4dbaadU, 0xbdac2f6cbd429d30U, 0x3c6320cbbdc428e0U, 0x3d8d17153d4b343aU,
  0xbd3563edbd627213U, 0xbe55e9dabe3d2966U, 0xbd9a3a77be25d0b4U, 0x3a84b2aabe1db101U,
  0x3dff5e9a3dae59b7U, 0x3d8c5c4f3ddc1f67U, 0xbd10a788bc1d7c35U, 0xbd6eecebbe00cc20U,
  0xbcc293e9bdb2f202U, 0xbd84cd973d7685aaU, 0xbd4a7dcfbce479b3U, 0xbd332beabe034c35U,
  0x3dc5cd7e3b69d6e5U, 0x3dbe82d93d5479c8U, 0xbceb81bf3da84dc1U, 0xbe85a733be83bfa8U,
  0xbe1eba00be554979U, 0x3cfe9e35be545437U, 0x3e1945c6bdacea87U, 0x3beb79763e5568d7U,
  0xbd628602bc8dc2e6U, 0x384273f8bd203c1dU, 0xbe11ee693b369880U, 0xbe2b6eb3bcd5109aU,
  0xbe98124bbe491c5dU, 0xbdd74c61be06d6d8U, 0x3e0462d0bc6dd2baU, 0xbd71dcc63ddad694U,
  0xbd87265a3ccf796fU, 0xbe802476be418006U, 0xbe396226bea7ea07U, 0xbddd9f80be704e9bU,
  0x3db2a4efbdf6869fU, 0x3dafd2303dec2a60U, 0xbcfd538cbd62c271U, 0x3d0260cb3cfb8b16U,
  0xbd4a8a4dbbb2181aU, 0xbd38e2e4bcf24c6dU, 0xbe5a9347be3cdb5dU, 0xbc922c85be29cfdaU,
  0x3e0ae2193d70fb5dU, 0x3de91a243d106f05U, 0xbe4a206e3d3428ddU, 0xbd8a3686be218f8dU,
  0xbdd31d85be0ca03eU, 0xbd973d99be9282f9U, 0x3c2d36c53cdde220U, 0x3e0441efbc2d2232U,
  0x3d4f1c35bd148b4eU, 0xbd06c971bc657849U, 0x3bb7a4babda45a78U, 0xbbd287f33e29b042U,
  0xbe183371bd9c4a6fU, 0x3d14587bbb4b4cb9U, 0x3e64156a3e36b362U, 0x3def25653e0cd0a0U,
  0xbc9f565e3d6a4c75U, 0xbdb809ac3daa6a7fU, 0xbe629118bdcc18e1U, 0xbd7dc996be2d0d31U,
  0xbd6fdfe53dbc82feU, 0x3de52f38bdeb300aU, 0xbc9163ebbda9d90eU, 0x3cc219d33d74b9ffU,
  0x3e069b333c53353bU, 0x3e4179fa3e61b4e2U, 0x3d78a1b93e51d5b4U, 0x3e059601bb94ffb0U,
  0x3e6e4d853db3546cU, 0x3dc250283e35943cU, 0x3e1320433e35152cU, 0xbdfb0d4bbcb91759U,
  0xbed82e57bcc2575eU, 0xbd06028ebe8e9bd5U, 0x3d303342bd424719U, 0xbd1ce84fbe232303U,
  0xbdcb4faebd00c8f2U, 0x3e0138d83dad654eU, 0x3e24d8db3e20faeaU, 0x3e6f99503e1c9e5dU,
  0x3ca8cd1f3e5e714aU, 0x3d40acc9bb92038eU, 0x3e4c930f3dfa4010U, 0xbd067d963db58a9dU,
  0xbd275c31bddc7951U, 0xbd6cb4e53d519613U, 0xbe870990bcc08a53U, 0x3c1eb33ebe99f7d1U,
  0x3da238873e2e83f5U, 0xbd4bb63f3dd90e8bU, 0xbdcd3088bddfc589U, 0xbd3ac9ebbd971263U,
  0xbdf17e2dbdb8d957U, 0x3d41dbf2bd9c36ebU, 0x3bb51d9ebd0a262fU, 0x3dc989bd3cce11b2U,
  0x3d9ac8d33e4a30adU, 0xbcc2dea5bd141ba1U, 0xbd3c639ebc8f6874U, 0xbe3bde4fbd36fbc1U,
  0xbe3f195ebe9c566aU, 0xbe24bb6dbdad2154U, 0x3d932a91bd889042U, 0xbd63d2243e88d7fdU,
  0xbe545698be09e016U, 0xbeb8aa0fbe5ec703U, 0xbdc86350be8717deU, 0xbe3b1bd4be40dfd7U,
  0xbdb48158be31ea90U, 0x3d2da9a23db04f60U, 0x3e185c253ce26259U, 0xbdab8e69be01ee27U,
  0xbde9c878bdd00d9bU, 0xbe9f60b1be733434U, 0xbcfaf29ebea951c7U, 0xbc07357cbdb976f9U,
  0x3e6f662fbd875a77U, 0x3d7eb0503e074276U, 0xbe84336dbdbc405eU, 0xbe98a70abe7f978bU,
  0xbe885ccfbed45cf3U, 0xbe7ce42ebe69b907U, 0xbd163276be2d4e64U, 0xbbfd31a03e46b167U,
  0x3d9e44d43e2f996fU, 0xbe004a75be0a794eU, 0xbe81d82cbe90913fU, 0xbe460390be5dc613U,
  0xbe102978be66ed3cU, 0xbd88f953bd790f4aU, 0xbd19d179bce81a80U, 0x3d41cde03da5278bU,
  0xbe6cd0d4bdf7a251U, 0xbc180748bdff6c20U, 0xbe1eb820be4f1f55U, 0xbe116269be2bda51U,
  0x3d1c5f563d07435cU, 0xbd18fd153dc15ab3U, 0xbd1632873e327728U, 0xbe1079be3c55c18aU,
  0xbe5debffbd9925bcU, 0xbe3e2eabbe71eb49U, 0xbc75f8bbbe18de0aU, 0x3d46e92bbdde98e5U,
  0xbd83a94bbd7cb03eU, 0xbe05a665bcd073acU, 0xbd0abb26bde00849U, 0x3cd7d0a1bbc9c9ccU,
  0xbd2bfdfdbd1e114cU, 0xbdb0663fbdb77675U, 0x3d284edebd2b644fU, 0x3d960e933da65582U,
  0x3c00c7173dd271beU, 0xbdbe70e4bd824bf8U, 0xbea041b8be52d597U, 0xbdc1ab76bdf5fca6U,
  0xbd1acab0be17aecbU, 0xbd366202be62a896U, 0xbb5119803cdb2868U, 0xbdabe0d9bd7ea597U,
  0xbcacb90bbdda7586U, 0x3bcd84703e11fbb7U, 0xbe16c1b4bd825116U, 0x3b267ae9bd054ce4U,
  0xbc6ee233bd642983U, 0xbd395759bd50e76bU, 0x3d21ca7d3d49acbcU, 0xbe097f34bdd10658U,
  0xbe844d1abe7a0f09U, 0xbdd024cdbe32e7a7U, 0x3d0dde773c804b87U, 0xbd45cdcdbd87225bU,
  0xbd9cfba93bd6f610U, 0x3d37c9af3de70793U, 0x3dc937ea3df2cb6dU, 0x3c91c83d3d6609a3U,
  0xbdb21ad4bddff64fU, 0x3b920b443cb81b70U, 0x3cba4603bc81c778U, 0xbd809f22bc3dc105U,
  0x3d0556d9bc9dccc1U, 0xbe064f34bc6fbda2U, 0xbe08cb3fbd64d8feU, 0xbd6150eebe631bacU,
  0xbdb71225be0ac793U, 0x3c8ea82cbdf71d8eU, 0xbc4f29403d74e7beU, 0xbd39d413bdb1c997U,
  0x3e7880e43e887499U, 0xbe152759bd56b44fU, 0x3d1257383e1437abU, 0x3d6c8ab03c19121bU,
  0x3d2d8e353d2d13ebU, 0x3d9d79fe3c90b804U, 0x3df2fa3a3d62b9f1U, 0xbc8bd2c03b14fd7cU,
  0xbe56ec1dbe3006d6U, 0xbe10488ebe84289fU, 0xbbabb6b8bdf3431cU, 0xbceeb84cbdd4b145U,
  0x3d8454e53d3ab9aeU, 0x3d38cfb13d93cd47U, 0x3e7b5d023e77b5bcU, 0x3cc12f633e7a2a14U,
  0x3e2b34693e528428U, 0xbdb5bb243da8a643U, 0x3d905f83bc08a8b2U, 0x3d3626b53e88136bU,
  0xbd268cd03d9ac078U, 0x3d011ce43df988fdU, 0x3b7afaffbda866f6U, 0xbb7d31a13c6f7249U,
  0x3cbeebd13cd717eaU, 0xbd9eaebd3d2178f6U, 0x3ce77000bc92d49cU, 0xbd8d7354bc80b074U,
  0x3e26d1bc3c9cf442U, 0xbc25c3c63deaa1b7U, 0x3e030b573d9a1353U, 0x3d5c35943dc6ab3bU,
  0x3dfa9c523c44f87bU, 0x3d94e2f23e3d3716U, 0x3e9f160f3e404e09U, 0x3e66dac43e8e5352U,
  0xbc8342d23dcfa033U, 0xbc6c87afbcc10ea0U, 0x3c440d70bce0acfcU, 0x3d15c208bcf02ddaU,
  0xbd84e1daba8b6040U, 0xbd945750bc980638U, 0xbd5c4b24bc0ccee8U, 0xbd8d5eebbd9ffac1U,
  0x3d02acacbd1fffb1U, 0xbcd5818c3bf71680U, 0x3d523a3dbc64c2f1U, 0xbc88037b3e01ed03U,
  0xbd8ceadf3d0e98feU, 0xbd72f6b6bd936756U, 0x3d6b879ebab58400U, 0xbb864bc0bbfc3060U,
  0xbce18ff83c689068U, 0xbd51bd483c7019d8U, 0x3b926fc0bd9f5db1U, 0x3da14a713c290088U,
  0x3c1df176bce39b43U, 0x3e14846f3d8e4a10U, 0x3e07a3a13e261654U, 0x3decdfd83e5fe90eU,
  0x3d348d103dfe2cc9U, 0x3db6a979bde4e376U, 0x3eb5e9513e255a14U, 0x3dad3f283de47a4cU,
  0x3deb78453de79988U, 0x3d6c6a343ca47c62U, 0x3d80d4bdbcbd5534U, 0x3d9e24073d935435U,
  0x3ad471c0bbc75500U, 0x3d472b483d5fdde8U, 0x3d4e235c3e103c89U, 0x3dc099423e2d7396U,
  0x3e3962343e172584U, 0x3dc375ef3e08052bU, 0x3c4477503db92316U, 0x3d5d1b013d5e3a5eU,
  0x3c6ae04e3d026a97U, 0x3ddf8c813d68ec87U, 0x3e6faaeb3e037f04U, 0x3d1d4de93e4f7628U,
  0x3d7aa0083d962634U, 0xbd4367ac3d84f627U, 0x3d4019d2bc64e728U, 0x3e06990dbdfc12d4U,
  0x3e7abeab3ce9c72dU, 0x3d54291a3e0d3becU, 0x3e4243a53e05853aU, 0x3e8ff6d93e1bc393U,
  0x3dcb2c503e5dd1b8U, 0x3e4b31963e3cd247U, 0x3c82d1b93e27d694U, 0xbc7b0f4bbda25a07U,
  0xbd2c7e22be0f6b07U, 0x3ca34a903cf0e18bU, 0x3d4952a139d1526aU, 0xbc45d0403c19a0edU,
  0x3d788f673c356ba8U, 0xbd9a15d8bdc7e250U, 0x3e2b45213dbf6e85U, 0xbbbf79d4bd0ea549U,
  0xbb1d0fafbd028dd1U, 0x3d48f1963e15c0e2U, 0x3dd95b123d7f04afU, 0x3c08a89a3e22b306U,
  0x3d1d54323dc33fb8U, 0xbda0508bbde672d4U, 0xbe03eedcbe0e7e02U, 0xbe4705fbbe1f56b0U,
  0xbd9bcc35be26e083U, 0x3d5532bdbd7699b5U, 0x3d8c0c8f3d282e7aU, 0xbcd83481bb9aedddU,
  0xbd6aa72d3e4e32b1U, 0xbd5e4d3fbdfd865dU, 0xbbaab27f3d1f05f7U, 0x3b31e1843d51d23dU,
  0x3d4feafd3d5c4640U, 0x3bc95a533d8442daU, 0xbcd5791b3c05b0f9U, 0xbda84de4bd2f6c48U,
  0xbe58857abd2dee2dU, 0xbdad7fd8be37fe71U, 0xbd995dc8bd9d4f03U, 0xbc3ca4ff3da851eaU,
  0x3d4281f43ce4b5ecU, 0x3da03a6c3c9415bcU, 0x3ce021763e32b7b3U, 0xbd05eec2bdfa29c5U,
  0x3d2f5a713dd23388U, 0xbdad41a1bda816deU, 0xbe16c795bd806d64U, 0x3caf7414ba72128bU,
  0xbde580e8bda71d80U, 0xbdfb5c9abe68aa73U, 0xbe9f12efbe7c3e54U, 0xbe698a32be88b5deU,
  0xbdbe2a9fbdd18ea4U, 0x3dbb30debe0d6a60U, 0x3d64c1763d3e8c7eU, 0xbdd009c63c45a6d3U,
  0xbdeb27953d56860bU, 0x3d870de7bdaca2e9U, 0xbc83dcb03bbd5e1bU, 0xbde6a022bca8fae6U,
  0xbd4587ffbe2a929eU, 0xbd64ef6e3cca7bdeU, 0xbd5c6ed8bc512028U, 0xbea025a3be79367cU,
  0xbea7fc30be36bbcbU, 0xbebc53a4be708e42U, 0xbc94d27bbdf62b31U, 0xbd25e3d0bdc11605U,
  0x3d9fb1993c36a9e9U, 0x3c42ab5cbe13bf6bU, 0xbd388888bca8686cU, 0x3c61dbf43db7a259U,
  0x3cc69eb4bd4d5e17U, 0xbd9ed380bd93ae81U, 0xbb54d726be2f992aU, 0xbe2103e2bdf2085dU,
  0xbe1406b53bdd5a8eU, 0xbe766da7be7a75c1U, 0xbe4a4e00be076131U, 0xbe5b3c05be40d267U,
  0xbe6a8411be86f3f6U, 0x3bf45fc1be329285U, 0xbe44c727bd63fcd4U, 0x3dca3afbbe531ce8U,
  0x3ded6ecc3d0a121eU, 0x3e12e82f3d8134b2U, 0x3cb2a2883d0b6116U, 0xbdf742b8bd34de9eU,
  0x3d4b2d15bd44fbfaU, 0xbd82a4613c903485U, 0xbe03e7303d6546e3U, 0xbe3ea23fbe881711U,
  0xbe49f4dcbe01d1a4U, 0xbe267e2dbdd87185U, 0xbdf79b65bdc0c9f0U, 0x3c548f5cbd95a6a5U,
  0x3c042e323d1141dbU, 0xbd245d16be53ec2eU, 0x3db096183d327ddcU, 0x3c92a2b43baeaee8U,
  0xbd9e23cabd9bac7fU, 0xb7c93270be06665dU, 0x3cfd6bfcbc666d10U, 0xbe095f48bced56b7U,
  0xbdc782bdbd55a4e7U, 0xbe4201b2bde83b8cU, 0xbc9d40a2bd96ff54U, 0xbd1fb9c6bce948eaU,
  0xbd81a40d3e5941cbU, 0xbcb8ea1bbcb8a09aU, 0x3d58ab72bddddf8cU, 0xbe1bc77fbe276c05U,
  0x3da0ae3e3d96db22U, 0x3d6ed82eb9d15495U, 0x3c77d8153e3484faU, 0x3d27e247bd56188fU,
  0x3d6bd9b23dc0a63bU, 0xbd8d0d5d3d4f51d5U, 0x3bc4384d3d931d28U, 0x3d3b1c7bbc77ad79U,
  0x3d8d1ba23c401628U, 0x3d7f51163e153e81U, 0xbd0c16f43e5f3b22U, 0xba7abc9dbe717c9eU,
  0xbb8387a8bd4324a7U, 0xbe589543be8b381cU, 0xbd9bdd6f3d09ed4dU, 0x3d4711b53d619641U,
  0xbd3a0fd9bc656be0U, 0x3d97505e3c147576U, 0x3dccf7ecbd74e76eU, 0x3dde378d3d81b546U,
  0xbd19806c3df6f71cU, 0xbdab2fcfbd0c616bU, 0x3cc10b52bd6e5476U, 0x3e4083cc3e63e618U,
  0x3d646f443e873d3eU, 0x3d994c3ebd42f59cU, 0xbd931a0fbd6bdbd8U, 0xbe13cd89be0a6482U,
  0x3ce26c523d64ff86U, 0x3b827a793d811828U, 0xbca7639cbcf8778eU, 0x3cbea88d3d112395U,
  0x39e929cebd808d2bU, 0x3d6dc0be3d676b60U, 0xbd3927bf3e496318U, 0x3cb1e91a3d0710feU,
  0x3d1f9f79bd8b42cdU, 0x3e801e603e05e0d8U, 0x3dbe1dec3e2c5203U, 0x3da9f3d33def33c5U,
  0xbd673d3ebd59bb85U, 0xb96e361cbe766e11U, 0x3ca6387dbe1b7092U, 0x3d1a9736bcf37dedU,
  0x3d3701c0baf02a28U, 0x3cee4f513d5fb292U, 0xbd448a4f3d1eabe5U, 0x3df894453da9a363U,
  0x3dd7623f3e294389U, 0xbd6d622bbd5604ddU, 0x3dd62e93bd76d0b4U, 0x3e7226d73e3543d0U,
  0x3e0607763d85c887U, 0x3d65c1ea3c114510U, 0x3ce7efcd3d35ffa8U, 0xbdbcc817bd509eacU,
  0xbccdda36be48300cU, 0x3c86d259bda11b9dU, 0x3bd9928ebd7093d7U, 0xbbd9187e3d9b2a6bU,
  0x3d6a6844bb0ee4a8U, 0x3d9034a33d69e5abU, 0x3e14601b3e03fdadU, 0x3d23028f3caed476U,
  0xbc14ffbabd97fda9U, 0x3d6d58143da51afeU, 0x3e226b2e3deb21deU, 0x3db0216abddb35e4U,
  0x3d5883fbbd6f1437U, 0xbe2cd8bb3d951e05U, 0x3c24f7c0be16340eU, 0xbd99fabebd1bd099U,
  0x3d17086fbdc3557fU, 0x3d3b69983d4af75eU, 0xbd7ff259bc5e3583U, 0xbdc5c715bd2e7cadU,
  0x3d3ad6d43c600fa0U, 0x3e07bd6c3d82ad2cU, 0x3dcdfad83d867a7fU, 0x3e100b243d47f31dU,
  0x3e5a82553c1f46efU, 0x3cec20623bf88ee4U, 0xbdab08b93d997923U, 0xbd8103e53dc1c5f9U,
  0xbd969b87bda767d9U, 0xbd5adc95bda605dcU, 0xbd5863a8be11c649U, 0x3df414883d6aee92U,
  0xbcb0b3c9bdc9239dU, 0x3cc439b4bd5b7c96U, 0x3d704f293d8afc7aU, 0x3dd526ba3e1de3e9U,
  0x3d9e8db93dc458cbU, 0x3c1c48333d965ebdU, 0x3de3f5d7be127009U, 0xbd0b7c22bde2750fU,
  0xbd7aac153c9cac8dU, 0xbe1677023cb8ed14U, 0xbdc9d2bdbd9860fbU, 0xbd0269cf3dab49cfU,
  0x3af578dabc8c5059U, 0xbc2d91073d8bf591U, 0xbd0120a43c2d1d92U, 0xbca69e283d1f8cf1U,
  0x3ddb5d063dc76d5fU, 0x3d3a062e3dd6fc9bU, 0x3d6fce153d275634U, 0x3d26b2543cd8f0e2U,
  0x3dcc4dcbbd22c7cfU, 0x3e163dfbbd84dbf5U, 0xbe6148eb3d25dc4bU, 0xbe74e7a7bcda31abU,
  0x3c707a41be241568U, 0x3db5dc543ce03fb9U, 0x3bccb4ffbd0bd2beU, 0x3bfc97a03cf9cb30U,
  0x3d3712473ceacc04U, 0x3e3b3e473e3b8b35U, 0x3da0d5313e0b2c99U, 0x3da44e173dfb6b9fU,
  0xbd24f06dbd877d13U, 0x3df9cc503de9f05cU, 0x3d5e86c03d35284cU, 0xbd9734803e14325aU,
  0xbe1e90ba3d8788adU, 0xbcbbe576be0037c4U, 0xbda1912bbe8a4694U, 0x3dae4196bd90f965U,
  0x3de4eeb13e09a783U, 0x3cc23da23e19910eU, 0x3e3cc4373e0496ecU, 0x3dd872f13e228444U,
  0x3b965be23d6cbc9cU, 0xbddd4b54bda34078U, 0xbddfbf91bdae0e61U, 0xbe01f7e8bca007f5U,
  0x3e1ae535bdac3de8U, 0x3c686c2d3e204a98U, 0x3c8561543cd73aa4U, 0x3d0a69403d0cc086U,
  0xbe3d285fbebfc3e4U, 0x3e2d5e0fbdb38770U, 0x3dc21e2a3e12c80aU, 0x3d8a472e3d68fc2eU,
  0x3d31f5333db282c6U, 0x3d022cfa3cfd1c90U, 0xbc14815bbe0bce9fU, 0xbe1284aebe1ac3faU,
  0xbe04ba82be143bdfU, 0xbe14488dbdf0438aU, 0xbd0c83e0be5abd59U, 0xbcb562673e2892feU,
  0x3d76c186bd0c2895U, 0xbdb020353e1fffa4U, 0xbdd1b407bdd9afc4U, 0xbd037b00bdcf5761U,
  0x3c83e8cf3d8ed706U, 0xbd7b8557bb6abcabU, 0xbcec0dbebdb0a0cbU, 0xbe1a22fabd8e36a1U,
  0xbe6108e4be30c039U, 0xbe5c7819be11a09cU, 0xbe9266c4be918be2U, 0xbe586d8dbe881075U,
  0xbdb35463beb67c31U, 0xbcbb8b04bde5a552U, 0xbd23ad15bba272c0U, 0x3b2061603dfe4f03U,
  0xbdd28e10be16cdcfU, 0xbe219ca3be26d57aU, 0xbd868c9fbe0b9c56U, 0xbe5a5acebd75a404U,
  0xbea0d4bfbe31de79U, 0xbe6da241be8093b4U, 0xbe9b8d51bee69888U, 0xbe1fde3fbe7a4f02U,
  0xbe37e709be5dd03eU, 0xbe1ea0dbbe3011e2U, 0xbd1d70c2be4f84a2U, 0xbcdfbea4be47ea0aU,
  0xbd9e3e8abd4c5f88U, 0x3c9f93373c181e2cU, 0xbd9f4593bd08e816U, 0xbdfc1071be817124U,
  0xbe253033bd9d3747U, 0xbde0ebfcbe322d12U, 0xbe73775dbdfbe6e4U, 0xbe7253c7be356557U,
  0xbdf3e5e5be4ba429U, 0xbe91fe0bbddbf382U, 0xbe17dd59be85e22cU, 0xbe329167bdb0eebdU,
  0x3d687e6bbdeadb90U, 0x3d82731d3d9f3a1bU, 0xbcb2d29abb85d3e0U, 0x3d19cd1cbd4527dbU,
  0xbc83894d3d7dc88bU, 0xbd66a8a7bdc704feU, 0xbe00770ebddbc325U, 0xbb68f9133d340725U,
  0x3db6c9c5bd2a5cfdU, 0xbd6e4c953d838f0cU, 0xbd7c11aebd0e7fa2U, 0xbdb10377be051756U,
  0xbe68756abe11d826U, 0xbddd05d2bdcc3d11U, 0x3dd6e7183cdab635U, 0xbcbc678c3d839251U,
  0x3beed1303ccfbea0U, 0xbc97f6c13c076930U, 0xbd1eb3cb3d30cb5eU, 0xbdb7515bbd8dc259U,
  0xbd91db0639fb99b3U, 0xbe0522c13c56fe36U, 0x3e40d45c3cca5263U, 0x3d68aa033e2b64e0U,
  0xbd6b09873da5e0e1U, 0xbe08e4cebcb76c57U, 0xbd235532bd805b5dU, 0x3d1f3d6abd3b41e3U,
  0xbce87d943db2b599U, 0xbbc3b790bd946df7U, 0x3ba4db80bd0d7e90U, 0x3ced5230bd9e580aU,
  0xbdc08300bce6d3feU, 0xbdb17148bc3e9f7dU, 0xbbad6b4abc453adaU, 0xbdc1d147bd8cb298U,
  0xbe07f8b9bcded425U, 0x3d816a34bd768424U, 0xbca6a16bba753a16U, 0x3d1793d7bd454df9U,
  0xbdbbca91bc193dfeU, 0xbdcf46d2bd780b64U, 0xbd5f361c3c7eb550U, 0x3d8a29efbd89f237U,
  0xbd3a5fc6baac5480U, 0xbd067354bcce25d4U, 0xbd4b5690bc3c7eb8U, 0xbd2c7b07bc6b0360U,
  0xbcb1c7803c0896e8U, 0xbd04baa2bd0cdcd4U, 0xbc156458bd9c1736U, 0x3c4d75e03d4775c6U,
  0x3c91390cbd85cac8U, 0x3d99105dbda08e4bU, 0x3c2084c83d52f2f2U, 0xbd4711fb3d81b125U,
  0x3d4e32163d4df726U, 0x3d57d9323d8b2741U, 0xbc81db643cc9a060U, 0xbd8388883b35f6e0U,
  0xbd28c711bc9cdd38U, 0xbd80f001bd9a75b2U, 0x3c958564bcf10437U, 0xbd95fc52bdf462fcU,
  0xbe16939c3a5d3e6eU, 0xbdcd6ec1bd25b8bdU, 0x3d09bf4bbd1fb83dU, 0xbd11981abe40ff5bU,
  0x3c615a933c840320U, 0x3d1860f63d340014U, 0xbcbc4a843d8c5f97U, 0x3b1d7140bcbaf5c4U,
  0x3d9c32233c051840U, 0x3c0d5b883c399d68U, 0x3d0e00643d80c030U, 0x3d2e9463bd9cdc84U,
  0xbda067a8bd4bf4c4U, 0xbe2d9f6dbe73258dU, 0xbe6192babdc5ae37U, 0xbd2a4357be918a97U,
  0x3b349831bd72cc09U, 0x3de17dbd3cc6dff3U, 0xbc8497bfbde357e1U, 0xbdd9b18dbcf63fc5U,
  0x3d0898a4bd2afc02U, 0x3d44b486bd98d584U, 0x3d2e53dcbc9d2a7aU, 0x3cd566e4be027ebcU,
  0xbd9e089a3d847778U, 0x3af3cde7be2d8e81U, 0x3e33debe3d8af2b1U, 0x3da22cdf3e85f917U,
  0x3e0357923da0d7e3U, 0x3d412fc13e28422eU, 0x3da6e8c53da271bcU, 0x3de9532f3e04cb3aU,
  0x3d94bde43e60204fU, 0xbcaa6399be4842b2U, 0x3e15dba23dff6765U, 0xbd94c71b3d91a7b0U,
  0xbc4965ca3cfe4f30U, 0xbdd5c811bd53403bU, 0x3cda4c19be163fafU, 0x3dd5076bbc4e9a9eU,
  0x3d8485f43dd2127bU, 0x3de7f6e63d8bb0e2U, 0x3e13d3c33e18cfd7U, 0x3de5796b3dddedb7U,
  0x3d8eca9e3db94f67U, 0x3cc7647c3ce5f2a6U, 0x3da208c53dbf5eb4U, 0x3d8c11da3b4a31dfU,
  0xbe239cf23e2b219dU, 0xbc839be63cbb66f5U, 0xbd9e466e3d9d7d1dU, 0x3d8545703cdec9bfU,
  0xbdeeb5c43c3fc38cU, 0xbd4bffa8be73b011U, 0xbda7152cbdce0689U, 0x3da02ec43d46a4a2U,
  0x3d84ffef3d049858U, 0x3dfd37263dfbe543U, 0xbccbc9073d155ddaU, 0x3d3ee6cc3d17163eU,
  0x3d83a13b3cd4fadcU, 0x3bab6376bd10db7dU, 0xbe33075ebcd3756aU, 0x3d884cd73e12b7cbU,
  0x3d09158b3c8f7720U, 0xbdd3f3253dac2b17U, 0xbe24b818bce11d20U, 0xbe379c73be857c83U,
  0x3b2ad459bded407aU, 0xbe279480be036e74U, 0xbd8d584dbde9a477U, 0x3d969bcd3c731dacU,
  0x3d9115923da7a011U, 0x3dcfa7143d1b0ed9U, 0x3dd8d7d93dd73442U, 0x3ded4bcd3e15a82bU,
  0xbe00e5ab3d32dc50U, 0xbb971844bc005d39U, 0x3d5a84793d3d826eU, 0xbdbb44b53c8ad226U,
  0xbdf5cbbb3c2ce8feU, 0xbe24e6c5bd894cf6U, 0xbd73e96ebdecd613U, 0xbdfc6264bd504643U,
  0x3d2a073fbcab5549U, 0x3dcea4ad3dd90a99U, 0xba26e5083ddc609cU, 0x3b027b2ebd51a60eU,
  0xbceceddb3d3ed5d6U, 0x3e7904e33e700ef1U, 0xbe0bd5e83d096947U, 0xbd7dc91f3d870e70U,
  0xbd05a1fb3dd56ee3U, 0xbd9f7de7be0bb162U, 0x3e30edc83e11424bU, 0x3cd689e23caec9bcU,
  0xbe3aa838bd1bedb0U, 0xbd84e24dbce60a2aU, 0x3d35467ebb3129e0U, 0x3c8038723dab2a53U,
  0xbd8caa23bc62a7baU, 0x3c41e9c5bd17a13bU, 0x3dbd5581bcc57860U, 0x3e11060c3ddac5efU,
  0x3e39f1cc3e2205e5U, 0x3e094e053e4b947fU, 0xbddb49e1bdea5362U, 0xbe1bc28cbdc9fa56U,
  0x3e2fb8b13db0110fU, 0xbc46b5aa3d8ba3fdU, 0xbe2df51fbe1e8152U, 0x3d4b4bed3d7f4aafU,
  0xbd18a936be0bef64U, 0xbd6341d3bc921f1cU, 0x3d9712713c0ddaf2U, 0x3dbd74233ca31c01U,
  0xbd7212cbbd660cf7U, 0x3e10b654bd00ad26U, 0x3e88bd6b3e0fc191U, 0xbc4830f2bc4a8c9dU,
  0x3d91a5b0bd45e651U, 0xbd17f654bd6352e3U, 0x3b2b7ef3bc97dfeeU, 0xbe2dd007bc6252bfU,
  0xbe03dd24be94ebc2U, 0xbda0e9bf3dc5c373U, 0x3d805bbc3d9fd133U, 0x3e234e6c3e3972e9U,
  0x3d0395243e243391U, 0xbbfe4ff73d2eb600U, 0xbdde44923cc92d7bU, 0x3daf3cca3db75ea2U,
  0x3e85a0eb3e85c5edU, 0xbdfe0de43e46844aU, 0x3d9d4ddabdc3eb55U, 0xbca07f46bde74dc1U,
  0xbc45557a3dded94eU, 0xbe57071ebdef4bf3U, 0xbe3cda34bea39892U, 0xbe5ddedfbe05a16aU,
  0x3d722114bdd30954U, 0x3e81ab293e8e7438U, 0x3de00cb53e336471U, 0xbd77dc783dee28bfU,
  0xbe6dcc43be809401U, 0xbd908adfbe5c9677U, 0x3e2b5bbf3dec54d2U, 0xbe0c55a33e31b501U,
  0x3d1bc5fd3d60bc12U, 0xbe20fcf9be8c53d6U, 0x3dbc6f903e49a70eU, 0xbe2090d1bd7f6930U,
  0xbe666f20beace70aU, 0xbe56d6e6be48967dU, 0x3e20152bbe03c849U, 0x3e1f84e13e9d5a5bU,
  0x3cf8c94d3db43787U, 0xbdc859363dddd889U, 0xbe83b0dbbe6e11bbU, 0xbe844f80bea5c87fU,
  0xbe0fcfc8be766e07U, 0xbc428b01bc965c59U, 0x3d5784383d936c33U, 0xbd2e781ebdafcef8U,
  0x3dab1337bc4078f4U, 0xbe20f61e3b937cb6U, 0xbe9e0cc7be3e498dU, 0xbe64f455be900c96U,
  0x3db2605dbd5843b8U, 0x3dae42183de6e012U, 0xbd73784b3c960fdaU, 0x3d88194dbcdfa7f0U,
  0xbe6565573ac467f2U, 0xbea28f25bec3ff3dU, 0xbe14606abe7ac213U, 0xbd4bc255bc111c2bU,
  0x3ccc322d3cfbea83U, 0x3ce81577be24671fU, 0x3e4ecb933d8d6c0dU, 0xbe3ddfd43be02543U,
  0xbeabf0f9bec36855U, 0xbe67332cbea9774fU, 0x3d456147bcd1b9fcU, 0xbc8951c33d2b704cU,
  0xbd135957bdd0060aU, 0x3d7e5bc3bcae9c14U, 0xbe3407e83cc3539eU, 0xbebebf26be83c713U,
  0xbdf7ec48bed03a9cU, 0x3d6e079cbe1b790dU, 0x3dab82793d3aa6a0U, 0xbe22c6c43c668fedU,
  0x3e9057f23e71d94aU, 0xbdc7d0793e12a152U, 0xbeec7ccbbdf69005U, 0xbee2ef4fbed2ebdbU,
  0xbdb22163bd933122U, 0xbe23a8debe29fd46U, 0xbd8930e2bdb962b8U, 0x3dcca0aa3e137a92U,
  0xbda3becb3e2753c5U, 0xbea2766dbe2dfc83U, 0xbe2ac2bcbe941a8bU, 0x3d6ca7aebe3225fdU,
  0xbda4e90abd83308fU, 0x3e02ad06bcda805aU, 0x3e824b093e8bf878U, 0x3dde93803dc85f1cU,
  0xbe73da01bc96ce94U, 0xbedf1802be88324eU, 0xbe508bd1be4453b5U, 0xbb8d266ebd50071bU,
  0x3dadbcc1bd5fb7fcU, 0x3db8e22a3df52e9fU, 0xbe73e1713e5a50efU, 0xbe76f2a3be80adc0U,
  0xbe6f019abdfe8ae0U, 0x3d9a8657be07408bU, 0x3d97be7a3d8bee3bU, 0x3de4c3c3be110576U,
  0x3dfbf11b3e7ea346U, 0x3e8e92aa3e834ef6U, 0xbcd6ef283cc3ea36U, 0xbe2cf54ebe139031U,
  0xbe66baf3be87890fU, 0x3c42423ebe2e37f6U, 0x3e0d87953d8f80c7U, 0x3e2363403dc90ee4U,
  0xbe8840d73bf48211U, 0xbe519ef3bead7c23U, 0xbce448a83aed1e57U, 0xbbe07922bcf73101U,
  0x3d61a0023e2bf2cfU, 0x3e42a34fbda966b8U, 0x3e53ba253d5563e1U, 0x3e8861a83e5618b2U,
  0x3da496153e1d0cceU, 0x3e0e51ce3d81384aU, 0xbdb7c5d93d0255c4U, 0x3dbfe3713d5ea6b4U,
  0x3d8b6e883dc9b6b2U, 0x3c910335bc8c97a8U, 0xbe9f48febe3044c7U, 0xbe855249be914350U,
  0xbe596e45be4487d0U, 0xbdc2c8183dc2c333U, 0x3d0afb3f3d86e15aU, 0xbcd9693e3b10025bU,
  0x3e1d0967bd51ec51U, 0x3e3929863e217ad4U, 0x3d91f9053e5e3477U, 0x3d8a4a923ded0d2cU,
  0x3deaa17f3d652da4U, 0x3cbc5bca3ddd3682U, 0x3d820e213df0800eU, 0xbe2016d4bd23822aU,
  0xbe796c05be138d2cU, 0xbe18e789beb91a02U, 0xbceb98edbe40bd36U, 0xbc3a5d4f3c8a33eeU,
  0x3e1c495dbd361f59U, 0x39e86f07bd3543e5U, 0x3e14bd13bd62f4e2U, 0xbdc25c323d52e37eU,
  0x3d1b74d2bc4ca13eU, 0x3db55cff3deae900U, 0x3da57fe53c4a1f03U, 0x3cbe0a183d0ff3d2U,
  0x3a073250bdd1787fU, 0xbe853fc6bdbcf966U, 0xbe6971edbe717167U, 0xbe715e05beb53962U,
  0xbde17cb0bdb9d87bU, 0x3b15fd163d021d8eU, 0x3d884e4fbd4a1c91U, 0xbe420a21be56ff8bU,
  0xbd404d4dbe5dcd36U, 0xbdce6cd63c1e828fU, 0x3c90fa07bb902328U, 0x3e2238d0bbda1338U,
  0x3d6b6455bc394994U, 0x3c45c0133d846785U, 0xbcf8d834bce70a84U, 0xbe1904ddbd9ce69fU,
  0xbeec6813be659936U, 0xbe867328be96d76aU, 0xbd587843be5e4c14U, 0xbcfe0d3e3c76df6eU,
  0x3ccb13cdbd4d7616U, 0x3d981bb8bdcf941fU, 0xbd168154bd9e9a47U, 0xbcc02f56bd63144bU,
  0xbd868363bd687283U, 0x3db1e594bc9b0195U, 0x3e0decd33d1b1ba3U, 0xbc759b0a3da7a0a6U,
  0xbe11c00bbbb17718U, 0xbe9fd03abea666a4U, 0xbebe26a7bed5935aU, 0xbe879692bebd52aeU,
  0xbbebdceabd601057U, 0xbd0e7248bdd5bbd1U, 0xbb9298003c6026a8U, 0x3e9be9d63d384509U,
  0x3d8e449a3db1f28cU, 0xbdb1bf0ebd89c7f3U, 0xbe21a2c1bcf0f64cU, 0x3d7db46fbdeda344U,
  0xbd75a5ae3d7baacaU, 0xbe3e70cebdbc1245U, 0xbef5a688be9fae52U, 0xbe4fdcf3be8b0ed8U,
  0xbe52ed62be815a73U, 0xbd9cb4dabe308b5fU, 0x3dc5039c3cd556a9U, 0x3d2acd9cbe348cb8U,
  0xbd6801703d309a94U, 0x3bf86bcd3db591c7U, 0xbd3e2d9dbcb70c3cU, 0x3d9efc67baffe7aeU,
  0xbdb921f8bd175f5eU, 0xbe410099be6a0630U, 0xbe4dbda4be1cf3a7U, 0xbe83f51dbe972213U,
  0xbea991debe0d423bU, 0xbd91f547be185007U, 0xbc9eae33bd900887U, 0xbe33ffa8bd88e169U,
  0x3c5567f9be292b62U, 0xbd796356bd76ae8bU, 0x3cc69b90bd93efbcU, 0xbcf87b903d4a8001U,
  0x3de8dac8bd75017bU, 0x3d6984923d98e563U, 0xbbfc5c64bd8cad63U, 0xbe1f8cf8bdb9e0c2U,
  0xbe36538bbe1591d9U, 0xbe20a6bdbe1e26ccU, 0xbd58e587bdb2e567U, 0x3e2b77f2bcb089edU,
  0x3d9805533e319c3aU, 0x3c4850b8bcdecefaU, 0xbda1983f3d63bcc2U, 0x3b2b8a40bc4eae78U,
  0x3c5760383d70eb9aU, 0xbd021f803d264faeU, 0x3d53ba683b2cd76eU, 0xbd90438e3c86adeeU,
  0x3dc6d12abda0590fU, 0x3e1077bc3e58a8eeU, 0xbd584a6a3d260686U, 0xbe2503b5bce5b705U,
  0xbe1850aebe82d0e6U, 0x3d191b163cb10836U, 0xbc6e58cd3cca9383U, 0x3dce87aabc2d48e5U,
  0xbcd654543c8eb094U, 0x3d5736fe3d1b8926U, 0x3d53c4cabd593b63U, 0xbc95c0e4bcd667bcU,
  0xbd1f8ee53d41ca3eU, 0xbc45fe0fbcce6a44U, 0xbdf285a2be1e1efdU, 0xbe83b8bbbe73a1bcU,
  0xbd72d447bdd3c2a1U, 0x3d6803aebcc142abU, 0xbca703b23cdccb77U, 0x3d74c1f23d029a44U,
  0x3d06e0fdbd3e3b74U, 0x3d1625e0bd88803fU, 0xbd5908923b77ff00U, 0x3d9e53b93c81f964U,
  0xbd2fce9c3d8852c9U, 0xbd8ad577bd6b0a22U, 0xbd8824593cdb3858U, 0xbd0270343c4b1918U,
  0xbd031e4abbb7dac0U, 0xbcd0df043cf418f4U, 0xba4fa1a3bd45b9c6U, 0xbd4300f3bdb2e30bU,
  0xbd0748683d9fc815U, 0xbd1e693a3cc6a7ecU, 0xbd3fd8643d85bb29U, 0x3c8dd7e4bc0c59a0U,
  0xbd8493c0badf6640U, 0xbcad514ebd500306U, 0x3d66eda6bd4df972U, 0xbc24beb8bd5f7e7bU,
  0x3d86e649bd7dc38eU, 0xbd260a3c3ccdd214U, 0xbe006492bde1e5bcU, 0x3bc6be4ebcc43d59U,
  0x3cf0f67a3ba61f8cU, 0x3cf83823bd9a4eebU, 0xbda9fde7bcd90927U, 0xbc229c5ebd7a2872U,
  0xbdbc7d8cbe00baeeU, 0xbdd65c5abdf15fb8U, 0x3da58ec33d8db415U, 0x3c98cdf4bcd05964U,
  0xbd9ec6093d9bb50bU, 0xbddbf6573d53112bU, 0xbc8fa8dabdae40e3U, 0xbd590517bdf19202U,
  0xbd04b778bdfed73eU, 0x3d24099abde24a0cU, 0xbdb88e2cbdbe85bcU, 0xbdc4d987be3671beU,
  0xbdece010be2b71ffU, 0xbe06f0c3be137dd2U, 0xbdd4ec2f3c988e05U, 0xbd553199bdb9126aU,
  0xbdbacab3bd75867eU, 0x3d4835b23d8dcadbU, 0x3d1249803ad1c540U, 0x3d49dc973e2491d0U,
  0xbccb82f6bd9a1bf6U, 0xbe1ebe36bd5b83a5U, 0xbe5537bbbe2f6123U, 0xbdf388b4bdfbf7e0U,
  0xbe09afd0bdeaf60bU, 0xbde58a12bd83876eU, 0xbe757bfbbe072fd5U, 0xbd313d92bda6e8e8U,
  0xbdf7a488be1739c6U, 0x3de04df2bc25523fU, 0xbd9e69cd3b5c7912U, 0x3d5141b2bd8549c9U,
  0x3c0a4be7bd9cf711U, 0x3e82f9713d484369U, 0x3d0c24be3e4bdcdaU, 0xbe065e12bde198f6U,
  0xbe364d37be821422U, 0x3d334146be2ce31dU, 0x3caf29cf3d60452bU, 0x3c0497febdae1a9aU,
  0xbcfd69fdbc5d0aeaU, 0xbdac8c9dbe200a18U, 0xbd909634bc869bd9U, 0xbccb8879bc099e6dU,
  0xbdd55d35be265513U, 0xbd8e915fbd2ec618U, 0x3cb1f36c3d9be059U, 0x3d27914c3e1feda9U,
  0xbc81d52dbdbbad7cU, 0xbc8d91a0bcc9495aU, 0xbc02c4f03d1e5aeeU, 0xbca522febd4b1217U,
  0x3d2d28f13d8cfb61U, 0xbd357656bd190ce4U, 0xbd76b0bebdecdb7dU, 0x3d09192d3c96cf7cU,
  0x3ce6c4333d77442cU, 0xbdd9a8a73d7c5f74U, 0xbe04fb1bbb934112U, 0xbceea07cbe0b0782U,
  0xbd453efa3d2d9e7aU, 0x3d1c00dfbcc6dc01U, 0xbd5a56e4bd3f1a72U, 0x3cea93ca3dcaf59eU,
  0x3d10ac703bf05512U, 0x3c3ad3debdd4baafU, 0x3dc793ee3dcb13d0U, 0xbd4144e8bd2460b1U,
  0x3e2b58e83d776f54U, 0x3d2e2b243d8c4024U, 0xbc34d8eb3dc36519U, 0xbe1e75d5bc0e1d0eU,
  0xbe22fddfbe510d4bU, 0xbdd6876fbdc4dfe3U, 0xbd7d8c723d99f4f8U, 0x3dc138ccbd0bb7bbU,
  0xbe22456b3de1a66eU, 0xbd92531a3c8fa491U, 0xbde4c04abe1227d0U, 0xbb1785013d52d1dfU,
  0x3bfb6fc03d4ac689U, 0x3cd0b075bd9b50aaU, 0x3d66852fbc79cef0U, 0x3dce5976bcac78ebU,
  0xbdb8ee773d859d77U, 0xbd33ddccbe42d376U, 0xbe02e4a0bcf4e4f7U, 0xbda3da58bdd05375U,
  0xbd408de1bd80a786U, 0x3e3275dbbcaf9ec9U, 0xbe1019a03db3d42eU, 0x3c5e90ae3dbfa31cU,
  0xbd975990bc541be8U, 0xbdb91df2bd0c1c16U, 0xbe2842aebd8e8d2fU, 0xbc34fc88be04a272U,
  0x3ab1701dbde12d67U, 0x3e209c7d3e32aabeU, 0x3bfb840f3d46536cU, 0xbddeb4b6b74fae20U,
  0xbe1f5bccbe4a6a57U, 0x3d07de27bd5dee35U, 0x3dd3b9983db92122U, 0x3e0c2f4f3dab0ee4U,
  0xbcb7ded53e14a0ccU, 0x3da7cc513e0fe443U, 0xbd1378b43d776c9eU, 0xbdf8d6ffbe10db9aU,
  0xbe30ee96be1f539cU, 0xbc6be6ddbdb15421U, 0x3e01069a3d69d9ecU, 0x3e2619bd3e4201ebU,
  0x3db7ce673bbc7dadU, 0xbe631eb03d89d5d0U, 0xbe29d373be06547dU, 0x3d7ea83b3d567686U,
  0x3e2b3ec9bcd4d643U, 0xbd372ab43dbe4387U, 0x3d90bf383d12a44aU, 0x3d4421e33cb9e8c2U,
  0x3d2f9c463d718608U, 0xbda4f02ebe19e410U, 0xbe006ddbbe209406U, 0x3d9f2e483cb59a82U,
  0x3e51baee3e4b9678U, 0x3e2f9b843e63e080U, 0xbd826db53cf29832U, 0xbe225fcc3d84c3d5U,
  0x3c19a048bdca8e57U, 0x3e04471bbdbfdd73U, 0xbd96b9523e0c0120U, 0xbc8966cc3e322ae1U,
  0xbd049c3f3d3a6940U, 0x3cd495e5bc037135U, 0xbcb42912bd0903e9U, 0xbd0413fc3ba73a95U,
  0xbdd5c1ccbb530905U, 0x3e91cfd43e6745e7U, 0x3e81351a3e64fa4fU, 0x3e07b1103dcf9dc5U,
  0x3d6bfc943d38be74U, 0xbcdd00773da1b64bU, 0xbd5fe266bd1784c4U, 0x3cc9a3e83cfc5cd5U,
  0x3d3530c23dcf5d7aU, 0x3cd58d253d3e351dU, 0xbcafd2bf3df955a2U, 0xbcd9dafa3d4f1778U,
  0xbb8f2fb13d100d2dU, 0x3d5c3e553d967eb9U, 0x3cd3f4f8bd14a98cU, 0x3e40ba633d5adf8eU,
  0x3e6b2e203e527fb9U, 0x3cb9d6f13e45a9d6U, 0x3d934fef3d84a9eeU, 0x3e18ef2a3e544632U,
  0x3d512da1bd65ffc6U, 0x3e497f433e210b19U, 0xbdc67990bd6d334cU, 0xbd4da3573ddcdb70U,
  0x3d3227723dc3ccadU, 0x3d709c723b2d3433U, 0xbc42b0283d214bb9U, 0x3bc8f7a53dcbb036U,
  0xbc7d5e85bd0b9346U, 0x3e3cc9fd3e0fc548U, 0x3d8b596c3ddb9175U, 0x3d5eff3a3e1ef1cfU,
  0x3e2294cc3de943e6U, 0xbdcc0b223e0d1617U, 0xbcc3bff7bd5158f9U, 0xbd941240bda09898U,
  0xbdaf13a1bd090081U, 0xbcd8225b3dd20f52U, 0xbde7fcda3c7d89a8U, 0x3e1056263c8f629cU,
  0x3da400a33d3f3ebeU, 0x3dafaea2bc0e500aU, 0xbc00d2973d822f07U, 0x3d5de4fd3b3253c7U,
  0x3d25941f3d4618d1U, 0xbae602ab3d8286ecU, 0xbcf4884ebd9ad038U, 0xbe1c8cc33cb3ea26U,
  0xbe117515be323cecU, 0xbdc498fdbe7f47e3U, 0xbdddbbd839ecb345U, 0xbca07b2f3d80b265U,
  0xbaa63d173d1590d8U, 0x3d72a00bbdf85f7eU, 0x3bd135403cf3649eU, 0x3cdf84d9bc5e76b9U,
  0x3d9967703d4826c3U, 0x3e1dd7063deb8eb6U, 0x3dcc6be13d0c9dc7U, 0x3ca52d263cf2e231U,
  0xbd4ff760bbf974eeU, 0xbda3977b3dac8444U, 0xbded6996be7390beU, 0xbd9116643d0dffd0U,
  0x3e1eafa43c896bb0U, 0xbdaa382e3d0e6d53U, 0xbd4a426d3d64d430U, 0x3c914e99bd7c80d0U,
  0xbb79e2373e1512f8U, 0xbc45328f3d967d4eU, 0xbd0885783cf834deU, 0x3da4d8cb3d7b77b0U,
  0x3d18edec3d9443e9U, 0xbda5e2ecbdd0b2d1U, 0xbda2d1dcbdac53e9U, 0xbe2d3423be7698a6U,
  0xbe1cc706be263e6fU, 0x3d985dbfbdbfc64fU, 0x3d949c893cd272acU, 0xbdb801ef3c041696U,
  0x3d5e0839bc31026dU, 0x3d19fff43b724e25U, 0xbb0b613e3d0a9a0aU, 0xbc8ee06ebcff1357U,
  0x3ca196b5bd107bd2U, 0x3cefa8323c4669d7U, 0xbd72c4f73dbb59adU, 0xbd1bb36bbd37f775U,
  0xbe507825bddde9c2U, 0xbdb50271bd238242U, 0xbe0629e3be21fc29U, 0xbcfc12ab3c0da41cU,
  0x3dae9c013dae6609U, 0xbce4f4713e4b230bU, 0xbe07aca7be422bf8U, 0x3cab4909be122711U,
  0xbe3273cbbcae5cfaU, 0xbdf1bc8abe32918bU, 0xbe1c9463bd1c03a2U, 0x3aae5804bdb54ea1U,
  0xbd928225bd8e6ca4U, 0xbdc644edbdc7f7d2U, 0xbd964d8cbe1119e6U, 0xbe4997dcbdd13a82U,
  0xbe13b54dbe922f42U, 0xbdbe05863d2e143bU, 0x3e0fa9d13dbada8aU, 0xbe0675183d5ad77eU,
  0xbe323e51bda604adU, 0xbb9fdf89be0bd1b2U, 0xbe354b05bdc439dcU, 0xbe7dfe77be54dc02U,
  0xbdf3c96bbd728ea6U, 0xbd027467bdbe9d52U, 0xbe0f751dbd145d8fU, 0xbdea6a28bdee709bU,
  0xbda5e918bdcb2aefU, 0xbe9ad4dbbe1af957U, 0xbcf66cfcbe8df6cbU, 0x3d6de1d83d185617U,
  0x3e0aeb1fbd7a7370U, 0x3cf20e74bd8c1ceeU, 0xbde91dbebc38289bU, 0xbd6b1a6e3be15b3bU,
  0xbdd24e51bd798d04U, 0xbd986458be2fb04dU, 0xbe5b0ebbbcfe2f8dU, 0xbddcfa38bde92611U,
  0xbdd87eb7bd83cf2dU, 0xbd47c6123c779fafU, 0x3c6860d5be1af948U, 0xbde34f04bd16b544U,
  0xbcfb3024bdb8331dU, 0xbd25c9073d1baf19U, 0x3de5a8753d8fbe2dU, 0xbcb399783d2d9914U,
  0x3dac7432bd812152U, 0xbd92c8ba3df00cc4U, 0x3ce6218fbd3834bdU, 0x3d0899bc3c35be40U,
  0x3b7b9f8dbc94c63cU, 0xbc7dc841bdea6b60U, 0xbcf12036bd0bcacdU, 0xbd55c9f4bd63ef3cU,
  0x3cc1aa3b3d3056bdU, 0xbd82fb11bd9c24eeU, 0x3b3c952cbda4df2bU, 0xbd3bf939bdb22010U,
  0x3da834373d00ff52U, 0xbcab42e8be066f3cU, 0x3d7489c63da71213U, 0x3d8add863df3a271U,
  0xbc8594c73dee1012U, 0x3c45b8c5bcb74394U, 0x3cb295183da84d20U, 0x3ca81f403ded356eU,
  0xbb4e73b2bd376ca2U, 0xbc4295a9bd8b9730U, 0xbd86ea58bc8d7365U, 0x3d451113bcbc9ffeU,
  0x3c5e777c3d2eaa98U, 0xbb79ec22be38e639U, 0x3cac99f4bc907078U, 0xbe1c0d3cbdd03fe0U,
  0x3df9c1fabbc85f6aU, 0xbb3a61f3bc9c8875U, 0x3d13c73c3d42b0deU, 0x3c8241bcbc2e86f0U,
  0x3da6f4cebd8f86a2U, 0x3dbe8331bcf895a5U, 0xbd944e79bbd96af2U, 0x3d463abc3c3c6dfeU,
  0xbe36cbf3bdfc21f9U, 0x3dcb4108bcd0f31fU, 0x3c5ab14b3c8454e9U, 0xbb8f89f0bd0b3ad6U,
  0xbbac10f03d8f590bU, 0xbabc6a6ebbca58c4U, 0x3e7e8d093d1d469bU, 0x3d9f088f3cba36a3U,
  0xbd10e69a3dafcbe1U, 0xbda3fcdd3b5d202cU, 0xbe319444bdd855ddU, 0xbd945966bdb936fdU,
  0xbd3e8858bd822fa6U, 0x3dcb2f9fbc3b10c6U, 0xbdfccc1bbd136f38U, 0x3e062d67be5f7b63U,
  0xbda5799dbd7271a8U, 0x3c6a9b00bd35df57U, 0xbc2fb9103d815cc1U, 0x3d06a91a3e0fd281U,
  0x3e0553f1bd6fd735U, 0xbe0d0c45be03262eU, 0x3d66ab773d173b06U, 0x3dcdec84bbab6713U,
  0xbe20b3f23d464588U, 0xbe1ca3e1bc37ef75U, 0xbdcc3827bddc882dU, 0xbd2a989a3d83f68eU,
  0xbe1fac2e3d30c269U, 0xbd4f30a5bdf6faacU, 0x3bbb9b58bdd33c4cU, 0x3d7250d2bcd527cbU,
  0xbcfa87743d9e0737U, 0x3dc292413d57e672U, 0x3e0f4f8bbd238949U, 0x3e430f4f3e4ea205U,
  0x3ec1353f3dd17350U, 0xbd720ab23e69d771U, 0x3d52fb263da0d961U, 0x3cd09c173e20856bU,
  0x3d9bbe153d8f59c4U, 0x3df90cf33e19ba1cU, 0x3da9bed03e455d04U, 0x3e016f003d11d2a5U,
  0x3b042d5c3e1aa842U, 0x3d5a00babc2defe8U, 0x3c5acf20bc6c2c90U, 0xbd666dee3c834e64U,
  0xbc92df713b4636f6U, 0x3e1c10a03e043b24U, 0xbdc393893d8a7a90U, 0x3cd6e477bd4de4f9U,
  0x3c993d9e3d784bc6U, 0x3dc455f03e719f7dU, 0xbcbaa2ab3e275dfeU, 0x3dca61883d879141U,
  0x3d1a9b853d8caf78U, 0x3d9acebe3dd30eddU, 0xbd9ceed3bd3d8e9cU, 0x3d80846f3d2ac1eeU,
  0x3d896b01bc9c00baU, 0xbd3636a03be15d90U, 0x3d9f124d3da4fc5dU, 0xbc878b3c3c956958U,
  0xbc6780d83c34f038U, 0xbd42db01bc7b4c90U, 0xbd86a53b3c2685acU, 0x3d6b05bcbd0b091cU,
  0xbd5df006bd9cf96eU, 0xbce552983c81cdb8U, 0xbcf04a90bd22fb7eU, 0x3d3730a6bd990257U,
  0xbd54fc813d855933U, 0x393c7000bce53bc2U, 0xbc88a37cbd000c8cU, 0xbd945dc83b288ba0U,
  0xbdb70e7d3b552bddU, 0xbd08b3083c843e71U, 0xbdba39093c1b2923U, 0xbd1ad4c0be297142U,
  0xbe89888dbe1b6233U, 0x3d106bbcbe69c153U, 0x3ce93e3fbd769d38U, 0xbdb18b95be1a0745U,
  0xbe20f5b3bd546963U, 0xbdbb1fc0be0ae6b2U, 0xbd4b299bbd9d7810U, 0xbd7996943b068940U,
  0xbd19a219bd149ce0U, 0xbd3b7b753ca36b4cU, 0xbd7a6c8fbdda88d1U, 0xbdf2768f3c9b4d3fU,
  0xbde49ed3bdc1526cU, 0xbe0077e6bcdc38f7U, 0xbd731068be37b7a3U, 0xbe1573ffbe7dc985U,
  0x3db7c29cbc9fe2e9U, 0xbddcb1253daed2f0U, 0xbea04226be4f471aU, 0xbe6bfadfbe485d76U,
  0x3a89de89bcb8aa4aU, 0xbc973f88bd50f002U, 0xbd426b1dbd919714U, 0xbd863a2bbdce32e4U,
  0x3d599420bddd7b4dU, 0x3de9d384bc89f8ddU, 0xbe31472b3dc7813fU, 0xbca6b3f4be05a9a9U,
  0xbe4516f4bdd9b8d8U, 0x3c691b5abd7938a4U, 0x3c93b9533d62791bU, 0xbe68f978bd54c652U,
  0xbc78c4bbbde8c362U, 0xbdbf53843d914bb0U, 0xbd9eae29bde435e5U, 0xbc73eb28be4b77aaU,
  0xbc0361c838a51800U, 0xbdfbb01cbd777389U, 0xbcacd778bda37e72U, 0x3abd89a4bbcdc092U,
  0xbe71e979bdda3160U, 0xbe7ea976be5eedb3U, 0xbe247deebe5740c0U, 0xbccddaf7be09722eU,
  0xbdd9d747be874d5fU, 0x3d14228fbca7af7dU, 0xbd42ff703d07a380U, 0xbdf7ac21bca347a7U,
  0xbccb096b3b9685d3U, 0xbd7819123d2b5d83U, 0xbd892ff9bd8adde9U, 0xbdd902a6be28ad00U,
  0xbde7f482be295689U, 0x3d5823ddbbe23ae0U, 0xbd2d0e08bda7b563U, 0xbe0981dcbd52a777U,
  0xbec6fe57be874b7bU, 0xbe78dce8bea507fbU, 0xbe571aa4be84ede4U, 0xbe11a5dfbe1d87f7U,
  0xbe3f9e1dbd9ba428U, 0xbe02304abe1b4edaU, 0xbd41d66abe42af13U, 0x3ddefc7f3cd4464bU,
  0x3db823fd3d667916U, 0x3dd81e373e84dc6bU, 0x3e40748c3e35181dU, 0x3d5b0ee93dc6ff7dU,
  0x3d545dc8bc17f546U, 0xbdc07496bcc6ba2aU, 0xbe3a7659bcc27fbaU, 0xbdc9f205bdabd2e6U,
  0xbdd9f99fbdd35ed3U, 0xbc893127bd965cd7U, 0x3d364ecebd4b0b32U, 0x3dc9057d3ddcffbeU,
  0x3de2a51a3d384df7U, 0x3cd084623d415f8cU, 0x3cde7eacbc85f15bU, 0x3ddf267b3e833163U,
  0x3d1a08ac3b80e3c8U, 0x3d94e8843e1a540fU, 0x3e0c96bc3e80a1a0U, 0x3e2602263df66233U,
  0xbbcae59a3d31f093U, 0x3c72f6423c825fa6U, 0x3ca2ad493da26058U, 0x3dcecaa63dbf0a17U,
  0xbd88d9af3d283187U, 0x3de846533dd2e6d1U, 0x3df554403e0d98faU, 0xbda5793a3e10b990U,
  0x3e323df2bc8b20ebU, 0x3e1012053deba08cU, 0x3de911f2bcbbc080U, 0x3e3b9d28bd27cef9U,
  0x3e6940913e7ee567U, 0x3e5443783df47c90U, 0x3e224f9a3e4abb28U, 0x3d82f01e3e27e2e6U,
  0x3dcf44a83e1e163eU, 0x3e06a7fd3e8d451dU, 0x3ceac53b3e0d7805U, 0x3d3fbe693e3dc68cU,
  0x3e5987653e433ab6U, 0xbc30b3933d810583U, 0x3e1b0e283d663a27U, 0xbd5cacf83c56910aU,
  0x3d9f94403de68e91U, 0xbd90fee4bd76242eU, 0x3e6fb5c13d77cf4fU, 0x3e8f62773e0543f4U,
  0x3e11ad653eae523eU, 0x3e0518153e803d7fU, 0xbcb42b453dd60129U, 0x3dc2f9773d0cf1b8U,
  0x3dbce71d3e2339a6U, 0x3e00761c3d8d3306U, 0x3e289e4ebccb65edU, 0x3e4f249b3c5d52fdU,
  0x3d09aa9dbc6af9a6U, 0x3d4a29e5bd1337cfU, 0x3a5a26ba3e025c23U, 0xbdce9f8cbdae5102U,
  0x3cf5ad13bd139556U, 0x3d39aad93db05cf9U, 0x3d8ad2d13dea61c2U, 0xbcb5af41bc85980cU,
  0xbe12241ebc986213U, 0x3dcac9d4bd940615U, 0x3dbfdcb4bd9cee7cU, 0xbd0e4d2f3d78668bU,
  0x3e89d0773d565177U, 0x3bd2c0fd3d220f00U, 0xbca9d3f93d5fe946U, 0xbe1aee52bc16978eU,
  0xbe6ed248bdc572fdU, 0xbe1bc6903b838aa6U, 0x3ceeafc93c790f79U, 0x3bd92deabe0ae209U,
  0xbe1816ccbd1ffa2cU, 0xbdd01610be66b015U, 0xbe272dd4be20b134U, 0xbdf46908be4d36c1U,
  0xbe17e6d1bde809abU, 0xbe6adfafbdeb290dU, 0x3d3d58d7be9b56b6U, 0x3d1bcb193d442eb4U,
  0x3a968b1c3ccf038cU, 0xbe5cea48bdcb1a03U, 0xbe8b1299be5bbef3U, 0xbd0b33d7bcf022f2U,
  0xbd0dc5cf3da1c2bbU, 0x3d2356fb3d0f21ecU, 0xbd893f033ca0a116U, 0x3b5096c13d86a1efU,
  0xbe1403e4bdd7271bU, 0xbd9d2769bb21cccfU, 0xbe9c8609be4872a4U, 0xbedf00ccbe768c0cU,
  0x3df113e0bea324eeU, 0xbcff4d833db356daU, 0x3dda078ebaf9aaeeU, 0xbdeed33c3d424d55U,
  0xbdb95d1cbec1ba83U, 0xbd6692e8bd9e73c8U, 0xbdd5f687bd89e3c9U, 0x3d875bb73d96b11eU,
  0x3dbdacbf3e3b228aU, 0x3e0ee1f43e05e34dU, 0xbd4720223dc0f6b9U, 0xbd66d9b63dbf4890U,
  0xbc8ed859be29ab0dU, 0xbe98360cbe676509U, 0xbc00b1a8be116630U, 0xbccb1e663d046637U,
  0x3d6e3d5ebd259f54U, 0x3bfe9861bd32273aU, 0xbe12080ebd58ab9cU, 0x3d42eeb8bdd70757U,
  0x3c73ff513c407ccdU, 0x3dfa849bbbeb14aaU, 0x3d57e1443e033b56U, 0x3ce7d0013e2a2205U,
  0x3e06f0173d8380c6U, 0x3d8e9a4f3e47338fU, 0xbdfb48903db3867aU, 0xbb7c650a3cb42bd8U,
  0xbd83692f3e023aafU, 0xbdd4ae78bcf3b1c2U, 0xbaafbe3f3d97c376U, 0x3e85e421bd8b662dU,
  0x3e1ce9463e49d062U, 0xbd06157cbe222b84U, 0xbd0f6a96bd90987bU, 0x3d0c92253d0fdf25U,
  0xbdc9f8703d00b337U, 0x3db1ee103b3c914aU, 0x3e04dafb3d118319U, 0x3db2b4253e6e32feU,
  0x3d7ae3823d9354c8U, 0x3dadb1033e2b8589U, 0xbd53c19a3d0de5a5U, 0xbda233003cba2854U,
  0xbc154f723d98c317U, 0x3e1e2884bd9aa5aaU, 0x3d0e248f3e924c15U, 0x3dbbdb7cbe2802a8U,
  0x3d53e2ec3dee1197U, 0x3b824dbfbd587579U, 0x3b2cf631bde2e223U, 0x3d96ecaf3c9ef78bU,
  0x3d52b161bce72b45U, 0x3d9952d83c8ff0faU, 0x3e2ff5f83e0b0069U, 0xbe25314a3dc739adU,
  0xbdbb5545be112c9dU, 0xbd8067b43e101ebaU, 0x3c63588ebbba5370U, 0x3e4345b4bc76e3d8U,
  0x3c5ec03c3e4e79d6U, 0x3ccd07583c614d4fU, 0x3dc357323c4d4167U, 0xbd70b0a6bcc99f05U,
  0xbcfcaf52bdb420d1U, 0x3b7e8739bd747d0cU, 0x3d646fe2bd0fadb2U, 0xbd78dd33bc413d78U,
  0xbd5d0b493d3814f5U, 0xbd1c3e40bc3c43a7U, 0xbd83cea0be5eac51U, 0xbd1a53cfbbcdd373U,
  0x3d418be53dd1bfa3U, 0x3de0ec0fbc3af0ddU, 0x3d59faea3e2dd518U, 0xbe075d2fbd5b8ccaU,
  0xbcc4a3483c3b1f19U, 0xbc630751bd808598U, 0xbc05151fbdfbd71bU, 0xbd3fb7ea3c9c4e75U,
  0x3be11a1fbdf0fbcdU, 0xbd42558ebd30b08dU, 0x3d83d791bca286a8U, 0x3dfbca7a3dc7fc51U,
  0xbd4d15d4be41c722U, 0x3c9de4563e02ff14U, 0xbd8248df3ce048abU, 0x3caecadf3df051fcU,
  0x3ca752813e42216dU, 0xbdd94509be1015bbU, 0x3d9119233b396354U, 0xbd9f55973d9328d5U,
  0xbbc334f5bcc633caU, 0xbde291a93c90f2ecU, 0xbdbdc7e9bd9aa6fbU, 0xbd04bd64bda55c62U,
  0x3c9c81b7bd5d8901U, 0xbd207ba93ddf8f61U, 0xbba721453d3d2b74U, 0xbd2576533d241500U,
  0x3c66ea1fbd370698U, 0xbcbe3db2bd16e3eaU, 0x3d5d2d843d81d40cU, 0xbe0b7276bcdcd03cU,
  0x3e0989b4ba5d449dU, 0x3dce843e3e0e7be6U, 0xbcc077963c13091eU, 0xbe27c781bcc42968U,
  0xbda2e3ffbdfda6baU, 0xbc8771dfbda7cc5cU, 0x3c98eee63d2e703eU, 0x3c1bf86eba86d884U,
  0x3e6aacfc3db66fc2U, 0xbd8090dabc804f5bU, 0xbcbeb8bebd95b103U, 0xbe32182ebbda4e93U,
  0x3cb53fec3ca5cf68U, 0xbd190590bd0e2554U, 0xbc635da6be0844adU, 0x3cf147f6bc1cc94bU,
  0xbc96a0673d90b160U, 0xbe201a80bd83e54aU, 0xbe136829bcac899bU, 0xbdfcdb2bbdfd3fa2U,
  0xbd1b85b5bc28117cU, 0xbdad98b53c869639U, 0x3e25dc063cb9a3e2U, 0xbdb29a9abd832f81U,
  0xbd65cb95bde56bc4U, 0x3d1452a43d62ac8dU, 0xbd89e3063b9a51d4U, 0xbdeef3cabc39e9bcU,
  0xbe1dcbe4bd4895daU, 0xbd5079efbd55ea72U, 0xbdf645c13a075d95U, 0xbdfd3d59be1629f7U,
  0x3cdb68e23bc00d8cU, 0xbe390bfdbd8de816U, 0xbcbf8b1abda7467bU, 0x3d834e8a3de810b9U,
  0x3dcb02133e2002f9U, 0x3beb6d1c3d6f2066U, 0x3b960db03d86c103U, 0x3dcf5a533d860e43U,
  0xbd2627983d3f7b06U, 0xbc58d72b3c11a772U, 0xbde87885bcc05958U, 0xbd9927a1bc990294U,
  0xbe7f24f9bdc6ee6dU, 0xbe4bee5dbe1da255U, 0xbe0d6cbbbdc1ee7eU, 0xbe17c244be1dfcacU,
  0xbdc7ae64bdff748eU, 0x3df363163bfc739dU, 0x3df8f3873e85ff0eU, 0x3ce336b83d6a2801U,
  0x3b9d7ed03cf4d960U, 0xbc6681d83d3e6c84U, 0x3e5e2c423e618b8dU, 0xbd7785853bae8395U,
  0xbc6a1d51bd22d469U, 0xbd983e92bda7dcf5U, 0xbc4ee02cbdc65b2aU, 0xbe2d8893be23dde5U,
  0x3d073b75bd2fd97eU, 0x3cb3e099bbfeeb90U, 0x3e61f6b03dab282eU, 0x3c893f2f3db686abU,
  0xbd182b4a3da8d121U, 0xbc765348be117332U, 0x3da460e73d979293U, 0x3d6a56063d5cd256U,
  0x3deac6263e787501U, 0xbae45311be04d806U, 0x3dd707cabd4120b1U, 0x3dc528f33df18097U,
  0xbcedc9403e0ed451U, 0xbd0c0309be122976U, 0x3d9463ae3e640f2cU, 0x3d82584f3df4a38fU,
  0x3e8cb13c3c0a9302U, 0x3e08ee563e8f80daU, 0xbde213ca3e668d1bU, 0x3d974373bd72582fU,
  0xbbc0a4a0bb7ba4c0U, 0x3d88b24d3c912e50U, 0xbeb281d6bd7a4e64U, 0xbe2ab6acbe982db5U,
  0xbd185c9cbd7b908eU, 0xbe05eaafbd1f2c69U, 0x3e47b3763db67de3U, 0x3b7d7c91bc744ff1U,
  0x3d13d941bd9cee31U, 0x3dcdf0273ce2d1e4U, 0x3d8301a13dae3b91U, 0x3d005ce8bc451459U,
  0xbd33e8aa3d7167a5U, 0x3bd29a20bd0d3c3cU, 0xbd2c0c02bce95c4eU, 0xbd8bd01e3d7b51baU,
  0xbb5cc7753cf367abU, 0x3ca051d33dfd2afbU, 0x3d7031db3dbb3619U, 0x3d96aa8f3c0c3076U,
  0x3e32df823c861576U, 0xbd00915fbe1d705cU, 0x3e23b67abdb80e9bU, 0xbc6d3f313dda47daU,
  0x3d9b58223cf25bd7U, 0x3e17cb933cd1f7e3U, 0xbc96e61c3cf9d804U, 0x3d1c5bd43d6020aaU,
  0xbd15e142bd3f400cU, 0xbd19f7f4bb66f680U, 0x3c921b8c3d78c676U, 0x3d8c5819bd209b67U,
  0x3d91a45dba2d8400U, 0xbd9c0fc03ccca0c8U, 0x3d7ffff23d16364eU, 0xbd254ce5bd8bb699U,
  0xbd5c02243d0d0bdaU, 0x3d718802bd4435d5U, 0x3c5e14483d824db1U, 0x3c2e38803a12ec00U,
  0xbca4c6b83d1263a4U, 0xbd868e4c3d58a1d2U, 0x3c4157e0bd72aa4eU, 0xbd44375b3c40ab80U,
  0x3b3b4397bd0b6f39U, 0x3d07fc3d3d3a23abU, 0x3c1cbbc6bd98010fU, 0xbd8ab851bbb4c71eU,
  0xbdc31686bd50439bU, 0x3cae3cf9bdc6b5d1U, 0xbb71d635bd3da333U, 0xbcc49818bc9ab6b3U,
  0x3d08c021bd2a788eU, 0x3d606f623cbfe7fcU, 0x3d85dfe93d8a0207U, 0x3d9da8e73d3eeba6U,
  0xbd94ffea3d8411a3U, 0xb8f62c003d872f99U, 0xbd1dd0f6bd5cc0d5U, 0xbc57f89ebd952a9cU,
  0xbd78ba46bdc028e8U, 0x3d0331c5bcc1e81eU, 0x3d0b5c7539d07941U, 0xbaa9104fbcdcf496U,
  0x3b81e148bdb8e3a8U, 0x3c8dda2d3d702bc7U, 0x3c975a33bd8a33e6U, 0xbd021affbc887e2eU,
  0xbcc92430bcca2442U, 0xbd33ec90bd85e4e9U, 0xbd2f36873cae6a78U, 0x3da7d2a4bd2e9195U,
  0xbca39fd7bd76dc9aU, 0xbe744b03bdd03529U, 0xbdf28404bdf8fbecU, 0xbe1e1ef5bde2fa5aU,
  0xbeb3b4bcbe541937U, 0x3d65579abe23a442U, 0x3d2a786b3c921322U, 0xbc41bd363dbb7d57U,
  0x3c283e8b3db6651eU, 0xbcbca23b3c9f20dfU, 0xbd817d883d061d3bU, 0xbd3b9a673d2ffc8aU,
  0xbda43160bcc29304U, 0x3cc331743dd31de5U, 0xbd81867abdb641a9U, 0xbe01eb89be6d20c4U,
  0xbd5d89cfbdb7a3ffU, 0x3dcd83bf3c191871U, 0xbdb29130bbc91676U, 0x3c8890bcbd62d24fU,
  0xbda308e33c7e48bcU, 0xbd9a217abe4974dcU, 0x3ca7c379be1842abU, 0xbe26e876be111021U,
  0x3d6ea3f0bd0f7b5cU, 0x3cdbcbe2bb59b37cU, 0x3be1aa703d99226dU, 0x3df6c2e03b9900dfU,
  0xbd1cdc96bd4933d0U, 0xbdc564a1bd8cd846U, 0x3d65a926be262c57U, 0x3c0421d93dcbabdeU,
  0x3ddd87023d8e86a8U, 0xbe2af47e38843a5eU, 0xbd8a636bbd6ffdd7U, 0xbc331ba9bde830acU,
  0x3b4290993cb87986U, 0xbe419ce5bcb9194bU, 0xbbba592fbe0d9257U, 0xbda7aa063df79ad3U,
  0xbd2c91323d09453cU, 0x3af28bd13cb6d924U, 0xbe27a823bdc53e2cU, 0xbdd99813bd4c1c39U,
  0x3d92aacfbd540a16U, 0x3b24782c3c05be8fU, 0x3dbdc6673e2375ddU, 0xbdae11db3d8f1a0fU,
  0x3e3f41093d9223a2U, 0x3db6450cb9dac0faU, 0x3dec8d193dfed5bdU, 0xbd2266dabdd21f8dU,
  0x3ddff7e7bd98a746U, 0x3d2a732f3d25d46dU, 0x3de2565a3d1ba2aaU, 0x3dc30c173da7dd4aU,
  0xbe21c005bbce1127U, 0x3d3227adbc085f0cU, 0xbc47586f3db517ffU, 0x3b8a91303d84dbffU,
  0x3d565f20bdb4c1a9U, 0x3d1e34473d248571U, 0x3d2961063dd07cb5U, 0x3e2396983dc23d68U,
  0x3e51a2513c992d31U, 0x3cfe994dbdc4a3f5U, 0xbe611439be382bc4U, 0x3d7fc889bdb42f7bU,
  0x3e176648be19a73cU, 0x3dd745bf3dcfe44bU, 0xbc754aee3dfa47a0U, 0x3d143b6f3be09a44U,
  0x3d8d24e63e4746feU, 0xbe03a496bbbff39bU, 0xbe03cec4bdaee554U, 0x3da515ca3aa5391bU,
  0x3bb2f7df3deec272U, 0x3d587d8f3d0f93b9U, 0x3b8162393dafbe05U, 0x3c85f57e3d141d2fU,
  0xbd9a12b9bdec6cc1U, 0x3dc87ce93d6a1626U, 0x3d85b2433d252d2eU, 0x3df713a53e1f371bU,
  0x3e0358a93e02fb03U, 0x3d08b8c53dd89705U, 0xbe100af53c0f3f0cU, 0xbe0629a9be4d9276U,
  0xbdc238e0bd762ea4U, 0x3b1410e7be05c5f9U, 0x3d78af353dc1b76bU, 0xbcc830d83cd2783cU,
  0xbc9eeaa8bcb6e069U, 0x3d4cc4fbbd92f0ceU, 0x3d5e49dc3e670e5bU, 0xbbde85e93d895c7cU,
  0x3c80a3fabc9ea712U, 0xbce891c13e55cd55U, 0x3e270ac73e2d6530U, 0x3d4dc6a93e16b173U,
  0x3b2f9d243cf01689U, 0x3d4ec248bccaa965U, 0xbd0a9a16bdc82a9fU, 0x3d459886bd93f8e3U,
  0x3d1d953c3de7341cU, 0x3c9e1a2bbc40cfd8U, 0xbc0702923d457777U, 0x3dfeb897bcffc46eU,
  0x3d1afd063e4cbba4U, 0x3e0775ae3c56c293U, 0xbdb961653cd78dd2U, 0x3db1f9de3e249672U,
  0x3e1eb8e33e816797U, 0x3d45ddf03ccd4838U, 0x3dc86d1d3d589949U, 0x3d3910b13d369e51U,
  0xbdd3ae4bbd1df1ceU, 0xbd89ff7cbd966a04U, 0x3c89b892bd9af701U, 0xbdbf58bdbc9542bbU,
  0x3daa9d073c7fa777U, 0x3e23537e3d1d4b29U, 0x3cdef3be3d94aa4cU, 0xbc560fc93c82a698U,
  0x3dfe53913d042eaaU, 0x3c42ec053de733c4U, 0x3e61c2693e971253U, 0x3dc93c5a3c2cb2a3U,
  0xbd5b3d113c988391U, 0xbe456089bd7d25f5U, 0xbea2c399be5eef26U, 0xbd913d62be191410U,
  0xbc8de489bde0ad15U, 0x3accacf73c90a732U, 0x3c83f0863c2c7533U, 0x3e4923e53d8a21abU,
  0x383f87d13d1d5209U, 0x3d2e91e7bd6e8ec1U, 0x3e2546e3bd2ef3f7U, 0xbc7735143e4d6e28U,
  0x3dc33b8e3e0135fcU, 0xbd877f7cbd2b3e1dU, 0xbb0461cc3d4fb906U, 0xbde8c5ea3e120960U,
  0xbe86073bbea38c52U, 0xbdb88bdbbdbb87feU, 0xbc310c45bd8634ccU, 0x3b5757babd767255U,
  0x3e03b2dd3bbf82daU, 0x3c90e1663e228367U, 0x3d9c8fcd3cffe4d0U, 0x3da234f23c8b5b10U,
  0x3d9c9d77bd2772e8U, 0x3c87c46c3e40529cU, 0x3d236978bd356907U, 0xbdcdf90637553060U,
  0xbd23c2453ad94f1eU, 0x3d0dffbd3de4b14aU, 0xbe11e252be5d4c94U, 0x3d5abaedba4d05adU,
  0x3cd985a83c639e66U, 0x3d7427e73c784a14U, 0x3d05a2103bd741a0U, 0x3d4b3aeabc00275cU,
  0xbe24be20bdb4dd28U, 0x3ccc66103d4baad6U, 0xbc890956bd689404U, 0xbc9c9ae53e1ec23eU,
  0xbe4b454ebe4aa866U, 0xbe18bde1be0221a7U, 0xbe875f6ebe1c4285U, 0xbe361002bdda6dd7U,
  0x3d0c2c57be611192U, 0x3c9926693d6a2c9cU, 0x3e1c39fc3d70033dU, 0xbcab2e153de9b664U,
  0xbd1f81e4bc22a253U, 0x3d27b5183d8b229bU, 0xbe404ff1bd7f37c1U, 0xbdb4c6dabdb31a1fU,
  0x3d55263c3da8e512U, 0xbdc759533dc1b85cU, 0xbe9405e2be2d8cf8U, 0xbe739ecfbe23c2b4U,
  0xbecebab8bea7c314U, 0xbe63185fbeb27529U, 0x3b90eb73bda958b9U, 0x3db27e8b3e1bb671U,
  0x3c79ccce3deded2aU, 0x3d283444bb2f7a8bU, 0xbe04c3d13cae19c4U, 0xbda00565bda769a0U,
  0xbe06fc90bdfe94cdU, 0x3d160544bda8745cU, 0xbc56cc473d66c7baU, 0xbd8a0ed0bc94199cU,
  0xbe572ef9be1c9095U, 0xbe5f9fb2bea53b4aU, 0xbeafff3bbeaa816dU, 0xbe839119bed5b982U,
  0x3de8cc03bd28f029U, 0x3e48758f3e1fa4d8U, 0x3dfbb1233df5981eU, 0x3cdd310c3db4f74aU,
  0xbe14886cba090238U, 0xbd340479be25b438U, 0x3e246b783e0d1496U, 0xbbff4a353b5effd6U,
  0x3d7015443ca820e6U, 0xbd8bd2b33e103585U, 0xbe4eddc2be1e7c83U, 0xbe16df05beb144b7U,
  0xbe584927be0b5a3dU, 0xbbffe059bd9e0c5eU, 0x3e5026e43c850c67U, 0x3d65b4ab3db5f73fU,
  0x3d982b9ebd3c59ddU, 0x3cd65f9b3dd3a8d0U, 0xbd0874c6bbf2cf02U, 0xbdf1109abe467d0fU,
  0xbcb1b0043c9bbd9eU, 0x3d7bad1f3de31d1eU, 0x3d77588b3d0d4d9cU, 0xbe0309643e50caceU,
  0xbed4d809be413a7fU, 0xbe1c2a75beb08e40U, 0xbe1f673bbe0f6851U, 0x3dd608093bf6b015U,
  0x3e222a813dea4d5fU, 0xbd192a38bd21b965U, 0xbcaf49753d3ec493U, 0x3d7a39393cea3934U,
  0xbd675cc73de3b15bU, 0xbe52b135bdf3aa49U, 0x3dbe7b543d42dd4eU, 0x3df2fb243cc4d1bbU,
  0x3d83870d3c481c90U, 0xbda3760f3e2b715fU, 0xbea0a25fbe3f023dU, 0xbe29c038be831427U,
  0xbe2e035bbe3336ddU, 0x3e4e170f3c116a78U, 0x3d851d493e92101bU, 0xbd7c115ebe04dc17U,
  0xbd682e503c794b2aU, 0xbd9eaf4cbd83b8a9U, 0xbdab1b2ebc870e2cU, 0xbe2c419cbe1cc9daU,
  0x3ddb5dea3e120bb6U, 0xbd1bedd8bcf9ae47U, 0x3cafb377bcae4173U, 0x3d2780573d9ff789U,
  0xbd82d3ed3d15e1b8U, 0xbe80cc29be3b9796U, 0xbdcb4c00be223dc4U, 0x3c4a33733dd50fdeU,
  0xbd236c963e156df0U, 0xbdb840d3bd8d0e25U, 0xbca23c53be205a59U, 0x3d5e3761be067d83U,
  0x3dc82cefbadcf57fU, 0xbd49f6a0be0b1587U, 0x3e180bb43dd6e2ffU, 0x3cf3ad28bd923321U,
  0xbd8ae3fb3d9e70d9U, 0xbd8f8cce3e00f1a5U, 0xbbff28993d93a548U, 0xbdb6db95bcc5aa2cU,
  0x3c07e693bd762b0cU, 0x3e3f25773e26e1f4U, 0x3d5a0dbc3e1f601eU, 0xbc77811b3e103fa8U,
  0xbd894b52bd8a7196U, 0x3d97d980bd034447U, 0xbd7d4fac3e2fab10U, 0x3d4f7330bd6bdf5dU,
  0x3dfab9dd3e2ae7bdU, 0x3d536d8e3c119089U, 0xbc9b6c743d64bab6U, 0xbdc1e736bcd3ac5fU,
  0xb98a54f83d0d4531U, 0xbcbe3b99bc88917dU, 0x3de1bb983ceca61cU, 0x3daaa2d73bf106e2U,
  0x3d707e8d3c986157U, 0x3da34fef3cb974c8U, 0xbd58a2363d7a0d51U, 0x3d313af1bd448a1bU,
  0x3d669c1abd0eb740U, 0x3df9368a3e022c05U, 0x3c430dcc3d424a75U, 0x3d5391bebdfab461U,
  0xbcbe54603d4ade1eU, 0xbda93f553ddb7228U, 0x3e1b7cb73e5ef802U, 0xbd0a1cf53e4dccd8U,
  0xbd8c334cbdb68f87U, 0x3e30b1dabd312bffU, 0x3ca7bb033ceb1380U, 0x3e069d1d3de8fcbeU,
  0xbc020d3abd2bb97bU, 0x3e037f55bcd4362fU, 0x3e6811b03e928760U, 0x3bcb02e53ddd1b1cU,
  0x3d17dbc0bc1a7562U, 0xbda60ebe3d98ba31U, 0xbc806244bd8ab50dU, 0x3d5e7883bd716224U,
  0x3d254a0c3d22fdc8U, 0xbcf4d2263cf9c2ceU, 0x3d50a58e3e0381adU, 0x3cfc1b01bd808f78U,
  0xbb8f4cf43dba6956U, 0x3d472f1e3e062c83U, 0xbdf3d18dbd8667c6U, 0xbc5f85a3be028618U,
  0x3e08ae823da1828bU, 0xbdf48c9a3bbba097U, 0x3c3a1d0e3d3aeee2U, 0x3d8979b9bd9f0e8aU,
  0x3cedb948bd4f4338U, 0x3d2e208c3ca636a4U, 0xbd28d0c7bd135e80U, 0x3d5a660abc87ec50U,
  0xbc80ca793c60cf3dU, 0xbe376628bd9650ebU, 0xbb529612bdd13d11U, 0xbd560f373e3afbfcU,
  0xbc5b0870bdff8c89U, 0x3de30c793dafa0b7U, 0x3dd2b4f83e45f354U, 0x3d38e2323ccf398cU,
  0xbca15f27bda585ebU, 0x3d31557c3d7d88aeU, 0xbc218fd03d1081c4U, 0xbd4b28063d8e72b1U,
  0x3dc72a2a3c5e1576U, 0x3d2e88803ddd6402U, 0xbca583653df2ada3U, 0xbe103e953e0c8555U,
  0x3e2b8b57bc4727c9U, 0x3d7a24003e2a9f9cU, 0xbc9296e93c006f34U, 0x3e41c5ca3bf7399dU,
  0x3c22be103c36f23dU, 0x3d854856bd613d2bU, 0xbce22f7abd9cdb3fU, 0xbd9dc072bd4844f1U,
  0x3d9d6145bd5cddaaU, 0xbd9edf6fbd8eb076U, 0x3da36dffbc87487cU, 0x3a9e34c0bd2904feU,
  0x3d31f096bd902a92U, 0xbcb699663d602ed6U, 0xbd5a3c5cbd431e73U, 0xbd6d4171bb08cbd6U,
  0x3d7c6bf63c82b260U, 0x3d698e4a3d75fb8aU, 0xbd25659d3d39b7e6U, 0xbc48ed583add3e00U,
  0xbcc336c83d8acfbfU, 0xbd8ebccfbd825b52U, 0x3d886c51bd0353e7U, 0xbd90e4b53d601e2aU,
  0xbb382e01bc3f3f69U, 0x3d955c283da89805U, 0x3e28b6b43d1bd952U, 0x3e4ea7753e68680cU,
  0x3e8bf2fb3e5c584aU, 0xbd62535dbd2a1c12U, 0x3e3279d3bd0dcd4fU, 0x3db091133e1bbf35U,
  0x3ce82c373d4a6ccdU, 0xbc9e2ba93da59ff3U, 0xbd7a95873d43c19eU, 0xbda32b2f3d426f0aU,
  0x3cd886603d74adaaU, 0x3d40846abd4a932aU, 0x3e03095c3e045438U, 0x3e67792e3db9d3a6U,
  0x3da84e223dd4ead6U, 0x3dfa4ff5bc4ed7fbU, 0x3e42bf2f3e1cc645U, 0x3e2beebf3e49a0b4U,
  0x3d5f7dd43dfd7f54U, 0xbd2400633d3f7786U, 0xbdd80e86bd8b96b7U, 0x3c09ed9ebcbf52e3U,
  0xbc99c1983ad4dfd2U, 0x3d9b0ae93d968b8dU, 0xbc20e108bda21924U, 0x3c7f4cabbd18dba3U,
  0x3d4704633dcfa49fU, 0x3e3667613de9e4f9U, 0x3e8c0e3c3e2d6ec1U, 0x3e5192463e74d109U,
  0x3ddff2913d548768U, 0x3d51ac783e0c949eU, 0xbc5feac73dce5c6aU, 0xbdcb654abdb17e29U,
  0x3d2904dcbcac7575U, 0xbdc032eebd8e2184U, 0xbd8b3f1bbe07031eU, 0xbd7d01d23d89a557U,
  0x3c8f3e3a3d8f8805U, 0x3d9f257c3dac835eU, 0xbc9411353dc6ccdfU, 0x3e0a24343d42517cU,
  0x3dfe41fc3d9aa201U, 0x3da1a4273c42b94eU, 0x3dbeaa1b3e0b2db0U, 0x3d323a783db6e79eU,
  0x3c7fb1a7bd72bd8dU, 0xbe09b3abbdb4d9ecU, 0xbc8204e73cd57b3bU, 0xbed83986be3ab7a6U,
  0xbe1ee1cebe6d098eU, 0xbd85f5723ca7e978U, 0xbd824ef6bd569cf2U, 0xbd8123edbca08e64U,
  0x3bc902b13c4ae42fU, 0x3d14dcf33d194ae3U, 0x3d72f67d3dcc8d61U, 0x3c9c87753e170557U,
  0x3e2f346e3e375848U, 0x3bf6b8623de44fd9U, 0xbd93cc74bc374bd2U, 0xbe34ef3fbe2588beU,
  0x3cbdbe86be51f42fU, 0xbe67cf3b3c11a15dU, 0xbe2dc0a2be8efd7fU, 0x3d1bce2cba00e7cfU,
  0x3d56fee2bd17bf2fU, 0xbd64c8673d5167bfU, 0xbd091419bc8a353aU, 0x3d186084bd24639aU,
  0x3da7c8f83dd62d45U, 0x3e6fd2e23e55b884U, 0x3e4e15eb3ea07a55U, 0x3d16ce003c5dd9abU,
  0xbdce6054bdaf2ca0U, 0xbc521a19bd8e56c5U, 0xbea0b370be009c82U, 0xbd4bf1a73d1bac87U,
  0xbe114bb9be603517U, 0x3d322d003c83ebb9U, 0xbdc79e52bbde1be0U, 0xbe6583f83d4e2398U,
  0xbd83bc7abd1ccd13U, 0xbde4a990bdd590f2U, 0x3d888f3e3d3c7fd5U, 0x3e6259b43e3f5cecU,
  0x3db9fca43d65277fU, 0xbdee3c86bd83a099U, 0xbdfffb38bda7996bU, 0xbe283496bdcfe3f0U,
  0xbe210bf4be38bf87U, 0xbe400517bdf3cb84U, 0xbe5c3341bdf6f6d2U, 0x3d4172b53d320862U,
  0xbcd9cf853d9bfbedU, 0xbe1baf473d29893dU, 0xbdd3b68abde5c7afU, 0x3cbcaaf9bc2cc92aU,
  0x3e70a0133e0f447bU, 0x3d31c7ce3e091ac9U, 0xbd57db58bc8a9efbU, 0xbe18f9ffbe168950U,
  0xbe04a4e2be0b0a46U, 0xbdb6c9fcbd05d0d0U, 0xbb26f9f0bc7b30b0U, 0xbe305ea1be0adb27U,
  0xbe04481cbe22e981U, 0x3ba934a4bdd691daU, 0xbdad2cbd3cbea531U, 0x3c24c184bde76cecU,
  0xbde9b98c3af8bdcfU, 0x3d5346eb3dd71365U, 0x3e4c26d23e761581U, 0xbdb5a69b3e526df8U,
  0xbe8177b3be96ef45U, 0xbdb9039ebd67dce1U, 0xbd19e4c8bd7210e9U, 0xbcda05f53d80c3e4U,
  0x3df703993dc58925U, 0xbe1c9025bd49b9dcU, 0xbd534a1abdf1a370U, 0xbdecd322bde7f4a8U,
  0xbd8d12563d91f383U, 0x3ce7f4e4be868459U, 0x3da8395e3dbd7153U, 0x3e1c69f23d5a681fU,
  0x3e90bea43e77c364U, 0xbec70f5abd00919fU, 0xbe90c1f3bebc2507U, 0xbc2b10b1bd583407U,
  0xbcaf0c893dc758cfU, 0x3d14bef93c6f4fd6U, 0x3e098b833d957120U, 0x3dad01633d875c80U,
  0x3e0d703f3d835ab5U, 0x3d1d37acbe160670U, 0xbcd212f83d3cafbdU, 0xbc1d3f93be81def4U,
  0x3cc1366b3e1982b6U, 0x3de710673e4cdaf6U, 0x3e185e083e047c47U, 0xbe968f683c8a2b8fU,
  0x3cb15eaabe3b0084U, 0x3de628c23ddb78b3U, 0x3da41a853e3c2bb4U, 0x3cb1474fbdac09e0U,
  0x3e27bc123d927debU, 0x3e2507703da81aa9U, 0x3dd7356c3ee4f70bU, 0x3cb0c2b5be01fad9U,
  0xbdaec27a3d44307aU, 0x3c64b915be679af6U, 0x3d9459363e44e124U, 0x3e8c47413e64613aU,
  0xbc6bcf6b3e0d79efU, 0xbec941f7be585a98U, 0xbd289d3abea18f27U, 0x3debeae7b9e05a79U,
  0x3dda3fb83da25131U, 0x3cb95b44bdb8843cU, 0x3db3170f3d22162eU, 0x3eb9e8613dc81a3bU,
  0x39c8d7213e7f1058U, 0x3d936a12be43c5ffU, 0xbdbbb928bd45304eU, 0x3dc0e434bdd95a94U,
  0x3e16621f3ea02315U, 0x3e7b006c3e7c933fU, 0x3de1fcb33df8da8bU, 0xbe7b921fbd3c23f6U,
  0xbdea2eaebe56a7bbU, 0xb9bf288dbcdb9572U, 0x3d2bf068bca3ea12U, 0x3c94efe53c9e1845U,
  0x3bc786183d451cc6U, 0x3e6ebc283e1cfcefU, 0x3d9376973abc0d21U, 0xbdb2e336be6b808cU,
  0xbc7b56003d4a8f6aU, 0x3b4b7aaebe426694U, 0x3e0aa7d13ea31b28U, 0x3e3d54d93e404ccbU,
  0x3e2affbd3db59244U, 0xbe18dae1bd909e34U, 0xbdd8794fbe35fab1U, 0xbd459af3be2eadabU,
  0x3c1fd416bd3d9094U, 0xbd0f7edc3d2ecec7U, 0xb7941e10bd58e99eU, 0x3e2840d33e898bd5U,
  0xbd89bbab3db15bb7U, 0xbdb89369be5e0ce2U, 0xbadc3cb8bd34f5eaU, 0x3d241cfbbd7bb0deU,
  0x3d13af733ddad516U, 0x3e5ca7593d98c19cU, 0x3e3baaa93dd699f2U, 0x3a4aa3ac3ceb512fU,
  0x3d11d48e3dc7ed34U, 0xbbedfcb33d6a6c40U, 0x3ccca486bda4a55dU, 0x3d6e9f9abbdf76e0U,
  0x3d03f9f2bc55c5fdU, 0x3c93c0d93df63316U, 0x3e03eeef3b9988b5U, 0xbe2c75313d1cf4c7U,
  0xbc7957c83cdd1d04U, 0x3dd51f7bbd4c880fU, 0x3d8dba30bce354eaU, 0x3d51a3493dbc5eb9U,
  0x3d6faef63cc0e737U, 0x3de4eb3a3daf9ab8U, 0x3e246abb3d9b8144U, 0xbdcfa0b93d55be17U,
  0xbcb59711bc8590a6U, 0xbc76b1dd3c539d94U, 0xbc4a0ab53dfa566bU, 0xbcd5e3c03dc0d88bU,
  0x3df46dfa3c10cc70U, 0xbe4b28bebdc8a9b7U, 0x3cea7cbfbd9c14a8U, 0xbc6741b4be36150aU,
  0xbcef58b8bd7b2638U, 0x3d1ac187bc942c76U, 0xbcaf315bbd70c3edU, 0xbd41ab483d5d33d8U,
  0x3aa59832bcc49623U, 0xbe5cca7b3d171405U, 0xbe311bf7be684b70U, 0x3d9801b0bcd283f7U,
  0x3c749e413e26775eU, 0xbd84d8173da8f66eU, 0x3c0f2d933e16e8ebU, 0xbe61d830be12e980U,
  0x3d466b3a3d9f8249U, 0x3d145720bd134989U, 0xbd811cbc3d26287cU, 0xbd50af2b3d9e767cU,
  0xbe24551ebe068debU, 0x3d1f38dc39e4e39cU, 0x3d4b83963cd81b68U, 0xbe37d0343ca74eb2U,
  0xbdfa890dbe79e64aU, 0x3cf877413dd917e6U, 0x3e7839773e618c83U, 0xbe0687ba3dcb2aefU,
  0x3be7ad423cde2bddU, 0xbd1bcbdbbe613f75U, 0x3d1922b0bd68df37U, 0x3dee60213d326ab4U,
  0xbc7f89a6bd7b0331U, 0xbd5d7f0cbd93a19eU, 0xbcd1453abde67d12U, 0x3a7347f0bd69c6f0U,
  0x3da232ed3dd8d705U, 0xbd89fa39bc218dceU, 0xbcb7ceb5be49900bU, 0xbc8dbe323e000534U,
  0x3d257ee83e21a160U, 0xbde5b3b93df64255U, 0xbd09acb5bdafcebbU, 0xbd7cb388be60942dU,
  0xbd52938cbcfb5df4U, 0x3d7687cd3d8388f9U, 0x3d2335873e39b0bbU, 0xbdd701debdee0603U,
  0x3d10b5bebd006c69U, 0xbe0b37d3bd497a75U, 0x3c671655bc5bf142U, 0x3d91aa043e2ae820U,
  0xbcdbfbebbdae526dU, 0x3e01c569bd1b2aabU, 0x3d82d3f33e15e473U, 0xbdebfb59bca122d1U,
  0x3dc0724a3d1f4769U, 0xbd1cbf17be2d1d35U, 0x3d6538f53d767722U, 0xbe199fb9bc5b121aU,
  0xbc5290c73e5041c2U, 0x3d864f6d3d315e3cU, 0xbd627ca3bd3038e7U, 0xbe0eb1b53d8b21c9U,
  0x3cb1a208bc5ae4f5U, 0x3da463493e267174U, 0xba512bc13daa89cdU, 0x3db1bf34baf22deaU,
  0xbc2e252b3e5fcba4U, 0xbdb0c5d63da7b6b2U, 0xbe5837ba3cf1f062U, 0x3d81fa26be4bc49fU,
  0x3c0eacf3bb5023e0U, 0xbe66dfd53cc0f6b5U, 0xbd4f8199bdee36e6U, 0xbc2d134cbdd884f4U,
  0xbd78cc6fbc407acfU, 0xbde4e9fabe046602U, 0xbdb8a022bd8087c6U, 0x3d6b80dc3d02010aU,
  0x3e198a503e251638U, 0x3e2bcad33e354193U, 0x3d7d1a553e1d880fU, 0xbce37ff2bb9dc854U,
  0xbc83b4b5bc91a1cdU, 0x3cfe42183d03f79cU, 0x3d486352bc0685d0U, 0x3d8573e83d5b8113U,
  0xbd9d26debd278b05U, 0xbe59269ebce6cedaU, 0x3d00fa91bccbf017U, 0xbd98176a3c817ac0U,
  0xbddc39d9bd83755dU, 0x3b6771183cd6bba0U, 0x3e4e24bd3dfa9869U, 0x3ddca1453e44723aU,
  0x3d9fee893e06989bU, 0xbd3ec53bbc466103U, 0xbc6cce3c3dbd6cdcU, 0x3d9c2849bcd9b04fU,
  0x3c76baf03bfe0390U, 0x3da7d7a73c5a2c79U, 0xbd7caafbbde51a12U, 0x3c66a10abe1b38ddU,
  0x3ee91e313e8b74b7U, 0x3deaffdf3eb4072aU, 0x3dc260323e292361U, 0xbe3c2289be2db911U,
  0x3da0664c3d367d50U, 0x3d4af2773d924822U, 0xbddddafe3dc3afdfU, 0x3b68c1e23d5e8c9bU,
  0xbcc9c311be19fbf3U, 0xbc8ca624bcaa2e82U, 0xbda04ee0bd46905dU, 0xbc97ea4e3e07692aU,
  0xbd30c458bde79861U, 0xbd875aa43d17e895U, 0x3de41e6a3e00ed76U, 0xbcd36ee73e08d3fcU,
  0xbd223a89bd5dfca2U, 0xbdc38e98bddfcfb8U, 0xbd9254e1bd1c26c8U, 0x3e029b013dc4abaeU,
  0x3d8a9b943dac1decU, 0xbd57ff22bce09a38U, 0xbc202c6ebd3cfaf2U, 0x3d4c55c63c84167dU,
  0x3d41990a3c633578U, 0x3d62bd763c5646d8U, 0x3cfd90713ccc2342U, 0xbbeaf1fe3d7b176bU,
  0x3cb030823dca51b9U, 0xbe03bee8be00c8cdU, 0xbda6fdd0bce9b01bU, 0xbde88300be800a2bU,
  0x3b0eff693df927eeU, 0x3c2059b03dd3d48fU, 0x3e40e8e73e0fca1fU, 0x3d976f2a3d384635U,
  0x3d9bb48b3e0d36d7U, 0xbc9e4c88bd65e1f4U, 0xbc7abab8bd44d8afU, 0x3d91232d3d0f4604U,
  0x3d1fbdecbd8c081aU, 0xbd291155bb908b5eU, 0xbe2e4a45be724799U, 0xbe1563dcbe336258U,
  0xbe3b6ce9be056d53U, 0xbe438fb4be38ea27U, 0xbe582662be456865U, 0x3cde6f4dbe0362ccU,
  0xbe26d6b1bdbf59beU, 0xbda98752bdb36bfeU, 0xbd56c1e03bff6920U, 0xbc988f9e3d9c822dU,
  0x3d39b8723d0f3ae8U, 0xbc8a8c54bb8c1050U, 0x3ba3a6003c1bff40U, 0x3d298e6a3c30d940U,
  0x3ccdb7c4bd801880U, 0x3d70439a3d971993U, 0x3dace48f3cbfbb6cU, 0xbd320b36bda18c5aU,
  0xbda0b9213d8dfba7U, 0x3d8f71553d875c5fU, 0x3d312430bbbfe940U, 0xbce16402bd1c425dU,
  0x3d5962e2bd970604U, 0xbd9f328bbd8d0aa8U, 0x3d0410903d35fc72U, 0xbd1b17b6bc7e03c0U,
  0xbd66f91e3d21d956U, 0x3cb65828bd15a7a2U, 0x3c9514e73dc6b039U, 0xbe0977b7bddc4489U,
  0x3dbb26cb3e0324e2U, 0x3dbf8fc63dc8b063U, 0xbcc85dbc3c8b38dcU, 0x3d92d7323cdac93eU,
  0x3d9ca8713cf60973U, 0xbd15f39c3e13a82dU, 0xbd813accbcc76d26U, 0x3d528cda3da55ed7U,
  0x3d18dd0ebcbca65eU, 0x3d0a589b3b16dbc2U, 0x3cccbf213d8488dbU, 0x3dbfba84bd4ea4a1U,
  0xbea14e70bdd0dd43U, 0xbd776c11bdd937fdU, 0x3c49c5a33b85e02dU, 0x3d996a98bd9a8ad7U,
  0x3dfd04953ddd6f66U, 0x3e1a816dbbf8702eU, 0x3e32104b3e340756U, 0x3da8ac8f3e3ae884U,
  0xbc09954b3b146b2aU, 0xbd8be5a4bc5968e0U, 0x3d5f2b0e3af2dd00U, 0x3d59b0233d3fc263U,
  0x3cb4b50b3cec2eaeU, 0x3de1e8bc3d39bc9fU, 0x3cbe7e233e74ec73U, 0xbe251c67bd50c58eU,
  0x3d4b304f3d40d1e4U, 0x3e2131603de57fbbU, 0x3d6a66103c25b4caU, 0xbc9c29ab3cdfc925U,
  0xbdc689da3ca2a39bU, 0xbd9faeb8be0c7bb3U, 0xbdfd8e443c9a28e5U, 0x3d287fa6bd17e4fcU,
  0x3d34cc85bd41e2a0U, 0x3d08e44c3d798df6U, 0xbdd293eebd338a8eU, 0xbd4d8e69be103cf7U,
  0x3d9b19153e15c94bU, 0x3d8c40ccbd5d53deU, 0x3d9fa406bd1cb544U, 0x3e053f823d402d74U,
  0xbcb18b933d70b176U, 0xbbd37b043d87da89U, 0xbc551921bdf169f6U, 0xbdb43b3fbdc026ddU,
  0x3c075b42392c2848U, 0x3d3b7ffbbc1cb755U, 0x3d81046f3cab4798U, 0xbd14bc633e438cf3U,
  0xbdaafb2ebd395cc4U, 0x3dd4348b3de869f1U, 0xbd202ca6bcc7e3e5U, 0xbe09e107bd71898fU,
  0xbc837344bcb19a75U, 0x3d4e40813d2edd04U, 0xbd1827fe3d3e6191U, 0xbc346f48bda9c1afU,
  0x3c304d5fbccdbf83U, 0xbe0c94eebe0d89c6U, 0xbe075d1cbe930947U, 0x3da8ea023e7cfbaaU,
  0xbbda94773ceb36b8U, 0xbcc8269ebe0f7198U, 0x3baac888bce2e19fU, 0x3d37e8d93dcd7c60U,
  0xbd226c4d3d772cf6U, 0xbc9df2333c04e1c0U, 0xbd01499cbe35032fU, 0xbd7266c7bd49ad6cU,
  0xbd4bf371bde15dbdU, 0xbd04e200bd1eabbfU, 0xbc24c622bd9a8e5cU, 0xbd463079bdcb7c4cU,
  0x3d23719abd8c08a4U, 0x3d7bd8063e5d31deU, 0x3df98329bd166364U, 0x3cd8aa5cbe130062U,
  0x3e0f551fbc479610U, 0x3c5facd9bc17a533U, 0xbd53ad31bcf89f0bU, 0xbe144ce03c67330dU,
  0xbde1e0b7bd39555eU, 0xbd037f543e076f4eU, 0xbe1609c8bc3e3d56U, 0xbd582c2ebe10d47eU,
  0xbdc271403d4fd5eeU, 0xbbfc75a3bde0cd62U, 0xbdd0752bbdc724d2U, 0x3e0252df3dbecdceU,
  0xbd642c5c3d4cab6bU, 0x3c6270efbcf228e5U, 0xbcd7310b3db3636bU, 0x3d412b81bdbd059fU,
  0xbd98dc5fbdee2c83U, 0xbe1ff9b6bd2f4104U, 0x3da74e42bc907480U, 0x3dd08c33bb2ba1dcU,
  0x3ca50ffcbcf4f38dU, 0xbd77e94abe2a2729U, 0x3ddaf474bd5e3013U, 0xbc7ed42c3ddbe497U,
  0x3c399c02bb55bd79U, 0x3df988083e34234aU, 0xbcd25fc9bdb451e4U, 0x3dcb9ffcbdde0260U,
  0xbd0a9a8a3d9eda18U, 0x3dfdb9163e5886f6U, 0xbd6b5dae3d0fef39U, 0xbe10aefcbdf8339eU,
  0x3d85ef75bc9f7e5cU, 0xbc022f6f3e29e569U, 0xbcd3722a3c5b5732U, 0x3c815e68bc880729U,
  0xbd175f8cbda36bfaU, 0xbc94e6903d7c0e1bU, 0x3ea60f923d94e0b6U, 0x3cbe4db03da5bfb4U,
  0x3dbedad3bd878705U, 0x3d6585f4bd8669beU, 0xbdcbb15fbcc1b352U, 0x3ce2bb023df3b133U,
  0xbe2b3870bd2ca5beU, 0xbdf1cc183d88cf19U, 0x3da556833d2c84d5U, 0x3cf9ff493d045a94U,
  0x3d0bd183bddf247bU, 0xbd1f0d823b1a23cbU, 0xbd62fbd03ba6309cU, 0x3dd943c03d6f181aU,
  0x3e65726f3da9228bU, 0xbd3346a23db80067U, 0xbc611d63bde61032U, 0x3e36bc05bb8cd1b2U,
  0xbd9a00943da1c676U, 0xbe1d5f24bdf373f7U, 0xbd63f79cbe93f7a0U, 0xbdf70aacbd204485U,
  0x3e0773173c82f57aU, 0xbd82e4483d04dc43U, 0x3d9641a4bd73a180U, 0x3d1b80043e2d2376U,
  0xbe1560433d3b0169U, 0xbd17550cbe12450cU, 0x3d9889893cab510eU, 0x3d0446253e8e8033U,
  0xbd72319a3c2a46c0U, 0xbdd81ffebdb98e1eU, 0xbd66ef223df03710U, 0xbdb432b9bdb68ff3U,
  0x3bf5b30fbd8f9725U, 0xbc1f0dec3c95a669U, 0x3ceee2b53abadaefU, 0x3d8669573e07a484U,
  0x3da5dc993d973906U, 0x3c025a4d3bb149dcU, 0xbd3d00613cd98b91U, 0xbe88a493be19c232U,
  0xbe1899ffbddac221U, 0xbd6317e6bc8eed45U, 0xbd117a753d9be5e3U, 0xbdb2f2b2be57bf59U,
  0xbd96eebfbcb97503U, 0xbe2597913cc62c0bU, 0x3db857983db205b2U, 0xbc537c24bda9eab4U,
  0x3dbcf1ffbd4e0270U, 0x3d91d6483e0a3d8bU, 0xbd5539043cacb2beU, 0xbdf73d60bd72fc4dU,
  0xbdb33268bd8c02ffU, 0xbe95cb71beb67260U, 0xbe2703b9be53f2c1U, 0xbd8fbc693c74f2c1U,
  0x3dba4f633dce196cU, 0x3dcfa5b8bd8d6f75U, 0x3ce9346dbdc448b5U, 0xbe7b8562bd92d450U,
  0x3d1e95a03d37f09aU, 0x3c688fa83d2d1035U, 0x3dd8c38b3d4a82e6U, 0xbce2783f3e20f8d5U,
  0x3cac6f103d916f78U, 0xbd8ac5303d038ab0U, 0x3c686bc0bde70204U, 0xbe92b5f1bdef8602U,
  0xbe25de4dbe5a847cU, 0xbd94408ebc312fb5U, 0x3e01739cbb2db86eU, 0xbe0c211f3defb61dU,
  0x3d881b383d50a9edU, 0xbe92e111be496039U, 0xbc25986fbdd17468U, 0x3c07032bbe38ebe2U,
  0x3e5728323dc40cbfU, 0xbd9119843e2dba54U, 0x3d04f5f3bc47a1abU, 0x3d0fc7e83ce56329U,
  0x3dca2bc63d4d308dU, 0xbd5cd30bbd17be9eU, 0xbe10d3f2be8a7df1U, 0xbd608411bc58e699U,
  0x3dd3fc29bd96ad1bU, 0x3d4745d63e1c0eacU, 0xbaedadd43dd16ca5U, 0xbe7414e1be5b4d9eU,
  0xbe3a645ebe4879d9U, 0xbdcbdf79be122492U, 0x3e3673853c623b10U, 0xbe00f0d73db10e36U,
  0xbd2708d2bd07776bU, 0x3e10eb153e0f8f5eU, 0x3dd980c23da2909cU, 0xbd2aae25bc2b6462U,
  0xbe2e6b66bc35ccc6U, 0xbaca1c62bd2d389eU, 0x3e214c1bbd0b3396U, 0x3e15e4503dc59b58U,
  0xbd0e91303e455a50U, 0xbe00daa8bdfd1b9cU, 0xbe82fd4abe5284a9U, 0xbe14b40bbe9938a2U,
  0x3d8a2b93bd6f1eb3U, 0xbdd7c24ebd6a110cU, 0x3dbac823bd5c0221U, 0x3e647ed43db5d63dU,
  0x3df915a23dcfe241U, 0xbddf761b3cea11fdU, 0xbee25357be854c88U, 0xbd229d1e3d2307f1U,
  0x3e1a61febdb564a3U, 0x3e71234e3dbd3cc6U, 0x3d9e9ab63e09d0eaU, 0xbde9dc58bd43deabU,
  0xbdecaf4dbdabab8dU, 0xbe081c0bbe6be410U, 0x3da590ccbd151101U, 0x3d1803253d456e4fU,
  0x3d9e077f3cdba63fU, 0x3e1147f93d097275U, 0x3d42797f3e0e9d8cU, 0xbe8578b4be0fcc71U,
  0xbd82ddc2beb116d5U, 0x3c5de6c53c8377e2U, 0xbd98def4bd265405U, 0x3e908bbfbd91a32bU,
  0x3e7a58703e67aee2U, 0x3e318e743e67b678U, 0xbd15a09bbd0d4f5dU, 0xbd20117a3c1ca5b5U,
  0x3e14a467bb5fe40dU, 0x3ccb6ee0bb9f0742U, 0x3de1fc483daa9e0dU, 0x3d6cdb683dce1366U,
  0xbdb90b5abd002a56U, 0xbe695e5ebe71e749U, 0x3e339daabe04db23U, 0xbb6957163ce98eb1U,
  0xbd4f15e03d5dbf02U, 0x3e197044be39b565U, 0x3e35f0963ea0ba4fU, 0x3d507ea43e1e6764U,
  0x3d92b2ac3d9c83a4U, 0x3b4b60ffbd06fb02U, 0x3d8932803d45bff4U, 0x3e28782e3de6cea8U,
  0x3e490cff3d679ab5U, 0x3df4e4453e49e281U, 0xbe0a44003c9132cdU, 0xbe8764debe5fa147U,
  0x3d5abc36bdbcc69fU, 0x3d286a663d96cdb2U, 0x3c9fc4b83db4e1e7U, 0xbd93bc6ebdc8200aU,
  0x3dbd2b5a3e0308aaU, 0x3e15268b3d2a60b0U, 0x3ccf2bea3dda8b9cU, 0x3d6ae8dd3d91b4edU,
  0x3db180493deabf75U, 0x3cc3d7f43e1e8acfU, 0x3de1edb03e191c6bU, 0x3c6c4a783e2d4069U,
  0xbe39d21b3c6f0bdcU, 0xbe964ad2bee1adbbU, 0xbc3ea3e4be547a2fU, 0x3d8739853dcf7233U,
  0xbcb9a8b13bbed0f8U, 0xbcb98626be1a314aU, 0x3da8637d3ca320dcU, 0x3c88b8c7bbdf4fefU,
  0xbd83a0bbbd9e28c3U, 0x3e00966c3d60c9ecU, 0x3d42e7bebcdd9515U, 0x3e4731d73c9dd243U,
  0x3e4b2a9d3e1a1249U, 0xbe298901bc243890U, 0xbea8e9f8bded9ea4U, 0xbe6d64dbbeb0bda3U,
  0x3cad3d89be18f3cdU, 0x3b9603323def063bU, 0xbd86859c3d9d4d8dU, 0x3dd7b59b3e1761b6U,
  0xbd949e143d7b1cceU, 0xbddbdc2ebdb85523U, 0x3d6b0c033d0463d5U, 0x3dbbd6a83d6e35d3U,
  0x3e393c233bda3a64U, 0x3e638e8d3e3c4a30U, 0xbd95f6103cf1365dU, 0xbe99d163be1b0749U,
  0xbe36f1efbe5c7f38U, 0xbe06d415be42d9e1U, 0x3d62d7723e284febU, 0xbd65146c3e2b3d82U,
  0xbda33798bd807bbeU, 0x3e32742a3d80252eU, 0xbe2ddc32bdd60839U, 0xbd943313be43b796U,
  0xba3c0709be15c2d8U, 0xbde066c1bde203a6U, 0x3d2afc0c3cc70b75U, 0xbe223e4c3d647db8U,
  0xbe522512be8934a9U, 0xbe8af710be868377U, 0x3ba6d999be09dee7U, 0xbc862d06bdcd5cd7U,
  0x3c97604cbdc6ea7bU, 0xbd9ed12e3ca49906U, 0x3d85e8c33d171438U, 0x3bf2f7dfbc42730eU,
  0xbd4322a0be326ba7U, 0xbe377fd6bdf784bdU, 0x3d52d80ebd971714U, 0xbe2b197abdfbdf0aU,
  0x3de5a22b3e3bd83cU, 0xbeea4c38be91c439U, 0xbe1a855abe9d19cbU, 0xbe983853be2970d1U,
  0xbe62e567be519eeaU, 0xbdc554b2bdce6b7cU, 0xbc34906f3c242007U, 0xbd0306d43a387600U,
  0x3b8e1350bd8fb214U, 0x3d911058bd6fdef4U, 0xbd94d3963dd53632U, 0xbc5f711fbe0e31b0U,
  0xbe5bcc35bdb83b76U, 0xbe206862bd8e7dc2U, 0xbec044a8be8e4339U, 0xbe8ce241bec94213U,
  0x3ccf969dbdb27251U, 0xbe00635b3cf752a2U, 0xbd81076abe0beb8aU, 0x3db5276a3de684fbU,
  0xbd00448bbd6c3377U, 0x3d6bb866bca3563cU, 0xbd36297dbcb12a8eU, 0x3d48168e3cbad80cU,
  0x3d9d1f57bd5eaf86U, 0xbdd76d6b3d63b380U, 0xbde03707be121e33U, 0xbd41e63abdde56edU,
  0xbcf17f2fbe7d0b4bU, 0x3dd111303c1f21b7U, 0xbd469be63d2c2002U, 0xbda1fd0dbdf871b9U,
  0x3d56a76abda3647bU, 0x3cd061183ce48ddcU, 0xbad429c0bd8a811aU, 0x3bfc67403c4cd518U,
  0x3d227f0cbcc875faU, 0x3c84664c3d75653eU, 0x3d189a623d982541U, 0x3cf97bc03d01e5c0U,
  0xbd6c0d91bc8d0130U, 0xbd5bbace3c2193e0U, 0x3d2084bcbc3f2450U, 0x3d59b6e6bd914d21U,
  0x3c907150bc894964U, 0xbd7536d23cd0f234U, 0xbca8c022bc9140ecU, 0x3cc07104bc467550U,
  0x3c2a2f103bfa48c0U, 0xbd01ea79bd1bb6abU, 0x3c7df850bd8d746cU, 0x3d6b3bcabd68d7b6U,
  0xbd897e03bd93a18eU, 0x3d126c403d4d6246U, 0xbb715f20bc7c0730U, 0xbd1e992d3daf491bU,
  0xbdb296c2be1579a4U, 0x3e5e62473e6b7b28U, 0xbd960ec6bd45ecaaU, 0x3d8b4078bc721943U,
  0x3ce97dcabd0f01ddU, 0xbd97e4f33d3ccf7fU, 0x3da0d837bd32b13eU, 0x3b8d38803d96d88bU,
  0x3c6f8a383d01cfdaU, 0x3dab11213d14089cU, 0xbd9a1219bd31fe07U, 0xbd89aa95bc72aad3U,
  0xbe958396be1ce146U, 0xbd50e93abdd6842fU, 0xbe012bb7bcaaad42U, 0x3e80e9c9bd838a02U,
  0x3e383d243e6d1e81U, 0x3c57ef433dad1984U, 0xbd980121bbe7c895U, 0xbe34f0babdea4c33U,
  0xbb1ab6dbbdda167dU, 0x3c1884a8bcfa62f4U, 0xbd41aa1cbd533f5eU, 0x3de2cd193dcc79b2U,
  0xbd645a833ce9c173U, 0xbdca3e383bc40773U, 0xbe649d78beb07291U, 0xbe711678be9d734aU,
  0xbe4c1995be69167cU, 0x3e18f3b83ccedcd9U, 0x3cae35613c2b9ccdU, 0x3cc9d1933d74828dU,
  0x3e8806753d10e7dcU, 0xbe22305c3d4f5586U, 0xbd32381ebe083d0fU, 0x3d836091be1b5b1aU,
  0xbd425e4c3c9bff8cU, 0x3c51e5293d0abad3U, 0xbd9a8418bdcc5aa9U, 0xbe65794fbe0e9520U,
  0xbc4968e7bddd5248U, 0xbcb7ea50bdcb75a7U, 0x3d25641d3de122d5U, 0x3d6b723f3db0cf30U,
  0xbdc51067bdd23b6dU, 0xbe18d0c5bd736f84U, 0x3d791acabb104ea6U, 0x3d07270b3d80e1d4U,
  0xbd85c0d5bc8aa47cU, 0xbdb8972abe66bd00U, 0xbb014ca03d0783a4U, 0x3d0b86f83df5305fU,
  0xbe24aeb4be4b432cU, 0xbea846aebe85c1c2U, 0xbdb825e6be54e523U, 0x3da63900bd2b9246U,
  0xbc16a87d3de6694aU, 0xbd0db0d43c0e067eU, 0xbdede98cbe5a0db5U, 0xbe6fbcb9bdf62787U,
  0xbd67dd17bd1c1bd1U, 0xbd63133a3d62ee95U, 0xbe5a3a45bdaaaac1U, 0xbc28e910bd20717fU,
  0xbdd59ec73d99dcb1U, 0x3d560ef1bc80bdb2U, 0xbcf5d7ccbd63a706U, 0xbea5b196be8a26bdU,
  0xbd9dc23dbe54631dU, 0x3d7a9927bbf1b2afU, 0x3da17ad93e1addebU, 0x3a722cdd3d8660c4U,
  0x3d75b711bdbb91e0U, 0xbdb585d0bd3b6685U, 0xbe30df66bd2332dfU, 0x3d403f573c4103f7U,
  0xbe9a7b27bc5d3f5eU, 0xbd7dcb23bb57733bU, 0xbe8311743d47678bU, 0x3d1cc807bcd1fcccU,
  0xbd6b3f183e06c3d6U, 0xbe754a57bd80996bU, 0x3c99d78abe0a5a51U, 0x3e312396ba9a3c6aU,
  0x3e014f833dc249ceU, 0xbd13f48c3cd18f76U, 0xbdfd92ffbddd7acbU, 0x3d24fa4bbdde58a7U,
  0xbe434168bdcbd2e2U, 0x3d114abebd30d0bbU, 0xbdfbe421be2a082eU, 0xbc969efdbdce39a0U,
  0xbe38d635bcff1474U, 0x3af3e8b6bcd9e798U, 0x3d9c458b3d605d17U, 0xbd5c05673b3e5419U,
  0xbe015aac3cfd855eU, 0x3e118265be0f9514U, 0x3d90d5873d3934f3U, 0x3cd9cdfc3afcef96U,
  0xbd6a9996bcfefa8eU, 0x3c8fba1fbdc2edcbU, 0xbd3821f6be3f4372U, 0xbc314a4c3a628273U,
  0x3d188f7f3d197021U, 0x3d78ce46bd9ca504U, 0xbcb31ac4bd43100cU, 0xbd78c7073cc0f33fU,
  0xbd8dead9bdcc27f0U, 0xbd3c4322bd97ded1U, 0xbe015cacbc099f61U, 0x3e0b3ca8bca584c5U,
  0xbd9dd2ff3d9eea43U, 0xbc525d0fbd041588U, 0xbcccdcebbda278a5U, 0xbdac1e1fbd23a8bcU,
  0xbd4573b8bdfdf9b9U, 0x3db07598bdc05876U, 0xbc97df3d3e7334d3U, 0x3d9a1c553da78b59U,
  0xbd9dc564bc17f6b0U, 0xbe044db3be255f7cU, 0xbe8a71a6be2d9182U, 0xbce45d7bbe07e177U,
  0xbdec9a2a3ce0ee7bU, 0x3d6ad0403daabe77U, 0x3d2c6b223dc6f0aaU, 0x3d96f5ca3e4f9f6cU,
  0xbdec9b2a3d38449eU, 0xbd4e78823ca58daaU, 0xbd7ac3b5bdd98367U, 0x3e845f5b3e8aeb89U,
  0x3e8a7e993e901d51U, 0x3c0a01febc418134U, 0xbd595324bdb5bb69U, 0xbdd8d486bd398e97U,
  0xbe26d72fbe855745U, 0xbe07e4f2bea8d2c9U, 0xbdb2f342bcea5d65U, 0x3dc0e89dbc53e645U,
  0x3e8447873e23f1a0U, 0x3df9cd433d846e4cU, 0x3dd947ac3dfe978dU, 0xbe2e0c323d9648e0U,
  0xbc0942cebe2b2158U, 0x3e55ded13e65ad28U, 0xbd5eecec3e8f368cU, 0xbd0ea1af3d58fbc0U,
  0xbc058c6f3b4ba5eaU, 0xbdd565efbdc17d16U, 0xbe7573d4be285c9aU, 0xbc9daf66be3a43beU,
  0xbd917003bc934454U, 0x3e277274bd4f6d5aU, 0x3e0e860a3dcda73cU, 0x3e0863363e72c4d8U,
  0x3e30233a3e016c15U, 0xbe7e39113c4f4fe2U, 0xbc630b7ebe799200U, 0x3d10cfbe3b537396U,
  0xbe00f4ecbc490755U, 0xbe01ea17be40ea01U, 0xbd60c43e3d31baedU, 0x3c9351f4be4a0b9bU,
  0xbe9b1a95bd975398U, 0x3ba333e3beaf8526U, 0x3d9fbffcbd819666U, 0x3dcc786c3e172226U,
  0x3e3b735c3e241f97U, 0x3e90c7703e09317cU, 0x3d8215993dd5df3eU, 0xbe881a93be1e51f4U,
  0xbdf38cb7be8af678U, 0xbdb28775bdbfb5d7U, 0xbdd5a9c4bd854b04U, 0xbd9d6f9abe5606f7U,
  0xbd94324abd1c7e8eU, 0x3c61690bbc879a3dU, 0xbdefc1f9bd5aea3aU, 0xbd68ba19be5478b4U,
  0x3d2ca86dbd512b2fU, 0x3e18cd2c3cc45280U, 0x3df827613df11c0fU, 0x3e4215523dcc4e3dU,
  0x3d8133ae3e2df3aeU, 0xbe91f9aabe2c57f2U, 0xbcacb1debdfdc474U, 0xbe2e550fbe007c81U,
  0xbcb350c1be114475U, 0xbdd107acbdd521c3U, 0x3d967f97bbcd50ccU, 0x3dc2fde1bd83b3b0U,
  0x3d28f7a23e3b672bU, 0xbd9adb83be2e436cU, 0xbe3dd092be8397fdU, 0x3e05d8a83b88bc16U,
  0x3e1dc1103e22ab4dU, 0x3e0309863dc38de2U, 0x3e12ba1b3da3f4a4U, 0xbebfbc6ebd70174fU,
  0xbd1ae917be11bd23U, 0xbad9eccfbe1cda38U, 0xbd9354d4bd85bc99U, 0xbddc3a2fbe6503b9U,
  0xbd6ce4de3d838f04U, 0x3dbfb19abe1bb9d3U, 0x3dbc74463e86ac1cU, 0xbe4ccdc1be67d783U,
  0xbec5bd80be958608U, 0x3dd990a3bdde09e6U, 0x3d7685463dbf323aU, 0x3d07baa3bab6b84fU,
  0xbd5c8d76bacd56dcU, 0xbe88a39cbe058a05U, 0x3d1391d2bde0c3beU, 0xbd52c3b5be24a248U,
  0xbdeee6243d19f0aaU, 0xbe456298be170dc5U, 0xbdebafe3bd2f78a2U, 0xbe15369bbe49fd91U,
  0x3e21f48e3d50d499U, 0xbe9a5dccbdf6d3a5U, 0xbcfa77c7be6b53d3U, 0xbd95c489bd744100U,
  0x3d0518dcbd3b5483U, 0x3d4ddbabbc894151U, 0xbd8fef16bdb1ce6eU, 0xbd89958abc4ccf1bU,
  0x3d3338bbbda02687U, 0x3e2b77bc3d955b60U, 0x3c507b423e4d0166U, 0xbe2356c6bc4cc3c1U,
  0xbd25946e3b3e49a2U, 0xbe38f4bcbe3cebd2U, 0x3dc7eea63b819b94U, 0xbe61a764be18d035U,
  0x3dd3b2d63d25db28U, 0x3dd41c5d3d6f933dU, 0xbc80a1de3d367bb7U, 0xbe09ecbd3b2e9f05U,
  0x3d22fc51bd644449U, 0xbe248c0d3ae4209cU, 0xbe4883efbe144a93U, 0xbce5f769bda72369U,
  0x3e1833663e019d23U, 0xbc054c7f3deefa09U, 0xbdb6073fbd450345U, 0xbe4aa45bbda88d9cU,
  0x3ca83980bda44f05U, 0x3dfbfdef3b2a3930U, 0x3cdf6f483dc191b7U, 0x3d8a3c9d3e0211adU,
  0xbe4ed7d43cba14c8U, 0xbe377ab3bdcd3ae6U, 0x3d9c45b83d8cb120U, 0xbe312cc13d0a1141U,
  0xbeb956eebe864913U, 0xbd807060be40d7a5U, 0x3e3026993e2ae89dU, 0x3d045ba23ce85960U,
  0xbdec16bebd62d2f4U, 0xbeaba66fbe42db9aU, 0x3dd87280baf06a2eU, 0x3dbe974e3e571845U,
  0x3d8a56803e003806U, 0x3c843f2d3da10944U, 0xbeb100c0bde66fa3U, 0xbdc8a18bbe4fe3feU,
  0x3c56faca3de21fcbU, 0xbe2cf568bdd455faU, 0xbeb2674fbe88de51U, 0xbdf29737be57cb4cU,
  0x3c8394663d7b9943U, 0xbce3d0c33ca8e781U, 0xbcdbf0973c3f7dc4U, 0xbe4cdefcbd2c4f94U,
  0x3ddf6481bde94826U, 0xbd971a043d559ac8U, 0x3e543d083e1a87ceU, 0xbdc2f29a3ce8e779U,
  0xbe82eed2be9f973cU, 0xbdb1c10fbe233067U, 0x3e42c85ebd2fb587U, 0xbe137d97bcab15f2U,
  0xbed02487be907280U, 0x3b85625ebe641922U, 0x3c1bab573e3e63bdU, 0xbd48159dbe518810U,
  0x3c2f34a63da037d4U, 0xbc2b7cfcbda18f6bU, 0xbcbd53a9bd2fee07U, 0x3cf278983d0d8d70U,
  0xbd8243ccbd245d5dU, 0xbe79f4b1bdfe461eU, 0xbe71f0b3be677f90U, 0xbe3a895c3cc6bd39U,
  0x3e5d91583de2b3a1U, 0xbe1b72793d37b1efU, 0xbe10c455be301112U, 0x3cc0e0e5be1b00b4U,
  0xbdc4db343e4647fdU, 0x3beca280bcc45f3fU, 0xbce52f843d941089U, 0xbe47589ebe3be7e1U,
  0x3d557c0fbe0232c1U, 0x3d9e89033dcb41ddU, 0xbca89d7e3da18bf7U, 0xbdfec238bdd594b4U,
  0xbde1d801be0bc567U, 0xbe0c91e7bd39c0c2U, 0x3e4c07983e13d77bU, 0x3cf763763e1556bdU,
  0xbe3c6924bde6549aU, 0x3cfc9106bd7a8f5bU, 0xbe2352bbbb048a95U, 0x3cc51bdc3b703c61U,
  0x3d980ba3bd8dff51U, 0xbe018468bb846ba3U, 0x3da3b47cbba26519U, 0x3e2b140fbcbfe5faU,
  0x3d89ff553e3623adU, 0xbe57225a3d316afdU, 0xbe09eecabe013be8U, 0x3c85df2c3bfe73b3U,
  0x3e1ae6293d2d843fU, 0xbd9f00203e3c7878U, 0xbe57acb63ba0e1d9U, 0x3e3c2daebd301908U,
  0x3d0e9b163ab44d1fU, 0x3b4d7660bd36674fU, 0xbd87ba1d3cd0c9a4U, 0xbc896436bd8b5070U,
  0xbe4ba714be24049dU, 0xbc944c0cbe597ea5U, 0xbd7a70cdbd13a24dU, 0xbde80268be02e4e9U,
  0x3bdb7acdbdf50af3U, 0xbc1363143d705126U, 0x3e1e2d143db40119U, 0x3d2afe973e301984U,
  0xbd2a5202bd351b42U, 0x3e5cb6723dbc35ffU, 0xbdb913c43dc9b034U, 0xbd36b98fbd73ec1cU,
  0x3b6c44e0bcda2042U, 0xbd226e7dbd353b2aU, 0xbe02f5f93cc02a35U, 0x3d62845bbdb88bc9U,
  0x3d434e02be1356b7U, 0x3d2ea0223e4916a7U, 0x3d11abcb3cb28f2bU, 0x3e4555563ebd2950U,
  0x3e84af5f3e024472U, 0xbdd656fa3e49c3d4U, 0x3cfe3647baa80310U, 0xbd1127d43da2eb15U,
  0xbb2a91cd3d561ffeU, 0x3d1faad4bd49883bU, 0x3c9b08bc3da26541U, 0x3b7442e0bd1455a9U,
  0xbdde8013bdd47e3cU, 0xbdfc04723bb441bcU, 0x3d63a4aebda6c62bU, 0x3dbfc8a43d9802c1U,
  0x3da077423dc360e5U, 0x3e2004063e87b3fbU, 0xbc8e374f3df44500U, 0x3ddddc383e1696b0U,
  0xbd211d72bbfa4e51U, 0xbd67ba0abc0f78a0U, 0xbd786fa33d39354aU, 0x3d0641c6bc76d670U,
  0x3c6a7018bcccc248U, 0xbd7fac10bd66f0e8U, 0xbd9f37c13d071ae2U, 0x3d98f7cd3c9f222cU,
  0x3bfb50e0bd0732dfU, 0x3cfae1f8bd4de8f0U, 0xbc9ed6fc3cc5239cU, 0x3d5e24363d53f952U,
  0x3d11e274bcd66f0aU, 0xbd11d4523d64070eU, 0x3d883a793d080bf2U, 0xbc9dda68bcee6462U,
  0x3d094b60bd7b1203U, 0x3cc500bc3d9887fbU, 0x3d0aa6743d6d846aU, 0xbca416103d3e3f36U,
  0xbd4ccf96bd666e70U, 0xbd6541a33d968494U, 0x3d7b6aab3d5cf4f8U, 0xbadef866bce3a540U,
  0x3be1e1a03d903525U, 0xbd355e4ebd4b64b3U, 0xbcdc5ff2bd241c42U, 0x3d4475b63d2bde38U,
  0x3cffa53cbd9ffee6U, 0x3d5890eabd9223eeU, 0xbce12a623c828a60U, 0x3bcfcd20bd2468cbU,
  0xbd1fa565bcee4b48U, 0x3d35e9103d7f3f9eU, 0xbbb0bdc6bd23438cU, 0x3e45e5fc3a6cebd0U,
  0x3e50eb093e4df07dU, 0x3db887a83e0993b0U, 0xbd73a81a3c54b06bU, 0xbdf58faebbff0ccaU,
  0xbcdbfdfabd26cc61U, 0xbdb2b470bd3c7fe2U, 0xbc083fffbce1d5c1U, 0x3d1f61a0bad9ed40U,
  0xbcb6aa46bda2646cU, 0xbd9f90ea3ca532a4U, 0xbd5ab39a3cb094dcU, 0xbb2637c23d21fc12U,
  0x3d963d243c92c994U, 0x3d69d2ab3dbdccfeU, 0x3e924dfb3de043a4U, 0x3de0ef493e39d198U,
  0xbdf47de2bd267be5U, 0xbdf8e947be13322aU, 0xbe3657d0be26466dU, 0xbe61ee65be03c553U,
  0xbe3b66e7bea4f920U, 0xbd0abc9d3c97fbdaU, 0xbd0a22df3d89524dU, 0x3d2cbb923bc8c590U,
  0x3b78a4203da00fabU, 0x3b9feddfbd7dfb6bU, 0xbd9110b23e4033d3U, 0x3d886a34be0a70b1U,
  0x3defad933dbeb7aaU, 0xbe235a833b8101f1U, 0xbe9af3dfbe6aef24U, 0xbdbe1e4cbdf6a593U,
  0xbe07ab48be1c4ca4U, 0xbc60410cbe419f0fU, 0x3c25d0643d99f46bU, 0xbde31b283d8bd2cbU,
  0x3cd35a60bde9232bU, 0xbcca915cbd5d3d91U, 0xbd5c72703ccfe380U, 0x3c8749873d8c4eb9U,
  0x3e5e78363d88612aU, 0x3d629ffa3e31fdd6U, 0x3d6ed2b33e36449fU, 0x3cb5fe5abd302a15U,
  0xbd24f906bd6805f6U, 0xbd6a7682bd963ac7U, 0xbd6e514ebe0ee035U, 0x3d6b4920bc3ef564U,
  0x3ca0feae3dfc00c8U, 0xbe1a9b2cbdd9d862U, 0xbc97c4e2bdaa9e90U, 0x3d50f08cbdbd873dU,
  0xbd32bbebbcd7adf8U, 0x3e58f49f3db23897U, 0x3e39232c3de48f9bU, 0x3d50925bbdb835eeU,
  0xbd0e6dd53e20ae96U, 0x3cadf25c3d873314U, 0xbc1470163e444ae4U, 0xbd9af1113d0e272bU,
  0x3d114fd5be115fafU, 0xbd2a65ccbcdbd6c9U, 0x3dc75377bd4bb864U, 0x3d7b75263e02d2ddU,
  0xbe4ea0c7bda1e5ebU, 0x3d2cb5e8bde0c354U, 0x3e121495bb760cecU, 0x3ed1c5c03d95d3f4U,
  0x39669a1c3dbb1819U, 0x3c182cd5bdbb805eU, 0x3e2335f0bd1024a5U, 0x3db86c013e0e2864U,
  0xbc5512b33bdf388bU, 0xbd88bf73be156828U, 0x3d77a31abe067231U, 0xbb8963cf3c5b64caU,
  0x3de40138bc396647U, 0xbde908d93d1aa774U, 0xbdf37f10be53d3fdU, 0xbcfb7060bc99e2d0U,
  0x3e377c80bb698073U, 0xbd51f6013dbe83d3U, 0x3c3e713a3ccca719U, 0x3d8da527bde83172U,
  0x3de584563ccaabf0U, 0x3d3ce9d83e014b16U, 0x3d0e75c13bf71c52U, 0x3d1005f33cfc7ac0U,
  0x3d8f8d6e3a84798cU, 0x3c2758c83d453135U, 0x3c29a93cbac7d504U, 0x3d10a2a03c6d3b57U,
  0xbdb90cb8bd8abce2U, 0x3d325a743c331145U, 0x3e4b17153e1d078aU, 0xbe121155bc57503eU,
  0x3d9d28ec3e381ae9U, 0x3dd4cd443d8f4f4bU, 0x3d14ced5bd2982a4U, 0xbb96f96f3bb146e3U,
  0xbcf18b503e0e38f8U, 0x3c9f572d3dcb5546U, 0xb8a82642bd208ebdU, 0x3d7e2c083e02c8e7U,
  0x3da26ea83dee193fU, 0x3dd512093e02638dU, 0xbc7dbfe6bd381a84U, 0xbdd4ad16bbcfb78dU,
  0x3e4783ac3d502b6dU, 0xbdcc4a69bd374a5aU, 0x3d56ee8e3e647e57U, 0xbbc86cd33cfeda97U,
  0x3d73f873bd245026U, 0x3de0b7b43dd9665cU, 0x3dee95e63e021b62U, 0xbd81f093bdb9fcb8U,
  0x3dba2734bd072c52U, 0x3e1cd16c3d3ca66bU, 0x3de33ef73e1aaff6U, 0x3e0def753dd191dfU,
  0x3ca869d73e09eaeeU, 0xbd219cfe3d663004U, 0x3df2ece93d361298U, 0x3e088d533db7eae0U,
  0x3e6acfc73da796ddU, 0x3d26edd73d2f25c3U, 0x3daafb9ebcf9698aU, 0x3e6862613df0ce10U,
  0xbde6c3933deb7a59U, 0xbe5ec4dfbec20561U, 0x3db41c5fbc864bbeU, 0x3e0c5a5d3e0924b4U,
  0xbd9379b83d684de9U, 0x3d2d4e3c3c99fc1aU, 0x3e182dea3e39d113U, 0x3d29aeb13d02095dU,
  0x3e2c62953cf39003U, 0x3df1a72bbd2797b4U, 0x3db393f4bb8d358fU, 0x3d8fd6bcbc900d6aU,
  0x3dca4cf83da91425U, 0x3e17cc563d8a54e8U, 0xbeefe7d63da33da0U, 0xbe11a59bbf0ab74fU,
  0x3c3b43d63a313030U, 0xbd10adb03c2d3145U, 0xbe346deabdbcd7f8U, 0xbd7118b33cc3010dU,
  0x3c244e753d7deee6U, 0xbddb66753d9c8564U, 0x3d88f8553d38ef92U, 0x3d114cf43e91d735U,
  0x3db3c372be1946c0U, 0xbcb475b9bd1a95feU, 0x3ddc8a8e3e0a0c94U, 0x3df229aa3e2608ceU,
  0xbf1d8237be581f0aU, 0xbddf67acbf1ba032U, 0x3dccb189bca4a70dU, 0xbe801d49bda191bbU,
  0xbdea7d4cbdb2ab48U, 0x3d492917be1cedfbU, 0xbde734963d6523d4U, 0xbdb6df5b3cefc97aU,
  0x3d291f0d3d821163U, 0x3e67e0363e371502U, 0x3db0f4bbbd928548U, 0x3d8536a33d541527U,
  0x3de8e29e3dd8054fU, 0xb9ceec183e22018bU, 0xbf6b3bc8bf06d3b4U, 0x3c623e21bedd0de8U,
  0x3d44d2a1bd4e7393U, 0xbdcc5cc4bae10ca7U, 0xbe1be996be2283abU, 0x3d520087bd2f0a10U,
  0xbdf9287dbe05a23cU, 0xbd8add7abd12023bU, 0xbd4e1c3e3d5df790U, 0x3e1128593de5e3fbU,
  0x3d735a2fbd7a2882U, 0x3ca91de83c024a57U, 0x3be9fb053cfcb540U, 0xbe2bee3dbcb13ddcU,
  0xbf0c1da1bf214a37U, 0xbdc204cabe76a879U, 0xbd50242abd67157bU, 0xbe21e301bd6a3f57U,
  0xbdfb09f9be042ea4U, 0x3de690283da5bec5U, 0xbd10a2f8be06ace1U, 0x3dbf1c7e3c4cedd1U,
  0xbd8aec693db17b3fU, 0x3dfb4dc23e026e30U, 0xbd7d6ed6bd29c6aeU, 0xbc817e9abd3e1822U,
  0x3a89082ebbe5fdacU, 0xbee9748dbe2c35c2U, 0xbe5bba55bee42be9U, 0x3b02379abda6f0a4U,
  0xbbe2d8723c225354U, 0x3db7a904bdac8b7cU, 0x3da1e66dbe4de130U, 0x3e222e723e249d1fU,
  0xbe17f1ecbd551123U, 0x3d72af973d8df3c0U, 0xbd1f0c933d0fdf8aU, 0xbe1132b23dea337aU,
  0x3c017f12bd50c8b5U, 0xbe418167be8913e2U, 0xbe54bb87be3fb6d1U, 0xbebcd0edbec76845U,
  0xbdfd4985be791f00U, 0x3d173ba23cc87b01U, 0x3dc4e738bcd54e7dU, 0x3cc2cc253da5677fU,
  0xbd15b6f23d8b0fe7U, 0x3db032693d26b31bU, 0x3dae0779bca7c231U, 0x3e01e57b3e043ad7U,
  0xbd0ab4a13d95e364U, 0xbe5544363e0e5387U, 0xbdb0540cbd0663c3U, 0xbe99cbcebe8f6c0bU,
  0xbeaaa55cbe5c72d0U, 0xbe6494b7beccd75bU, 0x3d5c52ccbd938511U, 0x3db6e5463d16509bU,
  0x3c8f4e363d637a81U, 0xbd6326fe3de55603U, 0x3e035acebdc9023cU, 0x3c7e15823e13b8b7U,
  0x3db3f6bfbc695dacU, 0x3e1dbe1b3dc271e5U, 0x3e3a4a41bd730c64U, 0xbe0d994f3de080e3U,
  0xbe4acd37be3b32d8U, 0xbe9fdf13be874a94U, 0xbe56d045be851df6U, 0xbc3174f5be410210U,
  0xbdf6fb8cbd14c79dU, 0x3d66daa33dfa03c1U, 0xbc90e429bdc287beU, 0xbb6dd6e23b8116f5U,
  0x3d2061dd3ca438efU, 0x3ca688acbd0ecff7U, 0x3e8def723d611645U, 0x3c0c30f83e1087efU,
  0xba110b483d3a63e2U, 0xbe1de7103d932cf2U, 0xbe1f2d60be96cbb7U, 0xbdd2edafbd0f48edU,
