/**
  ******************************************************************************
  * @file    unet_fp32_data_params.c
  * @author  AST Embedded Analytics Research Platform
  * @date    2026-04-11T12:59:29+0200
  * @brief   AI Tool Automatic Code Generator for Embedded NN computing
  ******************************************************************************
  * Copyright (c) 2026 STMicroelectronics.
  * All rights reserved.
  *
  * This software is licensed under terms that can be found in the LICENSE file
  * in the root directory of this software component.
  * If no LICENSE file comes with this software, it is provided AS-IS.
  ******************************************************************************
  */

#include "unet_fp32_data_params.h"


/**  Activations Section  ****************************************************/
ai_handle g_unet_fp32_activations_table[1 + 2] = {
  AI_HANDLE_PTR(AI_MAGIC_MARKER),
  AI_HANDLE_PTR(NULL),
  AI_HANDLE_PTR(AI_MAGIC_MARKER),
};




/**  Weights Section  ********************************************************/
AI_ALIGNED(32)
const ai_u64 s_unet_fp32_weights_array_u64[26569] = {
  0xbb8facd5bc5ce356U, 0xbe2014e8bd8b4fe0U, 0xbe35706b3e3730ffU, 0xbdd6f8d8bdaf3f69U,
  0x3cc37afc3e0095e4U, 0x3e1127cdbdd157a0U, 0x3c9660c63cba63b6U, 0x3db248993e5a2273U,
  0xbe2519413d96acffU, 0x3e1e0a183ca17744U, 0x3b9df8233bf91cf7U, 0x3e586274bdcaf37cU,
  0x3df8629cbdfdc9aeU, 0x3e28682bbe15f1feU, 0xbd2d446cbdf31746U, 0xbe2a41343db6a452U,
  0xbe2ffa1c3d086a8cU, 0x3d1327913d1557a3U, 0xbe0091ad3e3c4a2cU, 0xbcfc233f3bef2183U,
  0xbd13ae2abd56ba45U, 0xbdc1b3b83e00b44eU, 0x3e40b48bbdd2d6d7U, 0x3e0fb705bd5e46f2U,
  0xbd3073dd3e2d9977U, 0x3e073a443cbce4ccU, 0xbe23af08be185da1U, 0xbdfc7f21bddef848U,
  0x3dda21a93e129838U, 0xbcdb5b16bd95538aU, 0x3e3ca8cdbe1755edU, 0xbde2be21bda6a7b9U,
  0xbd47f3de3dccb21bU, 0x3de90bb9bdffcdafU, 0x3cb1bfca3dd46d5dU, 0xbe39369a3d6c44ceU,
  0x3d6e4f083e0d3a70U, 0x3e2f352bbe519329U, 0xbd156b8cbd69468bU, 0xbc8c4328bda14733U,
  0xbdbce64d3da4ba30U, 0xbd07b4b0bd3768ecU, 0x3c43615ebd69839eU, 0x3df36648bd44320cU,
  0xbc189c6fbc0b22f4U, 0xbc192299bd850f98U, 0x3ded62833df94b4fU, 0x3daa28de3d31bb27U,
  0xbd805241be2abaaaU, 0x3d93c5ea3d5a52d4U, 0xbd93b78ebbb92802U, 0xbe058748be439065U,
  0xbda2b44d3cbe4bbaU, 0xbd090a4fbe20dd1cU, 0xbdea9a753c7b558aU, 0x3d89e753bda09b4aU,
  0x3de74fd9be230065U, 0xbe44714bbcb66df7U, 0xbddc60b8bd0854deU, 0xbd969e46bd80ce0aU,
  0x3c7abccfbae61599U, 0xbe22cb583e070608U, 0xbd63055f3bdda533U, 0x3e33c619bd98ddfdU,
  0xbc3227c63deb11baU, 0x3cfdc9c23dbaf1dfU, 0x3e3a8438bd599ed6U, 0x3cf43c6abd9b6a91U,
  0xbad09aa83d2bd6e0U, 0x3e2f4025be1301deU, 0x3e15b8633e57e730U, 0x3d09561e3d8594f0U,
  0x3b82c5f9b8f50b7eU, 0xbc216e6bbc3c5f17U, 0xbbcc684f3c089291U, 0xbb69f2b03ad5d435U,
  0x3a868f513c19b44eU, 0xbb9450b9bbbac66aU, 0x3b6e6c283b0e5f97U, 0x3ae0a3dcbb9d2a05U,
  0x41393da141fda22aU, 0x41f4b2294193d4dfU, 0x414fddf941f3c37bU, 0x41f0760941f52552U,
  0x41ff09ba41bed07dU, 0x41fcc0d841a3920fU, 0x41ffb33341fb2b7bU, 0x40e6020b411fdf3dU,
  0xbfd489623c77f482U, 0xbc99dad0bf87b587U, 0xbfb07c92bd75202bU, 0xbd20878ebcff9832U,
  0x3c8d0e4fbf5c5adbU, 0xbcba9a80bf7b8eb9U, 0x3c8273923c94fc19U, 0xbfe1d2b2bfd3a04aU,
  0x3d88cb68bd6c64acU, 0xbc1903293d8be462U, 0x3d8d92f43d46864cU, 0xbd6578fe3d4b9c4eU,
  0xbd8292b33dd45f58U, 0x3df222bdbdcc91caU, 0x3dc428dd3db1f80eU, 0x3d60948d3c8912efU,
  0xbdfc8cad3e03cd6dU, 0x3dc6f3f73e0f9533U, 0x3db42ec43d033a55U, 0x3d51bd643dcc13f0U,
  0x3c71cab3bd967aacU, 0x3c299f15bc921469U, 0x3d9179c8bd5c4a03U, 0x3db01a2cbc9b7e58U,
  0xbe01d15f3d11dbbfU, 0xbe1a0d143dd39720U, 0x3d7082b0bd65d314U, 0x3da318593e00507fU,
  0xbd46acca3c8088f9U, 0x3daf2be9bd8ce42dU, 0xbc2b4e5cbd23383cU, 0xbc8ded833decafb9U,
  0x3e07c92cbd20fc10U, 0x3dc5462e3d3cea45U, 0x3d56fcd93dc8c10bU, 0xbdbba10dbe0374dbU,
  0x3deb7e21bd931343U, 0x3df23a173ba6f8b9U, 0x3ded19823da13a8dU, 0xbdabf9613da832b3U,
  0x3c0971353e18af0bU, 0xbd349a783d90e877U, 0x3d9dfd873d5a412bU, 0x3dafed643cb2bb67U,
  0x3dd83353bbab5ca1U, 0x3dc167a53dfd3b97U, 0xbdbc4685bdcb827eU, 0x3d7de65abb5bda75U,
  0xbd8ad9ffbdb96cffU, 0x3d652682bc3d3615U, 0x3d6511ddbdc5b9b0U, 0x3c63cbe13d2e0372U,
  0x3dc0d1fb3c571b95U, 0x3d64f20ebda49e1cU, 0x3e1ba4ba3da431b9U, 0x3d427106bcb3708bU,
  0x3e05c424bda2b667U, 0xbcb78b85bda842deU, 0x3e018746bcb04e1eU, 0x3d712dfabdf34b47U,
  0x3db6244f3dc76bd0U, 0xbd1571003d3f4da7U, 0x3c8a168c3d13f3a8U, 0x3db85400bd289d1cU,
  0x3df6c3963d31fcc1U, 0x3cc41a9b3b9a0eeaU, 0xbd747f7e3e134372U, 0xbce323a1bdf06226U,
  0x3e1f377d3b34a4eeU, 0x3d6d9fa2be14af22U, 0xbd5c6bbcbdfcb4ebU, 0x3c92e2b23dac3f8aU,
  0xbd3f73b43d7d7968U, 0xbc8d106e3d8b8b51U, 0xbdd0081cbdb2e2c2U, 0xbdedb5143db4b5c7U,
  0xbdab31fb3d101c02U, 0x3d8b3eabbd56780eU, 0x3ddf3737be09691fU, 0x3d4b4e973b316ce7U,
  0xbbf2c3e5bdf0ca9fU, 0xbd900b39bc6f951aU, 0xbda21bf1bd85959fU, 0xbd15ca41bd5a7679U,
  0x3dda4ef43e0ad181U, 0x3d701d6ebc8f87b5U, 0xbe19788d3d8ef7f0U, 0x3c69741bbd98845bU,
  0xbe1096b93dc472d8U, 0xbe1959993d839c6cU, 0x3cedfee33e09d77bU, 0x3dc86207bdf94d69U,
  0xbde79725bdce2fd4U, 0xbd9741193d0e5e5bU, 0xbd9d97943d3da7dfU, 0x3d751b40be02501fU,
  0xbda12f123d81223eU, 0xbcfb36113d3b9355U, 0xbdf3bd6bbd8ce888U, 0x3da853aa3d3ae67cU,
  0xbd7f38723dc24ef3U, 0xbe0ce9e73bda5af9U, 0x3ddf5e40bd705debU, 0xbdd61f1ebe0adb71U,
  0xbccbee81be05c8f9U, 0xbd8d678bbe1c24dbU, 0x3ddc57023ca2b8e2U, 0x3db7e9e23dc7ea2eU,
  0xbda8b97d3db46ec3U, 0xbc19af6a3db8cfc6U, 0xbdd04d3fbc834250U, 0x3d6818c2be0cd9bbU,
  0x3dbd1bab3d0a4135U, 0xbddd893fbdac0952U, 0x3a9f09323d9a719cU, 0xbba00e05bc96d7deU,
  0xbe11768dbd5aec51U, 0x3e17733abda5b621U, 0x3db6ea49bd939d26U, 0xbdae021d3da98444U,
  0xbd13f2d03d1de539U, 0xbdcdc38ebda73295U, 0xbd03b5953d9ea62eU, 0xbe125d163e0018f4U,
  0xbd7e6c073cbd8ef6U, 0x3c0fc1203d9d5c0aU, 0x3d35d1543db49630U, 0x3c83a67abdd87acbU,
  0xbd8b2304be0ba3a4U, 0x3d71e70dbdf987feU, 0xbd0791903dd8509aU, 0xbc9662ea3d80df7fU,
  0xbd102bf33dbd407aU, 0xbdeb1a60bcd308b8U, 0xbd5017e53dbc2026U, 0xbe0b7871bdc2bb4aU,
  0x3c7dae99be0d4d47U, 0x3daebec13bee58d8U, 0x3dbd96fe3daf82dbU, 0xbda9ff60bd29d1f3U,
  0x3cea5d89bdc87f3fU, 0x3dcc287dbcd59227U, 0xbd0cdcba3e0a67ffU, 0xbd8c7b4abd5db22bU,
  0x3bee668b3d5a861cU, 0x3dcf7d173df31bc8U, 0x3d234be63bc9f607U, 0xbde6a3d9bdbd07bfU,
  0xbe0ec6e0bda3de01U, 0xbd53b788bdbfc3dbU, 0x3d75373ebd1b27ffU, 0xbe18cdffbe09f3b4U,
  0xbdff12133db2ede7U, 0xbd3940003d4391b3U, 0xbde91ad0bddf765fU, 0xbe0b4bf6bdbed7bfU,
  0xbc557f893e00a15fU, 0xbda9c7d1bd794a5aU, 0x3d99a8843dc99a2cU, 0xbdd68cfabd931d2aU,
  0xbde5d7a1bcdbc2efU, 0x3e07cb273defeb50U, 0xbda716c7bd72d051U, 0xbdd88fb2bbf4bd1aU,
  0xbe0cf2d0bdd6c965U, 0xbe0b55673e0023b4U, 0x3d3028663d9680b5U, 0xbd562cef3d8c54c0U,
  0xbdba32233d15fa15U, 0xbda90d333b0b138cU, 0x3d8b351ebd48fd7eU, 0xbdd482acbdebc95cU,
  0xbe036ed4bdc6c242U, 0x3d1a1db13d0d9916U, 0x3da8a12e3dce7b5dU, 0xbd0c6a5f3d4845c9U,
  0x3d29f5cfbdd41209U, 0xbe0dc2a5bc08fff9U, 0xbda5003ebd0feb81U, 0x3d862ec83da73676U,
  0xbd1667513dafcf3fU, 0xbb9d4e40bcf1e069U, 0xbd068fd93c8cb00fU, 0xbda0e9dcbdc5c4bdU,
  0x3e0321abbdb97c8eU, 0xbccc62053d8e4c3fU, 0x3dfc767abccdfacdU, 0x3d38422b3c345a1aU,
  0xbe093925be098ffcU, 0x3db0ec8a3df182ebU, 0xbc06a304bde82cc8U, 0xbbaafdafbddaca44U,
  0xbd29b51abc46a4f7U, 0x3cddecf63d58e29eU, 0xbd6916c83d132e22U, 0xbd67568b3b8418b8U,
  0xbdbdc5a5bc35b21cU, 0xbda353233d7d90bdU, 0x3cdb094ebda76a6bU, 0xbc77be173d8c9ab8U,
  0xbd4abdbabdb94a03U, 0xbe186ebe3e0d2627U, 0x3da5680ebccea351U, 0xbb8b1cacbd58ea6dU,
  0x3d9ee6c73b0e43a6U, 0x3d0f47b5bdf3cf5eU, 0x3cd8efbb3dfbd781U, 0x3e0fc3273df836d9U,
  0xbd40207a3e03491bU, 0x3dcc18e2be13b99bU, 0xbd1a6f3dbd42210dU, 0xbd9eeaddbe064193U,
  0x3d6d4aad3dd6f37fU, 0x3cf35148be29a4acU, 0x3bbaeedabd630feeU, 0x3de0900a3d857c0fU,
  0xbdf0a19abd887824U, 0xbdc7bfdc3e05490cU, 0xbd09f9363ddf79abU, 0xbda146b5bde3807dU,
  0x3ddb13443dd5eb17U, 0x3e09f900bdc3a732U, 0x3df3f6863dab04f1U, 0xbe1ecc87be0aaf80U,
  0xbe044a67bdcf66cdU, 0xbdccdcca3de0c1e8U, 0xbc6614453e2596b9U, 0xbdebcb9f3d253801U,
  0xbdf3929cbdc95b5aU, 0xbe0058913d329bf6U, 0x3df7e674bd1fe63bU, 0xbe1baa34bcc1974fU,
  0xbd2683a53dfa497eU, 0x3dfa863a3caa6da2U, 0xbba25c223d756ab7U, 0xbce4e6b63dd00f9cU,
  0xbc072502bddcae9bU, 0xbd576af5bd147ad8U, 0x3dc706febe02a605U, 0xbcccc5563df68039U,
  0xbcefad343cf58ba8U, 0x3de2aebd3dd6635eU, 0xbd3653c7bdc43b08U, 0x3d9c8de8bcf96b2bU,
  0x3d8cf74cbd4a7bcfU, 0xbd148f7dbdea3b3cU, 0x3c93301cbd7887f6U, 0xbdc45ae83d5f1a01U,
  0x3a31bf18bd8e81adU, 0xbde900c8bc675749U, 0xbcdd66fb3e1360c8U, 0xbd8c74bbbe0041c5U,
  0xbdb4d29fbdb71e41U, 0xbd8ea4a93dda51ddU, 0xbe0fa8e7be065967U, 0xbd6424ae3ce401daU,
  0xbd4911bfbd4528e8U, 0x3dae5c05bde2905fU, 0x3cb22a713d90c738U, 0xbd323873bdd4148fU,
  0x3d91b82dbcac1b3eU, 0x3df2978b3dfba98dU, 0xbde8cf493df23752U, 0x3dd6a5ebbd9bc455U,
  0x3cf30559be023dbeU, 0x3cc2cd413dec2aa2U, 0xbd48b24fbdc8b436U, 0xbb6253f5bc5af87eU,
  0x3b13325ebc9100e2U, 0x3d268a923e02d218U, 0x3dfbf709bdf68061U, 0x3e230a513d911bbaU,
  0x3b3188d2be1f196eU, 0x3de333c4bca61098U, 0xbde42cc6bc8d6123U, 0xbc98be11be2e39c8U,
  0x3e1731023daebd90U, 0xbd08d1593da253fdU, 0x3dcb501e3db58ad3U, 0xbe06b5873d710ad3U,
  0xbdc9f5a83c2e978eU, 0x3dc27ceebdbcf85fU, 0xbdbdb9b0bd4f11dfU, 0xbd5f761d3dc36b20U,
  0x3e247a62bdd29c59U, 0xbe2023df3d1907e0U, 0xbd356ed03dc6d0ebU, 0x3d4b56653dfb7c28U,
  0x3d913852bd4e8c18U, 0xbe0fcce33d44b186U, 0xbd51c5783dc9a925U, 0xbd1a05f7bb583d1cU,
  0x3d88e7af3c74077cU, 0x3d2b85663e1881a2U, 0x3d925230bc5a16e0U, 0x3d881500bca29f35U,
  0xbdbe0badbc1d4a0dU, 0xbdccf6fbbdff8065U, 0x3d4ec59c3ce605cbU, 0xbcd9748fbcf85e28U,
  0x3c22576d3ddc602cU, 0xbdcc3ebfbde9faedU, 0x3d00d2e13de336bbU, 0x3e09a271bc8b20acU,
  0xbb86d7a33d376c34U, 0xbe1fd96cbd221313U, 0xbc70efa6be2418a0U, 0x3d9de40cbce6a52cU,
  0x3deb29e6bd1bccebU, 0x3ddf6a70bce259dfU, 0xbd1236ed3e096e82U, 0xbdd677ef3c8682a7U,
  0x3df669093d2cbb52U, 0x3dbc3039bd7c934fU, 0xbcbed7163d3fdea4U, 0x3d3079f0be2a5e30U,
  0x3d45573f3dc35a3eU, 0xbda90fdd3d73e34bU, 0x3ddc5cd8bdaafcfbU, 0xbd7bd9193df95da7U,
  0x3dd3e9f53e1ebfd2U, 0xbd437bbd3da984e6U, 0x3dab1906be0e8ebeU, 0x3d72a3973d939a3bU,
  0xbde3b08ebe0decfbU, 0x3cbf36223cf93682U, 0x3d45300f3e2261fcU, 0xbd20f3cc3d356f09U,
  0xbdfc74efbd871162U, 0xbdaf14e6bd9adde9U, 0x3d0f94a33d4fc275U, 0x3d3b4e783de5a2caU,
  0x3d2473113e2716d1U, 0xbd9598dc3d16ddffU, 0x3d19af13bd0c96e5U, 0x3d92d1af3d72bff8U,
  0xbe04d65dbdc7b639U, 0xbd95f459bd6e1f19U, 0xbd9d61febd95155bU, 0x3cb63ff3bd6e9a16U,
  0xbd25b0433dd0c6bdU, 0xbdd1c8b13c8ab877U, 0x3e033e67bd78d289U, 0x3d7593b2bdcd5023U,
  0x3d93933cbc262637U, 0xbbe835a53c59329bU, 0xbd90c17a3de49359U, 0xbd7b237a3c7bf2eeU,
  0x3dedbe65bd2a3913U, 0xbc607609bdc8c7d9U, 0xbd8848a73daed1c0U, 0x3e10a66c3d37a218U,
  0x3bffa92e3e0c5ae3U, 0x3adefdc8bd46cc4aU, 0x3d8c8d113db6c641U, 0x3c907ababe164be8U,
  0x3cc9a9463db1e2aeU, 0x3d9e28cfbd51ff2bU, 0xbc86896e3dc9db58U, 0x3ddf30793defdf56U,
  0x3cf31bda3dbc6cc1U, 0xbdb786dabc949b01U, 0xbe00e0753cef3dbaU, 0x3dc938263dc99832U,
  0xbd2428b13d556e76U, 0xbc948452bdc07e42U, 0xbd9f61bfbde68137U, 0xbda2a0febdaa7ca1U,
  0xbd0a82b03df65a4bU, 0x3e1f04893debcee4U, 0xbb0b09303da7a3d6U, 0x3cb7f412bd03e74fU,
  0x3def6d6dbd541d67U, 0x3c3cb08dbdea1374U, 0xbdea4409bc2be718U, 0x3d109b543c7630d8U,
  0x3d5237a73dcc48c8U, 0x3d7b1cf13d98d467U, 0xbdc2b0bcbd008bbeU, 0xbdcaec843d641974U,
  0xbd287a3dbd46034bU, 0xbc30ee8f3e1e1a3cU, 0x3df5e4733d9c2671U, 0x3e13b4133dbde84bU,
  0x3e1773673cbb04d0U, 0x3c0331bbbc0ed304U, 0x3d28b649bd48940aU, 0x3d99cc74bd9054e0U,
  0xbe076affbdaabca7U, 0x3d807ef43e00d23dU, 0xbd8bc1fcbd6c1a62U, 0xbdeb189b3d5e9aa6U,
  0x3d1855703d5ec887U, 0xbd9294e93c2f3978U, 0x3d573436bdefb9b6U, 0x3dd29831bc1edb15U,
  0x3d7214debd288c16U, 0xbdf2b5c53d1d1274U, 0xbd98b4cebde4dad7U, 0xbd82c653bd9c3c8eU,
  0xbd29a8643c32b42eU, 0x3e06f152bcf8eba7U, 0xbdfc93f63dacaa92U, 0xbdcc0e083d3b3e2dU,
  0xbe0f6958bdf2ed8eU, 0xbcda09dabde25572U, 0xbdf9ea373c924cafU, 0xbd47488fbe0c99a2U,
  0x3ddfa9a8bbd08e18U, 0xbd521d0a3dbd4c22U, 0x3da9ba723df1de8cU, 0xbdd96bbabc2fcba9U,
  0xbc027cbd3d7babbeU, 0x3d39e8083dc3b422U, 0x3db344473c0019f4U, 0xbe0cda15bc7c5439U,
  0xbe1daec73da3028dU, 0xbdc3f8eb3d16a495U, 0x3d257028bcc688f7U, 0xbd5f1accbd648f38U,
  0x3d127d52bd59048dU, 0xbd91da27bddec1c3U, 0xbda42550bd93d59fU, 0xbd9620123c953ca2U,
  0x3dbd33643cde8952U, 0xbdb5bcffbe0efb8bU, 0x3da8071dbd908a1bU, 0xbdbf39afbd9f1b90U,
  0x3dd6645dbe156ad8U, 0xbd066920bc8dc089U, 0xbe0402d8bd9087d3U, 0x3e05a53d3cb53fc7U,
  0xbd3422b3bd785c98U, 0x3dbef1313da0976aU, 0x3de52a0bbd892135U, 0x3bf15d4b3dad255cU,
  0x3d07dd87bde954f5U, 0x3d9c20f13dc8d206U, 0xbd84d50ebe23f009U, 0x3e0cb0c73c9128d6U,
  0x3de162d2be209696U, 0x3c5652c4bd2bd5b2U, 0x3db3125ebe06a8a1U, 0x3d07dcb43d2b39aaU,
  0x3d3ee23ebdca617cU, 0x3da5752fbd4eb9d0U, 0xbe19848cbd216414U, 0xbe101ce1bda5830fU,
  0x3ddbff2b3d7fcfbeU, 0xbc189726bdb45871U, 0x3d0c54e53dd38f0fU, 0x3d8459ab3cc60abdU,
  0x3d31c4583db50cbaU, 0x3dff07ec3e1043fcU, 0xbdd18f343d8ebcf5U, 0x3d4769673db234d5U,
  0x3df3caf13dfea129U, 0x3d8329bf3de6b674U, 0x3dd639bcbb876a4fU, 0x3e0914493dce98e9U,
  0x3d11a615be17698cU, 0xbdb85d2bbd35eda3U, 0xbe0ab631bc6291ecU, 0x3dd6ca85bd1deb43U,
  0xbdde5ba43d66d79dU, 0xbc0008113ae9c89cU, 0x3de8012bbd3cc4b5U, 0xbe1b562ebdbc3b6dU,
  0xbde74e3c3b826842U, 0xbdd6cdc4be33f171U, 0xbdd954363ddce6cdU, 0xbd7b9c28bd21852fU,
  0x3dd1db7ebd918278U, 0xbdb8e45dbcecbf19U, 0x3db868d8bd5b9a32U, 0x3cdbb966bd8d1f19U,
  0xbd8aca093dc6c152U, 0x3deec7923c6648a5U, 0x3db1b407bd65c6d3U, 0x3c9313e1bd700521U,
  0x3a834fdb3d41979dU, 0x3e088573bdfd497dU, 0xbd9485debda089f0U, 0xbcf4c0da3d91f98aU,
  0x3d93a730bd055165U, 0xbc7170c3bdc8e160U, 0xba95f15a3d24a71aU, 0x3deb99253ae446abU,
  0x3df4b618bde52fadU, 0x3cd3c3fd3dd1327bU, 0xbdc935e43dfdfe03U, 0x3d765c62bdb63159U,
  0x3dcaae593d84f5fcU, 0x3d73c4f7be290bc4U, 0x3dc53d42bde725c7U, 0xbd2818f13d9d606aU,
  0x3e04ef77bd51f7a5U, 0xbdfcf17bbdd394fcU, 0xbd735977bc432d7eU, 0xbdfdeadcbddedf47U,
  0xbdcc3464bdebe3ceU, 0xbc0dcf283ce8b146U, 0xbe106bec3dc4a8e3U, 0x3e00f08bbdd585e6U,
  0x3dfdf0d73c73227cU, 0xbdc5e9b73d3485aeU, 0x3e1e3d653cfa7e57U, 0x3d878875bcf29af9U,
  0x3ccceccbbd802f13U, 0x3da7a9e93bac3dfdU, 0xbb26e21a3abd8063U, 0x3df2b0183e10068cU,
  0xbe03f300bd996591U, 0xbc5287f0bd295cf3U, 0xbd9343883de8990fU, 0xbdc4efa33d5c7458U,
  0x3d0bcc213db6e592U, 0xbe039371bd9b524eU, 0x3d8226b03d8b4e85U, 0xbde6f00cbd103196U,
  0x3da083a9bdc59af3U, 0xbd3c9b5dbd2dc09eU, 0xbdea89773ca93a25U, 0xbddf5fbf3d02f983U,
  0xbdd7302c3e019279U, 0xbd97412ebd0c12a6U, 0x3de04c0dbdaef5b5U, 0xbda8df233d76448dU,
  0xbc6deacfbde865f3U, 0xbaa47e383db05065U, 0xbdb1ffa33d86fbccU, 0xbd0b6b11bd8b0920U,
  0x3e0b8ce63e0862cdU, 0x3de69b69bdb7455dU, 0x3cc613ca3d012dcfU, 0xbdc4ca683cdb8c4dU,
  0xbe22104fbd45b32bU, 0xbdb94187bd8b6431U, 0x3e007c433e13f17eU, 0xbd0fa4023e0843d2U,
  0x3cf5b13dbbf0bf73U, 0xbe017052be130957U, 0x3d5d1e01bdb5feddU, 0xbe10de123dc64e2dU,
  0x3db1a0853bd8301cU, 0xbdef4c8cbd22f6d2U, 0x3d201b6b3dc66054U, 0x3ca404fdbdfc08feU,
  0xbe0b7c353ce1b319U, 0xbde215b1bcedf586U, 0x3d4af9a93d097765U, 0xbd6110653d3eae3aU,
  0xbdf37056bbd2007dU, 0x3deee69d3d21417dU, 0x3b0079c63dcb63b1U, 0x3dafdb79bdd4a843U,
  0x3df289a23d9e6ee0U, 0xbd2997c8be08ae04U, 0x3c66c4cfbe0b245cU, 0xbd8100ad3dcdf335U,
  0x3d00a7dabd825971U, 0xbae54fa33d2d24f0U, 0xbc8a05b33dbd36ecU, 0x3d55e8743cedb09fU,
  0x3dde8d59bde93f67U, 0xbd80018ebb6c54adU, 0xbdec612abda9a9acU, 0xbd6c9be83dcb3de3U,
  0x3d8525313ba4a96aU, 0xbbaa40c5bdd2e351U, 0xbdfe6b7cbab6b789U, 0x3de493b9be1174d4U,
  0x3e035a9f3d8c4e85U, 0x3dd1f79b3cf661a0U, 0x3b87aefdbaf6d657U, 0x3d28db753e002142U,
  0xbbce3e043d8d17c7U, 0x3d0e5d993c53a977U, 0xbdc4ed2c3e04d08dU, 0xbd554d0a3de965a5U,
  0x3cb46765bbc4d2ceU, 0x3e0764f03cd2aee8U, 0x3dc79234be0e57fdU, 0xbe0a12833d0f5713U,
  0xbdfc27a23d93114bU, 0xbccade7cbd9ca6beU, 0xbdc250c83dd38e93U, 0x3d79078fbd628006U,
  0x3d22ddf43de0e923U, 0xbc6f65bcbcc33d9aU, 0xbd8d96c5be07d5faU, 0xbe1c3f3cbca29209U,
  0x3dfa290cbdc0c6efU, 0x3b78a7fc3daadccaU, 0x3dc6cafd3cd586d3U, 0x3d2ab6ffbb8b30e2U,
  0xbdfb2dbebe23bf62U, 0xbc9b85c03e0ffd4fU, 0x3d827add3dc23c8fU, 0x3d34939d3c64f0c3U,
  0xbdd590adbdd062cbU, 0x3cb0756dbd214b00U, 0x3c3a12483bd79072U, 0xbce9103e3db32a56U,
  0x3d9d79053c9c2621U, 0x3d35f115bda58e8fU, 0x3e003896bde3066eU, 0x3d804dea3cad3fa0U,
  0xbdc77bb53d888049U, 0x3d9dccd43d7a8a6aU, 0xbe09dccd3cfdc1f9U, 0xbd8248803df5ff15U,
  0xbe1c3db53b7ad074U, 0xbd9c89f63d79c3ecU, 0x3de5897cbd017517U, 0x3e03effdbcbd4a2cU,
  0x3bd2c4d0bdbf07d8U, 0x3d42c2943d8fa216U, 0xbde0bca53de3097bU, 0x3c6781ac3d6180ccU,
  0x3cf3dcc4be13c588U, 0x3da9b9bfbdd5ebc2U, 0xbd9ce262bdbc227bU, 0x3e066c7fbe0c10fdU,
  0xbc7eac353ddbf492U, 0xbe134fc63e0c868fU, 0xbd995d50bdbe6cc9U, 0xbb6e4b733d5f5b08U,
  0xbd6a654cbd6cc8b6U, 0x3d9ab5bdbdb5ec7aU, 0x3d3556883d6b5f90U, 0x3d2342c33de66aebU,
  0x3df9e5d9bdd022caU, 0x3da2a406be034457U, 0xbdb78b75bde531b7U, 0x3dc74d9c3dac66a5U,
  0xbcd205d3be120c1cU, 0xbc71a86bbda97d17U, 0x3d8fd6b5bdfb1c6cU, 0x3e039319be1adba7U,
  0x3d49fbfebd911da2U, 0xbd9f8f3dbd64a4e4U, 0x3d9953053df533eeU, 0xbdbe1a283e1511fcU,
  0xbe0d689e3c862ba9U, 0x3de5f8343c21132cU, 0xbdccb857bdada7b5U, 0x3dc8817f3d65fa29U,
  0xbdb5fa57bd2da7d6U, 0xbda90b5bbb94bd0bU, 0xbd6a3329bd896b81U, 0x3cde76ecbdc0b432U,
  0x3de6bf66bdcffc3aU, 0x3df028fc3d6504d7U, 0xbda87ef2bda13506U, 0x3deba1543e068b45U,
  0xbe097c203d08ef3cU, 0x3db598b13d9f78abU, 0xbde882eabde17b86U, 0x3db000093d69da08U,
  0xbc0a5b78bdfd81a4U, 0x3e0b161b3d45e80eU, 0x3d7c20e83d00227aU, 0x3d9fb25e3de01ccaU,
  0xbd3b3e263c9e4d31U, 0x3baf17113dda707dU, 0x3d1f4b103b2a5d7dU, 0xbd9e4e9f3dd63377U,
  0xbd8d01afbd1a8c66U, 0x3dd14e8abde9da7eU, 0xbc99bb99bdb2585cU, 0x3e123133bdadf3beU,
  0x3d2c6791bcec5f03U, 0xbd8772b6be057dceU, 0x3d3a45d4bd29e5b9U, 0x3d23e335bbe0e693U,
  0xbbcc5d313da785d7U, 0x3d69c3753d97b365U, 0x3c9a199cbd293239U, 0xbd582ff73dd071e5U,
  0xbd638712bdf684ceU, 0xbe0904bb3e03137cU, 0xbdec857f3dc5c3ccU, 0x3dc3e5733dfbacb5U,
  0x3d2227bfbdf808b1U, 0x3dd73a0b3dfa000dU, 0xbc1134adbd870b8eU, 0xbdda525abdac51d2U,
  0xbdfdef26be16e24cU, 0xbda9fbff3b988866U, 0xbde668f3bd5f44b0U, 0x3d0443fc3d3dc931U,
  0xbd22bff2bd34dfc8U, 0xbde123a13d04e147U, 0xbc6b29d6bd44464dU, 0xbe11a9d63cbfc3cfU,
  0xbdb5a06dbc9f9d7aU, 0xbda8178a3d5c3cbeU, 0xbdd91c393d2ff0e8U, 0xbddab94a3c02034eU,
  0x3d3e9b013e0a3c10U, 0xbc983639bd5ffb93U, 0x3e02ea00bdd75840U, 0x3d8eb3aa3d56cb91U,
  0xbdea9befbe006cd2U, 0xbddade763c8bf017U, 0x3e0067f7bd91c7a2U, 0x3dc74d13bdc9c08cU,
  0x3d54ac303d202373U, 0xbd65ae38bdf39998U, 0xbb33d3c2bdddf261U, 0xbe07cb84bd0f27a3U,
  0xbc0f380f38adbf34U, 0xbdb6ca6fbe0c2665U, 0xbbb7ad4dbd49e80aU, 0xbd892334bd9668f0U,
  0xbd2e85693b9dc837U, 0x3d9f5ea73da4856dU, 0xbe0821983cfd1a75U, 0xbddabb523cfd0434U,
  0x3d18e2763d834037U, 0x3c85e0913e02abc6U, 0xbd96e369bd5acabdU, 0x3da706683d8d2218U,
  0x3d011d7e3e17df14U, 0xbd6d41afbcf8e636U, 0x3dbac2b4bddd0b55U, 0x3df81f7dbe025fa9U,
  0xbdff76653dd270e2U, 0x3de07c56bd203098U, 0x3c96a138bccfeb02U, 0xbd6f4dea3dabbacdU,
  0xbd69824e3d80375eU, 0x3d762e4c3d3a2be4U, 0x3e115266bd5b1826U, 0xbca4ac9d3df52de1U,
  0x3dde6f153da2d646U, 0x3c90fb80bda43260U, 0xbd8e1cde3e095fb7U, 0x3e08be943d600fe6U,
  0x3ccb056b3df57594U, 0x3d2d12b2bc55a0f1U, 0xbd2dd758bda795c8U, 0x3de1dc7c3dcb373cU,
  0x3db22dc4bcdc1aceU, 0x3de45b7c3ccbb212U, 0xbde8f30abdd25694U, 0xbd47bd2ebd2ca9e8U,
  0x3d4f37933d4b69a6U, 0xbc1561edbc83d2acU, 0xbd9a8f92bdd374ffU, 0x3d5892e4bd2f9711U,
  0xbddaa91fbe02b5adU, 0x3e12010c3cdeeaa2U, 0xbca3e563bc712063U, 0x3c625267bd97a3a4U,
  0xbd05ba50bd973f60U, 0x3dd4ad213dd7a374U, 0x3daf12b4be0de048U, 0xbdf4d828bcc076b5U,
  0x3ca1c42dbe1174d9U, 0x3b60244f3c62b63cU, 0x3dffab273d13f31fU, 0xbd6e141a3df7db6eU,
  0x3dd04db0bd78140dU, 0xbdd11ad93d68884aU, 0x3dd2e26abbfe2be0U, 0xbe0825633ddf85e2U,
  0xbdbb3c3cbdc77226U, 0xbd619ae3bd123584U, 0x3e0e5bfb3db3e35dU, 0x3e0f1cafbc276777U,
  0x3df305a0bd96b563U, 0xbd840a383dd0d2d5U, 0x3da95d943da3c75cU, 0xbd6b78a83cd34b84U,
  0x3dfa149abd77e806U, 0xbcc2b5e4bdf72924U, 0xbd9765bdbde4fb9cU, 0x3db711953b86a306U,
  0xbdd0eb72bdf061b3U, 0x3d8bcb12bde5f910U, 0xbcf44a413d05a11bU, 0xbc9b0d2b3cf4cadbU,
  0x3d88fa59bd15e5b9U, 0x3d2385013c3e6b49U, 0xbe006427bd51f97fU, 0x3c6812173e12b0a9U,
  0xbd05b6cc3de7bf04U, 0x3e0ea0e8bd85e611U, 0xbd7809d7bc5e5260U, 0x3be151f9be0dcfe3U,
  0x3e1627b3be0ed723U, 0xbd1012d63c38f530U, 0xbc5455e0bda57ce9U, 0x3d07a2983d8a2c6dU,
  0xbde067e53d4ab49cU, 0xbe058d70bdebec87U, 0xbda7478b3d8c00beU, 0xbd94b0b93cc26c99U,
  0xbdf2e3563ca887beU, 0x3c8387e33d1a05a9U, 0xbc5d6be93db6bda6U, 0xbcabc3f6bd091a25U,
  0x3daf2983bca211f9U, 0xbdfc4fa0bd8cad4aU, 0xbc5892533de74aaeU, 0xbd7c9cf53be1ebc1U,
  0xbdbc8675bd36dc99U, 0xbdf422433dbbcba3U, 0x3db89eaa3c34fae0U, 0x3d0ff6c53dcdcc85U,
  0xbdfd2e62bd026bb5U, 0x3d9264d43cd63979U, 0xbd80023abced705dU, 0x3e09655e3d4653feU,
  0x3ce22d383d20524aU, 0xbd6dc05e3daecff9U, 0xbcdfba3abdd95be9U, 0x3bcc2411bd56ef91U,
  0xbd2acb873d9cf8a7U, 0xba19cf463c894a84U, 0xbe0db5ae3dcebb98U, 0x3e1efd313e077ec7U,
  0x3db4dc2f3dffddd3U, 0xbd7f5c90bddc6660U, 0xbdc79a60bd9549fdU, 0x3d8e2ef9bda0df9eU,
  0xbd4b5061be138929U, 0xbdab2ffe3daa7545U, 0x3e0114c73cf2c27fU, 0xbb18cae0bdd91a6aU,
  0x3c1fb832bc76c5fbU, 0xbe0fa53e3d1c9d90U, 0xbdbd31cdbdfb4e11U, 0xbd65aec23d4d2168U,
  0x3d9cb5c03df0f6cfU, 0xbe06163d3e093983U, 0xbdc2b3603e00af1aU, 0x3e1cf2833da7077dU,
  0xbd0a81013dbe90a6U, 0xbd091f98bdbd7c9fU, 0x3e0c3273bdbe546cU, 0xbcc4c420be09e45aU,
  0xbd186c99bd68dc2aU, 0xbdb84c493e0ceab5U, 0x3d541e0abd0f93eaU, 0xbba9dd03bdb8b66aU,
  0xbdc765023db843a0U, 0x3d137db93cda792aU, 0xbdc765dbbe037ca5U, 0xbdb1436e3dd76c09U,
  0xbe0fb1fabae3d05cU, 0xbe0f1317bdad1b1fU, 0x3e0d6f1a3dedf8fbU, 0xbd8df437bdc1dd54U,
  0xbd71ae99bdce4631U, 0xbce6502f3e0ecd5bU, 0x3dc972ed3cfdf08aU, 0x3ce8d18d3df478a2U,
  0x3cad359bbd28bfa1U, 0xbd4ee7663d9db4c7U, 0x3d968f693cf46192U, 0x3ddd98ab3d427edbU,
  0x3d9ba39fbd1bf224U, 0xbd88bd5bbe0b72efU, 0x3d00297c3dee44a6U, 0x3d4a77fa3d0c96c4U,
  0x3df2ad723c8b82e8U, 0x3dd2d3f2be10fe66U, 0xbd82cce7bdc77585U, 0x3ce1ee123de67378U,
  0x3d5184153ddd75aeU, 0x3b1eadc03dfb8bb5U, 0xbd2abf5cbdf525b7U, 0xbddc3a723d0dfcb1U,
  0xbe3347d53c95f4c3U, 0xbe22356c3e03ffdbU, 0xbe13d03cbe0ca61cU, 0x3d273368bce530e5U,
  0x3dcb38c53c8af3a3U, 0x3d9e2ecdbd22f231U, 0xbde1f3bd3d012f73U, 0x3df013b9bd19e124U,
  0xbab093573ded13f6U, 0xbdddebf8bdedee37U, 0xbc5953583dc03161U, 0xbd62f9f1bd4692d7U,
  0x3d61f8b23d74a093U, 0xbced55ed3d7899a4U, 0xbc534cb03da87af1U, 0x3e05d01f3daf621bU,
  0x3b4b028e3c5577afU, 0x3cf696b3bdb336b7U, 0x3daea3b53c95d803U, 0x3d89673dbdbe562fU,
  0xbc03359dbd1a985dU, 0xbd48ace13cb39652U, 0xbd532e093c9251b9U, 0x3d2a7f5bbda824faU,
  0x3d59b6e83dfb7547U, 0x3d9376ddbd7c2c01U, 0x3e07ae5ebd7f4ca4U, 0x3d38c5053cea7081U,
  0x3d3866243cb66c93U, 0x3e07fcd7bc190dd7U, 0xbd0d8f083e10e24bU, 0x3d80da9a3dc6699aU,
  0x3d84febb3dddc22bU, 0x3d5d360abe135c42U, 0xbe110e0d3d98e08cU, 0x3c1b602e3de4e3eaU,
  0x3d6efa8f3b4b5d0bU, 0xbd68b486bdbab51eU, 0x3dd949bc3dff4380U, 0x3ddc17d73d85d9efU,
  0x3d95fb9b3db57078U, 0xbc9ee27cbcddf216U, 0x3e115732bdf6d579U, 0xbd8a52f1bd65e8d5U,
  0x3d186d903dcdc4edU, 0x3d423c25bdc36b54U, 0xbd02fd29bb7a6c56U, 0xbdcd0f74bd5022cbU,
  0xbe03dd85bd8675a9U, 0xbdc244eb3ddf3decU, 0xbdbc144f3cee7760U, 0xbe0634f8be013277U,
  0x3d6a7351be047136U, 0x3db863263cb009c2U, 0x3d8868d9bd952a55U, 0xbd9423e83b70e2baU,
  0x3d1fe3453d6e4544U, 0xbdaa8803bb8a7575U, 0x3d439916bd9bb830U, 0x3d83dec6bd7bbe1dU,
  0xbdae10053d4fba2fU, 0xbcd1c63bbdf50122U, 0xbd91d946bc9b8965U, 0x3dcc928dbdbfb0bdU,
  0xbd9ea4f3bdefea48U, 0x3dbbbf58bd944495U, 0x3e0d76e4bc16ffafU, 0x3d465e99bde87e84U,
  0xbd9960a23db49b7cU, 0xbdbc84db3e0403caU, 0x3dc8ddfe3d3844c0U, 0x3d3bdcda3d31e74aU,
  0x3df479163da3fce3U, 0x3de000053d9defa2U, 0xbb3b338a3df7e039U, 0xbd0a4e50bdf8f3c3U,
  0x3dd01c9c3ddeed57U, 0x3ddadb00bbea91e3U, 0x3d5fb150be137202U, 0xbce36f1c3dba680aU,
  0x3c0144753bb5f2a6U, 0xbdd510ee3cd5ac23U, 0xbd83425cbd5b22a9U, 0x3d15c3d73db9cb05U,
  0x3d73547bbc38b603U, 0x3dd0799d3b63081fU, 0x3d8378fc3d1608d0U, 0xbd4f66153cbf717eU,
  0xbdcff81d3c8d48caU, 0xbd710b4c3d972d0eU, 0x3c861addbd99a346U, 0x3df098dc3dc98439U,
  0x3c2d73edbde610bcU, 0xbdc410cebda78f3bU, 0xbb85f82cbdc6e81eU, 0x3d7a9c43bdb29060U,
  0xbd53d127bdbadc3aU, 0x3dfb331e3cf1aa1bU, 0xbd973ca83d3b4034U, 0x3e03e2843d2bab5bU,
  0x3e063e78bd861668U, 0xbdbe3d4dbcae488dU, 0x3df7dd3dbcd57d73U, 0xbd8b6a553c5274c8U,
  0x3d2cb00c3e09ecdcU, 0xbc7e09f33d813cd6U, 0xbddc2b223db6295aU, 0xbdd58b373d566fb3U,
  0xbdb6ac28bc9aa59bU, 0xbde669d23dfc7068U, 0x3d2d648cbd0d25deU, 0x3de445233ddf62e6U,
  0x3de877ebbdcdc665U, 0x3d31572ebd34f8efU, 0xbd065fafbda99c73U, 0xbdb2fa13bdf94006U,
  0xbda7ece93e049f5dU, 0x3dc09e7ebcd752ceU, 0xbe047ea3be0f7652U, 0xbdf3479bbdd13714U,
  0x3d9e27683dd1d9bbU, 0xbcfd700a3dbd5c16U, 0x3cd3bc303de73223U, 0x3dfe31173dd7fca8U,
  0x3d2af286bc2ef6b6U, 0x3d92ecbe3de7a075U, 0x3c1eb127bdc6f9a9U, 0x3dbc23cebdab25bfU,
  0xbdcf764cbcaa3984U, 0xbdde2e973da7ae34U, 0x3da303c7bce23a55U, 0xbe00cdd13dc24639U,
  0x3d9673743d7febf1U, 0x3d9ccaa2bd3e4334U, 0x3b5c4e663c33737cU, 0x3d919187bd5f1090U,
  0x3c6efb0e3dc3cf19U, 0xbd3a5d813dca5f63U, 0xbdf719c2bcb0d7b8U, 0x3ddf0d10bdfc15adU,
  0x3e017cd4bd33a556U, 0xbd907ef73dda59d3U, 0x3d12cd28bdfab99dU, 0xbde350d83d9f11e2U,
  0x3ddf10e0bab07d8dU, 0xbe4150c7bdddcdbbU, 0x3da9f3f53cd21e78U, 0xbdb058ac3ce42ca7U,
  0x3e0aecdd3dabf7deU, 0xbddfee30bd6dd166U, 0xbd5f19f73df2d3aeU, 0x3dd5165f3d52ed80U,
  0x3d6b64f9be045a27U, 0xbd74606a3d881a5cU, 0xbdfbaf733c3e3ed4U, 0x3d44c1d6be18dd20U,
  0x3d8d7aab3cf9985cU, 0x3d997dcf3df35bb0U, 0x3db0f702bc0b972eU, 0xbde13fecbd5d7d02U,
  0xbd08cfd6bdabf261U, 0x3d0b5e963d62b1ddU, 0xbdfd841e3dc44e0eU, 0xbb66178dbc0fddddU,
  0xbd988b413b334b8fU, 0x3bdd803e3d9deafbU, 0x3d9c3d4f3dcb390bU, 0x3c27dc31bdcefa07U,
  0x3d469cce3db947f3U, 0xbd7cd795bdd8068cU, 0xbc3fefb13e0ef99cU, 0xbaeae907be0265e2U,
  0x3dc80876bd65c06fU, 0xbd91d98abd9ff7afU, 0xbd2382c53c3a62c5U, 0xbd953b4abc943296U,
  0xbddc8e853c04b3e9U, 0xbd1d0680bde6a82bU, 0x3db102d1bda76716U, 0xbb45141e3d02a4c0U,
  0x3c17adf33cabd695U, 0x3d1fc1d83d77578bU, 0xbdbea7fc3e00039eU, 0xbd9a5438bde2ae3cU,
  0xbe0d481ebe17da87U, 0xbdaec4ea3e1ccc03U, 0x3d2d33f8bdfe25c0U, 0x3bcc3c39bdcb81e6U,
  0xb7a0eb44bd383178U, 0x3b95e8e7be156d3eU, 0x3c9847093d510e32U, 0x3d8e3bc03db101c9U,
  0x3be620f9bd342ec3U, 0x3cc3d5acbd68467dU, 0xbd3a4bbe3c5c918cU, 0xbd3b1c25bd9e6724U,
  0xbdb1e2e73dc398b4U, 0x3dee9316bd37ad32U, 0xbc299bd5bdffbe38U, 0x3d85ac783df063feU,
  0xbcdc1e6abd331531U, 0x3b064dec3d5b51baU, 0x3d86fad1bdb50890U, 0x3d82397cbd4f8f01U,
  0x3de0f3ab3c3a4b09U, 0xbdad90f8bcbe1db0U, 0xbbf4653abe133ef6U, 0x3da44656bda9bf79U,
  0xbd7c2b643dc54e6bU, 0xbe2d53afbdf2e2b1U, 0xbda0f5e63dbdbf3cU, 0x3d16f2a1bdfbbd03U,
  0xbcf31aa73ddbdd54U, 0x3d4dc35e3db654c1U, 0xbd834b17be2ac1f1U, 0x3dc9de56bdf76023U,
  0x3d55faef3d36d4e9U, 0xbce96e37bdeb290dU, 0x3dc33ff1be04344cU, 0xbdf5636fbd3c971aU,
  0x3d88271a3dda02b0U, 0x3ca6d997be160c6cU, 0xbdb5cf02bded1730U, 0xbae4102cbb803f33U,
  0xbb53f80dbdc1c69dU, 0xbd7c9dd9be21aa02U, 0x3db267643e035e23U, 0x3c48e19ebdd6d7afU,
  0x3dfe5a7c3ae97eceU, 0x3dcc56943dfa88e8U, 0x3ae4d3b13cfee656U, 0x3d9e408f3dfb5ec1U,
  0xbd493ac63d751046U, 0x3dd5ffd4bc34c170U, 0x3d7459e93b536ea5U, 0x3d7f051fbd4887b9U,
  0x3d5bc7723e14385fU, 0x3d801f9a3e0126f6U, 0xbda916913ccdfdc5U, 0x3dbcff84bd1b3fa5U,
  0x3dc006073dbe7090U, 0x3dc4d19fbc92d7cbU, 0x3d6d60fdbde33cf9U, 0xbbaa0ef03cc39efcU,
  0x3e04ee743ccfc494U, 0xbd0eb1e63db04cc7U, 0x3d60fc553d79827eU, 0xbddcde46bdfae47fU,
  0x3d2d26da3e14329cU, 0xbdb801adbe0e6562U, 0x3de58d9fbd470bb2U, 0xbc362450bcddc6c7U,
  0xbe035d8cbd934238U, 0xbd8241b43db44a1bU, 0xbdf30865bdeabdd0U, 0x3dbcf8b23dfc85ecU,
  0xbdc5b59bbcd8f493U, 0xbce18646bd213f4dU, 0xbd2c5d7e3c8e4e42U, 0xbdfcce98bbbc558aU,
  0xbd61caabbde88589U, 0xbe186aeebdc85ce2U, 0xbdf09872be0a6f8eU, 0x3d92aa7f3c7d90bcU,
  0x3e092d32bd1f28c6U, 0xbe1bcd5f3bc19be6U, 0x3d9d44293e172a95U, 0x3dfa4875bdd0d1fdU,
  0xbb9bc5a0bc8a892aU, 0xbba7b02f3d391166U, 0xbd332600bdc2214eU, 0xbd126c023cbbbf89U,
  0x3da3151dbde28669U, 0xbd298e99bda8cf8eU, 0x3d9e68ad3bab2ef4U, 0xbd18e432bd6c5273U,
  0x3cf32244bd4f9067U, 0x3da868aebde508d0U, 0xbe0be799bd91f89cU, 0xbdfc041d3dc3e4e8U,
  0xbc93fbc0bda79c2dU, 0x3dc3e317bdce7d4bU, 0x3c4a04cc3c298851U, 0x3de184f13d2aa4ccU,
  0xbc111e013b12881bU, 0x3bb42fe03b0f4081U, 0xbc9706c63c176cf1U, 0xbc17d649bc8197bdU,
  0x3b50b26fbc4d56efU, 0xbb5b7292bc58555bU, 0xbb222c6c3c3959d1U, 0x3cc85f393cdebba6U,
  0x3fa9449d3fd7b2a3U, 0x406e25b44051cab2U, 0x4056169d405eafe1U, 0x401480f040020da2U,
  0x403a84e74078b0bfU, 0x4014c1ed4092d339U, 0x3fc68c4940624ce0U, 0x40064bce4064d878U,
  0xbf3ec872bf3777e0U, 0xbf0801dcbf4363cdU, 0xbf1ed3fabf144af8U, 0xbf4615e3bf2f9b8cU,
  0xbf45c9ccbefa2403U, 0xbf26b92ebee6b3d6U, 0xbf2e89adbf39822fU, 0xbf4e79a4bf3fbd41U,
  0x3e0daed5bdc7174aU, 0x3d0bb0ba3cc8b2b0U, 0x3dfcde67bd8495acU, 0x3dafefa3bd81693eU,
  0x3e10506dbd94ade7U, 0x3d29ec6f3db70202U, 0xbdde7793bdc753e7U, 0xbe141db93d92572aU,
  0x3df06222bcc91963U, 0xbc35c3f63d03c7bdU, 0xbd4d6c543d224870U, 0x3de688d5bd316402U,
  0x3e253f00bdbac3fcU, 0xbde253c9bdb8205aU, 0x3db43cdebdc3116aU, 0x3d9b38e43d1a1493U,
  0x3c3d5ccdbdd51d11U, 0xbdbf36673ddea1fbU, 0x3de49517bccd79fbU, 0xbdb1e1683cbdd03eU,
  0x3acdb7d7bdda2859U, 0x3df0c834bdee8f13U, 0x3dc94b2dbcfa9890U, 0xbdf952bf3d45e587U,
  0x3e1b56603e1b532fU, 0xbd83c2743dc00b4bU, 0xbca01f9ebd87d545U, 0xbc1e840abde297cdU,
  0xbda9c1e8bd8db079U, 0x3b1e3e583daff8cfU, 0x3c8310693defe204U, 0xbc7277d5bbe80c13U,
  0x3d2bf0a1bca7857dU, 0x3e0127483d87bcbcU, 0x3d6f3549bd12cf4eU, 0xbd8d34a2bd843203U,
  0xbd2e5f313dd20bd0U, 0xbca5aaf03d4ef618U, 0x3d598a053e071809U, 0x3d57b49ebc771102U,
  0x3e1125edbd4c7951U, 0x3e013a1cbe07f7e4U, 0xbde94d12bd6e6f5bU, 0x3d450a8ebcc5cf57U,
  0xbc3e620e3d052712U, 0xbcab728d3dc109d9U, 0xbc81ecc2bd211387U, 0xbc0273c5bd9585b5U,
  0xbdd235283db6233cU, 0xba2fe360bd871595U, 0x3cc2a61fbdd6427aU, 0x3d91ce7d3d81a305U,
  0x3d663f34bd3bf970U, 0xbcc2d0a1bc795062U, 0x3d4b8fc0be0c50aeU, 0xbd3ff1d23e06fcd4U,
  0xbd031154bdb6d99aU, 0xbbbd6e0c3dceafc6U, 0x3e0ad18abddf3066U, 0x3b7f159c3dc8f599U,
  0x3d60ad14bc6a7f5eU, 0xbd749a5ebc9dda37U, 0x3bca9d04bcb00d5eU, 0xbd95ff32bdad2b40U,
  0x3c8ab6afbdbf886eU, 0xbddb1770bd95f278U, 0x3d833eb3bd672d5aU, 0x3c4b7072bdbbf682U,
  0x3cfaf8f2bd9c64c6U, 0x3dfa9ba2bc8d4919U, 0x3ddc0dce3d612647U, 0xbdb1a3df3db2186fU,
  0x3ddf477e3df1b8e0U, 0xbd654597bca54046U, 0xbdd6af0fbd054092U, 0x3d5db897bbd8980aU,
  0x3d7fe8313db52b51U, 0xbe0d307c3d96996fU, 0xbd0fa0f03da4b011U, 0x3b1a82763dcc09d1U,
  0xbcba7fbb3dfc0fc9U, 0xbe1a202fbd798716U, 0xbd80dc363cb4ac44U, 0xbb8679bd3dae0099U,
  0xbd4adff33d30e518U, 0xbd7255953e0a9145U, 0x3de24503bc6a06bdU, 0x3dc01f99bd129a62U,
  0xbde8d26e3d8b77ceU, 0x3d15094b3dd52212U, 0x3cc0bb23baadea79U, 0x3e13136d3d112a18U,
  0xbbb15ff3bda7446eU, 0xbe0e60cabd410ad6U, 0xbdf2cc34be00e912U, 0xbdc8c38f3e016fc2U,
  0x3c11456fbe098c7eU, 0x39fdc88f3dc7239bU, 0xbcc31a31bd1fc5d9U, 0x3ddb104abe08ad28U,
  0xbd4959cb3df26cf2U, 0xbddf25243e0ae133U, 0xbd8d51ecbd324ba9U, 0x3d4189febd97adc4U,
  0xbaa15328bda7bac9U, 0xbcd8da583d2e2311U, 0x3d574cd73da932c4U, 0x3d6d341e3de7acfaU,
  0x3db3aa68be0524b2U, 0xbd1dd30cbda2c36aU, 0xbda702c3bd6f1466U, 0x3d9210973e10e8c6U,
  0xbdd25862bd65350eU, 0x3d385877bdb28dc4U, 0x3df2a97dbdb2b1f5U, 0x3daaa1b03c8d62f4U,
  0xbcd454c4be081596U, 0x3c2d200cbcaca60dU, 0xbd978aaa3dc68b88U, 0x3ca6a1c03d10b216U,
  0x3dd6361f3c9d6453U, 0xbe16b89f3df5f396U, 0x3d3b8d47bd31735aU, 0xbd851e96bad1c007U,
  0x3da66c633ca0ce76U, 0xbdaf5bb0bdf6175dU, 0xbd6f1f043d8e53faU, 0xbdb968173dce36dfU,
  0xbdaedcc2bcb60b80U, 0xb94b264fbd3e71e7U, 0x3e0057a1bd2be73bU, 0xbd8e7b083df2196dU,
  0x3d84bcfe3d8fa318U, 0x3d45c629bd052f78U, 0x3e07abf13d729e05U, 0x3ddd1b0d3d9ee814U,
  0x3de52a143d9c71a7U, 0x3ddd6d4f3e112258U, 0xbdbdab0c3d8284e4U, 0x3dcda37bbd49db71U,
  0x3cfec5acbdfa3b38U, 0x3dc241d63de0dd70U, 0x3d857f6abe029c1aU, 0x3df002fd3d82f5c5U,
  0xbd15eac53e01a3efU, 0x3d06da713d20299dU, 0xbda38e2b3c4ea46fU, 0xbdb8d2c7bdb689b0U,
  0x3ce22932bde35407U, 0xbcbd8f6dbdc0b27fU, 0xbd8495f53de5737bU, 0x3e0935e13df35c9aU,
  0x3dce62373d4f1139U, 0xbd993b6ebd58cbbcU, 0xbdb8b6443e0e5f3cU, 0xbdca14e03dc8dd64U,
  0xbd3cdaafbbab0b5aU, 0x3d642de93dfd30eaU, 0x3d65b86f3d868d3bU, 0xbd1cb8f63dcaedc2U,
  0x3df7b4c43e1c8162U, 0x3de6f8243dda43b6U, 0x3cd0f15b3e23a46eU, 0xbdf0d4e0bd8938bdU,
  0x3d6fb33cbd3a4cf3U, 0x3d96c10cbe0f3496U, 0x3e1f8809bd3daa42U, 0x3bf3d60abdae70baU,
  0x3d9189febd27f6bdU, 0xbd602308bdef37f7U, 0x3aa6db63bdf7119dU, 0xbd09beb43da26a3eU,
  0xbe0691e3bd0b75a9U, 0x3dc8b30f3d91aacfU, 0xbdba35f1be09f307U, 0x3da3d47dbbd8fb4dU,
  0x3de98dbd3dbf2ddeU, 0x3d8346893cf1bb1eU, 0xbdda22b2bce5f994U, 0x3d346f32bd9fa003U,
  0x3d224fa2bda19409U, 0xbd66261ebdf3856eU, 0x3c39bfff3d374c52U, 0xbd110ec4be19f430U,
  0xbdf7b70ebc9f6eabU, 0xbd256e733cec4a9cU, 0x3dfe5d5e3e17f8a7U, 0x3d78ed3fbdc9e382U,
  0x3d457242be01ba64U, 0xbcfcb5513d8f0c9eU, 0xbdf5ae763b919af9U, 0x3a3655debddbed31U,
  0xbc7c7fae3de0723eU, 0x3e04ef773db5f67fU, 0xbdbe6dc8be023bbdU, 0xbd8908a73d9000edU,
  0xbdc9e5e43e0d234fU, 0x3c6db865bdb57cdaU, 0x3d058c89be0212c1U, 0x3cac23abbcb664b1U,
  0xbd8286f43d964477U, 0x3d400c03398d8097U, 0xbd71d9d73dbb8401U, 0x3ca41cf83dc355d2U,
  0xbdb0b9093bc307c5U, 0x3e2234443d8953d7U, 0x3de99bf03c08df69U, 0xbe0400423d945071U,
  0xbceaa5f13d2556abU, 0xbdff801c3d768c51U, 0xbd127dbd3dcf72cbU, 0x3d1bb0f53d989668U,
  0xbde37c28be0b77c3U, 0x3d263227bd46ab88U, 0xbd73bd81bd9ec2fbU, 0xbcee3baa3c255710U,
  0x3cb2e648bd96f8c5U, 0x3c9ea24b3db61de2U, 0xbc22e72f3d8305d9U, 0x3ddee62c3cf594e0U,
  0x3c8d0436bcb71370U, 0x3da7ee5d3c2ff368U, 0x3df331bc3ce43d04U, 0xbca969e53d3ebe3fU,
  0xbd6cec02bd1a693eU, 0x3e0736d43dc0555fU, 0x3de06d7e3cbcab48U, 0xbdec7d16be18b74aU,
  0xbd6f46a93d6f0f2fU, 0xbd09953d3de021bdU, 0x3e054af8bd2c5428U, 0x3d6071383bc4eebfU,
  0x3db93227bd364762U, 0xbc2f92c23d1f4859U, 0xbd15d720be1007d2U, 0x3d62f86ebd1e2603U,
  0xbce51eca3c754602U, 0xbda154d33d05d5ffU, 0x3e008b4d3c73d499U, 0xbd0e9a503de46dacU,
  0xbcf1c1543e09f031U, 0xbb85666c3dc287dbU, 0x3ccb4c9fbd98d857U, 0x3de032c93cab6997U,
  0xbde8eb653d3a1266U, 0x3da846f13d5e71faU, 0xbdf7e1613cd194b6U, 0xbc4d882c3d3e06c5U,
  0x3e009e4fbde2f03dU, 0xbddfde7abd5ec56eU, 0x3d43124ebe0f6a0bU, 0x3dfb5df0be18d005U,
  0xbc77fc0ebdf7e423U, 0x3c09e19cbd081de3U, 0x3dfc44093dfebfb2U, 0x3da5560abbd0d26fU,
  0xbd892a473d7c5466U, 0xbdf050d8bcd54a36U, 0x3d8622593cb449feU, 0x3d9b3ecf3d6eb2c6U,
  0x3dbdd064bdd1802eU, 0xbe0f605fbe0be376U, 0x3db39c8cbdbe10f0U, 0x3de945afbdca988aU,
  0x3e09e1be3d75fae4U, 0x3b7bd3aabdad4ca0U, 0x3e041c7cbc4ab062U, 0xbdf9c89f3c42728bU,
  0xbd1dc1763dab0fe7U, 0xbd5e0de63d38bc51U, 0x3daea398bd65b5bfU, 0xbe03adcb3e0e7ac8U,
  0x3e1469e83d647304U, 0xbd932aa63d948aa9U, 0x3da1b27abe03b717U, 0xbd85a630bda9e1ccU,
  0x3e03c335bdcc99caU, 0xbdb3f1413dd1ec28U, 0x3dc977853d3736cbU, 0x3c614466bde2aa38U,
  0x3db47960bd0455c6U, 0x3d02498a3da806e4U, 0xbcc7dfbf3d8b62b8U, 0x3de3e821bcd1db2dU,
  0xbdec2d13bd9225daU, 0x3c3f88e8be029b50U, 0xbe1503813de136f1U, 0x3d9ce264bdcf63a3U,
  0x3d941e05bde2f08eU, 0xbe1335a73dcd57f3U, 0xbcde9019bda93c0fU, 0x3dab77f0bdf8ee2fU,
  0xbd254f703d44f3f0U, 0xbd78493dbd9a7e9aU, 0x3bfa439ebc956288U, 0x3dabffd03db00b8fU,
  0xbdff51ecbd88062dU, 0x3dcc2e69bdaf4e35U, 0x3d36c6ffbcb36c12U, 0xbc7ac6dbbddc2222U,
  0xbca93a413dafa8dfU, 0x3dddc2d6bdb024b6U, 0xbda67543bde5d285U, 0x3dea82aabd41330cU,
  0xbceeea8cbdc1da4aU, 0x3c8059dfbdb66c0eU, 0xbdfb3d703dcf508dU, 0xbd6d7c4c3db4808fU,
  0xbdaba380bd498f6dU, 0xbdace1313de61ea2U, 0xbddb598fbde22873U, 0x3d01a1d43db1ee51U,
  0x3d4a205f3db090fcU, 0x3d4bbff2bd7ab528U, 0xbd893733be1801ccU, 0x3d6d07f4be1e218eU,
  0x3df643abbdfc93a3U, 0x3b01cea73df12bfcU, 0x3da58751bc859550U, 0x3e020deb3df35da3U,
  0x3cd4c5f43db52f57U, 0xbdef039c3d890498U, 0xb8a490393c3a7c01U, 0x3cab8387bc87036aU,
  0x3db2cc6e3dfda749U, 0xbd41063f3ddbba79U, 0x3d8b2bd93d8c7297U, 0x3dcf7dbebdb5b3dfU,
  0xbcc56fe23dc48aa7U, 0xbdb26136bc3dfe8eU, 0xbdd6a38dbd94ecd5U, 0xbca54ab43d8a760dU,
  0x3de305643e00b00fU, 0xbd3b843dbdea5932U, 0xbdea0b9cbd9c152fU, 0x3dc9ebeb3cf6e1e1U,
  0xbdd4dddebdc2a167U, 0x3d87deec3cc5d012U, 0xbe134f573e0a8342U, 0x3e0b4ed139da82bbU,
  0xbc2cb1633cb58d93U, 0xbc4fbba3bd3d8d69U, 0x3d8f15cd3dfd003eU, 0x3e0ff053bdc6d83cU,
  0xbdc38c723df68291U, 0x3dd27f1d3c22fa8bU, 0x3d9ef9d9bd847614U, 0x3d6b6905bd9046ebU,
  0xbdaf9bcbbdb0b0f7U, 0xbdeeada6bdb800fdU, 0xbe0c23bdbd479910U, 0x3df61bca3d65c9c4U,
  0x3e15acf83d88b65dU, 0x3daf6f00bdbb17baU, 0x3e0c2027bbcd362fU, 0xbe0841f4bdcb87d9U,
  0x3dd43be53d5d4b6eU, 0xbdf29e13bda49e2eU, 0x3dce67fa3dd075d3U, 0x3d294c42bcd67c70U,
  0x3d04393b3c2c09cfU, 0xbcab62f1bd1c3f7aU, 0xbdbd3b543ca2af5eU, 0xbc9d20d63d8f5c52U,
  0xbd91b7f6be1032f5U, 0x3d8468593da031beU, 0x3d9f8a3bbde48c74U, 0xbd0dd5543ddee13eU,
  0xbbb4f144bdfa69dcU, 0xbdefb969bc8a2321U, 0xbd1ab3553e1257d9U, 0x3d9c1c283d9fb225U,
  0x3dff17f63cb60b84U, 0x3d9b4b5c3da73df9U, 0x3e090a4dbd51aaf4U, 0xbdab4fb7bd9981e6U,
  0xbe0e6106bdb5c230U, 0x3dec1cf93ca0aea2U, 0xbd21232a3e121e14U, 0x3ceb96a8bd6efa17U,
  0x3b11668c3d0d0ff0U, 0x3ddb15313d4c7518U, 0x3d3907583d87c5b6U, 0xbe0ca818be0becd8U,
  0x3df3f369bd348a7eU, 0xbdd4fb61bd25cf03U, 0x3bda715abce0b263U, 0xbdc3d33cbdab9d5fU,
  0xbdaa7eb8bd7ad91aU, 0xbdbb46033db9d77cU, 0x3db4576f3da953cbU, 0x3dc8344d3d61db86U,
  0x3bfb93973e09ce2dU, 0x3da4b1083dfc6eddU, 0xbd7c9c173d4c139aU, 0xbbab6eec3c76c692U,
  0x3d84e10abda1a79eU, 0xbdd974f33dcac981U, 0x3dced9cfbe06d127U, 0xbe056b2b3cc27737U,
  0x3d9ed6033d61dd4aU, 0xbddc84a43e059883U, 0x3dd799943e0e58b1U, 0xbde00178be0ecfebU,
  0xbc3444f13d9b0fe1U, 0x3dfda68abcd69a32U, 0xbd6a8c1ebe03ed09U, 0xbcd708d23d0992c0U,
  0x3bba5f313b0ef5fdU, 0xbd4bb541bdb28f6dU, 0xbe18a6d23e0c445dU, 0xbced75bb3d1fdef9U,
  0x3d8afe9f3cad9e51U, 0x3ce990943d822b0cU, 0xbd370847bdb3f855U, 0xbddbc2773dbc5145U,
  0x3e0b90d0bcbf81e3U, 0xbe2c154dbd970e99U, 0xbe0baba7bc8e281aU, 0xbda50e47bd92d2bbU,
  0xbdf819b7bd84ada8U, 0x3dd73094bd1f8f4bU, 0xbcc511623dd6df14U, 0x3deceee8bdd6d367U,
  0xbd3c67043d98dd15U, 0xbe1c1e56be09b03cU, 0x3d775ff93e1a5168U, 0xbc921fff3d48651dU,
  0xbd0e41733da1643eU, 0x3d3a53c9bcb23db4U, 0xbe0031da3dd2f0b5U, 0xbe1022a1bcafea93U,
  0xbdfc256ebc74cca2U, 0xbe073cd33dce17b3U, 0x3d1841d83d11723dU, 0x3cfe24a43e1b0bf0U,
  0x3e06ffccbdde9794U, 0x3dbbdc663dde70b9U, 0x3dfee3ca3df3afb2U, 0x3d3c06593c73dfe1U,
  0xbdb17e71be0d7c00U, 0x3ded8318bdcbd637U, 0xbd3751c7bd391cbcU, 0xbdaa55b9bbaae50dU,
  0x3d321ded3dc3713eU, 0xbd8090f63dff8263U, 0xbdee006a3d854783U, 0x3cc1879f3ccc34d4U,
  0xbd324746bdae2ea8U, 0xbdb56dddbcac3f28U, 0xbd9c4447bd83bfd8U, 0xbc0f24e93df4d3edU,
  0xbd3c1cac3d0b6df7U, 0x3dd29be1bcad8210U, 0x3dd14636bdee25dfU, 0x3d91251eba1720a3U,
  0xbdd82ba1be0eeae4U, 0xbdbb1da8bd0b7a60U, 0xbdcd6e2bbd8e8762U, 0xbc275c2cbc38c8a0U,
  0xbc21c9c13daeb082U, 0xbd0174d4bccdd3ebU, 0xbd86a9443d5f567fU, 0x3e0090413c56bbf3U,
  0xbdbe00bf3de83815U, 0x3c46100abda1654cU, 0x3dfbbd1abdece3f1U, 0xbda6e12bbdfdc8d3U,
  0x3d8dee713e06bf80U, 0x3d3ea7de3d8c2f52U, 0x3decf6d4bdd18fbcU, 0xbdd1bca0bd574cafU,
  0xbd4e211ebaa46074U, 0x3ce55af73b162429U, 0x3d8b275e3df06110U, 0x3da5b7dd3d2d9696U,
  0x3d99de36bd828d6cU, 0xbd3773863db4edc4U, 0xbd5f9911bdb2d3ddU, 0x3e0e80203dc8d659U,
  0xbd004bb4bb89e4feU, 0xbcee03653ccf83f3U, 0xbc354540bd42b7b2U, 0x3dda8bd8bb2ae57fU,
  0xbd68a198bdd58cc8U, 0xbe00f52a3df925adU, 0x3c62e1283da03d54U, 0xbe080ffa3d957e4cU,
  0x3c2403b03db3138dU, 0xbe0b8342bcc2b990U, 0xbdab93ecbc8175dbU, 0xbdecf99bbcfef1a2U,
  0x3c3b3055bc3b0602U, 0x3c3ad9efbe062220U, 0x3e13c986bd883a66U, 0xbd4381a33e03aaf5U,
  0xbd8a3c85bdedaf74U, 0xbdfb7218be109349U, 0xbd8360fb3d980807U, 0x3d4885343d97aeb8U,
  0x3d90ed4bbe12cdaeU, 0xbdb8afa13db51e4eU, 0xbde207e03dddb300U, 0xbd839f433d84f78fU,
  0xbc19ef423c026396U, 0xbc6046c63cf02f78U, 0xbcaff795bda21c80U, 0xbe0a40dfbce899faU,
  0x3d259b92bdd46943U, 0x3d9f997dbda074f8U, 0xbc7fc41e3c52f77aU, 0xbde8b966be1171d7U,
  0xbd90607e3d9fe273U, 0xbe0411df3d90344fU, 0xbd06faa13da6ccfdU, 0x3e1ab33f3d290963U,
  0x3e0f1af73b956d67U, 0xbce0eb723db4c6a7U, 0xbd87e6dabda63bcaU, 0x3c3dd05b3d72f40bU,
  0xbd8a8092bd8e100fU, 0x3d8839603cdc0eecU, 0xbc9f1b793c8d5ab4U, 0x3d95fe283c3ed018U,
  0xbe08b57d3dd0522aU, 0xbd4da2b6bdcb44aaU, 0x3c2d6b013db2811dU, 0xbd587ee9be0fd83bU,
  0xbe1522ca3c05cf3dU, 0xbd5b6496bd944f62U, 0x3da69269bdad0d8dU, 0x3cb81a2d3e1ddd6eU,
  0x3c3b60efbd91b500U, 0x3d70f782bce0b1dbU, 0x3da370b4bd7e4cdfU, 0xbc6e24bebd169891U,
  0xbda8ff723dcf2f9eU, 0xbd2ba851bdda65f2U, 0xbd97d2aebd0b8f42U, 0xbcc1ab93bc9ae5ffU,
  0x3b9f2e0b3d68bdc8U, 0xbd2be2203d8d83d2U, 0x3c510f003d4b85acU, 0x3e0aaae63de562f8U,
  0xbe02506abb879f88U, 0xbda9b50bbd994ab2U, 0x3e0b85733e0c9637U, 0xbd06911cbc38dbdbU,
  0x3d1d1f013d6d265aU, 0xbd70d5f7bdf307f0U, 0xbdb7f0a03de05c42U, 0x3dd0e488bcacdc14U,
  0xbc582595bd88ac8bU, 0x3d48ac8fbe0f1acdU, 0x3d2177193df9d3e6U, 0x3ae7aef83cadc135U,
  0xbd7a3273be0d4a2eU, 0x3dd81c343d513e0dU, 0x3cc601c3bd3017ccU, 0x3d3214fa3de030e7U,
  0x3e0038283dd7dff5U, 0xbe07a3403dca0049U, 0xbd23bf72bd84b1f5U, 0xbb6601a93d5dc077U,
  0x3b0e9f763be85b7aU, 0xbc02c8253c69cfadU, 0xbdd4828fbdcf6923U, 0x3dcc0264bdb427feU,
  0x3d6ed647bd9ed454U, 0x3e15be9bbb8b0e3cU, 0x3dbb61f43d98433cU, 0x3cd796ed3d87bf3fU,
  0xbe12ebc1bd2aac99U, 0xbd70d11ebd616314U, 0x3d2e3cb5bdca6778U, 0x3d8080093be9fec0U,
  0x3e12bdc63ca13a0bU, 0x3d31e0003d5b46daU, 0x3d400b193dfd4341U, 0x3d8bf9a4be14e58dU,
  0x3e072e933e102781U, 0x3cab50b3be1197fcU, 0xbb6b39dbbde90a03U, 0x3d0a003d3db7f51eU,
  0x3d63d175bc3b2b4dU, 0xbd85f94cbdf1e310U, 0xbda3ca9abb5ae4faU, 0xbcaa6cd73d99862aU,
  0x3ce04e4c3db4ab38U, 0xbd7d8def3d92ed0aU, 0xbd947483bd2a7d71U, 0x3df69a7b3dfea22bU,
  0x3a4f1e15bd24fce8U, 0x3e1a1094bdfb5d37U, 0x3d0ea79f3c5a5ec5U, 0xbe06e3f93df51c04U,
  0xbe0726ffbce46e31U, 0xbd85e212bd15b7acU, 0x3dcedc7fbc97c678U, 0x3dfd5c3fbc4c2abfU,
  0x3e03d02a3df238cfU, 0x3d60cb343de51880U, 0x3d2fc1adbe11f7bfU, 0xbe0751183dbce1f2U,
  0x3afc775c3e110617U, 0x3c976e5dbc914e68U, 0x3d9d569c3de21682U, 0x3e02bde53d6dd532U,
  0x3d767ac4bd2ce0e0U, 0x3e23cb9a3d9b4d7dU, 0xbe03c949be0a1e68U, 0xbd57301bbdd0a1eaU,
  0xbd6622ea3dedb8a8U, 0xbd94c1bc3dd42733U, 0x3dcdead5be0a9830U, 0xbd08cff6bd9d5141U,
  0xbd39b4a6bbdc77d4U, 0xbc717e5d3de525c0U, 0xbdaaad0fbd22839bU, 0xbe1863ae3dab2415U,
  0x3e155a7d3dd14e17U, 0xbd8129f33c701588U, 0x3dfaee3a3db5b4e2U, 0xbd285581bd3c9759U,
  0x3cd2411ebdedbea0U, 0x3c3fb5ac3d1d1a84U, 0xbd731d14bd9f067bU, 0xbdd77cb1bc6d2062U,
  0x3d2a7e9f3bb4dabfU, 0x3df485eebcb34d25U, 0x3da62f08bdae5b56U, 0xbdedafb0bc40396bU,
  0xbdf5d159bb2a0d90U, 0xbdd33a2b3dcf620dU, 0x3dd930ebbdd15584U, 0xbdee74653d98475cU,
  0x3e0917e33df4713eU, 0x3ded9f3e3db266d4U, 0xbb3a29323dce461dU, 0xbdabc2483e0e276aU,
  0xbdb3249c3cd3d597U, 0xbd9bc6d6bc8ac5dfU, 0xbddbb6f7bcd15373U, 0x3ca90ab4bd210e98U,
  0x3cc7a462bd4c6405U, 0x3db4e6dabd1184dcU, 0x3e0a3954bdaa49faU, 0xbdf99c14be025e51U,
  0xbe08d12cbe0e2eb9U, 0x3de3aa5f3ce117a2U, 0x3e13aaf83dca7e2fU, 0xbdac51153c2d379bU,
  0x3d9a0a473d9e9f5dU, 0x3d90dead3dcedfeeU, 0x3d0056b8bdfbed9bU, 0xbd920992bcea7e27U,
  0xbe162e20bd333929U, 0x3d4551eabca92dadU, 0x3e2864abbc9ec680U, 0x3d5408893d79e373U,
  0x3d871cf63dbaa5c5U, 0xbc0e52903df966a0U, 0xbce0e7b0bd843d2cU, 0x3cc837c1bc79c886U,
  0x3d6c7eedbde7bb8aU, 0x3df161503cb18ba3U, 0x3d894487bd2e81c4U, 0xbcb95af6bd665a59U,
  0xbdbe4997bde344ceU, 0x3e04e6b7bdb04eb1U, 0xbdc4f4433cc8010aU, 0xbc0ee9553cb38dfeU,
  0xbd94d06e3dd966d5U, 0xbdebc1053ca2d4b7U, 0xbdc2d8a43c4f70f1U, 0x3b819569be054f1eU,
  0xbdfb930a3c0ac433U, 0x3c32f6413d4d0161U, 0xbddcc956bd90a465U, 0x3da00146bd60f1fbU,
  0xbd21ac44bcd65fc4U, 0xbd26b263bd59702eU, 0xbc9883793d0b7299U, 0x3ca5874b3be08672U,
  0x3bd9e9ac3d317007U, 0xbda5308f3daa04faU, 0x3dca5a2ebd821a02U, 0xbda4ff0e3db7f77bU,
  0xbdd31dadbc777390U, 0x3e11105e3dd6251cU, 0xbcc737a0bd43d596U, 0xbba41b793dd975e6U,
  0xbd1722693e05c6aaU, 0xbd8d4d5abadadb64U, 0x3d6ff736be02674bU, 0x3d117a5fbdb163f0U,
  0x3d96548fbd274202U, 0x3d95d9253dd5300cU, 0xbdefb4763d9ad634U, 0xbe0d9da53d48d6c0U,
  0x3e0cdd7abcf75696U, 0xbdd3d4f5bd4f5403U, 0x3b9e0afa3b8f292aU, 0xbd5fae223e159012U,
  0x3c6cf9273e0003e8U, 0x3dc26dc43e136612U, 0x3e0097193dd148e0U, 0xbde8add5bd961993U,
  0x3d5dfe843daa306eU, 0xbd0ce31d3cfd4e59U, 0xbded0f893d5125c7U, 0x3db2af2d3e1c3d24U,
  0xbdbfee8bbe10bbeaU, 0x3e13c80f3cb9bd05U, 0x3d8dac52bda3ef7aU, 0xbddf8948bd3d1b78U,
  0xbdc09e0bbde93ab2U, 0x3e1326243c87bbdeU, 0xbd42b8d0bc1ba5a3U, 0x3d7233b7be06d570U,
  0xbe0e8c253e12cb85U, 0x3cf5330dbe141f6dU, 0x3b238af43e046c7dU, 0x3d4aa849be04552fU,
  0xbcb3edbabe05e6c5U, 0xbdbc8d13bd0d2323U, 0x3dc072653d7de907U, 0x3dc8c284be1ca364U,
  0x3db814dfbdcb4d14U, 0xbdeb65dd3d64b1f6U, 0xbd4390a93e1714d6U, 0xbe1127963cdbd6faU,
  0xbd7078613de51e41U, 0x3c915c913d8b3b4fU, 0x3dfe293c3c47edd6U, 0x3dc92791bd873b72U,
  0x3dc34e87bd0ab915U, 0xbd5437ad3d878c1aU, 0xbd7ee2093dec2872U, 0xbd20783e3dc54ddcU,
  0xbe065860bdf29702U, 0x3d80c264bced71a5U, 0xbcc84879bcfee870U, 0xbd3c70ddbde2b247U,
  0xbe19a3e6bd8ca327U, 0x3dc14b4bbd6362daU, 0x3e1427a3bdbb27efU, 0x3de3ddee3d68f72aU,
  0xbcd79f893c256759U, 0x3d1fce9e3d513caeU, 0xbd45a991bb4606a9U, 0xbe20bc56bde5e0a0U,
  0xbdeb47f63e0484d1U, 0x3dada5b4bbad2176U, 0xbd0373ddbd5030eaU, 0x3da63a013c6ffff9U,
  0x3dad66d43cd5e3b8U, 0xbd4fb2bbbe0dfe66U, 0xbdaf16f9be17b1ffU, 0xbdde8db7be262a9eU,
  0x3d927756bd331263U, 0xbca6d60a3e041e69U, 0xbb831a453d89976bU, 0x3c838a4b3de328a6U,
  0x3d914fd4be114d9cU, 0x3dfa026bbd89d4bcU, 0xbdaa77cbbd292f62U, 0x3dd75d4ebcf3c6f7U,
  0xbdd8eecabc5ff7c5U, 0xbdb86d79bdd8a771U, 0xbca620563df4c1e4U, 0x3d1601553d634fe2U,
  0xbd3a33a9bd12195aU, 0x3db9870ebdeb66cbU, 0x3e099514bdcd3ab3U, 0xbdd208893da56983U,
  0xbbefeea13da15974U, 0xbba0193f3ddcac91U, 0x3dc90c3c3c8f7a3dU, 0x3dcb60483db8ece1U,
  0x3dada2ac3d2b1a7aU, 0x3cdbebae3d0c2cadU, 0xbdbf8f8a3d41f177U, 0xbe052a36bcf953e8U,
  0x3c7eaefb3d478a93U, 0xbc87df80ba862bb6U, 0x3bfd9b28bde30e9bU, 0xbddb5d9cba08e047U,
  0xbd0371c8be1a5af9U, 0x3bf91efe3def6114U, 0x3d05f71c3dcc5c48U, 0xbdecc096bd709147U,
  0x3de81fe2be04922eU, 0xbd92b57e3bffd888U, 0x3a42eb86bcab7986U, 0xbdc116c3bdea6d71U,
  0xbd4ec81d3da7fad4U, 0x3cc7d011be0a8b28U, 0xbde1a6453e0618b7U, 0xbc70e4ffbbe19d6cU,
  0xbd659687be020e08U, 0x3cf02a353dbb0243U, 0x3d9ea344bdc2a23aU, 0x3dade7333e0db1b2U,
  0xbd0f5e8cbdcf35d6U, 0xbd8a3a87be1916fdU, 0xbcc6a1b2bdacc9c1U, 0xbde93f1bbd8a540fU,
  0x3d7103aabe004e4dU, 0xbd68bd233da53104U, 0xbd03a289bc324591U, 0x3e0138043dc587ddU,
  0xbe0cdb1fbd8c5311U, 0xbda46e33bcf2fc39U, 0x3e01f4fabe12ca7cU, 0x3ddc57833e0a3832U,
  0x3d3798bdbdcb9b3aU, 0xbd9e236b3da86ac6U, 0x3dae165abdb4797cU, 0xbdf2c67d3dd96b14U,
  0xbc61fc82bdfd911fU, 0x3a81bdce3d69984cU, 0xbb7e49be3bf8077dU, 0xbcb0d855bde3bd8dU,
  0x3d96a1ebbdd20739U, 0x3d9d7dfabca330f2U, 0x3d2e91963de921bfU, 0xbdeeadff3b5f173dU,
  0x3dc3aef03e012b38U, 0x3c53ff1abe1d63f1U, 0xbd0d6065bdf1a072U, 0xbe01ee95bd8dbb0fU,
  0x3d877df9bde516c5U, 0xbdedbcbcbc2d0242U, 0x3e134d14bd24d87bU, 0x3d004c50bd33681bU,
  0xbe142f2d3db5587dU, 0x3cdda0673d676abaU, 0xbe03978f3d502fb5U, 0xbbdf62b83cf5bb0fU,
  0x3db4fe793cb7838bU, 0x3d410926bd68b82aU, 0x3a8fe127bcbb8045U, 0xbde67548bdaa215eU,
  0x3d8af3a13e01fc08U, 0x3d7a1ec7bdc1bbceU, 0x3db5cdb3bddaaef4U, 0xbd92e8873d950ffeU,
  0x3ca24448bdf0c703U, 0x3cc070333d0436bdU, 0xbc31f403bca7ac0eU, 0x3dcd1b683dc3a1beU,
  0xbdcd871c3df753dcU, 0x3d4be5883da5c697U, 0x3de9ce16bb98e82bU, 0xbde43de9bd015d42U,
  0x3d9a2246bd854523U, 0x3d90171a3dc4e12fU, 0xbd2a44253e028a0cU, 0x3d31424fbd469b87U,
  0xbd5c99963c6f9d16U, 0x3dc55b19bdd30157U, 0xbd4a8d22bd82b2f3U, 0x3c29c68dbd29345eU,
  0xbd08811c3dddc695U, 0xbd04a6d13b7e50e1U, 0xbde95ae83d93abebU, 0xbd26dadb3ded4054U,
  0x3d645a30bdfee310U, 0x3e05abf43cd668e2U, 0xbdb639d6bdae27e7U, 0x3ccfc9433cf83807U,
  0xbb623df1bdb2d3c9U, 0x3e2a759dbbe64e63U, 0xbdf28163bd3e560eU, 0x3d9996733dc8ba98U,
  0xbd9816c53dc6103eU, 0x3bebf2a63cfbbcc0U, 0x3dab986f3e151e09U, 0xbc33f9f0bcd2700bU,
  0x3d999fb83d4f5e83U, 0x3c9ac195bc52986fU, 0xbddebb77bd8af31dU, 0x3d957ffc3d8a01edU,
  0x3d89b6adbdc2d93eU, 0x3d4b9faabdcc0fc6U, 0x3bc6ac97bd38f76dU, 0xbd93dbd43aff7f31U,
  0x3daf85e43e1f88d9U, 0x3d93f987bbae908aU, 0x3ce7110b3d7692b0U, 0xbd65b0c53e033b42U,
  0x3d98d864bdd2eb7bU, 0xbdfbeec1bda57227U, 0xbda01ebd3d6121edU, 0x3e0266d0bddb6281U,
  0x3dde9fb43d8e1fc2U, 0x3e19066cbd970001U, 0x3c9127a5bdca7921U, 0xbe00e4b8bd53d530U,
  0x3d7aa3b8bdb592ecU, 0x3b1e8e333d58dc39U, 0x3da0baec3e295387U, 0xbc28ed8fbdc3c798U,
  0xbd87b7353d90f2ecU, 0x3da31db8bdf1aa59U, 0x3d2ebdf13dac0d9eU, 0x3dcb86e83dc5e651U,
  0x3dee1de6bdaab0dbU, 0x3b9b4a78bddf7cc8U, 0xbe0c3a5fbd9ee60aU, 0x3dfc04273d0aad57U,
  0xbcd297f63e195804U, 0xbcf83f643d72d749U, 0xbdb2c6733d9bbdbaU, 0x3e22cfbe3d50c9ccU,
  0x3e056a903df695a7U, 0x3cefc365bd15f180U, 0xbdf7957cbd0392eeU, 0x3ba154c7bcb56058U,
  0xbdc90e96bd8655c0U, 0xbd9eda6dbbddc785U, 0xbd85a8ecbd0aff62U, 0x3dac80d43b4db2efU,
  0x3d821368bdbc1601U, 0xbdfc83313d73dfdeU, 0xbd843f093dfcafbbU, 0xbd4d427e3e0833d0U,
  0xbdba5039bdb49fadU, 0xbd719613bcdfc8fdU, 0xbe18882ebdf78039U, 0x3bfaf6babe061f56U,
  0xbcb454933de33d9aU, 0x3d947df2bdcee0e0U, 0xbe0288cd3c593f4eU, 0x3dacc0a3bcb9d51bU,
  0xbe1094ecbe080c7fU, 0xbc3d8830bde1a791U, 0xbd0de13dbc796268U, 0x3d6fd32dbddc9507U,
  0xbc9e28493d651c85U, 0x3d1546973d063668U, 0x3c2a753bbd19277cU, 0x3e021283bdc071caU,
  0x3d8d703bbd75ed1bU, 0xbda467e2bddbc394U, 0x3e0c69ed3dc54747U, 0xbd13e956bd0c0739U,
  0xbded4c13be04434aU, 0xbe08d1ffbd9176beU, 0x3df3a9ccbe092ad9U, 0xbd22d6dd3c8761dfU,
  0x3c180320be04d725U, 0x3c7e9c9cbd438850U, 0x3deea1e4bcfe2777U, 0xbb53783dbde03a79U,
  0xbdc4e0d7bdf7574fU, 0xbd530d763d086f1eU, 0xbcbfd81b3e0fa065U, 0x3e0df7043d21463aU,
  0xbaecddcfbe195729U, 0xbe002bec3c9f780eU, 0x3df179f13e0e803dU, 0xbde0dce4bdde09e1U,
  0xbd95314fbd35967bU, 0xbde52997bdb21ce1U, 0xbd6e0eb5bdd8a383U, 0xbe138cd53cdae0a5U,
  0xbde782203dd95a50U, 0xbd092bdd3d21c69bU, 0xbe03acec3bbea4d4U, 0x3bc3d244bd154464U,
  0x3df159df3d2f59bcU, 0x3dbcd8323d66cf86U, 0xbca88ea3bdcac9eeU, 0xbc871fbd3c7943b6U,
  0x3de069d23dc0c70cU, 0x3e0173adbd136ffbU, 0x3c6b285dbde4d918U, 0x3c4cc6723d390eeeU,
  0x3dffd71cbd90487cU, 0xbdcc345ebd64e0e1U, 0x3c230dbabc864996U, 0xbd7f36e93dd8dc60U,
  0xbe06df3b3c5c953fU, 0x3da546013c657e5eU, 0x3d50661cbda4f4b2U, 0xbcb4ce0e3ca13e1dU,
  0x3d08ecb3bc7fbc3bU, 0xbd3d0b033bac865cU, 0x3c93314abe08bddfU, 0xbce797ac3d1f8755U,
  0x3d99aeccbde933caU, 0x3d96c07cbe0f9521U, 0x3d8da2c33c515b91U, 0xbcfb32aa3bf4c45cU,
  0x3d64a4723db21577U, 0xbcb0e3ae3deff7daU, 0x3c9de282bc263447U, 0x3cacca62bc739f7dU,
  0xbdb18beabad9b3f8U, 0x3de1f544bbbd7f48U, 0xbdeee2f43ce3c048U, 0xbd8f66543d70b4beU,
  0xbd2b1cfc3d055521U, 0x3cdf8b283dfa967eU, 0x3dbf0bd3bd79b023U, 0xbc3935e2bd9e0cd0U,
  0xbe0578283c315dadU, 0x3ced487e3d2f703eU, 0xbdf4b9eabe0c07c1U, 0xbd905167bcfce1d7U,
  0xbdc5c746bde7c99bU, 0xbe0958113d9550c6U, 0xbda5aad03bc2b1edU, 0xbd460423bcc1fa60U,
  0xbd619eb3bd3fa624U, 0x3dafcfe5bddce23dU, 0xbdf389a2bc39e40cU, 0xbd4b4a8d3df1f7c5U,
  0x3e17254fbcec38b7U, 0xbd12f74e3dec9141U, 0x3d800720be03b9d4U, 0x3e0702433c915079U,
  0x3e0c22e5bdba4ad6U, 0x3c6d319e3c839264U, 0x3d99963cbc63b815U, 0x3e0e6cf3bdfc33b9U,
  0x3d1f7f523d7c49ffU, 0x3d310af4bd2ed169U, 0x3d5e0201bd11b0cdU, 0x3dc21ffbbda653d6U,
  0xbd3c124bbddad7acU, 0xbd367d6b3dec50c8U, 0x3cf3b9a03cd9aa26U, 0xbd5cebac3d875f34U,
  0xbd2c7022bda56032U, 0xbdfd83d5bda0a06aU, 0xbd8b8ca1bd83e6fbU, 0xbe006a55bdba990dU,
  0xbd4fb9ea3e13f1fdU, 0x3dedc75a3e0a48c2U, 0xbe056f0cbd208e1dU, 0xbe0f416d3dbe4302U,
  0xbe0886d2bdf6b74fU, 0xbd80d5033d5de546U, 0xbd2b71f7bdf43cd4U, 0x3d843a77bd71015dU,
  0xbdc2cfbfbdedf5b7U, 0xbca6698abd2f098cU, 0x3e026497bdcc5fc2U, 0x3e074f1bbd9e11efU,
  0x3dcb08ebbc4c50cdU, 0x3cf635493c4e992dU, 0x3d86ac683da4ffd3U, 0x3cadf6683d7ba6f3U,
  0x3c7fbefc3cdc9c58U, 0xbe0bd715bd914ed5U, 0x3dac36543d5da1daU, 0xbd099ef63d2e23f1U,
  0x3d4b844d3ddbe8a5U, 0x3e068ab2bc17f346U, 0x3e18f5aabc1f279fU, 0xbdeaad183cbc66faU,
  0xbd3cc7223dee842dU, 0xbd25e9843c6773fcU, 0xbd35869dbb3bf49eU, 0x3d9be14e3dd37becU,
  0x3daa94cdbdb800b2U, 0xbd80977d3e08ae2eU, 0x3da0248fbdabe433U, 0x3d8f0517bdfdae31U,
  0xbb48f861bd131c0aU, 0xbdf8b937bca9e89fU, 0xbcbb57e1bd225b5cU, 0x3df0c8a13df81198U,
  0x3d6a731e3e07e3e6U, 0xbdf0c4323de4edaeU, 0xbc9ca4b2bdd3d08eU, 0x3d6b946e3b2db18eU,
  0xbb6fbd0bbd737618U, 0x3e0a265e3e1c7b21U, 0xbe059c8dbd4d303aU, 0x3c323cfb3b0ee3ebU,
  0xbd9fcb2f3dee476aU, 0xbe0a5d29bd8bacbaU, 0x3c9afdf7bd8ead98U, 0x3d7621343dfdaf8bU,
  0xbdbafb893d77517cU, 0xbdcf86063b4af2fcU, 0xbd8dc2b43d339aa1U, 0x3d30e8983d19c7e0U,
  0xbe1a803f3dd9121cU, 0xbdf95d633d2ff72aU, 0x3da15f8bbdfe8dc0U, 0x3daf2fa63d90fd12U,
  0x3d690dddbe047071U, 0xbdd5492ebce5b3d4U, 0xbdf1830f3ca8ce6eU, 0x3ddfd3c1bd7583f7U,
  0x3d77fa783dd01e68U, 0x3ddcc147bdc97ddaU, 0xbe1255c43de9368dU, 0x3d42cf963dbcb9b7U,
  0x3dbd39583dc75c74U, 0xbe0477383e073b53U, 0xbc24d6dc3e03fda7U, 0xbae8d826bda99dd2U,
  0xbe0193d7be1b8fb6U, 0x3d14cc53bc776ba8U, 0x3de04752be00560eU, 0x3dde33163dee3905U,
  0x3cc8395d3d2adefcU, 0x3e04d0c5bddef7a1U, 0xbe020c513d3f1b4fU, 0xbc8e63b13dcf9e83U,
  0x3da77e2abdd2d971U, 0x3c4484dfbd921e62U, 0x3d8a9ab13da475daU, 0xbddd46043d818decU,
  0x3cb7fb02bdd81bbbU, 0xbd9ac3f73d949e8eU, 0xbc8890d4bd3a2a19U, 0xba9004383e09d83cU,
  0xbd4226eb3e060ae8U, 0x3dd1af8ebdffb503U, 0xbc4b42163ca8e22bU, 0x3e1253f6bb8de9bdU,
  0x3e042123bcb80a41U, 0xbc8595413d08e694U, 0xbe0556223d944ac5U, 0x3dd79c573d5ff1f9U,
  0x3d6c0b4abda2447cU, 0x3dc739383dea658aU, 0xbd07dbbb3da4b02eU, 0x3df59ab5bdc8d988U,
  0x3d53ec253a7a18dbU, 0xbd639bab3da37ee5U, 0x3d5cf6013dd53691U, 0xbc92e2cbbc0acfa8U,
  0xbd8f99b63c8cba10U, 0xbe08b6afbe0d7c82U, 0xbd7b553abe0135aeU, 0xbd25b79b3db35fbaU,
  0x3d392d2cbd2cfe35U, 0x3ddca9503d4bd3ebU, 0xbe1178d23d9713d2U, 0x3d30186cbc80b7f6U,
  0xbdfe0f4c3d27d8aaU, 0x3d3d4836bda7c8f0U, 0xbd70fbbc3ceaf6d5U, 0xbcd6cdaa3de9b203U,
  0xbc387deaba5381f8U, 0x3a4b2c5b3aaa99ebU, 0x3ae07fd73b74f553U, 0x3b8ea36f3cd45789U,
  0x3c5d8bb0bb1a686eU, 0x3d06a2853c4bbbfeU, 0x3cfca9343c5cd6e2U, 0x3bd17b70bc628cb3U,
  0x3f7ffb9e3fc3dcaeU, 0x3fa649b23f920dbaU, 0x3fb593e53f85caf5U, 0x3fe5de3a402e20c8U,
  0x3f93a4d23f981bd5U, 0x40058e423f82eda0U, 0x40014b3a3fc66bdbU, 0x3f840daa403bc8c1U,
  0xbf1f4f50bf234d15U, 0xbf1968fcbf19da52U, 0xbf2a694cbf31d98aU, 0xbf282c61bf195c06U,
  0xbf0487fcbf087da2U, 0xbf3c5777bf39d0e1U, 0xbf46f1b5bf256c5fU, 0xbf38b9afbf2552c1U,
  0xbdae68423da78ceeU, 0xbdffff22bd97a78dU, 0x3cfb8109bd9e2bcfU, 0x3c9bbd963ddd096cU,
  0x3daf7075bdca3b0bU, 0x3d38c2473cadb6d8U, 0x3bc7012d3ba60779U, 0xbc21d1183d8b9ed8U,
  0xbddfe5d4bdec62e1U, 0xbb63d914bdbdebe1U, 0x3db522a13da6632eU, 0x3d41d70ebc5617e1U,
  0x3d08d264bd81e54dU, 0x3d59f66d3d9cddc2U, 0x3de9900fbcd39483U, 0x3dcb4a25bd333acbU,
  0xbdbfafe8bdf9e33aU, 0x3c29f7583d341b15U, 0xbdf9cffa3de1a471U, 0x3ccc91b33d9728ffU,
  0x3dcd3192bc9c8c3bU, 0xbcebb8343da3daf5U, 0x3d0dac5dbd2e9733U, 0xbd250fc3bd1c7902U,
  0xbd478825bda347f8U, 0xbd9be8e9bd14c0dfU, 0x3df9d8d73da1a198U, 0xbd5bced53db03a07U,
  0x3d8099ed3ad17ae2U, 0xbde032ed3c03d1acU, 0x3db5939f3dc832a4U, 0x3d13e4ffbd65d798U,
  0x3d7ed699bd419d31U, 0xbda1235a3cf3a319U, 0xbbb0ce1fbda58414U, 0xbdd758b53d2313a5U,
  0x3d3cd3503b8a9fb4U, 0x3d8a1b373d88794eU, 0xbcbcaaa53daf6c7eU, 0xbc40ec2a3b1761bbU,
  0xbd8a2ffd3d610120U, 0xbdb4fde1bdd74f83U, 0xbc4efe94bda04693U, 0x3d9f6ebcbdc04fd2U,
  0xbde4c8f3bdcdb3d4U, 0x3d380f24bdaa0a78U, 0x3cfa349abdb17e13U, 0xbdb6a597bdcb6f43U,
  0xbd85d41e3a28d975U, 0x3d817a8fbdb591daU, 0xbda8b2b0bda37095U, 0x3d27cae8bd0966fcU,
  0xbd88d3c53d44d454U, 0x3dc1eb183c913c6bU, 0x3c7b09d8bd9389cdU, 0xbccbee17bd36d36aU,
  0xbce296d83d934840U, 0xbdba6ac33dc10d2cU, 0x3dab1477bd9cd2f7U, 0x3d757fc3bbae1d41U,
  0x3d80e49f3cbe17a2U, 0xbd9b5d88bd2ea069U, 0xbcf8073e3d859297U, 0xbdd077bfbdb660b6U,
  0xbdc4a614bdaeebdfU, 0xbde98555bb87cac2U, 0xbd817571bdf19c4dU, 0x3dd52a20bd79cff0U,
  0x3db9c33fbdaf0c56U, 0x3cde7ac8bd312e7eU, 0xbd95f07d3db50fbeU, 0xbd88fe5c3d8da23bU,
  0x3d0c93aa3de81e6aU, 0x3dd9d9493d86036eU, 0xbdc561623dd8a83bU, 0x3bc67562bd1af300U,
  0xbc66f05b3d0d3789U, 0x3d9934b33a255e2bU, 0x3cd11831bcd15002U, 0x3c63e8493dc16955U,
  0x3bb8b5f5bcb7e704U, 0xbce7e2e8bdeb691bU, 0x3ba4c4703becaae3U, 0x3c4391c3bd806628U,
  0xbde59c883db3f37fU, 0xbc003e1cbd50b493U, 0xbda562393ddc401eU, 0x3ce6d8ed3e086c11U,
  0xbd14bb623b9576e6U, 0xbd781db3bd8c2df5U, 0x3dc69c7e3d8a54a4U, 0x3cc7b3983d991712U,
  0xbdd27086bd188482U, 0xbde54c813d74b70dU, 0x3d5829ad3cd90430U, 0xbdc3ef96bd6c5f5aU,
  0x3b2427d8bd92bea8U, 0x3cfc183ebc7e09faU, 0xbdcc9548bcaf9eeeU, 0x3dc7e2d33cba250cU,
  0x3d27f1003c0191a5U, 0x3dd96755bdb20746U, 0x3de0f1f4bd99c46cU, 0xbd971e98bd8c3cd1U,
  0x3d81f26fbc87a09aU, 0xbdcbb2393d544723U, 0xbd3d33bfbd9f2fd5U, 0xbd50b150bce3c30fU,
  0xbc1862383dcc4d7eU, 0xbdb25f193da3d5c7U, 0x3de8fda33cf321e1U, 0x3cb093e53d834b9eU,
  0x3dc8e4a43dd319beU, 0xbc8df334bde0dec2U, 0x3c8d5845bd7a26f6U, 0x3d59649e3cc8647aU,
  0xbde78442bc901a23U, 0x3d472f70bc584bc0U, 0x3d46763eba4c4f2fU, 0xbdf1e3943d9c35c1U,
  0x3dfd5a243d52ae4eU, 0xbdb90ccf3b6acafaU, 0x3d8228df3dadebacU, 0x3d77b689bd1a96ebU,
  0x3ddda9b6bd3e9c35U, 0xbd95888dbcde7793U, 0x3dac53b33d42a0adU, 0xbb9df79dbced4defU,
  0x3dca3d32bd8de99bU, 0xbbb75a023dad9e95U, 0x3d96c733bca8099eU, 0x3d800ef0bb2ba730U,
  0xbcfe75e93cc54afbU, 0x3b9316b43d95ebb1U, 0xbca067f83deeb9c7U, 0xbd1ac748bd537674U,
  0xbd8354723cc20268U, 0xbd8fb0cc3dcec490U, 0x3db9b175bc8e2af4U, 0x3dbd9e733d4bd2d9U,
  0x3bb7a9e23d028667U, 0xbdc170113c0a6d05U, 0x3d76d4ba3d5b85b3U, 0xbcaf91463de6f592U,
  0x3d81d8e2bd21672bU, 0xbd7ece583c82a118U, 0xbda66520bd795347U, 0xbc90364abc148db7U,
  0x3dc8c8bb3d5b39edU, 0xbc2c1c27bd5b9702U, 0xbd19aad53ccd9f8aU, 0xbd070192bdc1e7bfU,
  0xbd9533c43d10172bU, 0xbca73232bd406543U, 0xbca392693d9ac351U, 0x3d8df559bd4fc92fU,
  0xbd8e8e4a3d1787cfU, 0xbd4f969d3d815ce7U, 0xbdc870febc8987f7U, 0x3d0dfe2abc92f367U,
  0x3def73a63cdab5dbU, 0x3d8929f23db5aa2cU, 0x3daf90323d2c8ed2U, 0xbd71f327bdcc5773U,
  0x3c84cbc23ddb7730U, 0x3d6afef53d7beb23U, 0xbd8db4433dcb242bU, 0xbc0b15febdae72e5U,
  0xbbb9b8e2bdcd6ba0U, 0xbdcf33943db0207bU, 0x3d3c0f173dc2f474U, 0xbcd533213d94c9d2U,
  0xbda16eaa3d440983U, 0x3b8ec3413da55303U, 0x3da29f2bbcb28f15U, 0x3d880edbbc9c1f45U,
  0x3d424944bd92a8ccU, 0x3ddefce5bcb104ecU, 0xbd93f741bdb61582U, 0xbc1940d6bd6d7318U,
  0xbcc5dd833db6241dU, 0x3c3d7607bd814cd7U, 0xbd5944cfbcd0e627U, 0xbca769ecbd8a59a3U,
  0xbca51195bd01d393U, 0xbdd98e55bd460c8bU, 0xbdb1d6dbba38fd17U, 0x3dad03a4bc8c4fb3U,
  0xbd685412bd5f80e3U, 0x3dd3db4dbd245beaU, 0xbac75e0e3d57cbe2U, 0x3dbc50203dafbf9fU,
  0x3d87b4c63d1bb220U, 0x38c3409e3ddd07f2U, 0xbcc3223b3cb0bfefU, 0xbc220248bd1f4bfcU,
  0xbd582ad6bd3a3ba8U, 0xbdd2d86ebda62273U, 0x3d63f615bd0d7d2bU, 0x3d84f799bceeebfdU,
  0xbd157b2dbc35ce88U, 0xbde5934cbdafa0baU, 0x3d8530f83dfb598fU, 0x3c6d27a2bd26c4fcU,
  0xbcb2c2f43d504c78U, 0x3c462eafbd2e2445U, 0x3ba30f2cbd0247d3U, 0xbd4778b8bb327d8aU,
  0xbd13b5603c9093a2U, 0xbb80117c3dbda948U, 0xbdd79e563db58977U, 0xbcdc918dbd984a0dU,
  0x3d4720363d0f9a81U, 0x3d1f0bd83ba6cb42U, 0xbda2ea123db843f7U, 0xbc0b3a6ebbeabc9fU,
  0xbdee6806bd0aafb2U, 0xbdb9b77bbd75d6a3U, 0xbd444748bd5fc2adU, 0x3d4afa57bb6ef208U,
  0xbd944fe83bafcca8U, 0x3ce5a80ebc1c6be4U, 0x3cfc14b1bd6f242cU, 0xbd189456bcde173bU,
  0xbddbb414bd9076beU, 0xbd51a15fbdecf389U, 0xbd197e983d92f548U, 0x3bdabac6bd6dd287U,
  0xbcc237a1bc87cef8U, 0x3c6c332e3cb61d97U, 0x3d7752813d6e4ebaU, 0x3d7c81613d4a0418U,
  0x3cd59d003a7a1ef2U, 0x3dd27b5a3db61f36U, 0xbc8750c9bd0e390bU, 0xbdcea5a43dacb77bU,
  0xbd5e02e93dd78ab2U, 0x3d24f7dbbdb8e4e0U, 0xbd9d4166bdcff9c2U, 0x3cc997c7bddecc9fU,
  0xbdb0ca13bc5c1614U, 0xbdec220b3d9c814bU, 0x3dad7af3bd0822fcU, 0x3ded8520bcb459c0U,
  0xbc15b199bd6ee4b2U, 0x3d59f4a33d61cba8U, 0x3d4bee20bdbe19d4U, 0x3d95c6c63da004e2U,
  0xbd3efea4bd62f18bU, 0xbdd83e8d3d9a00f5U, 0xbd683ab23ce1b1cfU, 0xbb043e7f3d41746fU,
  0x3dd8b3bd3d97fcd2U, 0x3d1e4810bde69fe4U, 0x3d74c63fbcf9dba3U, 0x3df105bf3d1a34b4U,
  0x3abf204ebdb00abaU, 0x3df080c43d8bc413U, 0xbd4ab8f9baec3e17U, 0xbd5107393c7ae5f2U,
  0x3bcd3106bdc72069U, 0x3d9b496abdc0137eU, 0x3d1fb1a73cb69444U, 0xbcc1d4d6bdb44572U,
  0xbb6e305fbdee8a22U, 0x3d8e52f5bdc58dbfU, 0x3dade4d3bdb2b682U, 0x3d56ad8fbd4f136bU,
  0x3d906ed43d191c2dU, 0x3daac9f7bd1395e5U, 0xbdf752943cfd4535U, 0xbdeb70213db42902U,
  0xbddac6e4bd1793f0U, 0xbda8ee543c92ca35U, 0xbd6a19aa3dc0f30dU, 0x3da0b6fdbd3da913U,
  0xbd1fa029bdc82bc5U, 0xbdb9954f3a9aea52U, 0x3d9c54853bd0cfaaU, 0xbd1fd0d03e026f30U,
  0xbcf93595bdf12df4U, 0xbdf5140fbd77e904U, 0xbc0a14043dd5ea7dU, 0xbd18044ebb624386U,
  0x3b317565bd8a3325U, 0x3d7e979a3dc831bbU, 0x3c8e18443b9c2992U, 0x3d0aa68a3db3cb57U,
  0x3d47967d3ce7263dU, 0xbb773e683d26ba72U, 0x3d65a803bd25731eU, 0x3d9587ec3d847eb2U,
  0x3d5f740bbda62d99U, 0x3b33d1373cc15f8cU, 0xbce93b99bd883d40U, 0xbddd37b33dd9e501U,
  0xbcaef5ebbcc746a9U, 0xbdc99d50bdc2c300U, 0xbdce58693daede76U, 0xbcfdccc93dc21e04U,
  0x3c9c6deb3dcfaebcU, 0xbdc786cc3d6d2d53U, 0x3bc91288bd9e9b1dU, 0xbd7d8554bc953b65U,
  0x3d599ed83aac9f04U, 0xbd9759da3de8a5c5U, 0xbc5ac734bdd6d17bU, 0xbd194f4ebc8a700bU,
  0x3dcc95fe3dd4ddb0U, 0xbd4a3c65bb816cb9U, 0x3cbd7e89bda2eb6cU, 0xbdf0f0ddbd94c005U,
  0xbcb4df953d9cf3c0U, 0xbdc09b013db1a62bU, 0xbd1a0ce9bd677113U, 0xbca186d93db8b44bU,
  0x3c2568be3dbf4b1bU, 0xbdfe15d43c0cf20fU, 0xbbdf94283d03c515U, 0x3d871b23bd072f3cU,
  0x3d939d3c3da81144U, 0x3d15f6403d30e369U, 0xbb8d96713db24a6bU, 0xbdc104163dd0534bU,
  0x3d6991733cdc3386U, 0x3d2d9c9abdba98acU, 0x3dbd3de5bd928807U, 0x3d015681bd947f49U,
  0x3ba496e33d191979U, 0xbd8023ed3d410ea9U, 0xbd47073bbd99da29U, 0xbdd64c62bcc72c06U,
  0x3ddaf88cbd869521U, 0x3ce4583cbd56d868U, 0xbd76e71dbdc39e5fU, 0xbc0c986e3cae9b21U,
  0xbd24d463bdad8d48U, 0xbd936db3bdb8109dU, 0xbd763940bda7a306U, 0xbdc9bd1b3c220c98U,
  0xbc55a1f43d6c51d4U, 0x3cb0cc40bd8a9c8cU, 0xbbb1994e3da2fc86U, 0x3d54aa233d758a2cU,
  0x3d925eca3c3db19cU, 0xbdbb37753d88a2d7U, 0xbcf5bb4e3d095820U, 0x3d9f63c8bd81e90bU,
  0x3d44f7e4bddb2fceU, 0xbcc54afdbdaa9d94U, 0xbdda4d293ded5ee4U, 0x3cde96bd3d8619e4U,
  0x3d054b363dae5c5fU, 0xbdcfd5f23d89f860U, 0xbdcd940c3d6355d3U, 0xbcc14590bc2c0bbdU,
  0xbd8b25b33db766d3U, 0x3d01ca173d87d0c0U, 0xba5b42183da6f303U, 0x3deb32263ce9076eU,
  0xbc05efe43d858f81U, 0x3da956023ced3bbfU, 0xbc61839dbd1544dfU, 0x3b9dfcf33daae782U,
  0x3da27693bdc50dcfU, 0xbc699a7a3bf8accfU, 0x3c7294473d7f68f3U, 0xbc8d8e99bc834528U,
  0xbd4835193ac35fcfU, 0x3dc02ea93d201d11U, 0xbcac692dbc1dc93dU, 0x3dc18b97bd23e796U,
  0xbcfa59b3bd02dc46U, 0x3d25c149bd5ce5c4U, 0x3da625673dbb7d5dU, 0xbd18bce83d440d8eU,
  0x3dcc6496bc82a58eU, 0xbdb2f926bd3d8482U, 0x3cc7c4983c7fe0f3U, 0x3db142f0bc1bbb45U,
  0xbc4d2e17bd90e97bU, 0xbd43103bbcd9c735U, 0x3cc4be6b3db0e849U, 0xbd48656abda2ce18U,
  0x3defff243decc830U, 0xbd5b5138bdbf254bU, 0x3b9f088dbd01f9a3U, 0xbdcc79c5bd0b7604U,
  0x3db10f3fbdcb250bU, 0xbdba750fbd8bc44eU, 0xbdda56293b99627aU, 0x3db86aa3bd5af327U,
  0x3d9d12d73dabd9b5U, 0xbd98e3283d83d71dU, 0x3bfd3411bc4fce98U, 0x3c085aa0bd01649cU,
  0x3dec9e66bd47bc78U, 0xbdba44febda97331U, 0x3ce01b52bcde3849U, 0xbc4f349e3cd7a6c2U,
  0x3cd68f9c3d8a3dd0U, 0xbd82b0383caccb66U, 0xbde765fd3d3b8b79U, 0xbdc8ec90bcf14e64U,
  0xbb659ea3bde0d0c4U, 0xbc16e205bda3b390U, 0x3db77792bdf0222aU, 0x3d832ba63aad96b9U,
  0x3db7e9613c3e7b54U, 0x3cba8f7b3c074be9U, 0x3da092aa3c80bc7bU, 0x3c928d54bd0e5449U,
  0xbc16615fbd6e0690U, 0x3db877013e05445eU, 0xbb73e367bc832ea0U, 0x3ce585323d89fcb4U,
  0x3d49f8703dd2978cU, 0xbce08938bdd377ffU, 0xbd306876bd60492cU, 0x3d4531b8bd92764cU,
  0xbd9d96c6bcbdd88aU, 0x3bb0c4983ddfd244U, 0xbdcac858bd5970a7U, 0x3c05ff223d9c1b03U,
  0xbd781c5d3cc343aeU, 0xbdc95a5cbdcbf23dU, 0xbdb89403bd9fcc70U, 0x3d9411073db8bf14U,
  0xbdcca626bd511323U, 0x3d4bec313dca68c8U, 0xbd0dbf0cbdc3e823U, 0x3dc7d0fe3d3cbebaU,
  0x3d25e4253caacdb9U, 0xbc9c16943d0bfbcdU, 0x3d578bb6bdee9b47U, 0xbcb66bdcbd65a39bU,
  0x3cda9856baa1fbd1U, 0xbd8bb4d0bd68f067U, 0x3d9c868a3d91877fU, 0xbd83bb193c2bc35dU,
  0xbd3bc575bc98c663U, 0xbda6f8233db6ebf5U, 0xbd19fee73d85f816U, 0x3d947508bcac18c2U,
  0xbd96e4e93de78fa4U, 0x3d1107803d8d38afU, 0xbd9081353dbf7fc8U, 0x3d65e26d3df05ba4U,
  0xbb8f30d3bdbfd71bU, 0x3d2d2bd83de21183U, 0x3d5bc87abdc34cffU, 0x3c4f85cb3d4b00b9U,
  0x3a9db63dbd261f86U, 0xbd0d82113d21e3cfU, 0x3dae066dbde631f7U, 0xbccc5cff3d16d9cfU,
  0x3da9d1bebc773bcfU, 0xbda53afe3cdf3df5U, 0x3db194943c3674d7U, 0xbdc3a52dbd884e53U,
  0x3d0b7f2a3d40247bU, 0xbd8adcf13c877c78U, 0x3b02cee0bdc4fc31U, 0xbdf36bed3de282bfU,
  0xbd46bef63d89a093U, 0x3d6b722ebcc0c7e4U, 0x3dca26e2bd9a648cU, 0xbdc749debd146d04U,
  0x3d63e844bdf42908U, 0x3da8188c3dfa6992U, 0x3dec58703d37f464U, 0xbd32a1f8bd303642U,
  0x3d697d48bda5a95aU, 0x3d85f6f8bddfb73cU, 0xbdbd561abda92f87U, 0xbd68aaf13db5315eU,
  0x3b9d8950bb63a3d3U, 0x3c0bc8e43c0f6aa8U, 0xbd894ba0bde738d8U, 0x3db97f4b3d548742U,
  0xbdde34af3cefc4faU, 0xbdd6d3023bb3f2b8U, 0xbcbff6c6bc91fc6bU, 0xbc57bfa2bd818acbU,
  0x3db4e2f8bcb9dc1eU, 0xbde879e63db73fa7U, 0xbcc20f0fbd9f3375U, 0xbbcf12e8bdd24017U,
  0xbc990b2fbdd45e7bU, 0x3d5e42293db057d2U, 0x3d42a19abddeed67U, 0xbd890b8bbd1eae8cU,
  0xbdad9bce3ccab2bdU, 0x3dd1391ebc888e0eU, 0x3d0efb603d879e7dU, 0x3dc0e18abc4cae0fU,
  0x3d21854bbd6c68eaU, 0xbc5e0d6e3dda4995U, 0x3dd079b13d9162a5U, 0x3c137d7dbd7b665eU,
  0xbd0212cabdd78687U, 0x3ded22e73dd9a891U, 0xbc444ff03d9d5c39U, 0xbd3efe0b3c925cc4U,
  0x3c13141dbd3f3748U, 0xbdec5f9fbcc2355eU, 0xbde953ef3dcb9960U, 0x3d294459bcff966cU,
  0xbcc7865fbd0d741fU, 0x3dace567bda91805U, 0xbdb4db59bdcee959U, 0xbd67ea4cbc64b84aU,
  0x3dd6a193bd8ac3b5U, 0x3c61b43d3d06b553U, 0x3ddbd01fbc82a7d0U, 0x3dddc8bfbd577547U,
  0x3d0cf9123dab83beU, 0xbdb9fb14bc21ccc4U, 0xbcbf977dbd56617aU, 0xbdc2b1663dd87d34U,
  0xbce987d43d994bf0U, 0x3dbb055c3d862604U, 0x3dca53093d90deb2U, 0x3df2b10ebcb47ba7U,
  0x3dc62be2ba984765U, 0x3d63c40ebdd1e064U, 0x3ab999d8bdc6ae7fU, 0x3d6ff490bc4cb6cbU,
  0x3bc5da5b3d0d2f6eU, 0x3be30dcdbdaec75bU, 0x3cebe893bdf220a9U, 0xbdeba2fcbd38b3caU,
  0x3cf8f8bf3d394353U, 0xbd99df9ebd1e2891U, 0x3cb9db2abdb1d485U, 0xbdcba6383caf1519U,
  0xbde3aa8abd47121dU, 0xbc7281aebddb1f05U, 0x3dcf9556bdea8f36U, 0xbd43f86dbc98fe68U,
  0xbd1843bfbdb37fa5U, 0xbddf59c53dec89a3U, 0xbdb4c52b3dd3c4a5U, 0xbc5881ef3c118113U,
  0xbdf0aa9abd91068eU, 0x3db927123caf7133U, 0x3c1b45953c109cd2U, 0xbd80bc363dd53cebU,
  0x3da0783ebd8bf2b8U, 0x3dc7317abda1fc15U, 0xbdc203c83d583a01U, 0x3db6659abd821ae6U,
  0x3dc1e5d83cb21aeeU, 0x3d138cbcbdc25aeaU, 0x3d05ac09bd4ece1eU, 0xbdec68e3bcbe16faU,
  0xbd5cdc8cbd86dbe0U, 0x3b1f87fe3dd914beU, 0x3dcfae99bd9d8ec4U, 0xbddd40f93d4a7da0U,
  0x3dad9cfd3dcd2534U, 0xbdbe1ca23d58c412U, 0xbd486ff93b7c2d92U, 0x3de0e7113db7ba31U,
  0x3c9d5d313d7679ccU, 0x3dbb23943d27fadaU, 0xbdeb007bbd275710U, 0xbdd27b0a3bba4f7dU,
  0xbd5d90fb3d933010U, 0x3d394cf83df41831U, 0xbdca7d06bda46aa1U, 0x3d2397af3bba506fU,
  0x3d725f34bd49f435U, 0xbda733493dc39d00U, 0xbd7cdd2d3de42379U, 0x3dc38c6ebcc41ea7U,
  0xbc7faadbbc3cddc1U, 0xbdcd5f803ddbea57U, 0x3cacd7fbbd8c18f4U, 0x3a7721f73d4b31b0U,
  0xbbce121bbc45f8d0U, 0x3d458662bd0b99ecU, 0xbb38a571bddd1f15U, 0xbdbd4dc0bd621e55U,
  0x3dafdc25bdbf6031U, 0x3d263714bda1ac69U, 0x3be80a393a8be149U, 0xbdb93454bde212f8U,
  0xbd4dd3113d8e6ac0U, 0x3daa17723b9b46e1U, 0xbcafb480bd7b8be3U, 0xbd5682373da4571dU,
  0x3d133a97bdb4beeeU, 0xbd381b2e3cfc8896U, 0xbdbf1c0b3dd13bf7U, 0x3c0ed791bd2ca158U,
  0x3cb5bfdabd056bd8U, 0xbddc597fbd3c809fU, 0xbdd479b33dcca662U, 0x3dd348fdbbe2fa8cU,
  0xbd977d4bbdce5c56U, 0xbdd7e248bc963d03U, 0xbd67a3b43dbb504bU, 0x3cf4739cbd8080beU,
  0x3d4350663c10d9f7U, 0x3c8ea0e23d7d2702U, 0xbd15da6d3d458a99U, 0x3dc69941bda95129U,
  0x3dc1cda03da746bfU, 0xbdd8cb313dc9e535U, 0x3d8ec18fbc0026d3U, 0xbcd78bc4bce56956U,
  0x3db4ab4f3dbd61dcU, 0x3d8cc2b1bd0d9db0U, 0x3d929871bcf5e881U, 0x3deae198bd0d9072U,
  0xbd94e275bded9619U, 0xbb23f90ebd9786e4U, 0xbdaed8433dbe7887U, 0xbd9ced58bbb92fedU,
  0x3d983dc6bb12cfc2U, 0xbda963c93d9d0018U, 0xbddf87953cb89c4aU, 0x3d8843fc3ddf0911U,
  0xbc89d4533de695d9U, 0x3d49263a3dab96faU, 0x3d3617913dab042aU, 0x3dd758413dd50352U,
  0x3c45cd9fbba90278U, 0x3ddd60d83d917ffaU, 0xbd1c6dd3bdf75aadU, 0x3d283070bdf135c8U,
  0xbcf104793da5d189U, 0x3d8e4b4e3d07e0ceU, 0x3df28030bdb21365U, 0x3d1e89783cc8c407U,
  0x3d3eb12a3d7c421fU, 0xbde15465bdc1b329U, 0x3c7b11823dea13aeU, 0xbdaf2553bc59b5fbU,
  0xbdbc77c33d182bd5U, 0x3dd06f11bd3bcef3U, 0xbdd8e7e73d77e552U, 0x3cf1e17b3d8ce08dU,
  0x3dccbf0b3da8ab61U, 0x3d15eef43ca9d67fU, 0x3da662f2bd859e35U, 0x3df9da5ebdf0246dU,
  0xbdce6b3cbccfa9acU, 0xbd3c4605bda243b1U, 0x3d8318eb3b169308U, 0xbcc6801d3dca1dcfU,
  0x3d430ff73d91801cU, 0x3de5f6e43d5d5bd0U, 0x3d7d5cd7bd0e2463U, 0x3cb1d7e83d64483dU,
  0xbda561913d43d8deU, 0x3d9b5de43dac4397U, 0xbd1ef16bbd85914cU, 0xbd0733143d934bafU,
  0x3d03467c3bd1f3e5U, 0xbd62be923d8884ceU, 0xbda0ceba3d1d16c2U, 0x3d682c15bdaabb83U,
  0x3db7eb3dbba37788U, 0x3cb993d43d728068U, 0x3d2c9d05bd5cc0e0U, 0xbd988cfb3da79871U,
  0x3d4f2aaf3dc0067dU, 0x3cd71a3dbd812ae9U, 0x3da07953bd6e715aU, 0xbda0f2983e05f0eeU,
  0xbd7a18aa3d5cb33aU, 0xbb463addbda4df2fU, 0x3d1e83d13d81f3bcU, 0xbc4f9a6c3e11b31aU,
  0xbd32fca33dbd334fU, 0x3db94c8a3d3ea39eU, 0xbd62c9d6bdd54f59U, 0xbdb3207abd8aa8b8U,
  0x3ddee1863c790f17U, 0xbd341eaa3cba134cU, 0x3e01ef623d8872d6U, 0x3cf0c7a93de15eeeU,
  0xbb4f103d3dbb4f27U, 0x3dbc02073bce130eU, 0x3de01ec63d18797bU, 0x3a1a0214bd83106aU,
  0xbddd29c43dc55744U, 0x3cd4231bbd4e1c83U, 0x3da04392bd06e96bU, 0x3db2d0243ddef1d3U,
  0x3dd8c9d83db9e2d1U, 0xbc7d1d3e3da4aef4U, 0xbdbecc15bd982a0bU, 0x3a2b6759bd90918eU,
  0xbc6a1fa63cae6820U, 0x3d7726323ccdf4ffU, 0xbd731ea0bd4f30e8U, 0xbd2ee6a33e059044U,
  0x3d8ee83e3d9d4484U, 0x3da39e7cbce555e8U, 0xbd8b68aebd423a8bU, 0x3d17a81c3d471daeU,
  0x3d9a3b593d94920eU, 0xba02dd963ccbc134U, 0x3d8f6bd03ddbde14U, 0x3d114d5bbdba430bU,
  0x3c00b76bbd7f7b5aU, 0x3d6b844cbcf32f5aU, 0xbdd54ef1bd1d1767U, 0x3dd9dadbbdbd9b7dU,
  0x3d8bee0ebd71428aU, 0x3c4268aabba3399fU, 0x3dae80503c6cbb39U, 0x3d8ff53a3d5f820bU,
  0x3c854e60bdae9aceU, 0xbdb95159bdaef95cU, 0x3da6abe1bd780bbfU, 0x3dc0cdbebd5ae9b5U,
  0xbdbf60bcbcd71c13U, 0x3c501c5bbdc78ae3U, 0x3d875041bdc1f472U, 0xbd9326febd888fbcU,
  0xbc4fe8a23d30c75fU, 0xbd1c54bdbcf26302U, 0xbd8f8a343d93c466U, 0xbdc70892bdace848U,
  0x3d93c6953d8ea1d3U, 0x3de28ddbbd5a643cU, 0x3d9fc1f13d4e9ab3U, 0x3d705dacbcacea75U,
  0xbd98cf69bd9340a6U, 0x3d5c9a173de85af3U, 0xbd208d66bc7d70c3U, 0x3d9f580cbd7f699cU,
  0x3ccf7fe2bc07df29U, 0xbd986af4bccce07dU, 0x3cce68a93d308b05U, 0xbde0f9353cce8f6bU,
  0xbdec4e4cbc913e76U, 0x3d326da93d95ca71U, 0x3db80000bd96b8d8U, 0x3b1366623d81551dU,
  0xbd1fdab6b97b1b01U, 0xbc5233a03d9424ffU, 0xbd573fb33c2b6a90U, 0x3d7372313cf3eec8U,
  0xbcf95c583d9f9f55U, 0x3c955b0b3d54be96U, 0xbc54b0a739a7a1f6U, 0x3db17fbebd71db6eU,
  0xbcbc8210bd981a12U, 0xbcff5df5bd8ef877U, 0xbb547be2bdedee36U, 0x3cebc92ebd1f7c35U,
  0x3da90577bdbb92edU, 0x3d1d39003dbca373U, 0x3c47436abb3ecc1fU, 0xbdbc64da3bf6e395U,
  0xbde86a633ca06c21U, 0xbd605f903de7c311U, 0xbc8e7773bca0d40cU, 0x3cec8096bd09858eU,
  0xbddc04be3dcc5463U, 0x3d82dd3d3d7c8355U, 0x3d6b6640bd88f3a8U, 0xbdea3947bcdb9e48U,
  0xbcca5f343d886b34U, 0xbdba6bb13daf3e18U, 0xbdd160633dcd15edU, 0xbc0a702a3c72c81eU,
  0xbdc0216a3d291ccfU, 0xbdcd393fbdec7593U, 0x3dcdcc87bcd6ef1bU, 0xbdd237ccbd50c23dU,
  0xbca9874bbde8b23cU, 0xbddc60cfbd262eb0U, 0xbd9812323c07f213U, 0xbdc441503b8ff032U,
  0xbc9fd9b4bc45ec2eU, 0x3d530a23bdead8d6U, 0x3dc5c353bdc505dfU, 0xbd025408bcda2ce3U,
  0x3c73bc12bd9f1948U, 0x3c48c2063deafd86U, 0x3cc7f9fbbd4ede50U, 0xbbf8c803bdd3875eU,
  0x3d0794b33d7b2652U, 0x3d8bd1c4bc678e94U, 0xbdde206f3dc991a9U, 0x3db26b36bded503fU,
  0xbbbeec42bc201d5fU, 0xbcf51adf3ddd17c5U, 0x3dc137d23dae83d2U, 0xbd3d1b50bdf3a4a1U,
  0xbdaa351bbd871c5aU, 0x3d9f574fbda76460U, 0x3d817a1fbd7ef52eU, 0x3d8e69683d69eaa4U,
  0x3de93a5f3d0564dfU, 0xbc236ee93d3fa86dU, 0x3de72798bd8e608fU, 0x3d8f8b0bbdc205e9U,
  0xbdaf97613bc59c98U, 0x3d1283b3bdbafd77U, 0x3d74e132bda7df1bU, 0x3dc74ed2bdca0d8eU,
  0xbd9ad85d3b4eceecU, 0x3d7fade33dddb257U, 0xbda0e0b2bd69fdfbU, 0xbc68eb3bbb251409U,
  0x3dd59622bd7ee580U, 0x3d5584783da63c46U, 0x3aaa55913dd6a568U, 0xbd12546abbbe37b8U,
  0xbbb172a7bda98607U, 0x3d871e59bdcc0bc1U, 0xbd9998c63df4e28fU, 0x3da4d0d9bce362deU,
  0x3df76224bd214500U, 0x3d0602ab3d45ed40U, 0x3d997866bb5d8a97U, 0xbdddfa6cbd82a614U,
  0xbda4dc1c3dbcfbe8U, 0xbda430f03de9599bU, 0xbd9444913df2632dU, 0xbd58b8b5be02bbfeU,
  0xbdb8b96dbdc03d40U, 0x3dccb47e3bbade10U, 0x3d8bd841bbf493dfU, 0xbda17a8fbd913f3aU,
  0x3b683fc93d593673U, 0xbdbcefe43d9d3ee6U, 0xbda033f53cff25d9U, 0xbb619d92bc189d99U,
  0xbd97cb523decfed3U, 0x3dd20c593de4f9d3U, 0x3d97e5d2bdbf7286U, 0x3d8cd1a3bdf0aca2U,
  0x3d8ac75bbd3954c0U, 0x3c37e086bccd5993U, 0x3d654c4d3df1a78bU, 0x3d1df7bbbc19846cU,
  0x3d88ae513c8c0b49U, 0x3d8678b6bd2305a5U, 0xbc9ff0e3bce036a8U, 0x3d81d4fd3db86ca6U,
  0x3db921e3bced041eU, 0xbde8ed13bd935f28U, 0x3d321d5dbd61bebbU, 0xbdb2f8af3dc7f664U,
  0x3b4ff3c5bb89c0acU, 0x3d9a5b763c3cf3eeU, 0xbce02941bdc3ffe0U, 0x3cd0ee44bd4c0304U,
  0xbdc2bc96bde120f6U, 0x3dc02430bd8cd43bU, 0xbde21f8a3d85c893U, 0xbdbd12a6bc4985dbU,
  0xbcfef52b3d3674d6U, 0xbbdf7bbf3ddffaafU, 0xbdeecea4bdc2027bU, 0x3d5d4aed3d6a07e2U,
  0x3cd7ec443ca318d6U, 0xbd007a89bdc24a20U, 0xbd3be25cbd0ba9d6U, 0x3d8ba6483d8dc38aU,
  0x3c9185503d4e4ca8U, 0xbd446b39bd549743U, 0xbca0e8c4bdddf8c8U, 0x3adcb9bcbd8b1befU,
  0xbdb331a93d4d310bU, 0x3da6d73bbc206ed8U, 0xbcbe955fbdc79c01U, 0xbd9aa2453d1b0df8U,
  0x3dc5cd7fbcd23963U, 0x3de542523d353f58U, 0xbdc3a7e93d7f4328U, 0x3da03fbe3dcfe0f0U,
  0x3dafba1a3cc86dd4U, 0x3dac7e903d7e1d86U, 0xbdb722503b4cefb9U, 0x3dc329a9bceef997U,
  0xbd9380513d687e3bU, 0xbd9b899c3caafe29U, 0x3d190e2b3d1ae626U, 0xbd52528dbc9db363U,
  0xbda954c03d64f9e1U, 0x3db5c842bd543305U, 0xbd37225cbd5414c3U, 0xbcaf3c95bb7779bcU,
  0xbdbed49bbdbb8874U, 0xbd129aabbcf92ffbU, 0xbd0157aabd0b748aU, 0x3d334a52bda77cb1U,
  0xbdbf9ebe3dcaa497U, 0x3de0d2d5bdad1435U, 0x3ccc3f4abdd1c92dU, 0xbd2cbcf63dd3b2afU,
  0x3dd6d7403c5f1e90U, 0xbd3825e03dc79803U, 0xbc99e7c9bd288611U, 0xbcb71c563d69e6a5U,
  0xbd123d26bdae8671U, 0xbda0863e3d1999faU, 0x3e0036f23c8096aeU, 0x3c3329693d45e656U,
  0xbd930b33bdcd588eU, 0xbda52ab2bd571f12U, 0x3d84c692bd000a50U, 0x3c80599f3d598b87U,
  0xbddc41973d834cafU, 0xbd346e4dbd7c5151U, 0x3cb308c33d8e4a79U, 0xbd1efb8cbd1d3e93U,
  0xbd22a0523da864a5U, 0xbdc31aa6bde30f8cU, 0x3dc215fe3d47a96dU, 0xbd1fde30bda1cf7aU,
  0x3bf0a9653d908e68U, 0x3de6560bba4a689cU, 0x3d0c1d0b3dbe5482U, 0x3dee2ba2bc919d9fU,
  0xbdc67d1b3d3955f6U, 0x3e03fa2cbdc934b1U, 0x3d288fbdbdcb3ddeU, 0x3c0dce293cbbf7dcU,
  0x3d3194873c79229cU, 0xbda65a5a3d9842cfU, 0x3d4bbf45bc8ded1bU, 0x3de47fa2bca43449U,
  0xbdc58aad3dfab315U, 0x3db0bc2ebd650d6fU, 0x3c6bb63f3af707eeU, 0xbd88d1173c88ed6dU,
  0x3c1c0971bccd0377U, 0xbd1616c43dd9d8daU, 0xbdaddc3c3d9d1eb5U, 0x3de9a2583df30955U,
  0x3d91f55ebddc1afeU, 0xbcc80f313de4533fU, 0xbda935fe3d9bc33dU, 0x3d16ee563d638547U,
  0xbda46843bc9c86fdU, 0x3df29686bcc4e2f4U, 0x3d8639a5bd883a3cU, 0xbdca2049bdb6b9fcU,
  0xbd672077bc687d63U, 0xbdb3b70d3da19db6U, 0xbd1797ddbb0f83e7U, 0x3bc1b4993dace1abU,
  0xbd0d5da33d509f90U, 0xbd07da55bd4c58e3U, 0x3db1aee23da67ca1U, 0x3dbc8fda3d9a55ecU,
  0x3db6c89d3dbc0b06U, 0xbd5a8d26bdc5fdf6U, 0xbced08cd3de2c057U, 0xbd55625b3d5cf8edU,
  0x3db2640f3dd92f10U, 0x3d89b0e4bd3ab585U, 0x3cfdbb9d3cd3f790U, 0x3cce36e53ddb7601U,
  0x3d8cbbe93c18aca0U, 0xbdaca6a5bcc1ba3bU, 0xbdcc3aa1bd287b9bU, 0xbdad29fc3cf8954cU,
  0x3d24531abd18cf57U, 0x3cfb2697bde10969U, 0xbd94295d3db2cbc7U, 0xbc641a2d3d89a3d9U,
  0x3d9657933d2415e3U, 0x3c2a25333da7514dU, 0x3d20b55e3cbb8036U, 0xbdb430013b6c9ab1U,
  0x3dc477dd3d75bb9dU, 0x3dce505e3b28e35fU, 0x3d924bc3bc29d962U, 0x3c48e1a7bdc9924cU,
  0x3d969fa4bd6cc454U, 0x3c9b6bcdbd23e637U, 0xbb51c83e3c94bfd7U, 0x3d87ab453d32c68eU,
  0x3dd5df54bdc62633U, 0xbd64f0b4bd0029aeU, 0xbd06fa88bc88b19eU, 0xbc7c9d89bd8701f3U,
  0xbdfd44c3bde30e0eU, 0x3dbbf96bbdc2dc7eU, 0xbdd2700a3d2d735fU, 0x3b818453bda4f71dU,
  0x3ccc64d13db73de0U, 0x3b64d8c5bdac811eU, 0x3db8bdb23deba97aU, 0xbaa426ffbc3d5f7cU,
  0x3dcaadbdbd0d7fc3U, 0x3cfbbe503ccbdccaU, 0xbde8d2f5bd862a48U, 0x3da0f136bd8e1c51U,
  0x3d45223a3d4ca719U, 0xbd91f92c3d93d698U, 0x3dadedfe3dace0b7U, 0xbd60d1ecbd571c67U,
  0x3c89fc813be8e18cU, 0xbdb89a94bdfe6faeU, 0x3d88da72bde628dbU, 0xbdd23372bde8f016U,
  0xbd9f412bbdb2802aU, 0x3ca5a960bce8a86eU, 0x3d6aa6ec3db5fc33U, 0xbba28b353dac0e11U,
  0x3cadb1193d1cb7fbU, 0xbdcdb3fdbde4ae78U, 0x3bc7b33d3c8dc80eU, 0xbd689fdc3d4ccda2U,
  0x3c4df5323dbfbe1cU, 0xbd7009d8bd8e80cbU, 0xbdb3f3aebdc937dcU, 0xbdbb1adc3c6b91f6U,
  0x3baad12ebdb21af7U, 0x3d92d2283d4a3701U, 0x3c181359bde59d64U, 0xbdbe6dfb3da1c0a3U,
  0xbd124c313d343d77U, 0x3ddabdf2bd78b3c5U, 0xbd1677863a941a2dU, 0xbdbfe861bb127d61U,
  0xbddd62c53d7beb46U, 0xbdd73528bd916c4dU, 0x3c08ddcc3d9c4fb4U, 0xbdae464f3d0f21f9U,
  0xbd10f041bd4bb8b7U, 0x3cd52d6b3d4c10adU, 0xbcdb3badbc2f30cdU, 0x3d6d14523dbbb18fU,
  0x3dd305003c174560U, 0x3dc013843db2efdaU, 0x3d5c01923d392e12U, 0x3d898e2c3d94f096U,
  0xbd84ada03dd69728U, 0x3c87acf1bd1e3783U, 0xbd2ff9dabcb32192U, 0xbcb4b4d43dc7fa84U,
  0xbd675a1fbb16aaf7U, 0x3dac4b553d6fed72U, 0xbd8387fb3cfd7957U, 0x3c2d60283c5c953dU,
  0x3bc51a673db139f4U, 0xbcdd98acbd94a3fcU, 0xbd9802ec3ab22366U, 0x3da214793b9bc74eU,
  0xbdc80de5bb0956fbU, 0x3dd403893d545fe9U, 0xbce8ec95bc89b44cU, 0xbdb750ad3d9242aeU,
  0x3dc53852bc934408U, 0xbd267d9c3c9b61c0U, 0xbddadde5bca731a2U, 0xbdc70f1b3d85d262U,
  0xbd74aae73d538850U, 0xbcaa0ca4bdb35aaeU, 0xbd9a40463cfd52bfU, 0xbd4619273d536f74U,
  0xbdbb6d84bdd557afU, 0x3da531d0bbfa2d7bU, 0x3d0ffd8bbc6a9cb0U, 0xbd7135f13cd91940U,
  0xbd38ad32bd9762a3U, 0x3d8313d4bd4844c5U, 0x3dbbadde3d480885U, 0xbd2a78293d0abfd1U,
  0xbdebe7b63cd8e3acU, 0xbd72365cbd6b28e0U, 0xbdc5181f3b8126a9U, 0x3dedb2873dd6eaf1U,
  0xbddf0f43bdb1fcc4U, 0xbda8a8b03da5bec4U, 0x3cc4f5213d01509eU, 0xbca4c72b3daae649U,
  0x3bf625873dadce4eU, 0x3d365388bdbee5c9U, 0xbd5ae47dbd170a9eU, 0xbd62bb423ddfa091U,
  0xbc62d0fcbda8151aU, 0x3c9b1389bdd30577U, 0xbdc3a030bdd0fcdaU, 0x3ddf366cbd3f8f05U,
  0xbd3362293d89f404U, 0xbde07abdbd1a0fcaU, 0xbd6dd9733dc5dec3U, 0xbd145c7a3de6d260U,
  0xbddcf8b0bc61c808U, 0x3dc9a6e7ba73ab1fU, 0x3d2e1704bd9a202bU, 0x3dae00ff3d25a8f3U,
  0xbc6869d6bc9a67c2U, 0x3c05a2f9bd645b79U, 0xbd1fa5e4bdaf9d19U, 0x3d9a61bfbdb54226U,
  0x3c88732d3d893c50U, 0x3ce7941bbd2877f0U, 0xbc834dc03d8107f2U, 0x3d61495a3d9585eeU,
  0x3dbc31a6bd5e4f4aU, 0x3d1770cebb0251b2U, 0xbd3da470bd04a1a4U, 0xbdc46fa2bdbf292eU,
  0x3da27e51be012b7fU, 0x3dbb042fbda53466U, 0xbdb6842abd1e70c4U, 0x3d0689713db9fdbdU,
  0xbd586e85bdc5d191U, 0x3d4d8b1cbde0d091U, 0xbd79514fbc4ce86bU, 0xbd43d300bcd72f22U,
  0x3d3cf146bd880be2U, 0xbde11565bdb7d545U, 0xbdbc6e7abd98bfccU, 0xbdb9c24c3de9ad21U,
  0xbc1c9c8f3e0434d4U, 0x3c88dc0bbd21a8a6U, 0x3c314b3e3de144caU, 0x3c92e0643e02fda7U,
  0xbdb38ccb3db03a6cU, 0xbce55963bcee1a5bU, 0xbd88ea463d9d75abU, 0x3d0879053d8f1e35U,
  0x3d6266563d987117U, 0x3d225f36bdad4bb7U, 0x3d8a1da2bd31e150U, 0xbd8f56323c41321aU,
  0x3cc559663dac6401U, 0xbdbf07e33c52318eU, 0xbdbfbd7e3dd610c9U, 0xbdd2daf53b5f87b6U,
  0xbd470550bd9a5f4eU, 0x3a8114f7bd70771bU, 0xbcdd5c63bdbe341dU, 0xbde12e213d7fb58eU,
  0x3c8edb17bd2d1264U, 0xbd83863b3d01d1b4U, 0x3c75bc78bc69f6c2U, 0xbdc21e9bbc77f261U,
  0x3deba8e53df6aa78U, 0xbd4b2f553de5a20fU, 0x3db70ab8bd47502aU, 0xbc332d9d3dcaa43dU,
  0xbdbd30023cadd4faU, 0xbdc8c878bcd6b5abU, 0xbc8fbec1bd8b6c9eU, 0xbde0aedabdafaca3U,
  0x3d0d35de3de18f9aU, 0xbc5b248e3d91c56bU, 0xbdd3614fbc6b7e03U, 0xbd94b1283d6b87d7U,
  0x3d9eeefd3cef6a60U, 0xbd3287513df3771aU, 0x3d8114843dee4bd5U, 0xbd39eee33d0e8bf2U,
  0x3d975fa7bdc6d2f7U, 0xbd8754a8bd40bc64U, 0xbb919576bc69cf26U, 0x3d8664713d8483ceU,
  0x3d1557093dee3588U, 0xbbe2fccbbdaa0cdbU, 0x3dd423bdbc475c4fU, 0x3c66001d3d84ab2eU,
  0x3da7fb343dd44c62U, 0xbd3caf343d358349U, 0xbd7815f3bd606570U, 0xbd8c3f9a3b1f655fU,
  0x3dcaf9063d1ff058U, 0x3e07678c3d890329U, 0xbc65b38f3c9b349dU, 0x3d4d1cbbbddf49c8U,
  0x3c89c6c73da78846U, 0xbd599eacbaa680b2U, 0x3c96ba1bbdca36cdU, 0x3bf35dcbbd8f711eU,
  0xbd9692283dc4a971U, 0x3bd13f063cb3b707U, 0xbda03439bd313fdcU, 0x3ddae7373db05fe5U,
  0xbd6fc4dabc70d738U, 0xbd8ee9cebdb0b92bU, 0xbc83618fbc3d7aa3U, 0xbdae4452bd9de96eU,
  0xbd6cf3a63d2d31e8U, 0x3e0ebfbdbd930fa6U, 0x3da7312b3c938510U, 0x3d94bb663ced63e4U,
  0xbd909649bd892e3eU, 0x3d764cd6bc40821bU, 0xbdf0cd813d908ed3U, 0x3dea26363d92c532U,
  0xbde1bba13dd34bb7U, 0xbdb3eef7bdabab36U, 0xbc896d16bdc8649aU, 0xbdb504503d70194cU,
  0x3d0be57e3cd184adU, 0xbd8b4efc3cec2215U, 0xbd92b4f0bbd5bb77U, 0x3d692f8a3d58771fU,
  0x3d06e0b03d93f744U, 0x3d43741abd4d6241U, 0xbd9782de3a005374U, 0xbd0970013d4218aeU,
  0x3b1a247db90fb54dU, 0xbd24e74abde2a8d3U, 0xbdbc8b4d39c9dbddU, 0xbdc21e0a3d383514U,
  0x3d3e6f3f3d714e9fU, 0x3dffab8f3d6d2f51U, 0xbdc63966bd4d075fU, 0x3bb98ca2bd1bfbb7U,
  0xbdae36033dd08280U, 0xbd48d29b3dbdb09aU, 0xbcbb1b933c76bf99U, 0xbde004a0bddda34cU,
  0x3d12ded23c8bba86U, 0xbd435a40bd19b38dU, 0xbd161e3bbdc146c3U, 0x3df962dbbe001128U,
  0xbd8f1946bbee4105U, 0x3c8d9f31bdd1dfb0U, 0xbcbd66a9bdb61270U, 0x3d8ff7a5bda86f8fU,
  0xbd4ad14f3cbd3cc0U, 0x3d4643593ddc414aU, 0x3d49bbd43db5c87eU, 0x3dc9b67abbcff131U,
  0x3dab89d4bdf908f6U, 0xbdc53c5f3ddf4d5eU, 0x3d43539a3d26ea13U, 0x3d29e8d5bdabe883U,
  0xbe02de293b77b8ffU, 0xbcbda8293df1c0ceU, 0x3da384a23d8034f9U, 0x3d193df83dc0496aU,
  0x3b49e552bb808786U, 0xbde0e1923db4ec06U, 0x3cf63e3ebd81ee4cU, 0x3dba4f26bc3840ceU,
  0xbd83bb13bc6e1e8dU, 0x3de4f3dcbc1b9c4eU, 0x3ba4e7a4bbb04856U, 0xbc87cfafbd3422ecU,
  0x3d8d8e45bd5f750aU, 0xbdff6522bdb7fe74U, 0xbdc9a8f9bda854c6U, 0x3d70665dbd0eb033U,
  0xbd9a61433dceed16U, 0xbddc1f173db0d9caU, 0x3ca936dfbd8da6c1U, 0xbd8736c53da5fc4cU,
  0xbdd67914bce11724U, 0xbdcf27643db4cbf1U, 0x3dbe42923dc43228U, 0xbd2dc2da3df4d8f1U,
  0x3d1fe6e23d0a2073U, 0x3c1af543bdbc6138U, 0xbb56ba15bb9c861fU, 0xbdbd14f8bceb7817U,
  0x3dc8fbb73da1474bU, 0x3a5aea5c3db4f77aU, 0xbd89ab9fbd775994U, 0xbc7e8f53bc7f8960U,
  0xbd0f55633d3818ffU, 0xbd9d2bf9bcc4850aU, 0x3d23f81ebdbddd50U, 0x3d5b9903bd2e3c14U,
  0xbd7a1097bb037e18U, 0x3d2640593cc6b971U, 0x3dc05778bd840f23U, 0x3ce65c08bde3385cU,
  0xbe0aeb44bddc6e2cU, 0xbcd59db7bd964265U, 0xbda12c25bb3b5b0aU, 0xbb4f02573d0d3a3eU,
  0x3dc455e2bd0565a0U, 0xbd994b283dcddef5U, 0xbaa5ed2dbb6576e6U, 0x3cfde7a83d71f55fU,
  0x3d9fea3e3ce0b561U, 0xbe0395753db0e901U, 0x3d1a61673d4de84fU, 0xbcc4b800bcc34562U,
  0x3b3e6cffbddb6b3bU, 0x3d82e9b5bd8bada5U, 0xbdc0d7b93d219a61U, 0xbc00a06cbd7e59edU,
  0xbcd253b3bdc7d274U, 0xbdbfaf333d9c94d0U, 0x3d4989e43dab7d91U, 0xbda4dfe03dc74954U,
  0xbdc14043bd887d86U, 0xbc8a4887bc9626c4U, 0xbd8d9104bdfa2ea9U, 0xbda30b6f3d87a9d2U,
  0x3d1ce3ecbc0cd606U, 0x3de4541bbd0cdf2aU, 0x3cf84d4a3d5653cbU, 0x3db75e5a3cd139bbU,
  0x3de3dc0d3da57422U, 0x3d51fa603c4c5a94U, 0x3cae9abe3d6730f8U, 0xbcee695ebd830cfcU,
  0xbdb7d3333dacd3afU, 0xbcc48057bcb97e41U, 0xbd4c3706bd5a38edU, 0xbc5c06c9bd4a3034U,
  0x3d153ffabdcc9cb0U, 0xbdba73dcbd89403bU, 0xbdebd21a3ca0cca1U, 0x3d21b948bd92b214U,
  0xba4392193cb8a957U, 0x3cc532333d4fa7d4U, 0xbde083023d4a755bU, 0xbd55beb0bdc03a48U,
  0x3b8b182f3c2c9b7cU, 0xbdb9687e3d50fe0eU, 0x3dbf2699bb3421e1U, 0xbd0d1a74bdc3a399U,
  0x3d7111e9bd3cee23U, 0xbd44b2f4bd65e0e0U, 0x3d262fb1be043facU, 0xbd8af124bcbeb12cU,
  0xbd71b8333d413793U, 0x3dbe0316bdb7f1b4U, 0xbd9284ae3d4d1deeU, 0xbdab31a6bd02f1dfU,
  0xbc3f7319bdcebce6U, 0x3dc89dcabd8956e4U, 0xbce9907b3d9ec3f8U, 0x3c6fb7b0bd189203U,
  0xbd8750cb3d649a34U, 0xbc051d053b38a60dU, 0xbcb42f45bda00471U, 0x3d381aa93d2c5a11U,
  0xbd5abdeb3b095ffeU, 0x3d976804bdb96093U, 0xbc75c24d3dfb62bbU, 0x3d87d343bd18d6a0U,
  0x3cfd0cd33dd4aa8aU, 0x3d90f6553cc40b58U, 0xbda41965bdeb62b4U, 0xbd93b4b7bdfa2211U,
  0xbd2ff6903b39bd81U, 0xbd4db33dbd2d11eeU, 0x3dc6fc353d730459U, 0x3c0298aabdb92d8fU,
  0x3ca305113d8c9605U, 0xbb880e873d1d7063U, 0xbd63e4b23d150227U, 0xbdf742e4bdf5935bU,
  0xbb1adc2abbe0816cU, 0xbc9f1ece3db63f3bU, 0xbd63d18abd7ada93U, 0xbd865ed6bb85d640U,
  0x3c3360fabca93c98U, 0xbce483783d199ce0U, 0x3dbff7f5bd716931U, 0xbd4369ccbdb817fdU,
  0xbdbb387c3dec5e5fU, 0xbdd6b9c43dc0fe15U, 0xbdf8004b3daf861bU, 0xbdbcacd4bdff5305U,
  0xbd75b7adbc196c42U, 0x3dca7a3cbde90cc2U, 0xbdaf2a973d69e59aU, 0xbd89c52bbdc9cf9bU,
  0x3ca980d6bdda6ccfU, 0x3daa0f0d3d125caaU, 0xba632d453d3d74c1U, 0x3dbce99bbd093015U,
  0xbdd2dd043d156831U, 0x3d162e8dbdbdefe5U, 0xbdd11a693d42db7bU, 0x3d5f0e3dbd00f1c6U,
  0xbe0d7cd33d6cb1dcU, 0x3d3bde2dbd51b0ddU, 0xbda701133d63a458U, 0x3d1452dbbce1cfcfU,
  0xbd950e42bdd941a9U, 0xbcd92089bcd0fbd2U, 0xbb568bfe3d284468U, 0x3dfdd8f4bc87b06fU,
  0xbdda7acebdaf1c03U, 0xbdb0a7f03dc73cb7U, 0x39d556303caabd45U, 0xbd5aef0dbd96d2f1U,
  0x3d7221a93cec9208U, 0xbbb159b93d64fd81U, 0xbaa1066f3dc0375aU, 0x3d3179203a9dbed2U,
  0xbdbab599bde6275eU, 0x3d14476fbd76001dU, 0x3dfcb3d23d342d10U, 0xbcbda3a5bdcd695aU,
  0x3d80c6f33de180c0U, 0xbdb74a52bdc2ac26U, 0x3c30c91abdc5ffa0U, 0x3d553ecbbdb43ef7U,
  0x3d233d763d28e7c2U, 0x3da7d32e3d349a07U, 0x3d2cb6163d1f1716U, 0xbde43e223dc39acfU,
  0x3d7db953bdc453c9U, 0xbd0c7a4f3d3b36b6U, 0xbd17fc3bbdd34f23U, 0xbc207c9ebd551162U,
  0xbcce8a0ebd0fea35U, 0xbbd65c39bac95225U, 0xbdcdbe76bd4ca796U, 0x3d6722c9bd69df06U,
  0x3de1548abdeb746aU, 0xbdab5bb1bda2feeaU, 0x3dc174cd3d926af7U, 0x3d28686d3c99365aU,
  0xbd859df13dc52939U, 0x3dbc11af3cd6681aU, 0x3ce8f922bdd237fbU, 0xbdcf0e6c3e016ddfU,
  0xbd8a12073d525068U, 0xba88bee43dbe41feU, 0xbcbe60da3d826a34U, 0x3db801683d83cf88U,
  0xbd97085bbcc3022fU, 0x3db9e1d0bd544367U, 0xbc9a624ebd09ba76U, 0x3d9be7c63d08125eU,
  0x3dad65eebc5df6c6U, 0x3d8497b13c92bdb9U, 0x3cefa7d0bd33f327U, 0x3dd766a13d25e10eU,
  0x3dbabefbbd97809bU, 0xbd8394ca3df0598fU, 0xbd47e1fa3dd20eb6U, 0xbdbe6161bd9cdbedU,
  0xbdf3ae33bddc2331U, 0xbde40464bd120c00U, 0xbdc2292cbdc2b349U, 0x3dae67edbde62427U,
  0x3da6b356bdadec25U, 0xbd3c50ddbc9b3bf2U, 0x3d40d541bde123d6U, 0x3c9050c73de74af7U,
  0x3d51ec903d6b9909U, 0xbda08513bb82f7e4U, 0xbda75ea1bd95edd0U, 0xbd3032da3daa17fdU,
  0x3c47b46abd3de63fU, 0xbc83de9fbdd91c0fU, 0xbca9e6bbbd8e4207U, 0x3d6c0c763de40042U,
  0x3dd7588fbd0c36d1U, 0xbd43b3803dd20daaU, 0x3de9527ebdd1f630U, 0xba8c712abd4d8e41U,
  0xbd8be2233d876df1U, 0xbddebda03ce9bdc6U, 0x3d883d793d90bd7aU, 0xbdf01288bd86208fU,
  0x3d7bbea23dc45039U, 0xbd45ab3bbcde5395U, 0x3de424adbd394361U, 0xbd536d493dd704a1U,
  0x3d0aa0c6bdab4679U, 0xbd4f1be8bcf02b36U, 0x3de5a7513d5710feU, 0x3d900b95bc14257bU,
  0x3dd58e59bd17954dU, 0x3dda16503d0324feU, 0xbd9e39d2bd0171a8U, 0x3da3ec6f3d9a3d4aU,
  0xbd1daed03bb10250U, 0xbda1b446bc6e360dU, 0x3d9d81c53d3a2bd3U, 0xbdb02197bd2a728eU,
  0xbd2617403d73a477U, 0x3dd532ef3c524375U, 0xbcca50553dd45b1cU, 0xbce65a863df269ecU,
  0xbda79ee1bcf12042U, 0x3cc6910a3cd7b28bU, 0xbdafc0ffbd93e7dfU, 0xbcd88517bbc7d142U,
  0xbcbcb47fbda1a4c8U, 0xbde92a783d5687d5U, 0xbd950282bb84ba87U, 0x3dba7a9b3df6610cU,
  0x3cbf292cbdf7e0ecU, 0x3ccbc320bddba3b5U, 0xbd61c0453dda0f04U, 0x3dc2ce01bd272844U,
  0x3d0024c83b47c320U, 0x3d166ee2bdef5efaU, 0x3cb972063da33a46U, 0xbc4aa2dfbda963faU,
  0x3d8b969a3da08ce2U, 0x3de31d98bcd92734U, 0xbc6f96fd3be5f176U, 0xbd908d513dee1323U,
  0x3cafb503bd5d1970U, 0x3cbb475c3d410523U, 0x3dc9f9bc3d54b569U, 0xbd4f5c76bdb56c4bU,
  0xbd0f97e7bd3bf073U, 0xbd5ec2db3dd9a848U, 0x3d236a553d8e6da8U, 0x3db78fb23deb7353U,
  0xbd6f603bbd7b7fe8U, 0xbd64a2cebd916e00U, 0x3d802734bcd6babfU, 0xbcb9f4b93d583de6U,
  0xbdc319a03d7beb83U, 0x3cf6556a3dd44988U, 0xbdebe0be3d8356bfU, 0xbdc9c4d63c94d793U,
  0x3de70c303d27ceb9U, 0xbc9ff96dbd8d249cU, 0x3c82522f3de64ce6U, 0x3d32d98e3dae0f83U,
  0x3da38a39bdf039d6U, 0x3b445578bdbb8bc0U, 0x3dc4c974bbc6aa73U, 0xbd840fbebc840335U,
  0xbce9acc93d07204aU, 0xbdaf5fcdbd869ec2U, 0x3c6f6428bd03c787U, 0xbd57b68bbd9b680aU,
  0x3d8f5d9abdadd566U, 0xbcc56aaabd0734a5U, 0xbdb41925bdd9d32bU, 0x3c7d8ee7bdb32b58U,
  0x3dd7da7cbcd9be52U, 0x3dbb05d3bc88d287U, 0xbd75e546bdec6f2bU, 0xbd5f90d2bd9909d2U,
  0xbd4b52253bf455b7U, 0x3d4e6eecbbe3c5edU, 0xbdc15506bcf82987U, 0x3d559ae0be06ca9eU,
  0x3dfc6e5d3d615b53U, 0xbd330c39bb555a60U, 0xbd89a3eb3de32a51U, 0x3ccb0ad6bd5de2a9U,
  0xbbf4692bbdffee4eU, 0xbc45c4b7bdcd5346U, 0x3d952208bd81e830U, 0xbd1a24dc3db115d8U,
  0x3d99e93cbdbaac3bU, 0xbc5983323d9ea3b2U, 0xbc8f8cd0bd29bcb7U, 0xbe041b65bd13bddaU,
  0x3d8af16d3e01956bU, 0x3d220cab3dc3d10bU, 0xbabaa94cbcbc24b9U, 0xbd68539a3dc36443U,
  0x3d8be19d3dfbf4b9U, 0xbd90b0e3bd1cbee1U, 0xbcf8ad353dda16cfU, 0x3dc623afbdcbd92aU,
  0xbd1fb9d3bc42177aU, 0x3cea29f03c2cb1c8U, 0x3cf8cadfbdabc9a7U, 0x3da680793d6976e1U,
  0xbdbf912ebdc6c467U, 0xbd8bb670bdc296c3U, 0xbb71cee5bdb91879U, 0x3d27787ebd0ef03eU,
  0x3d221c873dc302eeU, 0xbdb7de483c9569bbU, 0xbd9185b43dc00654U, 0x3d55ff1e3cdbc3e6U,
  0xbd3d8771bd9a1714U, 0xbd9c89003de7990bU, 0x390a77983d4f5d20U, 0xbd8b28d5bdb140beU,
  0x3df70805bd4237ecU, 0x3d889bfb3d77169fU, 0x3dbbf3bb3d4bd98dU, 0x3da6791bbd7df59cU,
  0xbd1733f53dd87d26U, 0x3c85b7e9bb34dd10U, 0x3d03f9bb3dbabd3aU, 0xbcee3adbbdc580fbU,
  0x3db9b95e3b3ce2adU, 0xbdc128b8bd9e8b70U, 0x3c9a58053dd09c3eU, 0x3da1e01c3d76ad9dU,
  0xbd8f0eee3d138fd2U, 0x3d8902303d8c3c42U, 0xbdc1a93c3c711bacU, 0x3d4d1e143d34d45cU,
  0xbd40a23b3d25278bU, 0xbce92a07bd64920eU, 0x3db7bc23bd28f934U, 0xbb7ac8123dc342baU,
  0x3d80441f3d94e793U, 0x3d444267bdc18891U, 0xbd965d85bdcda849U, 0xbcc084d3bd96ae26U,
  0xbd6f6bfbbce64111U, 0xbd8f03b43daa1dcbU, 0x3db7554c3c5bea41U, 0x3d551fa7bdafead9U,
  0x3d3b37d7bc323d8bU, 0xbd5571fcbdbdce0dU, 0xbdb211dabd8f1aa0U, 0xbd91be473bfe2ff1U,
  0x3c65213fbd591a68U, 0xbd83c4353d179b00U, 0x3d26ca5cbd3908f8U, 0xbde56ee4bd2696bfU,
  0xbd82df8cbd2f1de5U, 0xbd0010de3d8cb8c3U, 0xbc462276bdb133fbU, 0x3cf991b33d45a03aU,
  0xbd9c73ddbde42c52U, 0xbdbdfe0bbcd26f90U, 0xbbebf242bda0a35fU, 0xbd11476ebd7831d2U,
  0x3ddf669f3d4a63a4U, 0xbcb678f2bdd77dcdU, 0xbd845d703d7838e5U, 0x3db20bc43d686ed4U,
  0x3cedac7c3cd590c3U, 0x3c88d0fb3d5288dfU, 0x3cbebf603d8a17efU, 0xbd40ee6abb8885d7U,
  0x3d0e8ab43cee240fU, 0xbc8ef8e6bd8779ecU, 0x3b684c81bd19d91cU, 0x3d4d13b7bda89d29U,
  0xbc4e1f323bb289ecU, 0xbd9fd960bd01914aU, 0xbda1db5f3c3e9ab8U, 0xbdcecfe4bd4a84d4U,
  0xbcbf56eb3cb6bfa8U, 0xbda13c2d3d89e786U, 0xbd4075dbbdf90045U, 0xbddfef0fbde12f4aU,
  0xbdea18953d8bacbbU, 0x3c7c1f5bbcdf349fU, 0xbc3ff6a1bd954a1aU, 0xbd0f57013dd0b251U,
  0x3d7b447b3d4adb79U, 0xbdafafac3d9948b3U, 0xbc1883b33c750ca2U, 0xbcd2b0da3d4bc59aU,
  0x3c198cb2bc9db31dU, 0x3d86acda3daee036U, 0xbcca1c533ca78bbdU, 0xba8a0339bdd36251U,
  0xbd0efee03bd89675U, 0x3d89346abdec9941U, 0x3dd2367ebda93027U, 0xbd591f9abd94bb62U,
  0xbe0615653dbd1a08U, 0x3c5961443dc03993U, 0x3da21cdfbd689aedU, 0xbc4490b93de2d88dU,
  0x3df0c74b3d7173adU, 0x3d5a85f1bda232a4U, 0x3daae60c3de8a394U, 0xbd778ae23dc91cfbU,
  0xbdc79b77bc232b7dU, 0xbdc4c3943da33b4fU, 0xbdac3963bdcb62eaU, 0x3da67994bd266a82U,
  0x3d748027bdb918aeU, 0xbd4108c7baf556f0U, 0x3d479f3abcdb45cbU, 0xbd084fc73c80e674U,
  0x3d8ac6863d8e6facU, 0xbca87627bd71cb48U, 0xbd34ea77bd1ef806U, 0x3dc2df5c3d4c60a4U,
  0x3d2f0603bdc4dec1U, 0xbdd9154b3cd50efcU, 0xbdc52df5bd12dd08U, 0xbdabff0abd9025edU,
  0xbde3650dbdc44060U, 0x3b6896cabc9ea91fU, 0x3dc3a4223d2baab8U, 0x3d639ad2bd7d522bU,
  0x3d0108d83d6cb119U, 0x3de0da743c6f4cc3U, 0xbdbce166bd3ae2b9U, 0x3dc726093ded3bc2U,
  0xbbb7486abd6eb71cU, 0x3db91facbc806cc2U, 0xbcc44cb0bd8f7725U, 0xbd70e6a63d99eafdU,
  0x3d1debedbce61ba9U, 0x3a4f75673dae1bbaU, 0x3d0ee7a43d735335U, 0xbdc3e17fbcb562eaU,
  0x3b88e4383d441548U, 0xbdee0d2d3c4a5219U, 0x3c660acebd01b1a7U, 0xbb7706c9bc05cc9dU,
  0x3d8c5e56bbf1b9a5U, 0xbaca50b13d154f4fU, 0xbd5948f93dde9125U, 0x3ddc504a3db7850bU,
  0x3db0c741bca859bfU, 0xbdb9dbc0bc027443U, 0x3d93138cbd920e05U, 0x3cd89c3d3deaef2bU,
  0xbd2c0be7bdd00b65U, 0x3d0a1bd6bc23de9eU, 0x3dea5db83d909f25U, 0x3dd565e53dcf2e66U,
  0x3d773a71bd1bf319U, 0xbd94f78b3dcf83e0U, 0x3d5aef703dee8e6aU, 0xbd11b6e9ba49130aU,
  0xbdb2447abd42f4b5U, 0x3d63e40f3ca7badeU, 0x3d8d5382bd916a7cU, 0xbc0162ad3bba19bfU,
  0x3ccd6da6bd6e1db5U, 0x3d8ced143cca8d24U, 0x3de4ca4cbd958fe3U, 0x3dc14e693d83e696U,
  0xbccb55433d2639f5U, 0x3d4edebe3e00e0d2U, 0xbcba80cebd381beaU, 0xbd21cc063df31da6U,
  0xbde46f233d334706U, 0x3df10a2e3d03b31cU, 0xbcabc233bdd7a5c9U, 0xbd503862bd717fe3U,
  0x3d657928bc9aed71U, 0x3dabfec1bb6a71f0U, 0xbd9d1cd2bdad1f90U, 0x3bdd973fbd515b46U,
  0x3dce8c53bda4a3b6U, 0xbdc406a3bd8a511eU, 0x3d245dd23dd09a2dU, 0xbb17ad523b169261U,
  0x3d838cf4bdf4dce6U, 0xbd7a4ffcbd48ec99U, 0xbccf7940bc83b631U, 0x3d13e8533dff3310U,
  0xbda572ccbd4346aeU, 0xbd3678fb3dbaee03U, 0x3dd6ab2d3d81bc80U, 0x3dda9f273d8dfdecU,
  0xbdd5ed633da7587bU, 0x3d722b7b3dd7aa8bU, 0x3de65554bd96f331U, 0x3d8e6277bc1d60feU,
  0xbcc11505bcca8885U, 0xbcede0ccbc764574U, 0xbde2ac22bd5013b1U, 0x3d0238edbdd69712U,
  0xbd67a94fbdfa3f4fU, 0x3dd6212a3d48d616U, 0x3b859494bdda88ebU, 0x3dc0ce593d261a81U,
  0x3d2883a23d97dc4dU, 0xbc785e6fbbfc22ceU, 0xbdb68437bdd03c02U, 0xbdb26b693d28ce4cU,
  0xbd8d63223bdccde0U, 0x3c94deaabdf67a06U, 0xbd7d3f66bdd38874U, 0xbdc400ae3d69a40cU,
  0xbddba35ebdb9839cU, 0x3c7258403dd6f589U, 0x3dd93c2ebdae5343U, 0xbc5f54833d754427U,
  0x3d3c04c13b487225U, 0xbbc3e481bdca9360U, 0xbd90eef43ddd9dbbU, 0x3d29baaf3d059589U,
  0xbda441ebbaf95776U, 0x3d8cddde3db8c711U, 0xbd286e293d42d910U, 0xbc739a21bdc2c6e1U,
  0x3d75db14bd8b27ddU, 0x3d63eb013dcc4c12U, 0x3d802ce1bd50c41cU, 0x3d29f149bd5c1808U,
  0xbda375003db4d765U, 0x3dc66814bd55f4ceU, 0xbd6dfca43dbcd09bU, 0x3d46ef01bde005aeU,
  0x3ccdc3533d352645U, 0x3dcc78b8bde9a131U, 0xbcc6c6c53dadc3d7U, 0x3d38cd653df3d09bU,
  0x3c30cd283b836bc6U, 0xbdad426bbcbf02feU, 0x3d953daf3dd88984U, 0x3d3c74ef3d643b70U,
  0x3dc959473bc22b34U, 0x3df800ccbd9cd38cU, 0x3de2a2933d8c77b8U, 0x3cf888403d60a1dcU,
  0xbd6bcd2d3d4245c6U, 0x3c3f39f4bd8834b4U, 0xbdbc23a13d5a4531U, 0x3d877fbb3d5ea651U,
  0xbdcb78803d8c8ddcU, 0xbc740a1f3d8effb3U, 0xbd93158abd655fbcU, 0x3cf4faf53d853c9aU,
  0xbc6e6924bc392cc8U, 0xbd9dde743d5bb612U, 0xbd8c5117bdc8a8c8U, 0xbc1d9e64bdb6a86fU,
  0x3da0ab743c19f000U, 0x3ca672793d56f44dU, 0xbd882eef3d960eeaU, 0x3cb73d603da1b5b0U,
  0x3d14ef843cc24680U, 0x3d00406b3d8a9871U, 0x3c131b053cc2d583U, 0x3d38da6b3dd0c27dU,
  0xbb47d1ad3da0e39fU, 0x3cb49b0d3d2470afU, 0xbdb6793abd50f41cU, 0xbc36d5b43c102308U,
  0xbd4b691e3c449260U, 0xbdb1fb553c705648U, 0x3d4c1a52bdb3860cU, 0x3c337feebe00f4f8U,
  0xbdd7e37f3d4019a7U, 0xbcc15218bd9af988U, 0x3d524fa2bca415b2U, 0x3ada85b3bc67ab3aU,
  0xbc857c5d3d4ae794U, 0xbda63cb3bdc3dccbU, 0x3d6f56dabdcbce94U, 0xbcb4fa00bd8b45efU,
  0xbcf78e4d3d8b4022U, 0x3d6c880f3dd75881U, 0x3db1899d3d02d8f6U, 0xbdd70bd2bcd1b6beU,
  0x3d4e260fbd7e9be5U, 0xbce136ee3d198f10U, 0xbd3b963c3db2e3c5U, 0xbd44cc0f3d8a02daU,
  0x3dcb383a3ddf3526U, 0x3da53814bd517c36U, 0xbdf196c63d3cfb03U, 0x3c94ec71bd3067adU,
  0x3d9ee5343d7f1918U, 0x3d94e3f3bdf867caU, 0x3bf6d9223da5e40fU, 0xbc9b132cbd30e049U,
  0x3c3e532c3d2b36ebU, 0x3d900f7bbdd9e23dU, 0xbd511586bd94a1e6U, 0xbdfafd49bd1669a5U,
  0xbd69280ebd55dcefU, 0xbd78cba43dad2254U, 0x3d00ba343d9e5698U, 0xbdebf2933d0054e9U,
  0xbcf576cfbcf49985U, 0xbc5e1cb53dadb7e8U, 0x3d34f9b83c935be5U, 0xbda0afe43d9fca5aU,
  0x3ddb2450bcc62749U, 0xbd1ef19e3dbda187U, 0xbcb36334bd974832U, 0x3db90b1cbd79b6f2U,
  0xbda93a263d6b8ef5U, 0xbd82d3b2bdad1451U, 0x3da8e1e03e04467aU, 0xbc9731e3bddce4d1U,
  0xbd6472093dd14f6cU, 0x3d8e53b3bdf1ec8cU, 0xbdc5b70cbd51d6fcU, 0x3daf3f2dbdc3d302U,
  0xbb2e140bbd6fd6c6U, 0xbd394eebbdc7e319U, 0x3d4332603e09aa34U, 0xbca3907a3cf936b3U,
  0xbda3dc00bd49ce21U, 0x3dd52c1b3dcc605bU, 0x3d7b9f863d2ce829U, 0x3d95568cbd9ee0a6U,
  0x3d2de5903da7d76fU, 0x3da0f2f93db6b585U, 0xbddfb4b4bd2bb94eU, 0xbd8230d4bdc947ccU,
  0xbd838a1b3cce3cf5U, 0x3dc36acf3d82a98eU, 0xbd9ba7623d7cc97aU, 0xbc2f61763d1c3d31U,
  0xbddb807dbdb20f35U, 0x3ddef25a3db98941U, 0x3d440e613d6d3de8U, 0xbda67e123d8775ceU,
  0xbd451596bc3f457fU, 0x3dd98c3fbd749134U, 0xbdbdf69a3d3db693U, 0x3c96161e3cda84c5U,
  0xbdc47d9fbde61df8U, 0xbcfa84323d52cbb9U, 0xbd1164723df9c073U, 0x3dcab9413b46c8c6U,
  0x3db97763baaabe60U, 0xbd845ed93d4593edU, 0x3d92fa353d8885a3U, 0xbd5e22aebd9df117U,
  0x3d80ef173dbe27cfU, 0xbced56b7bdc57f3bU, 0x3d0a52a23da2c385U, 0x3dde8699bc94d6c5U,
  0x3dbfe925bd4e2f16U, 0x3c325cfebc6dc7eeU, 0x3caf7e13bd3afbdaU, 0xbc0b89683c6dd1e1U,
  0x3d537c78bdeadf95U, 0xbbea5254bd80ecf8U, 0x3db4d2b23bc9977bU, 0xbcd4acb0bbd0fdc3U,
  0xbd6ee7a03bb5991dU, 0xbd006e44bb0460c5U, 0xbdb6220a3cceffd1U, 0x3ded1c48bdf229b4U,
  0xbda37a42bd66466dU, 0xbda8115cbd2d2fe8U, 0xbde190c03da3e1e2U, 0x3c715356bdf155fbU,
  0xbdbc1bcfbd88ef8fU, 0xbdcdcbb83bc99e81U, 0x3d845a9abd9e8274U, 0x3c47924dbd390cbcU,
  0x3d2611233dc4c24fU, 0x3b5a2b153de0dd31U, 0x3c5fa24b3c952c03U, 0x3db6d8863cfd7378U,
  0x3ca65ceabdfaca1bU, 0x3cb108ca3d4aa58dU, 0x3d8d2a7bbddf310cU, 0x3ce9f383bd68eff0U,
  0x3d88bb883d1c476fU, 0xbd9302e5bd002a2fU, 0xbdfbf8ef3c95305dU, 0xbac1c0de3ceff246U,
  0xbdb93352bd2d396bU, 0x3dad3817bdf8c69fU, 0x3d83f7d63d905325U, 0x3d7b75fa3d892789U,
  0xbdfce5d7bcb041e2U, 0xbdcfd4c5bd95df5dU, 0x3ddde54cbdd8a261U, 0xbda2f64f3d86748fU,
  0x3d7bcfdebc5c2cccU, 0x3d3805303c0b97e2U, 0x3d8eea3ebcbaec25U, 0x3cd893953d3426a9U,
  0xbca27889bdff92dcU, 0xbdafe651bd75fc77U, 0x3dd578b63d89ee57U, 0x3dc8963bbb998508U,
  0xbdd63901bc449f09U, 0x3c84546abd57e7feU, 0xbda5774c3b7130a2U, 0x3bab5b9abd5bcb64U,
  0xbdbd2841bc268b86U, 0x3d95644cbcbc9466U, 0xbd432d04bdb063f4U, 0xbe1c50d2bdc04a03U,
  0x3da208cd3daa322dU, 0x3de9b71ebc7077c4U, 0x3cf3de2d3dd79824U, 0x3d58fdb7bdeb0d1bU,
  0xbda57a7f3bc6c999U, 0xbd1cacb1bd36ea07U, 0xbdf7b4183df6c9d9U, 0xbc60c2bbbddb56dfU,
  0xbdc540a23b3e27b6U, 0xbcfc4b123d146202U, 0xbd1d09fe3d74f140U, 0xbbe136a63d98996cU,
  0xbcd4276e3da8263aU, 0x3d9ddc2bbd917a96U, 0x3d4f11573de482eaU, 0xbced908cbcfbe450U,
  0x3c97a8b33dd09006U, 0x3db8a0af3b419d65U, 0x3dcdda8d3d3cfc92U, 0x3dcc67d3bdc0a4e1U,
  0xbc0def953dace663U, 0xbd2bbc3abdd042bfU, 0x3cbc06fd3db2a9adU, 0xbd50f6d3baf6ac93U,
  0xbda4e7d73d892055U, 0xbcd0c243bd364e44U, 0xbcdf9314bd01b882U, 0xbc910725bd78f4f8U,
  0x3dde2ed73b0af61eU, 0xbd90336c3dd65fe4U, 0xbcdc0bde3aaf6964U, 0xbddb5ea73d888659U,
  0xbdd3d57c3d2639ecU, 0x3c6025cf3dccd10aU, 0x3d47355bbd5d5c78U, 0x3db49344bd21a1f1U,
  0xbd1453343d472f83U, 0xbb3684813d510c25U, 0x3d5285353d92353bU, 0xbd925bd7bd744f73U,
  0xbd964da4bd8f3790U, 0xbd5226ac3db72f06U, 0xbd357e403c758fcbU, 0xbdb40fb3bd93f866U,
  0xbd1ce6abbd3c4fe7U, 0x3db5d2193dc2a7f4U, 0x3dfe88e33dad8658U, 0x3ddc7216bda9870bU,
  0x3c97d792bdb9c4d7U, 0xbd1c7f2fbc420617U, 0x3ddaace7bc936992U, 0x3d91b7a6bd72a431U,
  0xbcc56d3f3dd10bbcU, 0xbdcadfa3bd8aad74U, 0xbd87b03a3c6f76fdU, 0x3d82001d3de45303U,
  0xbbd2d9bdbd59f99bU, 0x3bcf0f713c90586aU, 0x3df2f4b83d0827d8U, 0x3dc5388c3df2bf56U,
  0xbd0dffd7bccafb29U, 0x3bd6b6b2bd038424U, 0xbde05511bd6f76abU, 0xbdbf4706bc37632dU,
  0xbd960acdbd9fcc27U, 0x3dd3865b3cadc231U, 0x3dae4be3bde6054eU, 0xbbf456df3c49f9deU,
  0xbd86ea8fbd916fcbU, 0x3d450730bde4b23cU, 0x3d5643afbd19d312U, 0xbdc32607bbc86a10U,
  0xbde36412bda9822dU, 0x3be1af803daae959U, 0xbdd4d7523b83e476U, 0xbc3c1f50bd9e587cU,
  0x3c5140cbbd96c7a4U, 0xbd9a03b13ca158cdU, 0x3dd6d4eebd6496ffU, 0xbcf8035a3d6a1ce3U,
  0x3d9d9e863d475135U, 0x3df102483c95e570U, 0xbd1d25553d9b42ffU, 0xbcaa3abc3d45cd32U,
  0xbd6e36ba3d9ccdfaU, 0xbdc32b97bc962a98U, 0x3dc4e82c3cf44f35U, 0x3dcd16243de6b689U,
  0xbdca3e25bcf3a4a5U, 0x3d049e043dd8caf1U, 0xbd8f9915bdb8d523U, 0xbd7be1003c96084cU,
  0x3c92bd113d7e8655U, 0xbdc5503a3d13acfeU, 0x3a8a5da4bd539fc8U, 0x3d3f23bfbd638646U,
  0xbd457eecbcabbfcbU, 0x3db5ee9a3bf5fb17U, 0x3dcd10a8bd780824U, 0x3d8b3c5c3d8af5e1U,
  0x3ca1ce5cbaa3a6eaU, 0x3de0b0cd3d9573d7U, 0x3d1a9488bda1f51dU, 0x38054b783b6c4485U,
  0xbdb5c4ddbd60966cU, 0x3b9a1c7a3c04f979U, 0x3da7b60dbdf4972dU, 0xbdd0aef33c94b906U,
  0x3b89d82ebda0f34dU, 0x3bd408b03b8d4977U, 0xbd4f6415bde037e5U, 0x3d48bfeabbdf5873U,
  0xbcbd217c3dc03b47U, 0xbd8337fe3d0e87b3U, 0x3d96a57abc1e919bU, 0x3d2d48c8bc832c28U,
  0x3d6d668abbbcd638U, 0xbd39ce7b3b4d9e42U, 0xbda39f953d2faf63U, 0xbd5109183dd39bbaU,
  0xbde15f3bbca596d1U, 0xbd42d7a83d95b656U, 0x3d02ff11bbadd19dU, 0xbb15bff53d4b0147U,
  0x3ca7629a3d3167d5U, 0x3d864f303cd516d1U, 0x3dca74a93dd10bb9U, 0xbd8aeaea3de2fcb1U,
  0xbe0bdfe8bd8bf0f5U, 0x3dd44e083daef772U, 0x3d417d28bd87abc1U, 0x3baf19b93d6f682dU,
  0xbc6fcf273d8bcd5bU, 0x3d2ff9b4bbcb737eU, 0x3d9d0c29bd0c80d7U, 0xba793b9cbc8d4cdaU,
  0xbdc7168fbd4bd5bfU, 0xbc00c1bc3d10b131U, 0xbdd6e1d0bd9b8ebcU, 0xbd86c7edbdab1fecU,
  0xbd3bc22cbcea4600U, 0x3d67ea513dce1666U, 0x3d44a09bbc08bf90U, 0xbd7eb8dc3d3666c4U,
  0xbd8257543d1b4d35U, 0xbdefd616bdbeb632U, 0x3de5b2a1bd36b224U, 0x3db815d7bdcdd8d1U,
  0xba90b4c13d176873U, 0xbcb244ad3d3856f1U, 0x3de494b53d2fdf48U, 0x3d6cdfd9bd53c516U,
  0x3c15bf313c0161c8U, 0xbd8a0778bd1dc250U, 0x3da6b788bd28641cU, 0xbceb9e9f3dbf9ea1U,
  0xbde94cff3df38bdbU, 0x3d1a695cbddbe673U, 0x3de556e8bda43335U, 0xbd00b4f5bdd8322dU,
  0x3de3f4fcbdb395b8U, 0xbcb21529bbd6677dU, 0xbc06ce60bd847c60U, 0xbde3fe1e3d88a1e6U,
  0x3c6e4d783964ac10U, 0xbd89a023bdbd24b7U, 0xbd6568cfbd5109c3U, 0xbc485d21bd84c193U,
  0x3c50464ebc928d19U, 0x3dab39dfbdc1613fU, 0x3c87d223bc0cd4e0U, 0x3da16fb9bdbe56beU,
  0xbdd86de4bd9bc88cU, 0x3d925adc3dc9e9ddU, 0xbc0947c43df3c051U, 0x3dc285f8bdbf7f7fU,
